#version: 0.2
Ġ t
h e
Ġ a
i n
e r
Ġ s
Ġt he
o n
r e
Ġ w
e d
e n
Ġ c
a t
o r
a n
Ġ b
Ġ f
Ġ o
i s
i t
in g
e s
a r
Ġ h
Ġt o
Ġ p
Ġ in
n d
o u
a s
a l
Ġ m
Ġo f
Ġ d
i c
Ġa nd
l e
Ġ .
o m
i l
Ġt h
i d
i on
en t
Ġb e
Ġ l
Ġ n
Ġ T
Ġ re
Ġ he
s t
v e
Ġ S
a y
o t
o l
u t
Ġ g
Ġ on
Ġ A
a d
Ġ M
a m
a c
Ġ e
Ġ C
o w
l y
u r
i m
Ġf or
t er
i g
i r
Ġw as
e l
Ġ I
v er
e t
Ġs t
Ġth at
r o
Ġ B
Ġ is
u s
' s
Ġw h
" "
e c
â Ģ
it h
ĠT he
il l
Ġw ith
Ġ H
l d
Ġs a
Ġa t
Ġ P
r i
Ġ '
Ġ it
Ġa s
u n
c e
at ion
Ġa n
Ġsa id
he r
Ġa l
er s
Ġh is
o s
e ar
Ġ y
Ġh a
r a
c h
Ġ W
an d
Ġ D
u l
es t
ig h
t h
o p
Ġ L
a g
e m
r om
Ġ F
Ġ R
k e
t s
Ġ 2
Ġc on
Ġ 1
i f
o re
Ġ N
p p
Ġha ve
Ġf rom
Ġ r
âĢ Ļ
Ġ E
Ġh as
Ġb y
Ġa re
Ġ G
ou r
Ġs h
a in
Ġhe r
e w
Ġc om
t ed
o d
Ġ J
Ġc h
Ġ v
re s
Ġ ""
at e
0 0
ou ld
Ġd e
Ġ le
c t
Ġw e
en d
Ġ O
Ġs u
as t
Ġn ot
es s
Ġs e
al l
igh t
ac k
Ġe x
g h
u st
u p
Ġ j
it y
m ent
a b
Ġp ro
Ġ U
Ġwh o
Ġa f
ar t
Ġs p
is t
i ve
ar d
Ġh ad
s e
Ġw he
Ġ âĢ
a k
ic e
o c
Ġ -
er e
om e
Ġs he
u m
r ou
i es
ou n
re d
u d
Ġp l
i v
or t
o k
Ġa b
Ġthe y
Ġbe en
Ġaf ter
Ġ k
ou t
Ġw ere
g e
q u
Ġthe ir
ic h
Ġ K
o st
Ġg o
Ġw or
el l
Ġ or
Ġb ut
Ġw ill
id e
an t
r y
Ġof f
Ġth is
Ġo ut
Ġc l
i al
i e
Ġy ear
a p
b er
on g
ow n
in e
i a
d ay
ĠâĢ ĺ
on e
Ġ up
e p
f f
c c
Ġd o
Ġa g
ou s
re n
Ġa d
an s
ay s
or d
Ġ un
im e
ĠS t
Ġ2 0
Ġwh ich
u nd
Ġn e
m er
Ġ (
Ġin t
ar y
Ġc an
ĠH e
ec t
u b
ĠC h
t her
ic t
at ed
ol d
am e
Ġon e
ac e
ag e
Ġ us
w o
ĠI n
Ġwhe n
a il
al ly
Ġal l
Ġab out
Ġp e
Ġre s
Ġre p
Ġm an
s o
u e
Ġw ould
Ġm ore
a ke
u re
Ġin c
en ce
ion s
i le
op le
Ġo ver
Ġm e
Ġh im
i p
' t
on d
. '
ol l
ou nd
Ġcom p
il d
Ġy ou
i an
a v
ver y
id ent
Ġcon t
Ġ20 1
Ġal so
Ġd is
Ġa r
p er
o g
os e
as s
Ġpe ople
o ok
it e
r u
in d
Ġ im
Ġs o
i re
ig n
k s
Ġp r
, ""
Ġbe c
res s
Ġs c
re e
m an
ĠT h
Ġp ol
n e
Ġt wo
i b
Ġa cc
a us
is h
ot her
i ke
ĠI t
oun t
Ġe v
Ġth an
ic k
o y
he d
Ġat t
Ġa pp
Ġre c
Ġp er
Ġ V
Ġn ew
a re
ĠM r
Ġf ir
Ġ- -
Ġint o
f t
ou gh
Ġ en
r it
Ġt e
T he
Ġthe m
v ed
Ġj ust
ac t
Ġ 3
u c
Ġt ime
re at
is s
Ġk n
if e
or s
ation s
Ġp art
Ġc ould
Ġo ther
am p
ad e
Ġto ld
Ġwor k
, "
Ġ Y
Ġit s
ar k
Ġyear s
Ġl ast
Ġthe re
an g
p l
o b
an ce
n ing
i ed
Ġfir st
ac h
. ""
a w
o od
i z
Ġt r
at h
t ing
o ve
il y
Ġb l
as e
Ġf am
ab le
ĠB ut
l and
Ġ ro
en s
Ġ1 9
an c
f ore
rou nd
Ġs ome
aus e
Ġf l
Ġl ike
Ġm y
Ġb ack
Ġ qu
o ol
e k
or m
Ġag ain
ic al
p t
Ġp re
Ġin v
Ġan y
g ed
Ġwh at
Ġg et
at er
Ġbe ing
on s
Ġn o
Ġsh ow
n ed
Ġm on
Ġpl ay
Ġn ow
w e
Ġd own
at es
Ġ. "
i ous
ĠA l
Ġc ar
Ġbe fore
Ġc r
it ion
00 0
in k
Ġin ter
ul t
Ġs ec
ĠU n
Ġoff ic
, '
und er
Ġd ec
Ġt ra
or y
ur ing
Ġa ct
Ġs ay
ve l
Ġh ome
l ic
ĠN ew
en c
Ġd es
ing s
l ud
Ġ 4
Ġch ild
Ġs ays
Ġs er
ĠS he
o in
ter s
Ġa m
o ver
t on
ĠA n
a u
Ġf ound
y ear
Ġad d
rou gh
as h
Ġb r
Ġd id
Ġ if
it ed
Ġ under
Ġpol ice
w n
Ġ Â
Ġc all
Ġwhe re
in ce
ent s
Ġbec ause
Ġp h
Ġinc lud
Ġf e
al s
u red
Ġre m
v ing
at her
Ġon ly
Ġ2 00
i ver
a ir
Ġth ree
ak ing
Ġcom m
i er
ill ion
Ġmon th
Ġw om
oc k
Ġc ent
ation al
ĠÂ £
Ġfam ily
s s
Ġ ra
Ġbe l
Ġhe l
Ġc ount
Ġm ade
ĠL e
f er
o ot
N N
Ġh ow
Ġl ook
Ġch ar
Ġim p
s on
Ġ 5
Ġs ur
d er
Ġbe t
ri end
Ġg r
Ġwh ile
Ġwe ek
Ġex p
at ing
Ġagain st
a im
os s
ri b
l ed
ĠA nd
p h
Ġo ur
Ġd uring
t e
ĠM ar
Ġhel p
is e
Ġk ill
ch ool
our t
ub lic
Ġ." ,"
el f
t y
Ġm ost
Ġthe n
ou se
Ġle ad
. .
Ġa c
Ġe ar
ĠF r
f ul
it ies
Ġa w
Ġin s
he s
Ġcl aim
res ident
em ber
Ġm in
Ġrep or
ĠS c
Ġde f
it al
Ġth rough
he n
Ġd ay
. âĢĻ
W e
u ch
o v
i x
. "
ĠA f
g er
h n
Ġcon s
Ġsu pp
ir l
au gh
Ġf in
ĠS p
at ch
Ġl ife
or n
Ġle ft
v en
as ed
Ġwor ld
le ct
l es
ord ing
Ġev en
u g
or k
u es
ur n
Ġe very
Ġre l
I t
Ġt ri
a red
ow ing
Ġa round
Ġm ake
Ġ ke
rou p
op e
Ġ 6
t le
Ġ very
ĠE n
Ġne ed
m ed
Ġe m
n ment
al k
Ġf our
Ġre t
ĠA r
a h
Ġst ar
r ic
g et
Ġbel ie
ot h
f orm
Ġre g
Ġte am
mer ic
ĠB rit
ĠW h
Ġas s
Ġb u
ec ted
x t
Ġt ake
Ġ end
g an
ul l
Ġo wn
Ġkn ow
u res
Ġse e
Ġhe ad
Ġd on
Ġsh ould
od y
s h
i el
ĠB r
Ġchild ren
Ġman y
Ġm il
i ew
ers on
em ent
Ġw ar
er ed
Ġst ud
is ts
u al
Ġgo ver
Ġpl an
a ve
Ġin d
iv es
Ġ $
Ġde ath
Ġs chool
Ġl ong
Ġm ay
b le
ou th
Ġs ince
Ġw ay
am a
us s
Ġs et
ut h
Ġth ink
Ġs m
c ed
os p
w ard
Ġw ell
Ġst ill
Ġg roup
Ġgo ing
a ren
ĠA meric
Ġg u
Ġatt ack
Ġinv est
im es
Ġw in
ne y
Ġres p
Ġh igh
Ġf riend
Ġth ose
Ġn ear
al e
al th
h ing
as on
r on
is ter
Ġl aw
Ġc o
Ġoffic ial
Ġh and
l ing
Ġf oll
Ġm ed
E D
Ġha pp
is ed
S T
Ġt er
Ġth ough
a z
en e
Ġcon f
an k
ĠThe y
g g
ĠS h
an y
ĠR e
Ġt ak
Ġv ide
n er
Ġp ict
ĠW e
Ġc ap
c k
am es
ib le
Ġcount ry
it s
ment s
ĠJ o
we en
Ġy our
Ġm ar
Ġinclud ing
an ge
ĠâĢ ĵ
v es
ter n
Ġo p
ĠE ST
l l
Ġ1 0
Ġdis c
Ġb o
Ġm other
g r
ĠP ol
ĠUn ited
t ain
Ġfor mer
m s
ro ss
Ġsu ch
Ġgover nment
in a
Ġm uch
ow er
Ġr ight
Ġbet ween
c er
Ġp ut
Ġp ass
le y
Ġus ed
ĠEn g
Ġ 7
re t
i o
ĠO b
Ġc ol
an ts
ad y
Ġle g
Ġs ent
ol og
Ġn ight
ur y
Ġr un
ul ar
Ġd if
ut e
Ġp ublic
r al
Ġw ant
Ġto ok
or th
Ġs ign
Ġc he
en ed
Ġs l
Ġpr ot
n ess
Ġsec ond
Ġacc ording
Ġ ent
ot t
in s
Ġvide o
Ġ201 3
b r
is ion
oun g
Ġwom en
Ġinvest ig
ĠC l
st er
Ġn um
Ġm em
ĠI s
Ġc ourt
Ġne xt
le ar
b ers
re st
et s
Ġcon d
uth or
Ġl ater
e ver
ec ut
Ġas k
ot e
Ġex t
Ġw r
ĠA s
is on
Ġcall ed
Ġs y
a pp
ĠC NN
Ġp erson
ĠM on
Ġal le
Ġl oc
h am
osp ital
ur s
Ġst r
b s
s elf
l ine
Ġg irl
a x
in es
Ġd ri
ond on
one y
ic s
Ġst at
igh ts
Ġv ict
Ġd ays
ĠCh r
at ive
s ide
ĠM c
ag es
Ġph ot
m it
ĠA t
Ġv is
Ġc are
Ġf ive
Ġ Q
Ġadd ed
Ġp ost
Ġne ver
Ġ Z
Ġgo od
ĠL ondon
er al
Ġcont r
ĠOb ama
Ġbe h
Ġa ir
B y
h ip
Ġmonth s
Ġf il
re m
us ed
ĠP r
Ġs ame
iver s
Ġse en
Ġin j
Ġrepor ted
Ġan other
Ġrep ort
ic es
e x
p le
m in
Ġcom e
Ġcont in
Ġex per
u ally
Ġb us
Ġb ig
i am
Ġaw ay
iv ing
ĠC om
Ġm en
on y
our s
Ġe ff
Ġthe se
Ġm illion
Ġre le
ver s
ĠS y
Ġ 8
Ġtak en
Ġm iss
Ġc ame
Ġ201 2
at ur
Ġf ind
Ġc ase
ĠC ar
p r
Ġto day
os ed
il ity
i red
om et
Ġt ry
Ġp oin
Ġb oth
Ġc re
Ġy oung
ĠD e
Ġde p
id ay
Ġdo es
Ġ. ,"
v ice
i ent
Ġst ate
al f
Ġan n
Ġc amp
T h
I S
d uc
Ġs ix
Ġ 9
c on
ĠB l
ĠF or
Ġc ur
ire ct
ĠTh is
Ġg ot
a j
n es
ag ue
Ġpl ace
and s
Ġb re
Ġpro v
Ġsp e
enc y
Ġmil it
b y
Ġsp ec
if ic
Ġw ent
Ġtr ans
g es
Ġse x
Ġkill ed
iel d
am er
Ġ1 2
ĠW or
iv ed
y s
ĠO n
ĠPol ice
Ġto p
us p
ĠY ork
he l
Ġd ied
ok es
Ġsu b
Ġre st
Ġw ife
Ġpre v
augh ter
ru g
Ġd et
c es
Ġd r
Ġrem ain
Ġf ather
ĠD av
el s
' re
Ġsupp ort
i k
Ġis s
ri ed
u ct
Ġl it
Ġar rest
Ġex pl
o ber
Ġg reat
c hed
Ġus e
Ġre al
o ved
Ġf oot
ĠEng land
Ġre ce
Ġnew s
Ġre ally
Ġrec ent
i et
ur ity
Ġf ac
t en
e le
Ġto o
ĠJo hn
Ġf ar
ear ch
t o
Ġp ay
Ġre f
Ġh ouse
Ġse ver
Ġs usp
ĠS outh
Ġaf f
Ġp resident
Ġt est
Ġb est
und ay
ir d
ren t
Ġwom an
Ġa uthor
Ġs k
Ġman ag
b all
Ġhe alth
ĠWor ld
an e
or ts
ĠB ar
Ġg l
Ġs on
a ff
Ġm ur
ĠE ur
c om
Ġs w
Ġp ar
i ol
A T
ĠS unday
ĠA ust
ri v
t il
Ġke ep
Ġs omet
Ġc ou
Ġd em
Ġin f
ĠR ep
art ment
Ġp oss
id ence
is m
Ġinter n
Ġnum ber
Ġm od
Ġd irect
Ġm et
Ġb ody
Ġf ew
in ess
Ġm oney
Ġin st
Ġdid n
' .
Ġbu ild
Ġo pp
Ġs im
is hed
res ent
Ġrec ord
C NN
Ġsp okes
id ed
Ġl ar
Ġ1 1
Ġg en
th ing
Ġj ob
Ġse ason
an n
u ed
v iew
Ġb oy
Ġ1 8
ur ned
end ed
Ġsh ot
en n
ĠP resident
Ġst op
Ġd el
Ġh ospital
Ġcomm un
Ġs it
er ing
Ġg ame
Ġsu ff
Ġwith out
end ing
ĠChr ist
en se
Ġh it
Ġapp ear
Ġdes c
Ġh um
ĠM ay
ĠB e
Ġ1 5
Ġst art
pp ed
Ġdif fer
Ġre ve
ĠH ar
Ġt imes
Ġs oc
Ġtra in
ĠM iss
Ġag o
ist r
ent ion
ĠBrit ish
w ays
Ġthough t
uc k
ĠM in
Ġp ast
Ġde ad
ĠR uss
Ġf ace
Ġp at
ate ly
Ġ ve
ĠO ne
Ġp aren
Ġha ving
Ġcomp any
Ġsay ing
in al
Ġun til
ĠC ity
iv en
Ġd rug
ĠN orth
ĠW est
Ġo ld
Ġs ide
an ted
Ġmur der
Ġhe re
ivers ity
at s
Ġp op
ĠH ow
ut es
Ġinv ol
Ġfoll owing
Ġc ity
ial ly
Ġpro ble
Ġw on
Ġcl ub
b e
at t
Ġpol it
Ġe ach
Ġd aughter
Ġl ot
st em
ĠH er
Ġp rom
iz ed
Ġop en
Ġmem bers
Ġb ro
ow ed
e ks
Ġofficial s
Ġvict im
Ġm ove
over ed
Ġle t
r or
a un
is ing
Ġv iol
Ġfe el
' m
ĠS ec
Ġsa f
e al
ĠMon day
ĠU K
a ign
on es
ie f
Ġqu est
i or
Ġp os
ut ion
ĠI nd
Ġask ed
Ġalle ged
g y
ĠC ol
ail ed
Ġkn own
Ġst and
Ġstat ement
vel op
r oll
f or
i ence
p ort
ĠC o
a id
ard s
l ier
Ġmilit ary
P D
Ġac ross
am ed
y ing
ĠC on
c o
Ġtra vel
H e
a ul
ĠH is
og ra
a f
) ,
r ight
ĠEur ope
Ġ3 0
Ġcomp le
Ġf ight
ĠW ill
Ġc lear
ĠA m
atur day
ĠFr iday
Ġo per
Ġe lect
ĠW ed
re et
es p
ĠDav id
Ġst ru
Ġc ost
Ġme et
at ic
Ġwe eks
pl oy
c l
ri es
Ġbelie ve
ĠJ an
Ġ 0
ĠThe re
ĠAust ral
Ġh ours
if ied
Ġm id
Ġt ell
Ġa v
Ġsy stem
ĠS aturday
ues day
Ġc aus
Ġreve al
ĠT uesday
ĠF l
re ady
ow s
ĠS e
Ġlit tle
Ġf ire
o or
Ġare a
nes day
p ed
ĠWed nesday
Ġar t
ĠP ro
us e
ec ts
ra in
Ġf act
aj or
ron t
Ġm ark
Ġh ard
ĠG er
ĠTh at
Ġal ong
Ġbec ome
p e
Ġ est
ĠA d
ĠAf ric
Ġwork ing
Ġg iven
Ġcon v
Ġbeh ind
ĠA b
ĠAmeric an
un e
Ġcamp aign
ect ion
c ess
it ing
Ġad v
Ġapp ro
l in
Ġo b
gr am
Ġpr ison
' ve
Ġdesc rib
Ġp ower
Ġst ri
Ġh alf
Ġ1 6
Ġor der
Ġc oun
er v
Ġsomet hing
Ġcl ose
re w
Ġin form
Ġth reat
ion al
Ġre qu
r an
Ġal ready
Ġcur rent
ĠG e
Ġfriend s
c ent
he ad
Ġloc al
Ġinc re
Ġde al
ĠP h
Ġde velop
Ġinc ident
i ans
ĠSy ri
Ġl ost
Ġout side
Ġl ove
at ors
ore d
Ġt aking
re en
Ġhis t
Ġev ent
at ter
Ġ ed
ĠP e
o ke
Ġal ways
o on
Ġdo g
Ġparen ts
Ġcou ple
est s
Ġpict ured
Ġpro f
es ter
Ġann oun
, âĢĻ
Ġab le
Ġbus iness
Ġwhe ther
AT ED
ĠU PD
ĠUPD ATED
Ġstar ted
Ġa p
b and
Ġj oin
ar ing
ĠC up
Ġs n
Ġw alk
Ġ1 3
Ġcon cer
Ġc ele
ing ton
ep t
ĠAf ter
e b
B L
Ġear ly
l ess
Ġs ing
m ost
5 0
Ġw ater
Ġm aking
Ġ |
ĠW hen
u ary
Ġm ight
Ġsec urity
Ġsever al
Ġc rit
ĠM s
ĠSt ates
ious ly
ĠLe ague
Ġp ress
IS H
U BL
ak es
urs day
Ġm or
ISH ED
Ġc er
UBL ISHED
ĠTh ursday
Ġg un
ud ge
Ġcons id
Ġt reat
a el
en g
Ġr is
con om
ĠD ec
Ġpro gram
Ġm ess
Ġsa w
Ġm ust
ĠD ep
ĠH ouse
ĠP UBLISHED
Ġe ver
Ġle ast
Ġus ing
ĠM ich
Ġsu m
Th is
Ġm ajor
ĠJ u
Ġl ess
Ġspokes man
he re
as es
Ġm om
Ġh old
Ġ19 9
Ġse em
Ġclaim s
Ġsm all
m ing
Ġdes ign
Ġclaim ed
cc ess
ĠAl l
ar s
ĠC r
Ġc ut
Ġf ore
en al
ĠC ourt
a i
m y
Ġf ood
ain ed
Ġsu gg
ec hn
Ġdiffer ent
ĠC ent
Ġbet ter
her s
Ġ1 4
he ster
Ġshow s
Ġh ot
Ġb ook
Ġd ra
Ġrele ased
Ġl aun
Ġg ive
Ġhe art
j ect
Ġt alk
Ġam ong
Ġmin utes
w ay
al es
Ġ1 7
b ook
Ġf ur
Ġev idence
Ġr ul
ĠJan uary
Ġv iew
Ġpart y
Ġm ain
e v
f ic
Ġtry ing
i um
ĠE d
ĠG u
le t
Ġw anted
Ġpart ic
B C
ac y
em p
Ġch ange
Ġde b
Ġth ings
ĠM ail
Ġe y
us h
e e
iz e
ĠUn iversity
g o
m illion
m iss
Ġhe ard
Ġro om
Ġd ist
Ġear lier
ĠSc roll
Ġmed ia
re ed
Ġhim self
ur ch
ce pt
ĠT r
Ġsh ort
Ġe mer
us band
Ġre d
Ġt re
Ġvis it
ec h
Ġ201 1
ress ed
Ġf ull
Ġf ront
Ġe conom
Ġs old
Ġbe gan
ĠMr s
Ġor gan
ic ally
Ġwr ote
f ord
ĠBrit ain
Ġarrest ed
Ġad mit
olog y
Ġe l
ĠT w
l er
o f
Ġauthor ities
Ġl ive
Ġfin al
Ġoffic ers
Ġbec ame
g est
Ġt ar
Ġch ang
Ġto get
Ġtoget her
Ġw atch
Ġst ay
Ġsu ccess
Ġinform ation
Ġc ust
at or
c il
al if
anc es
ester day
Ġf ree
er ry
il le
ĠO ff
Ġcele br
or r
ĠDec ember
Ġcomm it
Ġreveal ed
Ġar ri
ĠWill iam
t he
u ge
Ġp ain
Ġdec ision
Ġhe ld
Ġpro s
all en
ĠA ug
Ġle vel
ĠMar ch
Ġst aff
Ġh usband
ail y
Ġlook ing
Ġret urn
g in
l ish
ĠN ational
ĠGe or
ĠO ct
b ed
it ter
er n
Ġth ird
Ġgo al
op s
Ġo cc
Ġs ite
Ġl and
es c
Ġsh oot
Ġplay ers
or ies
Ġlike ly
Ġg round
Ġon ce
Ġt echn
ro p
Ġcomp et
Ġother s
Ġimp ort
ĠS ept
Ġcl ass
ĠW ar
ap e
al y
ĠGer man
ĠAug ust
e ared
re am
her n
Ġse ven
ĠOct ober
Ġpoin t
ro om
Ġcontr ol
Ġmor ning
Ġc our
Ġw a
ĠD r
Ġbl ack
enc es
Ġd ue
Ġfe at
Ġen ough
Ġfor m
Ġ2 5
Ġexp ected
Ġt ax
Ġpro per
Ġinvestig ation
r ing
ĠF ace
el t
Ġwh y
Ġfoot ball
e f
av ing
anc hester
m ber
ĠP ar
Ġlar ge
ist an
a ut
as ter
Ġw rit
ĠS er
ĠSept ember
d en
st it
Ġhum an
Ġsoc ial
Ġb an
ĠHow ever
ĠG r
Ġpro duc
ĠN ove
Ġl ives
e y
Ġ ident
Ġd en
Ġacc used
ĠFace book
Ġb ar
ĠSt ate
Ġf ell
Ġre ad
ac ed
ab ly
Ġinter view
Ġtri ed
Ġintern ational
c hes
Ġ2 1
Ġw ear
Ġal most
oc r
Ġh om
ut ure
d s
ĠS m
Ġd am
Ġe as
Ġlead ers
Ġb all
ĠI f
Ġf un
ĠMich ael
Ġser vice
ĠNove mber
Ġto wn
Ġn ame
ĠD em
ĠO r
Ġb ur
ĠM an
Ġdes p
Ġget ting
m p
o x
ail s
Ġtar get
ĠR om
Ġbre ak
Ġcom es
ig r
th ough
Ġsp ent
ĠM anchester
Ġchar ges
Ġrel ations
Ġex ecut
ward s
ĠIn tern
le ft
Ġfur ther
w ork
se a
ĠY ou
Ġh ope
Ġpol ic
an a
Ġe qu
Ġins ide
y le
Ġk id
pr il
Ġb ab
ĠJ une
ĠCh ina
um p
Ġhapp ened
id ge
om b
ĠJ ust
Ġdo ing
t i
Ġd one
ĠC ount
Ġtri al
iv il
ogra ph
Ġp le
Ġro ad
Ġl ate
ĠA pril
our n
d le
Ġgr and
Ġsugg est
Ġan im
Ġconf ir
it ions
ic o
ĠS w
Ġen g
Ġph one
Ġf und
oc i
Ġoff ice
Ġle ave
ĠA cc
âĢĻ .
Ġact ion
st r
Ġchar ged
ĠM art
Ġ ide
igh b
The re
Ġf uture
Ġp riv
Ġn ational
Ġstud ents
Ġon line
et y
Ġy esterday
Ġg ave
Ġl ine
Ġdo ct
Ġcount ries
Ġh op
e ad
ĠJ ames
Ġspec ial
Ġof ten
Ġbl ood
Ġcommun ity
Ġdescrib ed
Ġe ight
ra q
ra z
Ġinvol ved
al d
it ness
st and
ĠK ore
ot s
ĠA ss
Ġter ror
ĠN o
il ar
Ġstr ong
ĠU S
ret ary
Ġrece ived
n s
Ġw ind
le x
un g
ĠDep artment
ĠE x
m on
ap er
ect ive
Ġquest ion
ĠS o
Ġpolit ical
Ġd ou
Ġcol le
ĠE l
ĠCh ar
m e
Ġh ost
Ġm atch
Ġp ub
Ġbr other
Ġdesp ite
Ġs qu
p ar
ir th
Ġact iv
l am
Ġ2 4
Ġbr ing
ĠI raq
Ġbelie ved
Ġ201 0
Ġplay ed
Ġposs ible
Ġa ge
Ġy et
Ġc amer
Ġl ed
id es
Ġoffic er
ĠRep ublic
Ġbuild ing
Ġl o
Ġimport ant
Ġt w
Ġfil m
it ive
Ġris k
Ġth ing
Ġem ploy
in c
Ġwe bs
Ġlead er
ough t
v ices
g u
Ġf ig
ĠA ir
Ġr ights
Ġ5 0
Ġpro cess
Ġf ans
Ġp ot
f riend
Ġresp ons
Ġm us
qu e
a ur
i ents
ren ch
3 0
ĠJu ly
ut ed
Ġsc ene
Ġadmit ted
ang er
ĠR oy
ap s
ock ed
Ġte en
u ff
ic ted
Ġn et
ĠM e
ĠMin ister
g ency
en ing
at a
ĠG o
oc u
Ġsome one
Ġim m
rem e
Ġdirect or
Ġn ation
ec k
g ing
Ġcom ment
Ġh ar
s el
Ġc over
Ġleg al
Ġch ief
The y
Ġfam il
Ġhist ory
Ġd i
Ġany thing
in ation
Ġ2 2
ort un
Ġsu re
Ġdoes n
ash ington
ord er
ĠE m
Ġcomp l
Ġ201 4
Ġinter est
Ġshow ed
ĠR o
Ġpro d
ĠTw itter
Ġwith in
ĠU k
Ġl ight
Ġcap t
' ,
Ġs ol
ĠWh ite
o ff
Ġth r
Ġf all
ĠF eb
Ġl iving
ĠL ab
Ġsu per
amp ions
at tle
i ber
Ġb irth
ĠG l
ad es
ac hed
ĠP ark
ir c
Ġmil es
Ġh ig
ĠT V
ag n
Ġ ill
Ġne ighb
ĠAn g
Ġapp eared
ĠSyri a
h ic
i pp
Ġnear ly
as k
Ġl ist
n ot
2 0
id ing
Ġfor ward
ĠE ar
ict ured
Ġplay ing
Ġk ind
fic ult
Ġm ass
Ġl ow
Ġs our
ous ands
ru ary
rough t
Ġmanag er
Ġb ed
Ġf r
ĠC amer
Ġqu ick
Ġsum mer
Ġst ory
ĠP aul
Ġcaus ed
Ġp resent
ens ive
Ġ1 00
Ġcar ry
ĠNew s
c ted
Ġa head
Ġc ivil
ĠFeb ruary
Ġt urn
Ġs earch
ĠM ex
ĠC an
os ing
Ġ4 0
Ġannoun ced
ul ts
ĠAmeric a
Ġv ot
Ġl im
ĠP al
Ġle ar
Ġpl ans
n a
Ġsp ot
alif orn
Ġm ot
Ġp ick
Ġst ep
ound s
Ġpros ecut
t ime
or ney
Ġb ill
Ġro le
Ġinclud e
Ġrelations hip
ĠCount y
Ġins p
Ġbab y
Ġb ad
ĠD an
Ġdif ficult
Ġwr ong
Ġtrain ing
ĠF rench
Ġex c
Ġb ene
ru ct
Ġc or
Ġh or
ĠSt e
Ġf av
ad ed
Ġser ies
o le
Ġt urned
Ġcond ition
al ity
Ġpro p
Ġme an
Ġcomple te
ĠS am
un t
ess ion
p ool
y l
Ġwas n
Ġh uge
ĠC aliforn
Ġs en
Ġp res
Ġcontin ue
Ġve hic
Ġfor ced
enc ed
Ġgu il
ĠAcc ording
or ing
Ġso on
Ġmom ent
ĠS en
ul ation
Ġch allen
Ġp air
Ġg ra
Ġrepor ts
augh t
Ġproble m
ĠM o
ĠP l
Ġcom ing
Ġwe ap
Ġsim ilar
Ġ ur
Ġbe at
iet y
ĠAustral ia
g ress
Ġ ri
ĠC hel
Ġgirl s
Ġl at
ĠH am
Ġcont rib
lect ion
med i
ĠD aily
Ġsur v
Ġd ocu
we et
I f
u el
Ġf ear
Ġor ig
Ġt y
Ġcour se
Y ou
j oy
Ġ."," (
ĠS ome
it ch
Ġwork ed
fer ence
ent ial
ĠR ich
Ġsaf ety
Ġto ur
Ġen c
Ġvictim s
Ġto t
ĠJ ack
Ġwebs ite
ĠI ran
at ure
is ted
Ġrep l
ĠW ashington
Ġnot hing
Ġj udge
um b
Ġwh ose
Ġde ter
Ġbo ard
ĠCaliforn ia
Ġm akes
Ġviol ence
Ġkill ing
ĠFr ance
Ġ er
Ġfl ight
Ġdec ided
a ult
ur ies
c ast
ed eral
Ġwh ite
ĠN e
Ġpost ed
S he
u ation
ĠâĢ Ķ
Ġ19 8
min istr
Ġcr ime
' d
Ġc oll
ĠM il
Ġalleged ly
f ield
Ġ2 3
Ġsh op
Ġstud y
i ers
in t
Ġsp ace
W h
ĠM or
Ġres ult
Ġproble ms
I n
Ġguil ty
ĠAfric a
Ġimp ro
Ġiss ue
Ġrecent ly
Ġh ol
ĠMc C
at ives
Ġ200 9
Ġp aid
Ġin it
Ġv al
Ġremain s
sel ves
Ġb rought
id a
l o
ĠEurope an
Ġ esc
ell ing
Ġlat est
Ġ i
Ġgen er
Ġsuff ered
miss ion
Ġt ro
Ġ. ..
ĠE ast
s w
Ġen joy
uct ion
Ġm ember
Ġstri k
Ġcust om
i j
ĠM ark
Ġstru gg
Ġpict ure
Ġim medi
ourn al
av y
Ġt it
ar r
Ġl if
end er
ib ility
Ġd est
et t
Ġser ious
Ġcer tain
Ġg ames
Ġfor ces
iver pool
Ġr ad
ĠRuss ia
l ished
ĠW ith
Ġc ases
ĠWh ile
ly ing
er y
Ġme ans
p ictured
Ġmiss ing
ag ed
re ad
ar a
ac es
ĠR ober
it her
Ġsex ual
Ġdisc overed
Ġmark et
wo od
Ġdis app
Ġhand s
ĠSm ith
Ġc le
Ġexp ect
Ġpop ular
y n
ĠM P
' ll
l im
Ġweek end
Ġmeet ing
Ġb it
ĠM us
ĠCamer on
i ec
Ġacc ount
Ġrep resent
as hed
Ġacc ident
ĠIs lam
Ġfamil ies
Ġte ac
Ġplay er
Ġrun ning
ĠA lex
s p
Ġcare er
ra el
ĠM ed
Ġte le
Ġstud ent
ĠM ad
Ġpartic ular
Ġm oved
iv id
Ġf ailed
ack ed
Ġkn ew
Ġtreat ment
ĠChel sea
ĠB en
ĠTh om
* *
m as
s c
Ġt al
re g
ĠM id
ra ft
u k
ut y
ĠH ol
Ġch ance
w h
Ġa ut
und red
Ġlook ed
Ġn ine
Ġcurrent ly
) .
m a
is c
ĠK ing
ĠGeor ge
ĠP rem
ĠL ast
ĠS ch
Ġresp ond
ĠL iverpool
ke y
Ġacc ess
ĠWh at
e ase
Ġp ri
Ġth ousands
Ġb ased
Ġch o
Ġres ident
Ġplan e
Ġc reat
Ġfor ce
Ġme as
pt ion
Ġbene f
b ol
il t
ap an
Ġsaf e
1 0
Ġpro b
ip s
ĠP at
ĠH igh
Ġv ol
Ġcan cer
Ġmed ical
Ġhot el
te e
er t
Ġc al
Ġare as
in ed
ĠIs rael
ĠAng el
p s
ĠFl or
ĠIntern ational
k n
Ġcr im
ĠRoy al
ĠDem ocr
r ay
Ġm ov
et h
.. ..
Ġneed ed
Ġpoin ts
Ġf em
Ġc ross
ĠS up
n ers
ent ly
ag er
Ġany one
Ġcr ash
Ġ2 6
Ġarri ved
Ġcrit ic
Ġw ants
Ġf oc
Ġd iv
ain s
Ġevery thing
Ġ200 8
Ġmess age
in o
ly mp
Ġtr ad
ĠPh il
im ate
Ġgroup s
Ġc ause
ĠQ ue
b o
Ġf elt
Ġro ck
ak er
Ġcon n
Ġcom ments
Ġ19 7
Ġpre p
on a
Ġn amed
ĠJ apan
Ġatt emp
Ġper cent
ĠPrem ier
as ing
Ġim age
B ut
is es
Ġe le
ail able
Ġind ust
l ike
ĠW il
Ġhelp ed
ful ly
ver age
Ġim ages
Ġperson al
ĠChrist mas
Ġide a
i ant
Ġattack s
ĠBl ack
ĠO lymp
Ġper form
ition al
Ġf ail
ĠB o
i od
ill s
Ġed uc
u ce
ĠR ob
Ġexper ience
Ġh on
Ġre b
Ġlaw y
Ġde ep
p ing
Ġc irc
ĠC or
Ġst ore
Ġ2 7
ĠSec retary
ĠLab our
es e
Ġl ab
Ġlaw s
ĠFlor ida
u it
ĠMart in
Ġv ir
aren t
Ġd ro
st on
ĠN ow
Ġle aving
.' "
Ġc and
ĠM al
Ġp un
Ġr ather
Ġcomp ut
Ġthem selves
ĠSc ott
E O
o id
Ġw itness
ĠC oun
Ġneed s
Ġsing le
Ġconfir med
Ġimm igr
Ġst e
ĠC ong
Ġhapp y
ĠAf gh
over nment
Ġshoot ing
Ġr ace
Ġde v
Ġunder stand
.. .
Ġproper ty
y an
Ġag ency
Ġphot o
ĠT ra
Ġmod el
ir st
ĠL ib
ĠR es
Ġne g
Ġinj uries
Ġall owed
Ġser vices
Ġmar ried
Ġsen ior
d ing
h ood
Ġb illion
h ire
iv al
Ġres earch
y a
ĠA pp
Ġv ill
Ġwor th
Ġact ually
Ġke y
Ġind ivid
Ġl ink
Ġst reet
up t
Ġey e
ĠT wo
ĠF er
Ġvict ory
ĠRuss ian
Ġd anger
ri age
Ġen s
Ġtr ack
Ġcamer a
Ġper iod
er gy
ĠB BC
Ġlong er
Ġinj ured
Ġav ailable
raz il
z e
ed s
Ġwork ers
ĠS an
ir on
Ġhow ever
Ġl oss
Ġf at
ent al
Ġpr act
Ġpos ition
O n
Ġs elf
ĠH ospital
m ar
Ġd ress
Ġbe gin
ou ra
and er
Ġmus ic
ĠS chool
ĠI S
og le
Ġke pt
b ody
Ġs at
Ġdisc uss
Ġprof ess
Ġhe aring
ĠS im
iz ation
k en
Ġb ank
Ġf ield
Ġr an
Ġr ound
Ġbig gest
ĠAfgh an
Ġ z
Ġp ark
Ġst ation
ĠSt reet
Ġinf l
Ġpict ures
Ġw at
Ġreg ion
Ġrele ase
Ġdra w
k y
Ġb orn
Ġre ason
Ġret urned
ĠAmeric ans
Ġprot ect
b ack
Ġm ag
Ġg one
Ġcar ried
Ġdr ink
Ġwar ned
Ġab use
ĠBr own
Ġprev ent
Ġquick ly
ĠS u
og n
Ġs un
Ġf ederal
Ġan ti
Ġcr ow
Ġlook s
Ġpat ients
ell ig
Ġm atter
ĠAr s
Ġalle g
Ġdrug s
Ġlead ing
Ġpriv ate
Ġs le
Ġr ac
ĠPr ime
Ġv ote
c hers
ber g
Ġtak es
Ġse ek
Ġfam ous
ĠB razil
Ġper for
ash ion
Ġsit uation
re y
or ter
it or
Ġre ach
Ġse par
Ġdis p
ĠWilliam s
Ġp age
ĠChr is
Ġb ul
Ġab s
Ġweap ons
S A
Ġs ister
Ġ2 8
Ġchar ac
ĠEng lish
undred s
Ġcompl ain
o o
ministr ation
ow ers
Ġan sw
Ġha ir
Ġatt orney
Ġcall s
Ġcap ital
Ġdri ver
if t
eng ers
ac ted
Ġbo x
Ġphot os
Ġinj ury
Ġopp ortun
he st
all ed
Ġprov ide
ĠCoun cil
Ġbe aut
Ġgo als
Ġpolic y
Ġevery one
Ġphot ograph
ep end
pl ay
Ġa verage
om in
Ġall ow
Ġtot al
Ġm ult
Ġd ata
ĠB er
Ġiss ues
Ġpress ure
Ġbro ad
Ġ2 9
ĠG en
Ġdoct ors
Ġdou b
u gh
ĠV ict
uc lear
Ġcent re
Ġcre ated
Ġgl ob
Ġexecut ive
t r
ro vers
Ġc aught
ou l
ĠGerman y
Ġ6 0
ines e
ĠPr ince
Ġdem and
Ġconv icted
om ing
Ġch air
Ġdis ease
Ġcould n
Ġass ist
ĠGo ogle
W hen
Ġv ar
ur t
Ġqu ar
ĠSc ot
sh ire
Ġbeh av
v ision
ĠD ay
Ġcan not
Ġchar ge
Ġcre w
Ġc ult
Ġb attle
1 1
c el
g ent
n y
Ġb omb
Ġo il
ĠB ro
Ġent ire
Ġb as
d e
ort hern
Ġab ove
id er
e at
on se
Ġ19 6
Ġtri p
Ġspe ak
ĠRich ard
Ġj ail
Ġinclud ed
Ġcontin ued
Ġfe et
Ġis n
Ġlaun ch
Ġst orm
ĠAfric an
Ġro b
ific ant
Ġt en
Ġm ob
Ġlaun ched
a ud
Ġp enal
Ġre fer
Ġfir m
us hed
Ġfl ood
Ġopp os
or ted
ĠB el
Ġoff er
ĠT ur
o ving
Ġa ud
on str
Ġb oss
ĠT om
Ġun c
Ġph ys
Ġsur pr
ic ide
ur al
ĠL ou
Ġwho le
act ion
Ġp oll
Ġam b
Ġt em
ĠAustral ian
ĠAss oci
Ġ esp
Ġp il
Ġn orm
ĠP er
Ġfin anc
Ġp ort
Ġmar riage
Ġext ra
Ġtechn ology
ro y
Ġal though
ĠK en
Ġsur ger
Ġher self
am b
Ġst ates
Ġpass ed
Ġperfor man
Ġst ra
Ġcon st
ĠMex ico
f ect
Ġc red
ri ff
Ġhe ar
ĠM ore
Ġmin ister
Ġbu y
Ġfight ing
Ġpub lished
h an
he t
op er
5 00
Ġn orth
ĠE v
Ġtit le
g n
ĠT e
Ġr out
Ġsur ve
Ġlet ter
Ġresp onse
Ġche ck
r id
Ġm at
Ġcon ference
ĠHe alth
Ġprev iously
Ġwear ing
om s
Ġprev ious
Ġeconom ic
Ġimmedi ately
od e
Ġsc ient
oin t
Ġbelie ves
p ro
Ġp iec
if f
ĠN ot
Ġcomp an
Ġp red
ĠL u
Ġcrim inal
ĠB y
ĠCh ampions
d own
r is
Ġn uclear
ĠS ir
ce ment
Ġcond itions
Ġdog s
Ġus ers
Ġres ults
Ġsent ence
p ly
Ġt able
Ġdo or
c her
op h
if y
Ġwe ight
ĠV al
Ġbu ilt
Ġdet ails
ĠKore a
Ġfem ale
I D
Ġc at
ĠJ e
Ġ X
Ġs al
ĠQ u
Ġden ied
Ġcand id
4 0
g al
on ald
ch ie
Ġsh are
Ġres c
Ġcre ate
Ġquest ions
M y
Ġn on
Ġr ange
Ġwor ks
Ġadd ress
ĠCong ress
Ġc ru
Ġto uch
ĠT o
ĠP art
Ġcom b
Ġdri ving
Ġt rou
ĠT ex
Ġpass engers
Ġb order
ĠCh inese
Ġsc ored
land s
end s
Ġfore ign
Ġcomm on
Ġcontrib uted
Ġt ru
ĠM ur
Ġj ournal
ab ility
Ġs outh
Ġelect ion
ĠCent er
ur b
ĠD o
em y
Ġapp eal
Ġra re
Ġass ault
Ġown er
Ġc ell
e ated
Ġ vers
Ġre n
Ġg as
ec ess
ĠF ar
Ġqu ite
ra ine
Ġem b
ĠArs enal
p m
y c
Ġalleg ations
m en
om an
Ġco ach
ĠCom m
em pt
Ġex am
ick et
Ġapp arent
Ġfl oor
il ed
Ġst age
ist ic
amp le
ĠAn other
Ġra ised
Ġconsid er
Ġhom es
ĠScot land
b ur
es tern
Ġg iving
Ġcont rovers
Ġgr ow
ec ially
Ġcar s
ĠG overnment
Ġsp ending
Ġcr is
Ġinst ead
ĠTex as
Ġc ard
Ġcons um
Ġend ed
Ġsp oke
Ġwor ds
Ġag reed
ish ing
ad a
Ġsour ce
o very
Ġsurger y
e es
ra b
ĠB ur
ĠF ore
ak istan
Ġdam age
Ġtro ops
Ġm ind
Ġre v
Ġfoll owed
Ġext reme
Ġdem onstr
h ol
Ġc ash
Ġst re
air s
c ome
or ks
Ġpart ner
ĠLe e
Ġrest aur
b ased
s y
Ġg old
ce p
Ġatt ention
Ġrec ogn
ellig ence
in ks
ĠT od
Ġwe ather
ĠSp e
Ġhapp en
esp ite
ĠMus lim
h o
Ġm is
ĠA ct
Ġe ither
av es
ĠOff ic
1 5
b re
ĠH all
Ġjoin ed
Ġesp ecially
i res
en ger
and a
ict ion
Ġpe ace
Ġa im
Ġimp act
Ġche m
Ġent er
Ġpot ential
ol ution
Ġ200 7
Ġwin ning
Ġsign ificant
Ġconsid ered
Ġb ag
Ġm ill
ad o
ĠP ort
ri ef
Ġgo es
Ġr ate
ud e
ĠCar ol
Ġdel iver
Ġprob ably
n ight
Ġb od
Ġ ver
Ġb rain
Ġf it
Ġre view
ĠP akistan
Ġev ents
ĠIS IS
Ġp oor
ic a
Ġl ived
Ġpar ts
gy pt
Ġindust ry
u le
Ġb id
ĠC amp
Ġacc om
anc y
Ġspe ech
Ġnews p
ogra p
Ġenc oura
Ġv an
Ġsu it
Ġreg ular
s et
ĠA uthor
ĠR od
ĠO ther
Ġ ille
Ġsh own
Ġstop ped
Ġs il
Ġseem s
c he
er c
Ġam ount
Ġcontr act
Ġto wards
Ġcl os
ib ly
Ġjob s
Ġpr ice
Ġincre ase
Ġkid s
ĠDan iel
Ġi P
i que
ig er
ĠUk raine
in ary
Ġw ide
v est
Ġf ra
ĠE gypt
Ġexper ts
Ġgen eral
Ġvehic le
Ġh undreds
ens ion
ĠCl in
c a
m ark
Ġpre gn
Ġocc ur
Ġanim al
in i
ol f
Ġj ud
Ġafter n
Ġtra ff
Ġrem ember
Ġco ast
Ġchallen ge
b or
Ġp et
am ent
Ġcont act
Ġresident s
Ġeff ort
Ġdi agn
Ġf ast
Ġl oved
oun ts
Ġtre ated
Ġnet work
g round
ĠM y
Ġpro ject
Ġwould n
Ġhol iday
Ġh our
Ġsur f
Ġfig ures
Ġcompan ies
Ġaftern oon
a e
v iron
ĠDe f
ĠPe ter
Ġ3 1
Ġest im
ĠOff ice
ast ic
ĠUn ion
Ġgr owing
ĠFr anc
Ġschool s
ĠInd ia
Ġatt r
Ġreported ly
istr ict
Ġcrow d
Ġa chie
ear chers
Ġshow ing
Ġcap tain
ĠJack son
or ry
Ġp ul
ĠM any
ĠK e
Ġcomput er
ri f
Ġun f
Ġsc ore
Ġrul es
ĠAfghan istan
Ġfinanc ial
Ġcris is
Ġt weet
Ġm ist
ĠB ay
ĠK im
Ġchang ed
ĠL ord
Ġ &
ing er
Ġdec l
ĠQue en
ur ning
Ġal one
ĠJ ones
Ġoff ered
Ġag ed
Ġstru ck
ĠThom as
Ġre form
Ġfin ally
Ġind ic
Ġsn ow
k i
ĠD espite
Ġint ro
Ġsur round
Ġref used
Ġemer ged
Ġfoc us
Ġh ous
Ġoper ation
Ġb ase
Ġin qu
Ġm ater
Ġd in
Ġit em
Ġwar ning
Ġiss ued
is l
ri an
Ġk ick
Ġeff orts
c raft
Ġt rib
Ġo bs
ĠS ur
ĠAnd rew
Ġs ell
Ġg ang
Ġopen ing
o es
Ġf ashion
ver t
ĠO p
T V
Ġsp ort
out hern
Ġsim ply
Ġcharac ter
Ġp an
ĠM ic
ĠC ons
se x
Ġbr and
Ġfac es
Ġchang es
ĠJust ice
wh ile
Ġtem per
ĠM ill
ist ry
Ġbro ke
ĠS al
Ġsh ock
Ġadd ing
duc ed
Ġsuggest ed
ĠAngel es
a ed
l iam
at ory
as ons
Ġe p
ĠL os
Ġsent enced
Ġsy m
Ġappear s
Ġtele vision
b l
Ġc it
ĠC he
Ġdri ve
ĠF irst
ĠO l
ound ed
Ġemer gency
f ort
il ities
ill ed
Ġcall ing
ĠSyri an
Ġpenal ty
h ib
il es
ĠC am
Ġter ms
Ġfell ow
Ġtw ice
i ation
w ell
Ġst ab
Ġhist or
liam ent
Ġw ond
ĠR ed
Ġen ergy
ĠSec urity
Ġevent ually
viron ment
l ant
ĠM ary
ĠC ap
Ġad ministration
Ġsuff ering
Ġmid dle
Ġcoun cil
ĠLou is
r am
Ġp ack
and e
ĠHar ry
H S
Ġa irl
Ġnear by
or ia
ĠC le
ĠW ales
ĠIn st
Ġsec ret
Ġhig her
Ġeduc ation
or ters
ress ion
Ġrequ est
Ġeconom y
Ġparticular ly
Ġperforman ce
Ġs ong
all s
Ġj ailed
Ġtr ust
ĠAn n
Ġey es
nd er
ĠW ood
Ġcost s
Ġav oid
a res
g en
ĠT imes
ad ium
Ġind epend
Ġm oving
Ġl ik
ad d
ĠD on
Ġrem oved
Ġimpro ve
Ġglob al
A s
Ġ ice
Ġl ack
ĠN or
Ġcustom ers
Ġw ed
Ġb ought
ĠM att
Ġatt end
Ġens ure
Ġs ize
Ġ200 6
Ġop ened
Ġtell ing
Ġsqu ad
Ġs ens
Ġatt empt
Ġdef end
Ġconcer ns
Ġident ified
Ġinfl u
1 2
Ġpre t
ĠSp ain
Ġsw im
Ġstrik er
Ġlawy er
g l
Ġper fect
Ġmin ute
Ġdis play
Ġfour th
Ġspe ed
Ġopportun ity
ĠClin ton
Ġp o
ra p
Ġse a
Ġem ot
ott en
Th at
n or
Ġp ers
Ġsa ve
ĠIt aly
Ġcent er
Ġorder ed
Ġdesign ed
ĠRepublic an
m ates
un k
Ġex ample
Ġsp read
Ġcle an
Ġquar ter
Ġbod ies
g ic
re l
ak ed
Ġact ions
Ġdeath s
Ġb ra
il s
ĠB ill
Ġis land
Ġr ise
ial s
Ġra pe
Ġsee ing
lin ed
Ġstre ets
it z
igh ters
ĠInd ian
ĠEar th
l ight
Ġaw ard
ĠRe al
ers ey
Ġdocu ment
Ġsle ep
Ġar m
Ġsh ip
Ġel se
Ġmill ions
Ġo pt
ut in
im b
el ly
Ġsp end
atur al
ĠRom ney
A nd
Ġhe ro
if ul
Ġattack ed
Ġnum bers
Ġsold iers
Ġteac her
il ing
ad ing
Ġd ream
ĠD uring
Ġrep eated
Ġexper i
Ġrespons ible
sy ch
v ent
ĠG reen
ĠJ os
Ġv o
Ġ9 0
Ġb al
Ġf re
Ġd ark
us ion
Ġdef eat
Ġprot est
Ġsp ir
Ġchar ity
Ġmanag ed
Ġh y
Ġex act
Ġ riv
Ġon to
ĠG old
Ġch amp
Ġwor st
Ġor d
Ġteam s
Ġanim als
i pped
Ġmag az
is ters
Ġar ch
Ġcent ral
ĠCr own
er o
Ġm ach
Ġac cept
Ġmiss ion
ĠJohn son
Ġlevel s
Ġorig inal
ir t
ĠJ on
Ġj ury
Ġplan ned
bol a
Ġmob ile
d ney
Ġun able
Ġappear ance
Ġhig hest
ĠRober t
ĠIslam ic
Ġd ate
Ġsc reen
Ġac cep
Ġeven ing
Ġsusp ect
Ġfav our
ĠHol ly
Ġdanger ous
v al
an i
it es
ak ers
Ġap olog
ĠMad rid
ĠN HS
Ġdo z
Ġmess ages
Ġvill age
Ġs ales
ĠM el
Ġme ant
Ġser ved
ĠAr my
Ġboy s
Ġp ur
ac hes
ĠE bola
Ġwrit ten
ĠApp le
ip le
uck y
Ġoppos ition
Ġnewsp aper
ic ks
ĠL aw
Ġcon c
Ġch urch
Ġeff ect
Ġeng ine
in son
Ġrel ig
Ġair craft
Ġpop ulation
Ġproduc ts
Ġimmigr ation
Ġits elf
Ġlar gest
Ġcer em
ar ian
ĠAt lant
Ġf ul
om en
ol ute
Ġcol lect
z a
Ġre ached
Ġhe avy
ĠA rab
ĠI re
ĠG reat
Ġint elligence
Ġsc hed
Ġsever e
ĠF A
ĠSt ud
ĠSy dney
On line
Ġstra ight
Ġ und
Ġs ense
ar i
ĠD is
h old
Ġf air
ĠM er
Ġbec oming
Ġcit iz
g ers
Ġf le
ag o
ĠO f
ĠFor mer
Ġintern et
ĠIre land
c ial
ry ing
Ġpos itive
h aps
Ġp aper
Ġsu icide
um ped
Ġsign ed
Ġw el
Ġin n
ĠG od
Ġ200 5
co hol
Ġcompet ition
Ġlink ed
g ree
ild ren
Ġinclud es
ĠSen ate
? '
Ġb ott
Ġl osing
ĠK n
Ġag re
Ġget s
Ġra in
Ġhelp ing
Ġspec ific
Ġhop es
Ġpul led
p or
ce ed
ĠW al
ĠJ udge
Ġdec ades
ĠRep orter
an ia
am s
Ġcl osed
Ġcons erv
Ġwalk ing
Ġwa it
Ġw ild
Ġre ady
Ġst yle
ill a
ĠN et
Ġsh ared
ĠIn ter
Ġ4 5
Ġest ab
ĠTod ay
Ġf ine
ou d
ĠD un
ag ing
Ġ3 2
Ġbl ock
Ġdef ense
Ġbro ken
S t
stit ute
Ġtal ks
b it
ra w
igh ter
ct ion
Ġass oci
Ġgirl friend
ear s
Ġincre asing
stit ution
Ġthrough out
Ġsk in
Ġap artment
Ġf an
ĠS and
Ġar g
Ġask ing
Ġold er
Ġcoun ter
ĠChar l
as c
ĠS n
Ġg ay
Ġan g
ĠG ood
Ġter m
ĠCom mission
Ġpri or
c an
t ies
ĠS ar
ĠB al
us ive
ĠJ ul
ell ed
Ġop in
Ġwa iting
ĠSup er
w oman
ĠR os
Ġsp l
Ġsp orts
ect or
amp ton
Ġgr ad
Ġrepor ters
Ġphot ograp
Ġrecord s
Ġmov ie
ĠW at
Ġle ague
ber t
Ġinc red
Ġmod ern
Ġconcer ned
Ġf ired
ĠA ri
Ġpl aced
Ġen for
Ġleg isl
j ects
en a
Ġb ud
Ġbe g
Ġr oll
Ġ3 5
Ġfl ag
Ġra ise
Ġbenef its
l or
Ġplan ning
Ġfig ure
Ġm ount
Ġl ower
Ġn ecess
ĠS ince
ĠThe se
ĠG ar
Ġsusp ended
Ġa id
it t
Ġcomp ared
i ate
r ang
is ions
Ġmajor ity
Ġrul ed
Ġpartic ip
Ġs end
Ġl ose
ĠL a
Ġtr ue
Ġty p
ic ed
ain ing
Ġcol lection
Ġtalk ing
Ġcapt ured
ĠSt ep
Ġcontin ues
ĠPe ople
2 00
w ide
em ents
ain e
Ġcent ury
ang u
ĠAr gent
ĠSer vice
ĠMe an
Wh at
j ected
r im
ĠM et
âĢ Ŀ
ĠD et
ĠMail Online
Ġfeat ures
f l
ar m
th ony
Ġ7 0
Ġexpl os
Ġstart ing
ĠPar is
Ġcomplete ly
b ury
u pp
ĠV ir
Ġmot or
Ġdocu ments
Ġdev ast
on ed
Ġd ig
Ġsh ut
ard en
Ġ3 6
Ġair port
ĠS oc
Ġe at
ub e
Ġcommun ic
Ġstand ing
Ġs em
Ġl ay
ĠFr ank
Ġins ur
Ġreg ime
ĠBar ack
Ġdeter min
ĠOlymp ic
Ġdro pped
Ġitem s
h ouse
o z
Ġcarry ing
ĠMid dle
N A
Ġb and
Ġown ers
Ġincre ased
C h
h a
al a
ĠN ick
Ġex ist
Ġj ump
Ġrece ive
Ġfeel ing
use um
Ġhold ing
Ġsuccess ful
ĠKore an
Ġmass ive
Ġille gal
Ġf reed
ĠS un
ri e
and al
ĠCh urch
olog ical
ĠAt t
Ġchair man
h ab
res h
ĠAl though
Ġins isted
mon th
ID EO
ĠFranc is
1 9
um an
ĠV IDEO
Ġteen ager
ĠMean while
u x
Ġw ays
ĠW atch
ĠO ld
ĠâĢ ľ
ell a
Ġput ting
Ġve ter
ĠChar les
Ġneighb or
k ins
er ve
Ġs ale
ĠA sh
un ch
rou d
Ġmin or
Ġstar s
Ġprov ided
Ġfoot age
Ġmain tain
go ing
e in
m ond
u f
w in
ar ily
ce an
Ġfl at
Ġdeb ate
Ġcommit ted
ĠPart y
Ġchamp ion
m et
Ġd om
ĠH ill
Ġat h
se qu
Ġpl aces
ĠSh ar
ann el
Ġvers ion
" ,"
Ġb rief
Ġp sych
pp ing
âĢĻ ,
ĠU nder
ĠIt al
Ġsign s
Ġvis ited
Ġfil ed
Ġtrans fer
Ġwh om
ĠJ im
ĠAn thony
Ġeff ective
Ġdep artment
Ġindivid ual
he red
ĠE U
Ġar gu
Ġbl ue
Ġsupp orters
Ġnorm al
Ġpro gress
Ġresp ect
Ġinvestig ators
Ġdoct or
Ġdou ble
Ġcolle ge
ruct ion
Ġf est
ter m
Ġal cohol
ul ed
ang ers
iel der
Ġfac ing
Ġpresident ial
ĠGeor g
Ġprofess ional
Ġc orn
ad or
ir ing
Ġaff ected
Ġclear ly
Ġseem ed
ĠAssoci ation
2 5
br idge
Ġwatch ing
Ġp ull
as ts
ĠM ac
ĠM ag
ĠIn vest
Ġpr ices
Ġdec ade
ĠPro f
Ġocc as
. ,
b an
y m
Ġ ult
is er
ĠH el
ĠH ug
Ġatt ended
Ġjust ice
Ġaw are
Ġsoc iety
Ġinit ially
Ġto ugh
Ġn atural
Ġg iant
ĠR ec
Ġen vironment
Ġreg ard
Ġknow s
Ġeas y
F A
Ġc overed
Ġd rop
el a
Ġv ac
ĠO h
Ġcommit tee
Ġorig in
ĠGen eral
Ġwed ding
Ġs ick
Ġsm art
ĠSpe aking
Ġmagaz ine
c y
Ġinvestig ating
1 00
on t
ĠP ac
ĠD en
Ġar med
Ġsit ting
Ġdevelop ment
Ġcust ody
cast le
f ielder
v ille
Ġb reat
Ġf ix
es ters
Ġre asons
ĠS il
ĠD ar
ĠK ate
mit tee
Ġscient ists
p son
ĠP ress
ust r
ĠV e
Ġ3 3
Ġmy self
Ġrespons ibility
ĠSte ve
ĠMor gan
Ġchem ical
y ond
ĠS ant
im ately
Ġwor d
Ġbel ow
Ġ8 0
Ġapparent ly
4 5
m ate
at ures
ĠJ ersey
ian ce
Ġdoub t
c ks
m ail
u ing
ĠO ver
iss ion
Ġact or
ĠCol le
Ġstri ke
Ġansw er
Ġestim ated
e ed
ic an
ĠE ven
Ġsp ark
ud d
Ġsl ow
Ġalong side
Ġtraff ic
F or
b orn
Ġc op
al ys
Ġm ale
ent ed
ĠB oth
Ġam az
i est
p an
ĠI r
em b
Ġr ow
Ġtest s
Ġart ic
Ġsing er
h ad
l ife
Ġs outhern
an ks
Ġpr im
Ġspot ted
ĠM os
Ġthink ing
Ġfoll ow
ĠJo e
Ġwind ow
Ġrestaur ant
Ġwond er
Ġcerem ony
c hen
ed er
Ġh urt
om m
ĠT al
ig an
ĠI m
ĠThe ir
ĠK ar
Ġcond uct
Ġcaus ing
Ġbirth day
r ol
Ġp ounds
Ġhe lic
ap ed
Ġun iversity
ĠNew castle
Ġprogram me
Ġprod uct
Ġhelic op
in n
Ġto urn
ou ts
Ġe ating
Ġshe l
Ġk it
Ġun s
Ġus ually
Ġclaim ing
sh ip
Ġprom ot
Ġlear n
o e
Ġg reen
us ing
est ic
Ġexp ressed
app ed
Ġbehav i
Ġc old
Ġst un
oun ger
Ġsomet imes
Ġappro ach
Ġban ned
Ġbud get
Ġw id
Ġd ie
Ġon es
ad s
ra ge
ĠW all
Ġpr ay
Ġrad io
Ġpil ot
E W
Ġn ames
im um
ĠP ost
Ġar ms
ĠY ear
Ġloc ation
Ġprop os
Ġbeaut iful
r ick
ar ies
ĠB re
Ġan t
ĠR yan
Ġ200 4
Ġdef in
Ġstr ate
ar ks
ot a
Ġmed ic
Ġexper t
Ġdest roy
Ġpret ty
Ġc atch
ĠP re
Ġdevelop ed
ĠC orn
ĠThe n
ath an
Ġwin ner
ĠCom mittee
Ġexpl ained
Ġabs olute
aed a
ĠVir gin
ĠItal ian
in ho
Ġpick ed
Ġpract ice
1 8
? ""
a it
n el
ĠG roup
Ġso ft
enc ing
Ġemploy ees
Ġesc ape
Ġb ath
ĠT er
Ġr ates
ĠK at
ph one
oth ing
Ġgl ass
Ġmid fielder
ĠPal ace
as hes
Ġbe ach
Ġn eck
um e
Ġres ign
ĠIs land
Ġann ual
Ġill ness
Ġfav or
1 4
ĠH oll
Ġde vice
1 6
k a
Ġp ool
ke ep
ess ed
ost on
Ġcl in
are t
Ġthreat ened
i qu
ĠF am
ĠR ad
ĠR og
Ġwalk ed
Ġvisit ors
Ġcertain ly
bo ard
ĠVict oria
a ith
Ġs an
Ġal ive
ĠR iver
Ġch ampions
ren g
Ġremain ed
Ġvir us
Ġmult iple
it ude
ĠB ig
ul ated
ip l
ĠV an
ged y
Ġhar m
kn own
ĠHolly wood
Ġ ign
Ġs ad
ĠT ony
ĠC ast
ĠD ie
ĠG re
res p
enc ies
Ġhigh ly
Ġrun s
ĠZ eal
Ġviol ent
Ġattemp ted
c ing
r ow
el ess
ĠB ir
ĠD el
ĠD own
Ġcl ot
Ġdis miss
Ġro y
Ġpat ient
Ġfra ud
Ġ ic
Ġy ounger
our ney
Ġsc en
ang ing
Ġcomm ission
Ġrequ ired
Ġshort ly
ĠBro ok
Ġc ast
Ġc ab
Ġf lying
Ġo w
ill ing
if th
Ġsusp ected
ann y
Ġple aded
Ġcho ice
Ġcult ure
he w
on n
Ġh un
Ġvehic les
Ġbegin ning
ĠInvest ig
Ġp ath
Ġp urch
ĠD i
Ġcom fort
ĠSt ar
Ġdel ay
Ġpower ful
ĠAuthor ities
Ġdiagn osed
ĠZeal and
i us
ĠM ass
ac ts
ĠC ost
ell ow
Ġad m
Ġfind ing
Ġleaders hip
Ġresc ue
Ġextreme ly
Ġpregn ant
Ġful ly
re ct
ĠT im
Ġg ives
ĠB oston
ĠH en
Ġsusp ic
Ġhealth y
Ġdiv or
Ġcirc um
Ġf al
Ġl angu
ĠL ew
Ġab ility
ĠCh ief
Ġapp l
ĠWe b
Ġpolit ic
orr ow
Ġactiv ity
ĠRepublic ans
Ġpiec e
Ġcontrovers ial
k in
or ial
ĠP utin
ĠD u
ip ment
Ġim ag
Ġest ate
.... ....
' :
k es
Ġw est
Ġf ly
Ġm ix
ĠK h
Ġres earchers
ĠBr ad
Ġsit es
ĠChrist ian
ig g
ĠB ow
Ġan aly
ĠW in
ous ly
Ġpart ies
Ġ200 3
ĠSp an
Ġspokes woman
emp or
Ġtarget ed
u als
ĠL iber
Ġex ch
Ġthan k
Ġ3 4
Ġ3 7
Ġfac ed
Ġart ist
ĠGr and
1 3
w are
ic it
ĠB eck
Ġrec omm
ĠMc D
Ġdr am
1 7
c ious
l aw
Ġf uel
is ation
Ġcon vers
Ġrec overy
Ġqu ality
Ġdec lined
Ġconf ident
Ġsepar ate
ĠColle ge
z z
ĠC ur
Ġst ands
ĠB oy
ĠN orthern
Ġbl og
oin ted
Ġunder st
Ġprot ests
ĠCo ast
Ġequ ipment
ĠMP s
Ġbe yond
ri ate
ok en
Ġkn ife
Ġact ress
Ġhop ing
Ġachie ve
ĠCons erv
in er
Ġm ental
ĠL uc
Ġex erc
ant ly
Ġad vert
Ġunder w
g us
Ġp up
Ġhe av
ĠG ames
ov ic
Ġconcer n
ĠWil son
ĠScott ish
Ġagre ement
ĠOh io
ly n
ĠH ot
Ġmiss ed
Ġtrad itional
Ġvar ious
ĠGeorg ia
Ġbehavi our
Ġc ool
ĠB ank
ĠJ ess
led ge
Ġoper ations
Ġview s
ĠMo ham
ĠFore ign
I A
ĠM ost
ĠB ush
ĠF ox
Ġup on
ĠFor ce
Ġsub ject
Ġdeb t
Ġlear ned
Ġwat ched
Ġoccur red
Ġtourn ament
ĠT ory
Ġv ia
Ġad op
Ġorgan ization
Ġprep ared
Ġsurve y
! '
Ġf resh
ld er
ĠP ri
Ġpro ced
ĠK ent
Ġwork er
Ġass aul
Ġob v
Ġterror ist
Ġfear s
C A
ent ially
un te
Ġr id
ĠCh ic
anc ing
Ġbel ong
Ġcomple x
ĠCent ral
Ġseek ing
Ġcitiz ens
in y
Ġs ending
ay lor
ĠM ike
ĠI I
ĠY oung
.âĢĻ "
Ġcoun ts
Ġvot ers
g a
Ġto m
Ġsp ect
Ġrec overed
Ġadd ition
bre ak
Ġvo ice
E R
ĠP enn
ĠJ er
Ġper haps
Ġgu ard
Ġsecond s
Ġsour ces
ĠJe ff
Ġdom estic
m ine
ĠM a
ĠO s
Ġsc andal
Ġapp lic
Ġact ive
Ġhand ed
Ġconf l
b our
Ġd oll
ut ch
ĠF in
Ġj ourney
Ġfl u
Ġtweet ed
A n
and ed
oc ks
ict ions
ru it
Ġam id
Ġthreat s
Ġd aily
om a
Ġse at
Ġgu y
Ġbuild ings
Ġlaws uit
ĠFer gus
Ġphys ical
Ġroy al
Ġp roud
as ted
al ition
le ment
Ġe th
ul a
ul ate
ag ues
Ġr ule
ack ing
ok ed
ord an
Ġfin ished
Ġreal ity
Ġfar m
Ġrequ ire
ĠTr ans
ĠProf ess
ĠSpan ish
it ation
Ġm ort
ĠT re
ol t
ĠE ll
ew here
Ġsc r
rib le
ĠIntern et
upt ion
cel ona
ĠMic hel
l ook
Ġs elling
ĠM orr
Ġfor t
Ġst reng
Ġup set
Ġrec over
ens ions
Ġcr imes
Ġfe ed
augh ters
ĠCar l
ĠDe v
Ġamaz ing
Ġconfl ict
a ire
Ġare n
Ġwe alth
Ġag ent
Ġmeas ures
Ġbenef it
e ing
Ġc ities
om atic
ĠH aw
ap t
Ġun like
Ġser ve
Ġmove ment
ĠGu ard
ĠRo ad
Ġprosecut ors
Ġbott om
A t
Ġt ack
ĠW ell
ĠK elly
Ġbo at
Ġpass enger
Ġent ered
Ġelect ions
Ġap art
eng th
r un
Ġw ood
Ġm ans
ĠW estern
Ġun it
Ġpre m
ĠAr t
Ġprot esters
Ġboy friend
Ġrul ing
Ġfun eral
Ġstep s
Ġmean ing
Ġdram atic
v ention
Ġb i
il ly
ol s
ĠW alk
Ġcom ed
Ġser iously
Ġra p
ĠCl ub
b ell
p et
st ances
ut ions
Ġtr ade
Ġwar m
ĠPr ot
Ġneg ot
Ġcandid ate
Ġup d
Ġtra gedy
app ing
Ġval ue
Ġmeas ure
Ġaud ience
Ġgrow th
Ġrepeated ly
Ġpur p
Ġsched uled
b on
p ir
er ved
ĠC ath
us hing
Ġnot e
Ġear th
Ġspe aking
Ġinsp ired
ĠTur key
ĠEv ans
Ġmater ial
Ġb ail
Ġr ing
Ġacc ounts
Ġfl ights
Ġ4 2
ĠSp orts
Ġrel ative
Ġplan et
Ġcrit ical
Ġtre nd
Ġlo an
ĠCan ada
ĠCarol ina
Ġexact ly
ĠChic ago
s ecut
Ġb ird
ol en
Ġe ast
ĠN A
Ġsec retary
ĠQ aeda
Ġprod uction
ĠDemocr atic
Ġfail ure
A meric
ĠM and
Ġyou th
ĠTh ree
ov es
Ġcut s
Ġenfor cement
uf act
d o
r ig
r ist
z ona
ĠA c
ĠM our
ri er
Ġan c
Ġcom mer
Ġpart ners
Ġdef ence
Ġleg s
Ġaff air
Ġrecord ed
Ġvol unte
ĠFergus on
d om
Ġl ic
Ġte xt
uc he
Ġconf idence
Ġmet h
Ġstand ards
Ġkid n
Ġclot hes
am in
ri al
Ġconn ection
ĠLib ya
ĠDie go
it als
ĠB ob
ĠL ong
ag h
ĠE ver
Ġpr ime
anc ed
ĠBar celona
ĠAir port
w est
Ġs we
Ġb att
Ġf ighters
el le
ok ing
Ġad vice
Ġdiffer ence
Ġtru ck
d den
w here
Ġd aughters
ĠF ord
ĠR am
Ġsim ple
ĠHar ris
v is
ĠN ations
Ġun us
Ġsc oring
Ġcamer as
ĠiP h
Ġmach ine
Ġb atter
it an
Ġser ving
ande z
Ġdetermin ed
f it
Ġc art
ĠS l
ĠF rom
ct ions
Ġsu dden
Ġrel atives
Ġpay ing
ĠCon n
ĠPro secut
g ar
Ġl og
ian a
Ġdes per
Ġ.," (
Ġdead ly
ĠCo le
Ġf ifth
ĠC ru
igh ted
our ces
ĠJ enn
ĠO ut
Ġsec ure
Ġrem ove
ĠAb d
Ġlim it
Ġty pe
ĠDemocr ats
ĠSup reme
Ġcred it
Ġinqu ir
uche ss
u ana
Ġto ward
Ġst uff
ĠH ome
ri fic
ĠD am
Ġpl ant
Ġsc he
Ġ4 8
Ġteac hers
Ġsurf ace
A ll
Ġb le
ou red
ol es
ĠP et
Ġde vices
Ġpro ve
ak s
ĠK ev
Ġadd itional
Ġelect ric
Ġbed room
ij uana
B I
O ur
Ġn orthern
ĠM em
ac ing
ri p
ĠW el
ĠL au
se y
Ġwor se
ick ing
pt oms
Ġem ail
ĠSar ah
Ġfal se
3 7
P e
Ġ ir
ĠC EO
Ġst ret
ĠK ong
Ġthan ks
iz ing
Ġob tain
Ġdecl ared
ĠStep hen
u ated
Ġs ound
Ġf ish
im ent
ĠF our
Ġim pl
ĠAnd y
Ġsupp osed
Ġrespond ed
Ġdin ner
A l
h att
p re
Ġf aith
Ġh al
Ġp urs
Ġst ood
Ġst ories
ec ause
Ġj et
."" "
ific ation
Ġaff ord
Ġdeb ut
Ġcelebr ate
ĠAri zona
Ġs ides
ĠT y
ĠA gency
ag an
Ġwor ried
Ġwill ing
Ġrelig ious
i ar
in als
Ġp itch
ent y
Ġn ations
ot ed
ĠA v
Ġha ven
oc al
Ġback ground
Ġimp ress
Ġdef ender
Ġdet ect
ploy ment
Ġmom ents
ĠEar lier
kn ow
Ġspl it
Ġs ort
Ġb ow
Ġd ipl
ĠT aylor
et te
Ġst ress
ĠJ am
Ġwhe el
ite ly
Ġrel ated
app y
Ġstat us
Ġprom p
Ġproduc ed
ĠIsrael i
ĠJapan ese
Ġtrou ble
ĠOp en
Ġspir it
Ġlangu age
E very
m other
n o
w orks
Ġc orr
ĠS om
Ġg arden
Ġprot ection
Ġmem ory
Ġmanag ement
Ġkeep ing
6 0
Ġw all
Ġd iet
Ġl ands
st ein
ul f
Ġr ising
ĠG ra
Ġar my
enn is
ĠMill er
2 2
b illion
ad er
ur d
em an
Ġhas n
ect ions
Ġgover nor
Ġconfir m
Ġshop ping
Ġdrink ing
Ġmat ches
ĠHug hes
3 5
m akers
Ġb ull
ic ated
ol ic
ĠL it
Ġbo ost
Ġur ged
Ġfat al
Ġartic le
d d
id el
Ġoff ers
Ġad ult
Ġman ufact
ĠCam bridge
Ġfre qu
Ġnecess ary
b el
Ġw ounded
Ġc y
Ġm ention
ĠD istrict
ony m
ĠMex ican
Ġintro duced
Ġtemper atures
Ġang ry
Ġath let
Ġhelicop ter
Ġabsolute ly
ĠMour inho
D A
Ġc ook
Ġp ra
us es
ĠJ ordan
Ġag ree
ĠSt r
Ġus es
Ġfin ish
Ġdirect ly
Ġindivid uals
ĠMur ray
g ra
re ll
Ġh osp
Ġwe ak
ĠTh ose
Ġmon it
Ġbr ight
Ġac know
Ġwin ter
Ġche st
Ġgreat er
ĠBe fore
Ġroom s
Ġfeat ure
Ġquestion ed
Ġstrugg ling
Ġbeaut y
8 0
u a
re ck
le ts
ol a
ad en
ĠM ir
os es
ĠF oot
ore s
ĠN iger
Ġred uce
Ġcritic ism
i os
in cess
Ġto w
al ed
ĠT or
ĠS ky
ay ne
Ġg at
Ġwith d
ĠD uchess
Ġsh ocked
qu are
Ġall owing
The se
Ġcr ashed
ming ham
Ġdam aged
Ġep is
p ay
er m
Ġn ice
am ing
Ġdis aster
ĠAl i
Ġinvol ve
Ġtell s
Ġstab bed
Ġfreed om
Ġcorn er
ĠProfess or
O R
Ġg ather
ĠU N
lud ed
Ġhead s
ĠRe g
Ġsugg ests
Ġreb els
Ġt on
Ġb om
il ton
ĠA g
Ġdec ide
az i
Ġassist ant
N o
Ġre ven
ĠS us
ĠS aud
ĠE r
Ġex hib
ĠSt adium
act ive
Ġrece iving
ĠBe ach
Ġcomple ted
Ġcolle agues
c ow
k o
Ã ©
Ġw ore
is a
Ġbe ar
Ġl ines
Ġl ux
ĠH od
ĠH ere
Ġoff ering
Ġad ults
ĠCh annel
ile y
Ġ201 5
Ġass ess
Ġtrans port
Ġindepend ent
ĠBir mingham
I V
f ather
m osp
v a
Ġd uty
Ġn urs
ter y
ĠF oll
Ġwe igh
all ing
Ġpl ot
Ġint ended
Ġ3 00
Ġ5 00
ĠMed ical
Ġcomplain t
Ġbroad cast
Ġairl ine
ĠKev in
hatt an
i at
t own
er ous
Ġn arr
ĠT en
ĠC ard
ĠC oll
ill ance
ĠH amp
Ġsa ved
ĠE very
ĠU s
Ġsc ience
ph y
ĠRe ad
Ġvide os
Ġcaus es
ĠMan hattan
Ġattemp ts
Ġrout e
Ġhistor ic
Ġinsur ance
P R
g as
i ated
Ġm um
ut ation
ow ell
ĠB est
ĠH ong
Ġan ger
Ġnot ed
Ġ3 8
hen s
Ġcond em
Ġbring ing
Ġpres ence
Ġemot ional
ĠAtlant a
L e
Ġl ength
Ġn ature
qu ar
own ed
ĠCh ildren
Ġdep art
Ġpresent ed
Ġsurv ived
ĠAlex ander
Ġinflu ence
otten ham
ĠFam ily
m ore
ĠB us
ist or
Ġab and
ĠIn c
Ġbr ut
Ġsub st
ĠMin istry
Ġinvol ving
Ġpolit ics
Ġstru ct
Ġdevelop ing
bur g
e en
Ġm outh
ĠT est
ĠF I
ĠF eder
ĠO x
Ġres ul
ib and
ach ing
ĠMar c
Ġaff ect
Ġsystem s
Ġprod uce
Ġsym ptoms
Ġfavour ite
r ant
Ġ ess
Ġw ake
id s
ain t
ick ets
Ġtr uth
Ġret urning
Ġbig ger
Ġsk y
ĠTr ust
Ġbeat en
ĠMil iband
Ġphotograph s
Ġinn oc
Ġic on
S o
T ube
ul ations
Ġr ub
Ġex cept
Ġk ne
Ġus er
Ġsur ge
ov a
Ġset ting
ron ic
Ġcreat ing
ĠSim on
Ġcircum stances
d ict
Ġd ating
Ġst olen
ĠD NA
ĠL at
em en
ĠF ound
Ġqu alif
Ġco ff
Ġclub s
I P
h i
Ġre action
Ġ2 000
ant age
Ġun ve
Ġso le
Ġ200 1
Ġ200 2
Ġmay or
ĠCr ime
Ġfeat ured
str ong
Ġfall ing
Ġenter tain
Ġgat hered
O N
f oot
m od
Ġa st
Ġs ear
im mer
ĠI v
ĠIn stitute
Ġeff ects
Ġfac ility
Ġwrit ing
Ġeas tern
ĠYou Tube
Ġpolic ies
ĠDef ense
ĠArgent ina
Ġc yc
Ġd ressed
ap ers
ĠMar ia
Ġreg ister
Ġmod els
Ġrob ber
ĠiPh one
O P
b oy
Ġf ro
Ġp ush
Ġe lder
ĠF BI
ack s
Ġex cl
ĠSt one
ĠCh ap
Ġopp on
af i
Ġprofess or
Ġwide ly
ĠLew is
i en
o om
Ġd ed
ĠB or
ĠD ou
are z
Ġfl ed
ĠMc G
com ing
Ġdesign er
Ġland ed
f ile
l a
l ig
Ġl ying
ĠC al
ul ner
Ġsu st
Ġcont est
Ġdec isions
Ġact ing
Ġexp ensive
Ġlim ited
ĠRes earch
Ġt icket
Ġt empor
an ch
Ġb urn
ĠF ire
Ġover se
ass y
Ġ19 5
ĠShe riff
Ġrem ind
Ġret ired
Ġinst it
Ġsuff er
Ġpun ish
Ġsurround ing
ĠVirgin ia
Ġunus ual
b ing
ĠS a
Ġe ur
el and
ĠB u
ra h
ag ram
ib an
Ġbl amed
Ġph ones
ug g
Ġknow ledge
Ġparen t
ĠHer n
Ġtrib ute
Ġdestroy ed
j ust
n i
Ġc as
Ġl ucky
ĠB a
est yle
ab les
Ġcl ash
Ġpr inc
Ġhead ed
Ġmay be
ĠEx per
Ġhor se
Ġrock et
ĠCamp bell
Ġregular ly
Ġlik es
O ne
Ġs ought
ĠW ind
Ġag gress
Ġun ique
ĠY orks
Ġqu iet
Ġread ing
on er
ĠD ub
ĠE ric
ust er
Ġ201 6
Ġgu ests
Ġcommun ities
ĠSte ven
Ġsurpr ise
re c
Ġst one
ĠD es
if er
ĠJ ose
Ġcl imate
Ġag encies
Ġar rang
ĠÂ »
Ġsupp l
olog ist
Ġpar liament
ĠCent re
Ġenjoy ed
ĠRober ts
Ġlawy ers
E A
h our
i as
k ed
Ġh at
ic ient
le cted
Ġn om
Ġv ess
ate ver
iv ity
Ġcont ain
Ġhapp ening
Ġcontr oll
Ġdep uty
Ġsex ually
Ġsk ills
Ġdem ocr
Ġshot s
ĠAb u
Ġri ver
ĠOlymp ics
Ġriv al
Ġopin ion
Ġorigin ally
Ġspark ed
ĠSaud i
h alf
w all
Ġn ut
Ġat mosp
ĠP erry
Ġal tern
Ġun ion
Ġcond uc
Ġbur ied
Ġcor por
Ġpiec es
ĠHen ry
Pe ople
ĠHern andez
N EW
t ar
Ġo ption
le g
ĠT ottenham
Ġg rew
et ic
Ġst ock
ĠR onald
Ġmar ijuana
mit ted
Ġposs ibility
ĠRo oney
ĠPl ay
Ġcoll aps
Ġperform ed
Ġbehav ior
Ġestab lish
ĠMichel le
N ew
c ri
m es
Ġt ast
Ġw ish
Ġst eal
ĠH uman
Ġan alys
Ġal b
ĠR ay
ĠN avy
Ġ4 6
ĠBr idge
Ġhapp ens
Ġext rem
ĠPar liament
Ġfund ing
Ġdisapp ear
Ġunderst ood
ĠYorks hire
Ġa uction
er a
Ġd omin
ĠB urn
est in
Ġincred ible
b ro
Ġt ree
Ġs orry
Ġh am
Ġd er
ĠT erry
ĠS ix
ĠF ort
Ġr ushed
ĠG a
Ġpl ed
Ġinvestig ate
ĠOn ly
Ġeas ily
Ġgra b
Ġcommer cial
b a
or ado
Ġbe ating
ir ts
ĠB ry
ĠG ary
Ġphotograp her
ĠTal iban
Ġanaly st
d y
f ire
Ġf ake
ĠC ab
Ġsh ape
ep h
ĠSt aff
Ġinc ome
Ġdis order
ĠAl an
Ġter rit
Ġext r
Ġappro p
Ġhold s
Ġjournal ist
Ġ ut
in ing
Ġc ards
Ġb ond
Ġp en
ĠL o
ag ger
ĠJ ew
Ġ4 3
Ġ4 9
Ġprov iding
Ġadv oc
Ġinit ial
Ġkit chen
ĠCost a
Ġunlike ly
o ard
ar ch
Ġag ents
oss ible
Ġcons ult
Ġset tle
Ġexpl ain
Ġgener ation
ĠChampions hip
keep er
Ġsche me
re p
it a
Ġp orn
ĠK erry
ell i
we ight
Ġkill er
ĠAtt orney
F L
Ġt ight
Ġt iny
Ġd ad
Ġpl ays
ove l
Ġdri ven
Ġactiv ities
Ġfr ustr
Ġrepl aced
Ġdeter mine
Ġsurve illance
Ġver dict
Ġdoz ens
Ġlegisl ation
ĠHot el
2 4
p art
Ġl iber
ĠM ount
Ġv ice
Ġover all
Ġev ac
Ġvis iting
min ute
Ġfind ings
Ġannoun cement
Ġfail ing
Ġdivor ce
A f
B S
w ar
in et
Ġs ight
ter ed
Ġout break
Ġmy ster
Ġ4 7
Ġrem ark
ĠLe on
Ġbusiness es
Ġexperi enced
Ġneighbor hood
ĠFI FA
d og
l ong
r ich
Ġs ons
Ġm ax
Ġd istrict
st ate
Ġg ar
ĠL ar
ĠL anc
Ġpl astic
Ġcan n
ens es
Ġadd s
ĠSouth ampton
ĠAll en
Ġbook s
Ġ198 0
Ġincreasing ly
on i
as ters
ĠM ess
Ġfor g
ĠL as
Ġtr ig
az a
Ġloc ated
Ġed itor
Ġpain ting
Ġequ al
ĠMal ays
ĠMatt hew
m ph
as tern
ac her
ĠB ra
os is
ĠN ic
Ġr ide
ak en
Ġac qu
Ġret ail
Ġsl am
Ġfil ms
ĠDav is
ĠCol umb
Ġ0 8
Ġprison ers
Ġstay ed
Ġhous es
Ġsem i
Ġinquir y
H ow
Ġf ought
Ġl ights
ĠS af
Ġe gg
ĠC D
ĠG irl
Ġv ulner
ord on
ip e
ree k
Ġ5 5
Ġtrans p
ĠAm ong
Ġadv antage
ĠSw an
Ġstrugg le
ĠBel g
Ġrout ine
ĠInst agram
Ġhosp itals
Ġt urning
in ct
Ġb in
Ġb ot
ĠC ub
em e
ĠR ights
Ġch ances
Ġle aves
Ġacc us
Ġ4 1
Ġ4 4
Ġfe els
Ġfil med
Ġlar ger
stand ing
Ġbrother s
Ġstrugg led
Ġcomplain ts
Ġaccep ted
Ġscen es
Ġacknow led
Ġh ur
ĠB rian
ch ing
Ġch ain
ry st
Ġra il
Ġtrans form
ĠAb out
Ġdra wn
Ġwel come
ĠNA SA
Ġatmosp here
Ġconduc ted
p erson
Ġthe rap
ol k
ĠB ru
ag ers
ĠR ock
if orm
ĠE s
Ġbl ame
ĠLe eds
ĠWh y
Ġdri vers
Ġsqu are
Ġactiv ists
Ġneighb our
Ġwat ers
Ġprim ary
Ġt end
is her
Ġp ushed
Ġm agn
om es
st ers
Ġy ellow
ĠL ife
Ġsc ale
ĠAl so
Ġco alition
Ġ7 5
Ġsign ing
ĠBl air
Ġposs ession
Ġhum ans
Ġmurder ed
Ġcivil ians
Ġprop osed
sc ar
Ġcandid ates
rif ied
Ġarg ued
Ġt um
ve y
ag ement
Ġcont ent
ob s
ĠMon t
Ġgreat est
Ġorgan iz
Ġthr own
Ġswim ming
C C
p ut
Ġt ied
it arian
Ġp it
ĠM at
ĠJ en
ĠU p
Ġall ows
Ġper mission
ĠLe ices
Ġke en
Ġ6 5
ĠAd am
Ġtalk ed
Ġfund s
Ġcor rect
Ġwitness es
Ġdefin itely
Ġalb um
T o
i ot
z en
Ġm igr
Ġg ain
ul ance
Ġse ats
ab eth
Ġdis s
Ġmed al
ĠCol orado
Ġident ify
Ġterror ists
Ġpot entially
Ġweap on
Ġimmedi ate
Ġstore s
ĠInst ead
Ġtom orrow
ĠWalk er
Ġlux ury
' ","
3 00
in ated
is f
ic ip
ur se
ro at
ĠL ady
oc ol
Ġro of
Ġpre c
Ġ0 9
ĠPe ters
ĠDu ke
Ġexch ange
y e
Ġb ars
Ġf ant
id den
Ġn or
ag on
Ġr ank
Ġnot iced
ab or
ist ics
Ġk il
Ġme at
Ġ5 2
ĠChrist ie
Ġprogram s
Ġprosecut ion
Ġvir t
ĠRod gers
Ġopt ions
Ġdismiss ed
Ġow ned
p oint
ĠS ol
ĠG P
Ġde gree
ĠK ir
Ġcl othing
aw n
Ġinv ited
Ġmilit ants
Ġstand ard
Ġris ks
Ġtarget s
ĠSw ed
ĠA h
ĠA BC
ĠC ra
el ine
ec e
ĠL ake
ĠO per
Ġnot ice
Ġse ized
Ġsp ring
Ġspec ies
Ġconv iction
ĠUk rain
ij ing
Ġclos er
ĠSn ow
Ġm ir
ĠD irect
ĠO k
Ġun em
Ġun iform
Ġsc re
Ġ3 9
Ġins ist
Ġworld wide
ĠAr m
ĠCar ter
Ġchallen ges
ĠMos cow
e xt
p ect
Ġt all
ĠM od
ĠW ild
ĠW right
Ġsp oken
ue z
Ġ19 4
Ġear ned
Ġprov ince
Ġprom ised
Ġstay ing
Ġteen age
Ġcapt ure
ĠComm un
9 9
l ers
r upt
Ġs ession
ed ing
ou ri
Ġd ry
Ġre vel
ĠB et
Ġsh ar
Ġv ast
um n
ĠV er
ĠAs ia
ĠMay or
Ġappro ved
Ġ199 0
Ġsmall er
Ġcelebr ity
Ġhop ed
Ġrev olution
ĠSwan sea
w ise
en ch
is hes
ac he
ĠH art
ĠW ork
ĠW omen
Ġcon sequ
Ġrep utation
Ġhelp s
Ġleg end
Ġbus y
ĠSe a
Ġjoin t
ograph y
Ġgrand mother
Ġenc oun
Ġfoc used
ĠJon athan
Ġpolitic ians
Ġt ears
Ġf allen
ac le
ĠB id
Ġsa v
Ġgr anted
Ġexp ress
Ġins ists
Ġmar ks
Ġwr ite
ĠPr incess
ivers ary
Ġbre aking
Ġoper ating
Ġincident s
Ġban ks
ipp ing
Ġlif estyle
Ġcho ose
Ġ197 0
Ġhon est
Ġdeliver ed
Ġmist ake
ĠJos eph
Ġw ound
Ġp al
Ġp ension
Ġre act
ol i
Ġg all
ad emy
im al
pp er
Ġsp ons
Ġpl at
Ġres ort
ob ody
iz z
Ġrem ote
ĠAnd erson
elf are
Ġtravel ling
Ġfire f
Ġdist ance
Ġz one
ĠFoot ball
Ġb ound
Ġd ance
Ġl augh
st ar
ĠA irl
ĠH ull
ĠJ ournal
Ġse es
ick en
az z
Ġsusp ects
Ġauthor ity
ĠBe ijing
Ġreve als
ortun ately
Ġvot ed
ĠIran ian
Ġpup ils
ĠLau ren
Ġimpress ive
ĠJam ie
Ġl ie
Ġn ose
et ts
Ġst ro
ĠL aden
ĠF il
ust ed
Ġinc hes
Ġper man
Ġpublic ly
Ġsl ight
Ġremain ing
ĠPh ill
ĠIraq i
ĠCath olic
ryst al
e gr
Ġt un
Ġs weet
ĠC ook
ro s
ĠH ear
ĠG h
end ers
Ġar riv
Ġtra gic
Ġfe ared
Ġinvest ment
ĠMc K
ĠAb b
Ġappro val
Ġprosecut or
s ewhere
Ġt im
Ġw reck
Ġon going
Ġst adium
Ġis ol
us etts
ate g
Ġj ack
ĠY et
iz es
Ġac ts
ĠSc ient
Ġstud ies
ĠAm y
Ġdist rib
ĠRom an
Ġneg ative
de gree
ĠKen ned
Ġjournal ists
Ġtrig ger
r ison
w an
Ġb are
Ġo cean
it er
Ġth rew
ĠT op
Ġr um
ĠG OP
ach usetts
Ġmost ly
Ġevery body
Ġnum erous
ann a
Ġcour ts
arr ass
Ġtrou b
Ġriv als
Ġpropos al
Ġexerc ise
Ġstreng th
ĠHamp shire
ĠGa al
k er
Ġs om
ĠT our
Ġre jected
ĠB ern
ĠH or
ĠL ind
Ġint egr
ass ador
Ġed ge
Ġprof ile
Ġchang ing
Ġpriv acy
Ġbas is
Ġconserv ative
S P
s ec
u ate
Ġt ickets
Ġs and
Ġm aster
Ġd ying
ĠS quare
rom e
ĠE duc
ĠK han
Ġres ources
Ġcomp lic
iz abeth
ash ing
Ġann iversary
Ġrest r
Ġtrain ed
Ġemploy ee
bur gh
Ġpan el
Ġdevast ated
Ġwonder ful
ĠMand ela
ĠFound ation
Â £
Ġ #
er en
it o
ad ian
ĠB uck
ab is
Ġpro ved
ick ed
amp les
Ġbl ow
Ġear n
Ġhead ing
Ġinf ection
ĠCon t
Ġbur gl
Ġcritic ised
Ġoccas ion
Ġdoll ars
Ġnegot i
Ġmeth od
v ania
ĠC C
em ble
ĠN as
ist ol
Ġfound er
Ġbr idge
ĠAnd re
Ġref lect
Ġmet al
ĠInd ones
ĠEd ward
Ġland ing
Ġroad s
Ġele ph
Ġdro ve
itz er
ĠRog er
pir acy
ĠOx ford
I C
ing ly
Ġto uc
Ġm useum
Ġhe at
ĠA gu
ĠC at
os ure
ch ar
ĠW ard
Ġr at
Ġr ough
Ġsh irt
ans as
ob by
Ġsome body
Ġpre fer
Ġinter ests
Ġtra um
Ġra ising
Ġdet ail
Ġreal ised
Ġtest im
Ġview ers
Ġhor rific
Ġsurv ive
Ġrepl ace
ĠPhil ipp
Ġpack age
Ġdoz en
ĠVe gas
Ġepis ode
y r
Ġst ick
ro ad
ĠP ublic
ch o
ĠD er
Ġoff ensive
ie v
ĠZ immer
iam i
Ġtest ed
Ġarri ve
Ġinterest ed
ĠPal estin
Ġaward ed
ĠJos h
bour ne
ĠConn ect
Ġelder ly
g ment
Ġs ection
Ġw al
Ġn urse
ĠR a
ĠN BC
Ġj umped
ord inary
ĠSt ill
aw ay
ĠSp ec
Ġfriend ly
ĠAm az
Ġtax pay
Ġeas ier
Ġcover age
Ġsym bol
Ġheav ily
ĠJenn ifer
Ġmax imum
ĠUkrain ian
ĠKenned y
ĠZimmer man
n ic
r up
ĠS her
ut ies
ĠI d
os en
oun ced
we ek
Ġcr icket
Ġset s
Ġtrans l
Ġref uge
Ġaff il
Ġlear ning
ĠSu pp
Ġbul let
Ġflood ing
ĠPenn s
ĠLit tle
Ġc oc
or a
Ġst om
Ġst uck
Ġpro ceed
oun ted
Ġoff ences
ĠSt ev
Ġcont acted
Ġra ped
Ġrel ax
Ġco oper
Ġconsid ering
Ġdra g
yl vania
ĠIr ish
Ġstrate gy
Ġbath room
Ġsan ctions
ĠMass achusetts
Ġadm its
ĠEver ton
i had
Ġw eren
ĠS ing
ĠM other
ĠI an
ĠB ell
ĠH ay
ian o
Ġqu it
Ġqu al
ather ine
Ġsupp ly
az e
Ġdisc ip
Ġcol our
Ġinvestig ated
Ġ15 0
Ġclose ly
Ġthreat ening
Ġsold ier
Ġground s
Ġident ity
ĠOr gan
Ġhous ing
Ġmount ain
Ġfest ival
Ġvulner able
g t
z ing
Ġw ounds
Ġf illed
ĠD utch
ĠG ordon
Ġsp ell
Ġrec alled
pl es
Ġcomm and
ĠWh o
Ġpass ing
Ġmus c
ĠPat rick
Ġcal ories
Ġscore s
Ġathlet es
Ġrobber y
b ec
v in
Ġh all
th a
ĠG un
Ġsh oes
ess ions
ine z
ph ic
ĠAr ch
Ġdisc overy
ĠOn ce
ploy ed
Ġproper ly
ĠHam ilton
ĠThom pson
Ġcontrovers y
Ġsoft ware
Ġconvers ation
Ġcollaps ed
d on
Ġ @
ing ham
as er
Ġm ic
Ġl unch
ĠT own
ot ic
Ġg ym
ill iant
ĠH IV
Ġfl o
Ġimp ossible
Ġent it
Ġdet ained
Ġposs ibly
ĠSec ond
Ġlarge ly
ĠUS A
ĠEl izabeth
Ġtal ent
ĠTur k
Ġunc lear
mark et
Ġexcl usive
ĠPenns ylvania
- -
Ġt ear
Ġt ask
ar ant
Ġh its
le e
ri a
ĠL A
ĠL ike
Ġcon ce
Ġch ose
ab e
Ġpr in
other ap
Ġrem arks
Ġperson nel
Ġlet ters
ĠSec ret
Ġsurpr ised
Ġaim ed
ĠGre ece
Ġtack le
Ġanc ient
2 7
he ast
al i
Ġm ent
ad ow
ad el
ĠM iami
op her
ĠL ove
ĠJ ane
Ġcl ient
Ġint ention
Ġcan c
ĠV illa
Ġem pt
ĠPol and
Ġent h
Ġlit er
Ġtest ing
Ġtest ified
Ġhon or
Ġdeep ly
Ġlab el
rel ated
Americ an
I N
f all
w ich
w hel
Ġt act
at o
Ġhe ight
ot te
ĠM un
ac re
ĠC IA
ĠB ack
Ġan onym
ĠJ r
og ue
Ġsc ream
Ġmother s
ĠMiss ouri
ĠCol omb
Ġgoal keeper
Ġcle ared
Ġcal m
ĠSoc iety
h ar
Ġw elfare
ar re
Ġre duced
ĠM useum
im p
ir ates
ro g
ĠN ad
ĠU t
ere e
um ber
Ġab used
ell er
ia o
ĠIn t
Ġnew ly
Ġro se
Ġcons piracy
Ġattack ing
Ġter min
con t
Ġcelebr ates
Ġocc up
ask et
Ġtour ists
Ġarriv al
W ith
b rit
m ad
or ous
Ġwh atever
ĠD anny
ĠN FL
Ġun known
ĠIn sp
Ġhigh l
Ġpoin ted
Ġdirect ion
ĠMich igan
ĠCan adian
Ġcustom er
** *
Ġconsum ers
Ġsil ver
Ġveter an
Ġprinc ip
ĠCra ig
R A
p any
on na
Ġc up
Ġh ang
Ġp owers
Ġd ict
ĠM ot
ĠC are
ĠF al
ĠE ach
ĠG ib
Ġun w
Ġcomp ens
Ġret ire
olog ists
Ġpat tern
Ġcompet e
Ġsol ar
Ġdisapp eared
Ġsat isf
ĠAssoci ated
ĠVal ley
ĠCle gg
Ġaltern ative
Ġplat form
brit ies
Ġp osed
ĠS ter
ac ity
ĠF ab
ĠR el
Ġr ich
Ġch osen
ab led
pl ace
Ġwin s
Ġfoll owers
ĠCo oper
Ġcrit ics
ĠMart inez
Ġbad ly
Ġmov es
ĠQue ens
Ġcell s
Ġbag s
Ġbal ance
Ġpromp ted
Ġaggress ive
ĠLeices ter
ĠAirl ines
ĠEduc ation
2 1
M A
l ines
t ic
or ious
ĠB ull
ĠP ent
ra id
Ġr ally
Ġwe b
all as
Ġrepor ter
Ġbu ying
Ġter rible
Ġpass ion
Ġsub urb
Ġhouse hold
Ġhit ting
Ġlot s
quar ters
3 8
U n
b u
d ef
Ġw ave
Ġw aves
Ġc rying
Ġp ill
Ġd ub
Ġl ock
ĠH u
ĠH ard
ra pped
Ġcon gress
ĠN AT
ĠG al
Ġsh ift
Ġch at
ĠO ur
ap se
Ġkn owing
Ġkill ings
ĠRe v
Ġdisc rim
Ġ9 11
ĠEm ma
Ġ196 0
Ġtru ly
ĠOffic ials
Ġmans ion
Ġton ight
7 0
Ġt or
Ġt orn
er ted
an o
Ġd ire
st ri
ĠM ax
Ġv en
ost er
ĠMar s
Ġcons ist
Ġreg ional
Ġgu ys
Ġintern al
af e
Ġfact ory
Ġjoin ing
ĠGl ob
Ġsurv iv
Ġrefer red
ĠPort ug
ĠPac ific
ĠHod g
Ġapprop riate
Ġcann abis
ĠCD C
ĠCC TV
! ""
2 6
p ers
is ers
it ary
Ġp ose
Ġl over
ĠS ov
ad h
ul ous
ĠF red
ĠR oll
ĠG ulf
Ġj ew
ff ield
Ġback ed
Ġlead s
Ġdef ended
ĠJust in
Ġcomb at
Ġrestaur ants
Ġaccom pl
ĠWat son
Ġbeg ins
Ġtestim ony
i very
Ġt ort
Ġm ile
Ġd rew
Ġn ovel
ĠS av
ĠI ll
ĠB art
Ġv ital
old s
Ġbl ind
br is
Ġfac ilities
Ġpos es
Ġappro ached
Ġhar ass
Ġreb el
Ġste pped
Ġunderstand ing
ĠCorn wall
Ġobv iously
ĠMorr is
rig uez
Ġobtain ed
Ġicon ic
Af ter
Ġstom ach
2 9
l ah
n amed
at ar
an es
it ors
Ġl isted
Ġn ative
ĠS gt
Ġfor med
Ġst ream
ĠB enn
ĠF riend
Ġdo ors
Ġres ol
Ġgr own
ĠSp ace
cent r
Ġgun s
Ġwitness ed
ĠSu arez
ĠDo ct
Ġattr act
Ġkick ed
ĠAsh ley
ĠRad io
Ġcorr uption
ĠNAT O
y ard
Ġl ies
ĠS um
ĠC op
ĠB ul
ĠH as
em ic
ĠR ick
ĠN ap
Ġwor ry
Ġ4 00
ĠShe ffield
au g
ĠWe ek
Ġ199 9
Ġtre es
Ġwrit es
Ġthr ow
Ġstrik es
oint ment
Ġdocument ary
Ġaccep ting
Ġconc luded
Ġargu ment
Ġstun ning
ĠBru ce
ĠAmaz on
otherap y
A r
t wo
v y
w ick
Ġw alls
Ġth inks
ol as
ac hel
Ġpl us
ign ed
Ġcr ack
Ġstr ing
Ġdescrib es
Ġimmigr ants
Ġemb arrass
Ġinqu est
ĠInvestig ators
Ġaband oned
ĠTurk ish
3 9
Ġ rom
Ġb oot
ic ut
el son
ĠL i
ĠL aur
ĠF ern
Ġr ural
ĠO cean
Ġsu bs
Ġun p
Ġint ent
Ġmin isters
ĠBr and
Ġdisc over
Ġmem orial
iam ond
Ġpay ments
Ġsum mit
Ġarch it
v ant
Ġt ennis
er ves
re es
Ġh ide
Ġm er
Ġm al
igh th
ĠN Y
Ġk iss
Ġun less
ĠSt and
Ġsupp orted
Ġbelie f
Ġcap s
Ġyour self
Ġ0 6
Ġob ject
ĠRom a
Ġbas ic
bor ne
ĠOl iver
Ġassoci ated
Ġfavor ite
ĠConnect icut
3 6
c ia
Ġc a
Ġc ode
Ġc ateg
Ġb ench
Ġn one
ĠS ever
im in
ĠF reed
ĠR oss
Ġcon centr
ĠJ ason
ort ion
ell or
Ġinst ru
Ġenjoy ing
Ġperform ing
Ġdesper ate
Ġkne e
E N
c ar
m outh
ĠS ub
im a
Ġst ated
ĠB ecause
ĠH ou
ĠH ur
ĠR A
ĠN ev
Ġfe es
aren ts
Ġpat rol
ĠDep uty
ech an
ĠUk ip
g un
l ad
w ater
Ġre ward
ĠI ts
ĠH un
ĠP ot
Ġcon cl
ĠO scar
ard o
Ġhad n
Ġme al
Ġapp ly
Ġmil k
ĠSh ow
ĠAs ian
Ġexecut ion
Ġrac ing
Ġassist ance
Ġestab lished
ĠDun can
Ġinvolve ment
ĠExper ts
4 00
A R
g io
en z
Ġl ocked
st yle
ĠP op
ĠW enger
ĠF ree
ĠN ig
ren e
Ġcar bon
Ġfe e
Ġ5 3
ĠMar g
tle t
Ġsm oke
Ġche cks
Ġreport ing
Ġdel iber
Ġterror ism
Ġmot iv
ĠTe am
Ġunve iled
Ġpunish ment
i able
Ġc oin
Ġc ock
Ġm oon
ir ation
el d
ch air
Ġcon stitution
if ying
ĠG ov
Ġch a
ĠSt ew
Ġbr illiant
Ġaw ards
Ġstar ts
ĠPol it
Ġcontin uing
Ġsupport ing
to o
Ġdel ivery
Ġtravel led
ĠEd in
Ġwind ows
Ġbill s
Ġpark ing
Ġdemand ing
ĠEgypt ian
Ġopin ions
ĠFrancis co
Ġult imately
Ġvess el
ĠArm strong
Ġconsequ ences
Ġenth us
ay a
Ġg olf
ĠI b
ill o
ĠW ater
ĠG riff
ord ers
Ġkn ocked
Ġimp lement
min ster
Ġsix th
Ġprov ides
Ġ199 8
Ġhuman itarian
Ġesc aped
Ġconn ected
Ġcru cial
Ġtemper ature
Ġord ers
ĠConserv ative
Ġsole ly
Ġast ron
adel ph
m ers
y d
Ġf ighter
Ġn aked
ĠT ele
ĠP an
ĠW ayne
Ġk ing
Ġout rage
Ġear ning
Ġrel ief
ron es
Ġstr ict
Ġdep ression
Ġtrans pl
ĠBar b
Ġappear ances
esp read
reg on
ĠMuslim s
ĠAuthor ity
Ġindepend ence
Ġfle w
Ġincred ibly
Ġimag ine
ĠColl ins
ĠStev ens
adelph ia
h and
m un
Ġt ies
ĠT un
ĠP y
ĠR io
ĠO regon
ĠSt an
Ġres ist
oy al
Ġarrest s
be y
Ġrad ical
ĠTra ff
Ġsat ell
Ġpet ition
rif ying
agh d
Ġanalys is
ĠOk lah
ĠHodg son
c alled
g ow
w a
Ġw estern
Ġb ones
Ġto ll
ĠJ ac
Ġde bris
Ġnot es
Ġint ense
ure au
Ġcomp ar
ĠTh ough
Ġexp and
aren ess
Ġent ry
Ġstat ements
duc ing
Ġbre ast
ĠWest minster
Ġprom ote
Ġav o
ĠGl as
Ġexc ited
ĠMil an
ĠRob in
Ġlab or
Ġpregn ancy
ĠDis ney
ĠMcD onald
Ġeth nic
ĠNiger ia
tlet ico
S ome
Ġh ate
Ġm ap
ĠS ud
ol itan
ĠG all
ĠSt oke
ish op
ĠMar ine
Ġplan es
Ġofficial ly
Ġthough ts
Ġgovernment s
ecut ive
Ġexpl ains
Ġ0 7
Ġmark ed
Ġsol ution
ĠPhil adelphia
Ġcomput ers
Ġencoura ge
Ġsurround ed
ĠBow l
ĠJess ica
Ġearth qu
ĠFoll owing
Ġempt y
g irl
n am
o h
t a
w ing
Ġp ushing
Ġth in
Ġl inks
ĠT ime
ĠP ower
ĠF ederal
ĠN ich
ĠG reg
Ġsh ips
Ġj e
Ġpro jects
Ġover t
oy d
Ġrec on
Ġkn ock
anc he
Ġtra il
Ġra id
Ġgu ards
Ġbeh alf
Ġfew er
Ġbur ning
ĠMo ore
ĠComm ons
Ġpo ison
ĠSant a
Ġcoff ee
2 8
on z
Ġf erry
Ġm ine
ol n
ĠP M
ĠD ick
ĠR ub
Ġv ision
Ġaf raid
Ġab oard
man n
Ġapp rec
anc ellor
ug by
Ġcap able
Ġsent encing
ĠChrist opher
Ġdescrib e
Ġcele brities
Ġfeat uring
Ġeng aged
Ġcolle cted
Ġrepl ied
Ġtrad ition
Ġmat ters
Ġdig ital
ĠDev on
Ġnarr ow
ĠDirect or
ĠHou ston
ĠOklah oma
E S
N e
f ast
Ġs ke
Ġd u
Ġl oves
ĠS k
ĠH om
ĠG ab
Ġcl ients
ren ce
ĠY esterday
iz arre
Ġdef ending
sh ot
Ġext ended
Ġopp osed
istr ates
Ġcommit ment
Ġsuggest ing
Ġide as
Ġwind s
Ġfamil iar
Ġcompl ained
Ġvot ing
Ġele cted
ĠBrazil ian
bre aking
ĠKn ox
Ġlands c
Ġinnoc ent
Ġcas ual
ĠSter ling
I s
w orth
or ough
Ġto ler
id ays
ĠM ull
ĠL am
ĠL ow
ĠSt ra
Ġte x
Ġdes ire
ric ane
Ġshould n
ĠMc L
Ġmet res
Ġ199 7
Ġwrit er
Ġvot es
Ġamb ulance
Ġextra ordinary
Ġproced ure
ĠCru z
Ġtempor ary
Ġdisappear ance
adh afi
6 00
I I
g age
w en
Ġ ing
Ġthe at
Ġh ired
Ġto ile
Ġp acked
ĠA T
ĠC os
ver se
ĠB ang
ĠR h
Ġsh aring
Ġpl enty
ord s
Ġsc ared
ib r
Ġother wise
ĠMar sh
ĠSp ring
ĠCom mon
Ġprom ise
ĠAd ministration
Ġbur st
inc oln
ipp i
Ġsearch ing
Ġprep are
Ġprep aring
ĠOffic ers
ĠSov iet
ĠGlas gow
f e
l s
Ġc ub
Ġf el
Ġf inger
Ġp in
Ġl ung
ĠS ull
ĠC ross
ig aret
ir ty
os h
ĠJ ong
Ġcl imb
ep ing
Ġover whel
ĠY emen
Ġany where
Ġ5 4
Ġend ing
Ġgu arant
Ġfoll ows
ness ee
Ġspecial ist
Ġstrong er
Ġopportun ities
Ġcult ural
Ġentire ly
Ġnorm ally
Ġwid espread
Ġrecomm end
B A
R ep
c are
ic ts
st one
Ġg ap
ur o
et ime
ĠL ocal
ĠF ood
ĠR y
ĠN SA
ĠG et
Ġacc ur
Ġrec all
aw are
ath on
Ġreg ret
ex p
cent re
ai i
Ġform al
ĠJe an
Ġresc ued
Ġreform s
Ġintro d
Ġexist ing
Ġsudden ly
Ġdub bed
aghd ad
8 00
Ġthe ory
Ġo d
le te
ot y
Ġg ro
ĠD ra
Ġ( $
Ġcont aining
Ġdis pl
Ġen orm
ĠBr ight
Ġsub sequ
Ġinf ected
Ġinst ruct
ĠPh ot
atter ed
Ġcut ting
Ġactiv ist
Ġturn s
Ġtot ally
ĠSim pson
Ġconst ruction
ĠMel bourne
Ġchampions hip
Ġsuspic ion
Ġbird s
Ġbrut al
ĠRonald o
ĠAbb ott
Ġcoc aine
d in
d oor
r idge
z er
Ġb asket
Ġh idden
Ġp ig
al o
ic ious
id ers
ĠS erv
ĠM as
am m
ĠH ait
ĠD j
Ġ( Â£
ock et
Ġgr ass
Ġexp osed
Ġrest rain
Ġsw itch
ĠSe an
ĠSe attle
Ġclass ic
ĠSw itzer
ĠRod riguez
Ġcomfort able
ĠTrans port
Ġslight ly
ĠPent agon
ĠSwitzer land
C S
d is
m aker
Ġf ier
it age
es ity
Ġm echan
le c
ac ular
Ġan x
em a
ĠR angers
Ġsh ops
Ġch ap
ab ama
um ed
ĠK ey
ant ic
ap es
Ġad ministr
Ġatt ending
ĠBr other
ĠCl ark
Ġpos itions
Ġren t
Ġaccom mod
Ġattr acted
Ġprior ity
ĠCast ro
Ġrelative ly
nd rome
as ion
ĠS orry
ĠM en
ĠL yn
ĠR em
over ty
ĠSp ort
Ġext ensive
Ġexpl o
Ġmeet ings
Ġdeal ing
Ġnet works
iec e
Ġreach ing
Ġdemand ed
pan ied
ĠHoll and
Ġsear ched
Ġregister ed
e als
p es
Ġs ch
re al
or ation
Ġf ile
it ting
Ġm ut
Ġl aid
Ġn av
Ġre in
ĠB an
ĠH o
ĠP ass
ĠP ope
ear ing
Ġr u
Ġch ocol
ab ilities
um ph
iv an
Ġam ounts
Ġput s
ĠRuss ell
ĠAm anda
Ġ0 5
Ġannoun ce
Ġfore st
Ġorgan isation
raz y
Ġthr owing
Ġimpro ved
Ġval ues
het ic
Ġdefend ant
ĠGar cia
Ġrap id
Ġexhib ition
Ġded icated
Ġterrit ory
Ġacknowled ged
Ġunem ployment
ĠLaur a
5 5
E n
L L
w ith
Ġs ac
Ġc ited
Ġb at
Ġh iding
Ġd iver
ĠA tletico
am i
ĠC air
ĠH on
ĠL et
ĠR ose
ĠK er
Ġcl ashes
Ġte eth
Ġoffic es
Ġdec line
Ġaw areness
Ġhead quarters
gr ade
ĠAs ked
ĠFl ight
Ġconv in
Ġproduc er
ask a
Ġvar iety
Ġcru el
Ġshock ing
Ġexperi ences
ĠCharl ie
Ġtyp ically
ĠJim my
Ġeffective ly
Ġapplic ation
Ġdetect ives
idel ines
ĠTen nessee
Ġaccus ations
Ġfant astic
Ġentit led
2 3
A S
b ar
l i
Ġt ank
Ġt ired
Ġb on
Ġbe er
ol ar
Ġst y
ĠL incoln
Ġover night
Ġcomp ound
anc er
ĠAl abama
Ġ5 1
Ġset t
Ġpost ing
Ġfind s
Ġsk ull
Ġve get
cl ass
ĠThat cher
Ġbab ies
Ġcomment ary
Ġgra ve
ĠLu is
ĠOffic er
ĠiP ad
Ġjud ges
Ġvac c
Ġtast e
ĠServ ices
Ġf ault
as y
id i
ĠA ff
Ġfor get
ir a
Ġshe riff
ĠK enn
av ed
Ġapp ointed
ĠAn ne
Ġgu ide
ĠCl ar
Ġdem ands
Ġadv ance
Ġtechn ical
Ġinterest ing
ĠLu ke
Ġcommunic ations
ĠDoct ors
Ġconvin ced
M ar
Ġs ib
Ġs its
re ts
re hens
al ing
Ġm isc
ĠW he
Ġcon ced
ĠN ov
od es
ust ing
qu iao
ĠAn ton
Ġ5 6
Ġem ph
Ġfil ming
Ġmiss ile
Ġdep end
nes ota
Ġspec ulation
Ġaff airs
ĠAust in
Ġold est
Ġadv ised
Ġinform ed
Ġgrand father
Ġrepresent ative
Ġexplos ion
ĠBus iness
ĠUt ah
ĠSever al
ĠStew art
ĠT ories
ol ph
ĠM u
ĠB M
ĠL l
ĠF re
ĠF ur
ĠN at
ĠE st
ate ful
end um
Ġun its
Ġun ivers
Ġfound ed
Ġplan ts
Ġprot ected
Ġair stri
Ġinterview ed
Ġlow est
Ġexpect ing
Ġcharac ters
Ġdevast ating
Ġbreat h
Ġcomed y
ĠBelg ium
Ġtouc hed
Ġmic ro
ĠNig el
. )
S h
l ist
Ġs ter
Ġs isters
Ġb ike
Ġp ages
al ia
Ġm ask
il a
Ġn omin
ĠT s
ĠT es
Ġg est
ro id
ĠD allas
ĠL isa
Ġj ihad
Ġfir ing
ven ue
ĠBr is
ĠBl oom
Ġap ology
Ġden ies
ĠAss ad
Ġcover ing
ĠFer r
Ġbreat hing
Ġpurp ose
Ġstret ch
ĠMess i
ĠEdin burgh
O W
c ol
Ġt at
Ġt ape
Ġthe ft
ĠA re
est y
ĠF ro
Ġme als
Ġen emy
Ġbl ank
Ġchild hood
Ġbr anch
ĠBr istol
ĠQ PR
Ġdet ailed
Ġcou ples
ĠMin nesota
Ġgun man
Ġhot els
Ġden y
Ġple as
Ġdraw ing
Ġdisp ute
onn ell
Ġappl ied
ĠMoham med
Ġcontroll ed
ĠMarg aret
f ree
l ings
m ile
v ard
w rit
Ġt ip
Ġt we
Ġc ope
Ġf aster
ay ing
Ġg ained
Ġal ert
ch i
ĠL es
Ġr iding
ĠG aza
ĠJ ud
Ġv ent
Ġoff ence
ĠV lad
Ġcol or
Ġfact ors
Ġlif t
ĠBeck ham
ĠGra ham
ĠAgu ero
! !
k ing
Ġ iron
Ġt ie
Ġt aught
Ġs ector
Ġw ard
le vel
ĠF o
ess ing
um es
Ġab road
Ġ5 7
Ġac ted
Ġmem ories
Ġob jects
Ġarri ving
Ġpresent er
Ġrefer endum
ĠPakistan i
ĠOther s
ĠDef ence
Ġinn ov
Ġdelay ed
Ġassaul ted
Ġbatter y
ĠProsecut ors
Ġmonit oring
Ġoppon ents
ĠCub a
R uss
m o
s er
or al
Ġg e
ĠA ston
ĠC BS
im er
ĠL t
ĠL ive
ĠR and
Ġse lect
Ġshe d
Ġcont ained
ath y
Ġbr own
Ġmin imum
Ġtri es
Ġ6 4
Ġent r
Ġdr ama
Ġhard er
Ġexc ell
Ġtour ist
Ġpred ict
ĠAtlant ic
Ġmanufact ur
ĠBid en
Ġcompens ation
b urn
b ane
in ch
am ber
et her
ill er
ĠH ad
ĠF ather
ĠF DA
ĠN ob
Ġr amp
Ġch all
res ents
ĠK l
Ġbec omes
iss ippi
Ġbl ast
ĠAn y
ĠQ atar
Ġmanag ing
Ġcelebr ating
Ġimport ance
Ġrac ial
Ġsurpr ising
ĠBay ern
Ġsleep ing
Ġslow ly
........ ........
Ġupd ated
Ġoverse as
ĠScient ists
ĠSpec ial
3 3
c i
u ous
Ġc ul
Ġf ruit
st ream
im ir
ĠB ond
ĠP ear
Ġcon cept
Ġman ner
Ġsc ar
ĠEn ter
Ġref eree
be at
ĠSe e
Ġcelebr ated
Ġclass es
Ġcal c
ĠDemocr at
Ġcross ed
ĠRes earchers
ĠKen ya
ĠSur rey
Ġrelig ion
Ġspecific ally
Ġoccas ions
ĠKat ie
Ġwealth y
Ġnurs es
ĠChap man
ĠDub ai
ĠSnow den
Ġsatell ite
u er
x imately
Ġf itness
ic ial
Ġl ad
Ġwas te
ĠP owell
if ts
Ġv ig
Ġv owed
Ġag es
ĠCh ancellor
Ġdef icit
Ġ6 3
Ġfact or
Ġtax es
Ġple a
Ġrelationship s
Wh ile
lo aded
ĠRob inson
Ġbomb ing
Ġpsych iat
ĠBre nd
Ġdipl omatic
Ġwal ks
Ġarchit ect
z y
Ġb izarre
Ġin mates
Ġl oyal
ig a
ĠB on
ĠB ad
ĠB aker
ĠG adhafi
Ġsh ares
Ġpro hib
Ġrep resents
ĠV en
Ġback ing
ink ing
ug s
Ġass ass
Ġcap acity
Ġyoung est
Ġart ists
Ġcompet itive
Ġcrim inals
Ġrac ist
Ġbul lying
Ġpred icted
Ġencoura ged
Ġindic ated
Ġregard ing
ĠPac quiao
iqu es
ĠHaw aii
Ġcondem ned
Ġfro zen
ĠEs sex
b ut
d a
d ed
s en
u ine
Ġt ail
Ġw ine
is ons
Ġh ole
Ġg reet
ĠC rit
ĠC rystal
ir o
ro c
un ior
ĠâĢ ¢
ĠSt ur
ond uct
we ather
Ġ5 8
Ġgr ade
Ġmin i
Ġem ails
Ġgu est
Ġwin ners
Ġdr one
ann ah
Ġel sewhere
Ġsuccess fully
Ġteen agers
Ġexc iting
Ġmarket ing
Ġindust rial
Ġhon our
tr ol
Ġopt im
Ġwel com
ĠJul ie
Ġassess ment
ĠMalays ia
M r
p ass
Ġp overty
ol ly
ĠC as
ter ror
os ition
ch ildren
ĠD ur
ĠF und
Ġsh out
ack er
Ġover d
Ġte ach
Ġthere fore
oin ting
oot h
Ġext ent
app rop
Ġtrans ition
ĠAb bey
Ġread s
Ġcivil ian
Ġer a
Ġhol idays
Ġamb assador
Ġpil ots
Ġconst antly
Ġpeace ful
Ġille g
ĠMary land
Ġshel ter
Ġadvert ising
Ġresul ted
Ġstro ke
ĠTraff ord
Ġchocol ate
5 9
c ott
h ow
r ange
s k
â Ĥ
ar on
ar ms
Ġh unt
Ġto ols
Ġp apers
ic i
id al
Ġl ady
ĠM it
ĠC hen
Ġst ages
ĠB ent
ul es
ĠE nd
Ġsc an
Ġrec ession
enc er
Ġpass es
Ġprom in
Ġstrong ly
Ġcolle ague
Ġrepresent ing
Ġpri ze
Ġmult i
Ġspeak s
Ġord eal
Ġtransfer red
Ġadop t
ĠSaf ety
ĠSud an
Ġenorm ous
âĤ ¬
a is
e qu
m ath
u ations
z ed
Ġt ur
ĠM itt
ac ement
ĠD iv
ul s
Ġsu gar
ab ove
Ġshe ll
Ġus ual
Ġte ens
Ġsm ile
Ġlaw makers
Ġhand le
Ġmem or
Ġstr ange
eral d
ĠMiss issippi
eng ing
ĠJu an
Ġfun ny
Ġcoll ision
Ġrepresent ed
ino is
Ġansw ers
ugh t
Ġrefer ring
Ġbra ve
ĠCharl otte
resp ond
ĠJer emy
ĠAc ademy
Ġelectric ity
Ġfrequ ently
ĠCard iff
Ġtherap y
Ġorganiz ations
ĠNas a
ĠSull ivan
C R
d ers
l ar
y o
Ġs acked
Ġc ous
it is
ut ing
Ġst amp
ĠH end
ĠW as
ĠW olf
ĠR achel
end a
Ġafter wards
ĠK urd
ĠSt at
Ġall ies
Ġrec ruit
Ġact ual
Ġbr ings
Ġem p
Ġshould er
Ġconf ron
Ġdisc l
Ġvis ible
Ġgl am
ĠPro ject
Ġrequ ests
Ġmov ies
Ġprotect ing
Ġport ray
Ġcomb ined
ĠFore st
ĠCarol ine
Ġhy p
Ġclin ic
Ġobv ious
ĠJew ish
ĠPalestin ian
ĠFriend s
4 4
H is
r ington
Ġt ent
Ġs ounds
re te
Ġp ed
Ġn ick
Ġn obody
ĠT ower
ĠA p
ĠH ills
Ġse lection
ab y
Ġmon itor
ult ure
Ġdec or
Ġcount y
ph ones
Ġend s
Ġsm ashed
Ġinvestig ations
Ġdr inks
Ġdr unk
Ġdist urb
ĠSer ge
Ġinterview s
Ġer ror
ĠNe il
Ġinit i
ĠLib yan
yc le
Ġencoura ging
ĠStud ent
ĠSand y
Ġbeg un
ĠSoc ial
Ġveter ans
Ġadop ted
Ġwithd raw
Ġdepart ure
rah im
Ġdemocr acy
Ġperman ent
Ġearthqu ake
3 2
7 5
? âĢĻ
Ġt ens
in ations
ar med
Ġm and
ic ations
Ġl iqu
am ous
"" ","
ĠH M
ĠP le
un ction
Ġy es
Ġha bit
ĠL y
Ġcon ver
ĠE th
Ġsh all
Ġsh ark
Ġsu c
Ġex cess
ĠSt ation
Ġres olution
Ġfin ed
gg ing
Ġleg acy
Ġpost s
ik h
Ġspokes person
Ġgen uine
Ġpos ing
Ġprof ession
Ġlist en
Ġdiv ision
Ġoppos ite
ĠNot ting
ĠFar age
Ġwarning s
Ġtyp es
Ġpurch ase
Ġspect acular
Ġpra ised
i ac
l ow
r ical
re nd
it able
Ġre hab
st airs
ut s
ĠC irc
ĠB aghdad
ĠP ers
Ġy ards
th al
ĠL and
ĠE mer
Ġj oy
Ġwor n
Ġcan cel
Ġ19 50
ĠAr k
Ġche f
Ġmilit ant
Ġdet ention
Ġob esity
stit utes
Ġple ase
Ġcreat ive
Ġtrack s
gl as
Ġproced ures
Ġrecover ing
Ġshar p
' ,"
2 50
3 4
d ie
m ith
at i
Ġl obby
Ġg ender
Ġg ift
ro so
ĠB ox
Ġwh ist
ĠJ obs
gh azi
Ġj ur
Ġout come
Ġcl osing
ace y
Ġpe ak
Ġfl own
ĠAn na
Ġwar rant
Ġent ering
ĠEur o
ĠInd epend
Ġple ased
ns ic
Ġneighb ours
lo ad
ĠPhil ip
Ġestim ates
Ġachie ved
ĠCap tain
Ġemot ion
ĠCommission er
Ġresign ed
Ġhun ting
Ġsuspic ious
Ġemph as
N ow
f inal
Ġa er
Ġf ishing
Ġp ink
ent le
ĠT rib
ĠT urn
ĠS outhern
est one
ĠN av
od ed
Ġsp r
ide o
Ġman age
ang el
we alth
Ġown s
ĠRe id
Ġleg it
Ġcamp s
Ġcamp us
Ġrequ ires
Ġwebs ites
ĠBen ghazi
Ġcrew s
Ġbase ball
Ġdream s
Ġsmart phone
Ġble eding
Ġremark able
ĠMun ich
Ġdire cted
Ġtranspl ant
ĠVlad imir
c aster
f ront
in ter
er ate
Ġp ump
Ġd ust
ic ing
Ġl oud
ĠT ar
ĠS ent
ĠM ors
ac c
ac ter
Ġst ole
if ted
ĠG over
Ġse qu
ect ing
ail and
ĠTh ailand
Ġatt ached
aw a
Ġimp osed
Ġco ord
ret t
Ġperson ality
enn a
Ġob st
Ġfood s
Ġdist ress
Ġcontrol s
ĠMid lands
ĠBo ard
Ġport ra
Ġsport ing
Ġpray ers
gra ph
Ġstruct ure
Ġsuppl ies
ĠStaff ord
ĠColomb ia
ĠIll inois
Ġlandsc ape
Ġod ds
Ġchall enging
4 9
A C
A ss
h ill
or ge
Ġd ial
ĠT ro
ĠS U
ĠM I
ĠC ivil
ĠD ave
Ġsp ac
ome ters
ors es
Ġbl ocked
Ġhel met
ĠLe ban
Ġcourt room
ĠGu ine
Ġlim its
ruct ure
ĠBo e
Ġren ew
vent h
Ġarch ae
Ġwild life
Ġign ored
Ġess ential
Ġsettle ment
Ġaffil iate
Ġdiscrim ination
ĠCair o
ĠBris bane
J ust
b ox
f ace
g rees
m ade
t t
u able
on ia
Ġp upp
ĠC all
ĠB os
âĢ ¦
ĠW here
ĠF air
ĠN ight
ĠN elson
od ge
ok ovic
ĠK ay
Ġrep air
ident ified
Ġrec ru
Ġfir ms
ons in
aim ed
Ġfin ishing
Ġem br
Ġind eed
Ġmar ry
Ġche er
ĠBar nes
port ion
Ġtravel ing
Ġpain t
Ġexecut ed
yl um
Ġaut omatic
isc onsin
Ġreb u
Ġsong s
ĠFeder er
Ġegg s
Ġencoun ter
Ġbare ly
T wo
o is
w w
Ġm ere
ol ved
ĠM ack
ĠB in
ĠB ook
and o
Ġsh ore
Ġde grees
Ġne ither
Ġcomp rom
aw s
ters hire
ĠLe g
Ġaw a
Ġresp ective
Ġhigh light
Ġaff ects
Ġsk i
ĠMay weather
Ġadv iser
Ġappro ximately
Ġdisapp ointed
Ġattemp ting
ĠTra vel
Ġaim s
Ġhero in
emb ly
Ġmedic ation
ĠBrook lyn
Ġunderw ent
Ġmention ed
Ġsubst ant
Ġsubst ance
ĠDou glas
Ġevac uated
Ġbot tle
ĠSwed en
Ġfel ony
ĠDj okovic
c ons
e an
j an
er g
Ġw ing
Ġc ake
Ġm os
Ġl av
ĠT ou
ĠT em
ad ers
Ġfor ms
ir m
Ġst able
ĠP elle
Ġas ide
th ur
ĠF ive
ĠE astern
ive ly
se ason
ang ed
Ġqu oted
Ġany body
cer tain
Ġperson ally
Ġreal ized
Ġfac ts
Ġkeep s
Ġkeep er
ĠHow ard
Ġfund ra
Ġer up
Ġdress ing
Ġabs ence
ĠHoll ande
ĠGuard ian
Ġvolunte ers
Ġkidn apping
Ġwheel chair
ĠClar ke
. -
7 00
i h
p orts
t im
x ual
Ġc igaret
Ġb one
Ġb ru
Ġf ed
Ġf ame
es h
ar ak
ĠC her
Ġfor cing
ro it
ĠB ol
"" .
ĠW ol
ĠW imb
ĠR af
ĠN ancy
Ġde em
ab s
ĠHe ad
ĠCh ile
Ġtra pped
Ġadd ressed
ĠMar io
Ġtri umph
Ġgood s
cept ion
Ġequ ival
Ġhost s
Ġsol id
Ġsurv ival
Ġcoll apse
Ġcrow ds
Ġaccom panied
Ġpers u
Ġhy d
ĠArab ia
Ġarg ue
ĠMag istrates
Ġpled ged
ĠGh ana
Ġsurviv ors
ĠTun is
ĠNotting ham
1 50
b ag
c ase
Ġb es
Ġf ill
Ġh anging
Ġp ace
Ġn erv
ĠA ut
ĠM aur
ĠB rom
ĠH y
ri ers
Ġas ylum
Ġan k
Ġal t
ĠW isconsin
if ting
Ġr ounds
ast ro
ub arak
Ġapp s
led on
hn er
Ġreg ul
Ġreg ions
Ġstud ying
Ġsm ugg
Ġconf ront
ĠRe f
ĠCl ass
ĠBar ry
Ġappear ing
uck er
Ġfeel ings
ĠAm b
Ġtw in
ĠEm b
Ġfield s
ĠVict or
Ġpoll s
Ġconsum er
ĠOl iv
ĠNet work
ĠHill ary
ĠSil ver
ĠBa iley
Ġgrab bed
Ġmyster y
sec ond
ĠNad al
ĠBright on
a ver
u ay
he ld
Ġc os
Ġin approp
Ġm ood
om ed
Ġbe ars
ĠM ah
ĠM ajor
Ġst ations
ĠB ureau
ĠW y
ĠN S
ct ic
ĠO K
Ġpro of
Ġab d
Ġout fit
ĠCh ild
ond e
ian ts
Ġapp eals
ĠV ill
ĠV iet
Ġ5 9
Ġweek ly
Ġac ad
ĠZ oo
Ġyoung ster
be an
Ġconv ictions
Ġbusiness man
Ġcelebr ation
Ġfr ame
Ġpopular ity
Ġhear ts
Ġrare ly
Ġbrand ed
Ġairl ines
Ġminor ity
ĠSus an
istor ius
Ġsust ained
ĠCab inet
Ġkil ometers
ĠPortug al
ĠWimb ledon
x ic
Ġf are
il st
Ġth ick
ĠS ad
ĠS oph
ĠA C
ĠA aron
ĠM H
Ġst ressed
ĠP istorius
est ed
ĠL ook
ĠL ane
ĠN ear
ĠE ight
ĠJ ay
ant e
ĠTh ousands
rit ion
Ġcomm ander
Ġimp ression
Ġ6 7
ĠSh aw
Ġpost er
Ġ8 5
Ġbre ach
Ġinst ance
Ġmurder ing
Ġtravel ed
ĠAd d
Ġmain ly
Ġel ite
Ġtechn iques
ĠGr ay
Ġri f
Ġtit les
Ġdest ination
Ġsafe ly
Ġdiscuss ed
Ġcheck ed
Ġscient ific
Ġrequest ed
ĠGreat er
ĠDet roit
upp er
win ning
Ġrid ic
ĠMorr ison
Ġpartners hip
Ġdipl om
Ġca ution
ĠIb rahim
Ġbasket ball
4 7
4 8
B O
J o
b al
g overnment
Ġf right
Ġd ates
ĠT ed
Ġst unt
us al
op ing
Ġr ating
Ġj oke
ment ed
Ġsp in
ell o
Ġres idence
ild ing
ĠBrit ons
Ġlove ly
Ġinsp iration
Ġer r
ĠMor ning
Ġunc le
Ġcru ise
Ġsil ence
ĠWood s
vent us
ĠGold en
Ġvac ation
Ġcop y
Ġentertain ment
cri pt
Ġrough ly
Ġretire ment
Ġcha os
Ġexcell ent
C H
r ast
Ġt ensions
Ġs ed
or g
Ġto dd
Ġm el
Ġd iving
Ġd ancing
om o
ĠC u
ĠR et
ĠG ill
ĠJ ill
Ġpro be
ect ors
Ġpr on
Ġimp rison
ĠAnd roid
ĠSp encer
Ġtri als
Ġ6 8
Ġreg ulations
Ġwar n
Ġhand ling
Ġloc ations
ĠCar ib
less ly
Ġfore ver
Ġpub lish
Ġgener ally
Ġdiscuss ion
Ġtable t
Ġsal ary
Ġunf air
Ġmater ials
Ġant icip
Ġcy cl
Ġsteal ing
Ġcongress ional
Ġconcl usion
ĠBarb ara
Ġsuc ceed
B l
b i
d am
o ons
he m
es us
Ġh o
Ġto ol
Ġp ocket
Ġl uck
Ġe ighth
et a
and om
ĠR ow
Ġr ig
ĠG reek
Ġafter math
uc ks
Ġfound ation
Ġdef ensive
Ġdon ations
ĠPol ish
Ġhum il
ows ki
Ġadv ent
rop olitan
Ġfun ction
Ġbreak s
Ġpick ing
Ġvol can
Ġcritic ized
Ġboss es
pro file
ĠTod d
bor ough
Ġdiagn osis
ĠLouis iana
Ġpull ing
Ġbom bs
ĠIndones ia
ĠCommon wealth
Ġairstri kes
Ġwelcom ed
ĠBoe hner
l us
t ra
u an
y ang
Ġb itter
le ep
Ġl a
ĠT H
ĠM aj
ĠH it
ĠP en
Ġha z
ĠD omin
ĠF est
ĠN a
ĠG onz
Ġde als
ĠO wen
ok yo
Ġcl im
Ġcl ip
Ġcomp rehens
Ġdis ag
og an
og ether
Ġtr ick
Ġfl ash
Ġtra ins
Ġtri ps
ene z
Ġche ap
Ġvis its
Ġcontr ast
Ġdep th
ik es
Ġcer t
Ġcompet ing
Ġfootball er
gu ard
Ġtro phy
ĠMed ic
Ġtele phone
Ġran ks
Ġemb assy
Ġsignificant ly
Ġmix ed
ĠOs borne
Ġnegoti ations
ĠDer by
Ass ad
9 0
l an
l ock
p age
s ay
t es
z an
in ion
Ġs amples
Ġf ires
Ġh undred
ĠS ot
et ch
ĠB ash
ĠP ictured
ĠD id
ĠL enn
ĠF orm
Ġse lected
Ġor g
Ġcont ains
act or
Ġadd iction
Ġexp osure
Ġmin istry
ĠSc ience
form ation
ĠIs lands
Ġstr ang
Ġreal ise
Ġconv ention
Ġclass room
Ġtax i
Ġhom eless
ĠSw iss
ĠEx p
Ġquestion ing
Ġhor ror
Ġri ot
Ġvir al
ĠFer din
ĠVict im
Ġflood ed
Ġperforman ces
ĠCamp aign
Ġlik ed
Ġconserv ation
Ġmort gage
Ġresul ting
Ġslam med
ĠBuck ingham
Ġeleph ants
Ġtoile t
Ġilleg ally
ĠFerdin and
4 6
e lection
f ound
h ost
i ences
k el
o ch
p ects
s ized
t ure
Ġs oul
Ġw ire
Ġw ider
Ġc razy
Ġp hen
am ine
ĠC ape
ec ent
ĠP ie
ĠW itness
ĠN ik
ĠK yle
Ġun com
ĠSt ock
ĠCh ad
Ġdis m
Ġatt itude
ĠY our
ob b
uss els
gr ini
Ġsy ndrome
Ġexper im
Ġdel ighted
Ġ0 4
Ġball s
Ġneighb ors
Ġsepar ated
Ġattorney s
Ġconst ant
Ġremember ed
Ġmist akes
Ġparticip ants
ĠBrook s
ĠAh med
Ġmusc le
Ġanonym ous
Ġastron aut
ĠStur ridge
Ġequival ent
Ġnerv ous
rast ructure
ĠCarib bean
j i
l b
m oon
r d
s ur
s pe
ut her
Ġg ear
ĠC old
ĠC elt
ĠC atherine
ow ered
ĠB illy
ĠH ope
ĠP oll
Ġas ks
ĠD og
qu ir
Ġoff enders
ĠCh amp
Ġover come
Ġdis g
Ġdis abled
Ġte a
Ġcomm em
ĠQ C
Ġcou rage
roll ed
ĠEd wards
ĠSam uel
ĠRog ers
Ġinstit utions
ĠPelle grini
3 1
S p
c ot
k m
l aughter
u art
at ched
or ld
or age
Ġd rones
Ġst rain
ĠH aving
ri ve
ag a
Ġsh adow
Ġab ortion
ap ing
Ġso il
under land
Ġhel l
ĠSp urs
Ġ6 1
ull ah
Ġhead lines
ĠSh ak
Ġcre am
ird s
Ġmanag ers
Ġmark ets
Ġdescrib ing
Ġtreat ments
ĠJu ventus
ograph ic
Ġlo ving
ett a
Ġcomb ination
Ġord inary
Ġcommunic ation
ĠFrank lin
Ġcab in
ĠTre as
Ġvolunte er
Ġnom ine
F r
b ound
o ir
u its
x y
Ġ +
Ġ id
Ġ upper
is an
Ġm ad
ic hel
ĠT echn
st an
ĠS anche
ĠA round
ĠM ubarak
ac o
ĠC er
ĠC ust
ĠI TV
ĠH appy
ĠL ion
ĠL ater
ĠG M
Ġsh r
Ġj u
Ġsp ray
Ġdis char
ĠAl b
Ġdon ated
Ġstud io
Ġ7 1
Ġexper iment
ĠDe b
ĠFor ces
Ġref using
ĠPro v
Ġsing ing
ĠCr ow
Ġarri ves
Ġpain ful
ĠSer gio
Ġeng agement
Ġcor oner
Ġstrik ing
Ġlif ted
ĠKing dom
Ġpract ices
Ġansw ered
Ġath lete
Ġpropos als
Ġpolitic ian
Ġunderw ater
ĠMoham ed
Ġbatt ling
ĠWel sh
ĠLat in
Ġcyc le
Ġcorpor ate
Ġextr ad
Ġrestr ictions
emble y
ĠPhilipp ines
Ġharass ment
ĠGuine a
ĠSanche z
0 5
F C
M Z
f ish
Ġ rib
Ġc e
Ġto ug
om y
Ġre ar
Ġg ri
Ġg rey
Ġg entle
ro d
ĠW embley
ĠN ico
Ġr ugby
ĠE T
ĠE conom
ĠK rist
Ġdis gr
Ġgr ateful
Ġ6 6
ĠAr thur
ĠWh it
ĠBr ady
ĠBr ussels
Ġsm oking
Ġbo om
Ġ7 2
Ġsy mp
Ġloc als
Ġmur ders
ĠHar vard
ĠUK IP
Ġmid field
Ġadv anced
Ġ199 6
Ġtarget ing
Ġhost ed
Ġmass acre
Ġfr act
Wh y
Ġsens itive
Ġperfect ly
Ġcitiz en
Ġpurch ased
Ġreven ue
ĠIv an
ĠPeters on
Ġproceed ings
ĠNY PD
b ian
j o
Ġs essions
Ġc ry
Ġc raft
or er
Ġb urned
Ġf lex
ar th
id ency
ĠT okyo
ĠS at
ĠA st
el ing
ĠP rest
ĠG or
ack ers
Ġpl un
Ġcl er
ans on
ĠV iew
Ġ6 2
ah u
ĠBr on
Ġcur ren
Ġ199 5
ĠNe xt
Ġdisapp ointing
Ġele ments
Ġbul lets
ĠQu est
Ġdemonstr ators
Ġbrief ly
look ing
Ġfort une
ĠFeder ation
Ġsust ain
Ġliter ally
Ġenthus i
Ġsett led
ĠTes co
B erry
C on
L C
Ġa ide
in th
er ation
Ġp aed
Ġd istr
Ġl ake
Ġre un
Ġre ference
ut ers
ow a
ri ving
ĠD rug
op ard
em ia
Ġsh ame
Ġch ronic
Ġde leg
Ġse venth
qu es
Ġbut ton
Ġint ensive
Ġinv asion
Ġbel t
Ġexp enses
ĠEn ergy
Ġstud ied
ĠCl ay
Ġ12 0
Ġsusp ension
ĠAd ams
ĠCr ist
Ġadmit ting
Ġproduc ers
Ġrepresent atives
Ġcross ing
Ġele ment
ca o
ĠNet her
Ġfest ive
Ġmedic ine
Ġgather ing
ĠOper ation
ĠPhill ips
ĠHear t
Ġtaxpay ers
exp ected
6 5
b ow
d ale
t op
w ife
in f
Ġw rapped
ic ate
il it
Ġn ights
ĠA wards
ĠB ed
ĠH ud
Ġsa il
ag en
ĠR on
ĠN azi
ast y
Ġse ed
Ġad just
Ġun identified
ĠCh air
ach t
ale y
Ġconf essed
gr at
Ġvis a
ĠCar r
ĠDav ies
Ġrece ption
Ġinst alled
Ġtw ins
Ġmot ion
ĠPl an
Ġexpect ations
Ġvol unt
ĠAngel a
Ġvill ages
ĠCap ital
ĠNor way
Ġphotograp hed
Ġenvironment al
ĠBrad ford
Ġmans laughter
Ġlic ence
Ġpurs ue
gra v
Ġtorn ado
ĠFreed om
ĠHait i
ĠEmer gency
ĠNS W
f und
v ised
Ġc ore
Ġc iting
Ġl ip
ĠS underland
ot elli
ĠB ah
op es
ĠF el
ĠR esc
ous es
Ġne ur
Ġint r
av an
Ġte aching
Ġfl owers
Ġcar ries
Ġbr ands
ier ra
ĠBr id
Ġprot ective
ins ula
Ġyoung sters
Ġexpl ore
Ġinf rastructure
Ġinst all
ĠBe at
Ġsoc cer
Ġdeal t
Ġbook ed
Ġview ed
Ġdist inct
Ġorgan ized
Ġpros pect
ĠMan uel
Ġaccident ally
che ll
Ġnecess arily
Ġcomed ian
ĠWind ows
cri ption
Ġconsult ant
Ġfiref ighters
Ġisol ated
Ġscream ing
T C
T S
b ul
Ġ ,
Ġt ag
ic ian
Ġg rief
ĠM ick
ĠB all
Ġ2 50
Ġr andom
ab il
um s
Ġcl oud
Ġup coming
Ġun h
Ġpart ly
ĠY e
ang es
Ġpre par
Ġcar ing
Ġext end
ĠBar cl
ann on
Ġdiffer ences
ĠCon st
ĠSe ven
Ġ199 4
ĠNe ighb
ĠMcC ain
Ġtrack ing
Ġphys ically
amb ling
Ġexam ined
ĠBal otelli
Ġult imate
ĠBrad ley
Ġrecomm ended
ĠLuc y
Ġburgl ary
ĠSupp ort
Ġavo ided
Ġtwe ets
ĠFo ley
Ġentr ance
Ġorg ans
ĠPie ters
4 3
N ot
g ate
h igh
m are
o en
p ective
Ġt ech
Ġt urb
Ġf ate
Ġh orses
st orm
ĠS ara
ĠS ierra
am o
ac cept
Ġst agger
ro ve
ĠB olt
ĠP age
ĠL iga
ĠF ashion
Ġr oles
ep s
ĠIn f
Ġrep lic
av en
ind er
ĠV ideo
iss a
Ġno ise
Ġinter vention
ash ire
Ġour selves
ĠRe bec
ax y
rug uay
Ġgen etic
Ġmembers hip
Ġrepl acement
Ġi Rep
Ġlif etime
ĠBen j
** **
ĠBo eing
Ġlaunch ing
Ġchem otherapy
Ġmach ines
Ġstun ned
Ġcomplic ated
IN G
ĠTele graph
Ġfier ce
Ġsib lings
Ġconfron ted
ĠGover nor
Ġinapprop riate
ĠRebec ca
4 1
A m
A ny
R E
R e
b its
g reg
y ou
Ġt s
in ating
Ġw et
Ġh ug
Ġh ung
ou ted
le ans
ĠS aid
ĠA y
ĠA z
Ġal ter
Ġcon grat
ore n
Ġr ush
ĠG ates
ak i
Ġor bit
ant ing
ie ber
ĠY es
ĠAl ger
ĠAl bert
ock ing
Ġsupp orts
Ġass ets
sh ine
ĠOb am
Ġcare fully
Ġpar ade
atic an
Ġincre ases
Ġsn ap
Ġconcer t
Ġwatch dog
Ġglob e
ĠRichard son
Ġconsum ption
Ġdefend ants
Ġapolog ised
ĠLaw rence
ĠJul ian
Ġgrad uate
Ġclin ical
ĠWin ter
Ġscre ens
Ġerup ted
Ġdeem ed
ĠNether lands
0 7
O S
P S
P ol
f ortunately
g ement
j a
r ard
v iously
Ġto ys
Ġp ets
Ġp ending
Ġm ath
Ġre ass
ĠA venue
ĠC ele
ow een
ĠH ung
un ning
ĠN athan
ĠU ruguay
ist ory
ĠSt uart
Ġrec ording
Ġdec e
Ġimp ressed
Ġcons cious
ced ented
Ġgu ess
Ġsent ences
omet imes
ĠDe velop
Ġsub mitted
Ġlet ting
bed room
Ġwa ited
Ġproper ties
Ġdam aging
Ġemploy ment
Ġur ban
Ġtal ented
ĠPat ri
Ġpercent age
ĠBer g
Ġexist ence
Ġmaintain ed
pre cedented
ĠSom alia
ĠLanc ashire
Ġvirt ual
Ġspons ors
ĠAndre a
Ġdrag ged
ĠFal cao
roso ft
ĠSU V
Ġtodd ler
ĠCelt ic
accept able
B E
D av
f its
k g
w as
Ġc ats
or se
it ched
Ġe ase
ĠC ase
ig hed
ver e
ĠH undreds
ce eds
ĠW ars
ĠF all
ain ts
ight ing
ident s
ĠV ice
ĠV enez
ĠV atican
Ġfl ow
Ġcar pet
Ġsec ured
ling ton
Ġcol umn
Ġsl im
Ġcre ation
Ġdesc ri
ĠHis pan
cl ub
Ġreturn s
Ġtown s
Ġesc al
Ġz ero
Ġexam ination
Ġfit ted
Ġjud gment
asc us
Ġapplic ations
Ġcyc ling
Ġoppon ent
Ġeur os
rep rene
Ġsav ings
Russ ian
Ġpromin ent
Ġank le
e ff
f ts
n ia
t ail
v o
Ġf o
Ġf asc
it ure
as ks
om ic
ol is
ut en
Ġg od
am ental
un ami
ĠF e
Ġde ployed
Ġsu ed
Ġex ha
Ġsp y
ard ed
ie ves
Ġag enda
ĠHe ath
ĠCh an
Ġrec re
ĠV is
iz on
Ġfl ames
pt on
Ġcent uries
Ġgover ning
Ġsy n
Ġinvol ves
Ġprom ising
ĠGer rard
ĠCr im
Ġhost age
ĠEm irates
Ġsuper market
Ġvers ions
ĠSpe aker
ĠKe ane
Ġobs er
Ġgang s
Ġsevere ly
Ġjump ing
Ġscr utin
ĠDam ascus
Ġweigh ing
Ġnom ination
Ġjack et
ĠBrend an
Ġcommem or
C E
Ġt ons
an ing
Ġf ing
Ġf oul
Ġin her
Ġd umped
ĠA le
ĠM oy
Ġe c
ĠC y
ĠC roat
im id
ĠI l
ĠI owa
ĠP C
ĠP ed
th rough
ĠJ oy
end ment
ard ens
ard ash
qu al
Ġad s
ĠV ik
Ġen h
Ġdes k
Ġunder t
Ġbel oved
ĠFr ont
Ġevery where
ced es
Ġgu idelines
ĠDe ath
Ġdel ays
Ġsuff ers
Ġprom ises
Ġstri pped
Ġcoun sel
Ġtreat ing
Ġ199 1
ĠOr leans
Ġblood y
Ġtour ism
ĠBlack Berry
Ġlab our
Ġdiscuss ions
ellig ent
Ġrecogn ition
ĠHall oween
Ġclos ure
Ġtraff icking
ĠAndrew s
Ġclean ing
Ġengine ering
Ġanc est
ĠProsecut or
ĠSus sex
ĠCrime a
bro ken
Ġham mer
Ġprincip al
Ġcateg ory
ĠHur ricane
Ġoverwhel ming
Ġmisc onduct
Ġcous in
Ġwhist le
Ġpron ounced
ĠVenez uel
W ashington
e ter
n an
he imer
Ġf urn
Ġd uties
Ġth roat
ĠS uch
ĠM S
Ġha iled
ul ating
ĠF oster
Ġr ic
Ġun expected
Ġpr ol
Ġsc ul
ĠV in
Ġdes ert
Ġbr on
Ġco at
Ġleg ally
Ġwant ing
Ġcare ful
Ġpoin ting
con n
Ġexpl an
Ġest imate
Ġob lig
Ġfund ed
Ġcoll abor
Ġaut ism
Ġpark ed
ĠMic rosoft
ĠStud ents
Ġburn s
Ġtraum a
ĠPieters en
0 2
0 8
a uc
r ad
z ech
Ġb orr
Ġf ights
Ġf iance
es ome
Ġp ile
Ġd angers
le ton
id ance
ĠS in
ĠC hes
Ġst im
Ġis lands
ec raft
ĠP S
ĠP ere
ĠD y
ĠD ream
our ce
ĠJ esus
ate ur
Ġse asons
Ġex it
ud es
ĠK ardash
ap ore
Ġun certain
ĠTh anks
Ġbl ocks
Ġcar go
Ġexp anded
Ġstar ring
Ġsw ept
Ġstop s
Ġcelebr ations
Ġtechn ique
Ġlo ans
Ġcho ices
Ġprob ation
Ġwat ches
Ġdemonstr ation
Ġconc rete
Ġcommission er
ĠInt elligence
Ġhighl ighted
ĠGab ri
ĠMit chell
ĠKurd ish
ĠEmb assy
ĠPrest on
D on
b ast
m ans
p y
p her
s ung
s elling
in ts
Ġs oph
on ing
Ġw oke
Ġb uck
Ġb orders
Ġh ook
Ġp ip
st op
ve land
ĠS ale
ay ed
ĠM ade
ac are
ĠC av
ur ation
ĠI P
Ġnot orious
ĠK r
ĠK night
Ġint ens
Ġ6 00
Ġend ang
ĠSh an
Ġrun ner
Ġfil es
ĠCom pany
ĠBl ue
Ġbre ad
for ce
ĠCon trol
Ġelect rical
Ġpain ted
Ġ198 9
lo e
Ġrad iation
Ġste el
Ġdress es
Ġdemonstr ations
ĠCle veland
Ġsched ule
ĠDet ective
Ġconvers ations
Ġmigr ants
Ġinsist ing
ĠPy ong
ĠHud son
ĠBenj amin
C l
F rom
P r
m ind
o a
o ist
Ġb ust
Ġo xy
ing ing
Ġp ound
Ġd iamond
ĠM ust
ĠB as
ĠD ew
ĠR ome
ĠE lect
ĠG i
ĠJ ama
ab ul
rou s
Ġor ange
ber ry
Ġman ip
Ġinc or
ond er
ose xual
Ġback l
Ġqu ake
Ġunder c
ĠEn vironment
alk ing
Ġbo asts
Ġpublic ity
ĠCl aire
Ġsit uations
ĠInd eed
Ġmid night
Ġprof its
Ġfore nsic
ĠWar ren
ĠOr land
Ġdeter ior
Ġval uable
ĠIslam ist
sc reen
Ġpun ched
Ġprevent ed
ĠComm and
Ġfast est
Ġengine er
Ġtyp ical
ĠKent ucky
Ġassaul ting
Ġdesper ately
Ġlength y
En g
ĠNob el
ĠChair man
E x
b us
Ġs ne
Ġw ages
Ġw inger
Ġc able
Ġc afe
Ġl asted
ĠT oy
Ġre ly
Ġre ducing
ĠH ague
Ġas leep
Ġan ch
ĠF ield
Ġr aces
ĠE p
ĠG il
Ġher itage
Ġch annel
Ġv it
up id
Ġsp ends
um m
Ġpl ate
ĠK ath
ĠK ansas
Ġrec k
Ġrec ip
ĠAl most
rib ed
Ġ6 9
ĠSh ort
ĠDe an
ĠBl ake
hel ess
Ġviol ation
Ġcampaign s
ops y
Ġlo ose
Ġmus ical
Ġcor respond
Ġgener ations
ĠRober to
Ġfem in
ĠKe ith
ĠOp inion
Ġassoci ation
ĠMet ropolitan
Ġexplos ive
ĠInvestig ation
Ġpurp oses
ĠSports mail
Ġwreck age
Ġsom ewhere
ĠSing apore
Ġtact ics
ĠQueens land
ĠGlob al
Ġvig il
Ġoxy gen
B e
B rit
G en
O h
k h
Ġc ra
Ġm ph
id d
ĠS ab
ĠM aine
ig ible
Ġwh is
ĠH ut
Ġal erted
Ġr ot
Ġch amber
out heast
ĠIn formation
ne ider
ĠV ol
Ġro cks
Ġact ors
Ġunder go
Ġph ase
Ġrel ation
ĠJo el
rent ly
amed ics
Ġest rang
ĠPe ace
Ġdesign s
rop ical
Ġlist ening
Ġspot light
ĠMil itary
Ġstorm s
Ġunc ons
Ġtable ts
ĠMur phy
Ġcoast al
Ġpan ic
Ġhistor ical
ĠMer cedes
Ġfle et
Ġmotor c
Ġpromot ing
Ġreven ge
ĠBry ant
Ġgall ery
Ġmethod s
ĠBrother hood
ĠCrit ics
Ġliqu id
ĠStafford shire
ĠTreas ury
0 6
E ven
f a
l bs
r ated
Ġa ston
Ġb ol
Ġh oney
ĠT itan
ot es
am an
Ġst orage
ĠB ain
ĠB ase
ĠH op
ĠH old
ĠD or
ĠG ame
ĠG ran
our se
Ġch ase
Ġwe ighed
up s
ĠU r
Ġwor rying
Ġout standing
Ġover s
Ġme ters
Ġapp ointment
pl ess
Ġmon arch
Ġdown town
Ġra ises
Ġhand ful
Ġmar athon
Ġ7 8
Ġsign ature
ĠCol in
Ġoper ate
Ġelect ronic
Ġ0 3
Ġorgan ised
ĠGr ace
Ġgrand children
Ġnation wide
Ġdi ab
Ġmot ive
Ġur ging
ĠMed ia
ĠCor por
Ġfamous ly
Ġtouch down
Ġnewsp apers
Ġnetwork ing
ĠNor man
Ġful f
ĠMer kel
Ġparticip ate
ĠSil va
Ġchemical s
Ġlic ense
Ġsurge on
ĠColumb ia
ĠGirl s
Ġcanc elled
ĠLl oyd
Ġdisturb ing
ĠArk ansas
H er
L A
O f
m m
r ac
w ill
on so
Ġw ishes
Ġf er
ou ces
Ġd ies
Ġd ivers
Ġth orough
Ġl apt
ĠT MZ
ĠS aint
am ford
ĠH unt
ĠP o
Ġal arm
ĠW ay
ĠD ise
Ġv s
Ġsu its
Ġcl ar
Ġad j
Ġun law
Ġpr ide
Ġpr int
ĠV oy
Ġthem e
ĠAl aska
ĠAn imal
ĠLe one
Ġcons ent
Ġplan ets
Ġsm iles
Ġ7 3
Ġent reprene
ets k
Ġ8 00
Ġreal ize
Ġdirect ors
Ġtravel ers
ĠAb ove
Ġprof it
Ġfur ious
ĠGr ant
Ġbreak fast
ĠCount ry
Ġgrand p
Ġfall s
ĠLab or
Ġdoub led
ĠPri ze
Ġwood en
ĠLar ry
Ġforg otten
eme tery
Ġven ue
Ġguarant ee
Ġnav ig
Ġportra it
ĠBarcl ays
ĠPyong yang
ĠOrland o
D o
a hn
n ecess
Ã ¢
it ar
ing u
Ġm art
Ġm ud
ĠS el
ig ious
ĠB attle
ĠB ieber
th reat
Ġcon stit
ĠE ve
od ay
ĠK ob
Ġag grav
Ġun precedented
Ġint elligent
Ġper pet
Ġbl onde
Ġinter ior
Ġunder going
Ġop ens
olog ies
Ġnight mare
Ġmiss iles
ĠOn line
ik a
ĠTr ade
Ġshoot ings
Ġclass ified
Ġread ers
Ġill ustr
Ġpres ents
Ġchallen ged
Ġconn ect
Ġperiod s
Ġbomb ings
Ġvan ished
Ġindic ate
igg s
ĠConserv atives
Ġdramatic ally
ĠMem bers
Ġextrem ists
Ġtum our
Ġtrigger ed
ĠInsp ector
ĠCos by
Ġrapid ly
Ġspac ecraft
ĠFest ival
ĠObam acare
Ġestrang ed
4 2
8 5
I M
h ur
p ol
p ret
Ġt rem
at ers
or i
it ated
Ġh ij
ĠT ai
ĠA ud
ad get
ĠP res
ĠW ik
ĠL in
ĠL oc
ĠL amb
ĠR en
ĠR ice
ĠJ et
Ġsp ots
ort heast
ĠK aren
ren a
Ġint imid
ip er
act ions
ob i
Ġunder ground
Ġgu idance
Ġbo ats
ĠMon aco
Ġinf ant
Ġprison er
head ed
ĠPh oen
Ġgun shot
ĠGu y
Ġel abor
ĠSer ie
ĠEx pl
Ġbed s
lim inary
ĠBer lin
pro fit
add y
Ġspir its
ĠWal ters
Ġroll ed
Ġcy ber
ĠBurn ley
ĠRA F
ĠGriff in
Ġing red
Ġmanufactur ers
ĠViet nam
Ġstagger ing
Ġuncons cious
E C
M an
f i
h t
k ick
l ie
s ign
in ate
ĠT SA
ĠT rip
Ġst ance
Ġsa ving
ĠP it
ĠD onald
Ġch op
Ġj unior
Ġpro st
ĠK u
ĠK y
Ġev al
Ġstar red
Ġhigh way
Ġnight club
Ġalle ges
Ġcontr acts
Ġmiss ions
ĠCar roll
ĠDe ad
ific ations
Ġdet ain
Ġpay ment
Ġinf amous
ĠCon f
Ġdra ft
Ġbar r
Ġbar rel
Ġsuggest ion
Ġcover s
ĠSam sung
Ġboard ing
ĠAlex and
Ġrespond ing
ĠRob b
Ġpenal ties
Ġbuy ers
Ġscient ist
ĠBal tim
Ġmount ains
igg ins
ĠBoy le
Ġbatt led
ĠAbd ul
ĠColumb us
ĠKir k
Ġrevel ations
Ġcrack down
Ġdu o
ĠHom eland
ĠAnton io
ĠDiv ision
Ġlegit imate
Ġbron ze
Ġexplan ation
ĠBaltim ore
L et
O M
b eck
p ower
z h
Ġa x
en h
Ġb ite
Ġf ence
it ol
Ġto oth
Ġto xic
Ġin aug
ĠS old
Ġg ifts
ĠC ou
Ġfor th
ĠB elf
ĠH istory
ĠL ie
em outh
ĠN y
Ġle thal
ĠO pp
ist a
Ġres ear
Ġcont ext
Ġra w
Ġfin ance
Ġevery day
Ġrel ie
Ġter rifying
Ġ7 00
Ġdep ort
Ġann oy
Ġopen ly
Ġ199 2
Ġland mark
Ġwa ist
Ġhope ful
Ġkid ney
Ġgra phic
Ġur ge
umb led
Ġtrad ing
Ġloss es
Ġsepar at
ĠVal ent
ĠDon etsk
ĠDun n
ĠVe ter
ĠPre vention
ĠLiber ia
Ġtransform ed
Ġtroub led
ĠBenn ett
ĠBox ing
5 4
A A
E T
e or
e ating
f ted
m und
m atch
en berg
Ġc ease
is le
it ement
Ġm ate
Ġm all
Ġbe aches
Ġl ied
Ġre op
ĠA ge
ĠC ancer
ter ing
ĠI V
ĠB ud
ĠB ark
os a
ĠR oc
ĠR esp
Ġle aked
end ar
Ġsu ic
gh ai
Ġj ets
ĠK iev
ond a
Ġdis h
ĠTh ames
ult ural
Ġdon or
Ġresp ected
Ġconf used
Ġ7 6
Ġ7 7
Ġcol ours
Ġdri ves
Ġrele vant
Ġsub jected
Ġrest ored
ĠAust ria
ĠRom ania
Ġequ ally
ĠGl ouces
ruct ive
ĠHol mes
Ġbank rupt
Ġbox es
Ġappeal ed
Ġroll ing
ĠDen ver
Ġachieve ment
ĠII I
Ġsear ches
How ever
Ġje ans
Ġapprec iate
Ne ill
Ġaccur ate
Ġster e
Ġtat too
Ġshout ing
Ġpaed oph
ĠKardash ian
ĠPhoen ix
5 3
d i
h at
h um
m aking
s m
y th
z ai
Ġt anks
Ġf ab
it ted
es a
Ġm ourn
Ġbe ef
ĠT ake
Ġre ign
ot ing
ol o
Ġe cho
ĠC zech
ĠH ag
ri ages
ĠW o
ore y
ĠJ av
iss ance
Ġph il
Ġrel uct
ah oo
ave z
Ġlong est
Ġsm ell
Ġattack er
Ġmar ch
Ġfil ing
ĠCo hen
Ġart ific
Ġball oon
ĠOr ange
ĠEm ily
Ġsen ator
Ġpres idency
ĠSen ior
ĠHam as
ĠNe ander
Ġdest ruction
Ġcreat ure
ĠHigh way
ĠBro ad
Ġaud io
ĠPer u
ĠVal enc
Ġclos est
ĠIndian a
Ġapolog ise
Ġassoci ate
ĠArgent ine
Ġexplos ives
Ġresign ation
do ing
Ġspirit ual
Ġextrem ist
ĠNic olas
Ġprec ise
Ġment ally
Ġpattern s
Ġjew ell
ĠPolit ical
ĠTransport ation
terror ism
Ġiniti ative
ĠIndepend ent
ĠSoph ie
Dav id
C ar
b at
f ers
he astern
Ġc in
ar ted
Ġp od
Ġm amm
Ġre vers
ĠM ain
ĠB aby
ra ged
ag ne
ĠN ine
ĠG ene
Ġch icken
Ġsu ing
Ġj oked
ab ad
ist ent
ĠCh avez
Ġres erved
Ġcomp on
ign ment
Ġpr ince
Ġro ver
lic ted
Ġfe ver
Ġteam mates
Ġwar ns
Ġind ict
Ġschool girl
Ġconf usion
ĠRe ed
tain ment
ĠPr ice
Ġmen u
omet hing
Ġprov oc
Ġstop ping
Ġ13 0
Ġfund amental
ĠAir ways
Ġhar sh
Ġrad ar
Ġdiv ided
Ġbas ically
Ġtouch ing
Ġrecogn ise
Ġrecogn ized
ĠHel en
Ġhelicop ters
ĠDown ing
ĠJeff rey
ĠAg ain
Ġinstit ution
Ġdemocr atic
ĠJen kins
Ġqual ified
ĠOrgan ization
ĠFern ando
Ġcomprehens ive
ĠDise ase
5 8
i ott
n ity
on ies
on to
am mar
ĠH al
ĠH us
ĠH annah
os c
ra wn
ĠD ian
ĠD aw
our ing
Ġj okes
ab we
oc key
Ġup stairs
Ġad apt
Ġun rest
ne ath
ĠV ar
Ġany way
Ġinter ven
au x
ash a
ĠLe ader
ah aw
ĠBr un
Ġche aper
atur ally
Ġexpl aining
ĠCon stitution
ĠSe bast
Ġ199 3
Ġhom icide
Ġemploy ed
Ġsol ve
ĠCamer oon
Ġshop pers
Ġenjoy s
ĠMus ic
Ġz oo
Ġrecogn ised
ograp her
Ġfra g
Ġpet rol
Ġobs erv
imb abwe
ĠLiber al
ĠProt ection
ĠCole man
ĠEr n
Ġdict ator
ĠStra uss
Ġsubsequ ently
Ġsch olar
olph ins
Ġunivers ities
ĠHit ler
Ġphen omen
Ġts unami
ĠShan ghai
O T
T oday
d aughter
m al
m igr
Ġa ired
Ġh ill
Ġh ip
Ġp ure
Ġl orry
ĠS uff
ol an
Ġg al
Ġg ig
Ġg adget
ac hers
et z
Ġst ake
Ġst airs
ĠP ier
ĠU l
Ġcl ock
ans ion
Ġun ions
Ġpe ers
Ġrep eat
ĠY an
ob ile
Ġtr acked
Ġinter im
Ġunder neath
ĠMar ie
Ġcons ecutive
Ġinvest ors
any ahu
app er
Ġcome back
Ġsub stitute
Ġexpl icit
Ġexpl oded
Ġsuff icient
Ġav iation
Ġless ons
Ġseem ingly
ĠAss ist
Ġsqu ee
uff ed
Ġbillion aire
Ġreason able
ĠPer haps
Ġep id
ĠNet anyahu
Ġflag s
Ġpsych ological
ĠLanc aster
Ġpainting s
Ġrat ings
Ġrefuge es
Ġtort ure
Ġcompar ison
Ġdispl ays
ĠTurn er
Ġrespective ly
ĠRaf ael
Ġsoph istic
ĠValenc ia
G o
Y es
g ood
h aul
o op
s l
Ġw ww
Ġf u
it udes
Ġp ole
Ġd ign
Ġd yn
ic ation
Ġhe els
ut ting
el er
ĠB ath
Ġwh ilst
ĠH istor
ra ught
ĠL uk
ĠF lyn
ĠR ight
ĠG ot
Ġcom a
Ġex ceed
ab el
ok o
Ġun named
Ġ20 20
Ġdis e
ass ion
Ġrec alls
anc ial
Ġshow er
Ġcr own
Ġdec ent
ĠShe l
Ġexp ects
ĠSc ene
ah man
Ġend ured
Ġshould ers
sh ips
Ġhand led
ĠIs a
Ġpub l
Ġemploy ers
ĠGl ass
Ġimpro ving
Ġgener ous
Ġdev oted
Ġunc overed
ID S
Ġunf old
ĠCarl os
ĠAbd ullah
ĠMem orial
Ġinnoc ence
ĠPhill ip
rup ted
Ġrom antic
ĠBM W
Pol ice
ĠBelf ast
O U
h ard
p ot
r ina
t ons
v olt
Ġt iss
Ġs ou
an tha
Ġb ic
Ġm ild
ent ry
Ġl un
ĠT a
ĠS ex
ĠS ony
Ġg own
Ġg ru
ac on
ĠC ow
ĠB T
ĠB ishop
ĠP rom
Ġas hes
ĠL ight
ĠE xt
ĠG ay
ab lo
ĠIn side
Ġacc using
Ġany more
Ġdes erve
Ġdes erves
Ġtri o
ĠAr n
uth ors
Ġmed als
Ġpass port
Ġrece ives
iven ess
Ġoper ator
Ġcost ume
Ġreveal ing
Ġfire arms
ran ch
Ġris es
Ġred uction
ĠMan agement
Ġkind s
Ġbene ath
Ġhor rible
Ġpri est
ĠSan ford
Ġphotograph y
ĠLou ise
Ġexam ine
Ġpers pective
Ġcollect ing
Ġgrad u
resp ons
Ġkidn apped
Ġweigh s
Ġtempor arily
ĠMalays ian
Ġtaxpay er
Ġdiscip line
enz ie
Ġrecon st
ĠMarsh all
Ġaccommod ation
Ġconced ed
ĠLeban on
ĠNear ly
ĠBash ar
ĠiRep ort
Ġscul pt
M ay
M ost
O b
c asters
p at
t urn
Ġt ips
er ie
en k
Ġb acter
ar o
Ġm erc
ion e
Ġl es
Ġl ane
ut t
ĠC ov
Ġwas hed
ro gen
ĠW H
em s
ĠF OR
ĠR ic
Ġr ans
ĠG CS
ast e
se in
um per
ĠK ier
ap h
ect ives
ub b
ib ilities
ĠAl z
over s
ĠAn ti
Ġsm iling
Ġche ek
Ġcond ol
Ġstat ue
ĠZ imbabwe
Ġair pl
Ġsw ing
Ġhospital ized
ĠCo alition
ĠPro gram
Ġemer ging
Ġshoot er
ipp er
Ġbill ions
ĠSam antha
Ġhuge ly
ĠSen ator
Ġcontrib ute
ĠSch um
Ġcreat ures
Ġappeal ing
Ġstrate g
Ġdomin ated
Ġanalyst s
Ġtransp orted
Ġtermin al
Ġhighl ights
ĠGib son
Ġcoin c
Ġresist ance
ĠDur ham
Ġjur ors
Ġawa iting
Jo hn
Ġdescri ption
ĠHispan ic
Ġjewell ery
L S
M any
R I
c r
f are
h all
r ising
w estern
er ies
Ġs in
on ly
Ġw rest
Ġc ow
Ġh acked
Ġl ibr
Ġg ate
ĠA ward
am el
Ġst ability
ro v
ĠB uff
ra g
ĠD od
ĠD iana
ĠR aj
Ġcon ven
ew ay
up er
Ġup loaded
Ġad min
Ġun acceptable
ub ble
ĠV ers
ĠY o
ĠY ahoo
Ġbl aze
anc hes
Ġpre y
Ġpre liminary
Ġdec re
ĠSc ar
oth y
Ġhead er
ĠWe iner
ck er
Ġsign al
ster oid
Ġstr anger
ĠZ e
ple te
Ġcontin ent
Ġgl ad
Ġmod est
ĠHar per
Ġviol ations
Ġoper ated
Ġob ese
Ġfore cast
let t
Ġorgan is
Ġform ally
Ġchief s
Ġhol es
Ġstrugg les
Ġaccident s
Ġprevent ing
Ġbroad caster
Ġkick ing
Ġep ic
Ġbott les
Ġglass es
ĠCast le
ĠWin ston
ĠPri x
ĠWell s
ios ity
Ġarrang ed
Ġarrang ements
Ġparliament ary
ĠBry an
Ġgar age
Ġlegend ary
Ġeleph ant
Ġconsist ent
ĠNev ada
ĠLam bert
ĠRy der
ĠFerr ari
Ġconver ted
Ġaer ial
ĠOliv ia
ĠForm ula
ĠWitness es
Ġcurren cy
ĠDevelop ment
ĠVoy ager
ĠAlz heimer
G B
k inson
w ear
w ind
Ġa unt
Ġs ample
is p
ar ia
Ġh acking
Ġm ac
Ġd ock
Ġl one
Ġl ists
Ġre nd
ĠS ong
Ġg ross
ĠM atch
ac co
ur red
et ing
ro ft
ĠW ool
ul ent
ĠL ine
ĠL iving
ĠR un
Ġsh irts
Ġv ocal
Ġde er
ĠO mar
Ġun necess
ru cted
ĠV iol
pl us
ĠAl g
Ġcar rier
ĠMar x
Ġdef eated
sh irt
Ġhand c
Ġsl ipped
Ġair ports
Ġeff icient
Ġdead line
Ġhard ly
lin ary
Ġcompet itions
Ġeng age
Ġsure ly
ĠPark er
Ġdifficult ies
ĠRich ards
ĠTra gic
ĠLu x
ĠPort land
Ġinflu ential
Ġapolog ized
Ġfair ly
hab i
Ġconduct ing
Ġfeed ing
Ġpromp ting
Ġfrequ ent
Ġsurge ons
Ġqualif y
Ġliber al
Ġroutine ly
Ġintegr ity
ĠJosh ua
Ġdeliber ately
Ġcasual ties
Ġtheat re
ĠBloom berg
ĠTou re
astro phic
ĠNico le
ĠCele br
Ġaggrav ated
Ġstere oty
Ġdise ases
I l
h ran
l ades
m ons
s a
Ġt ables
Ġc ared
Ġo v
es ha
ĠT am
ĠC re
us ions
th at
ĠL amp
ag u
ĠF ast
Ġsh outed
Ġpro ven
Ġwhe els
ak a
ak u
ous and
Ġun aware
man uel
Ġnew born
Ġfl ats
Ġmon key
ĠAl ice
ĠUn like
Ġser v
ĠAn field
ement ia
Ġgu itar
Ġresp ects
Ġter rified
Ġsl aughter
Ġ8 8
Ġspe eds
Ġfather s
Ġannoun cing
ford shire
Ġcompet itors
Ġproduc ing
Ġide al
ĠRo om
Ġcapt ion
Ġsurv iving
int end
Ġtrad em
Ġdro pping
Ġcommon ly
Ġconsider able
Ġquarter back
Ġargu ments
Ġregard less
Ġwid ow
Ġcook ing
Ġtow er
Ġexcept ion
Ġfrustr ation
mun ition
ĠStan ley
Ġtex ts
ĠAff airs
Ġgreet ed
ĠPers ie
Ġmere ly
ĠTunis ia
usal em
Ġconstit u
0 1
E F
M ore
s ers
Ġin mate
id ges
ĠT ri
ĠT ib
st ick
Ġg otten
ĠM ort
ig ue
ĠB ourn
us hes
ĠH os
un es
os er
ĠD habi
ĠL ank
ke ys
Ġsh ake
Ġsh ield
Ġpro portion
Ġk m
Ġout door
ap olis
Ġad mission
oll ah
Ġback s
Ġpre st
Ġinv ent
ĠAl f
Ġam ateur
Ġrem em
Ġear s
ĠSp ani
Ġco aches
ĠRe agan
Ġpass age
Ġpublic ation
Ġstr anded
Ġpresident s
Ġdem ol
ĠCo ch
Ġel igible
Ġsol ic
Ġdemonstr ated
Ġstab bing
Ġaccept able
Ġscreen ing
Ġfix ed
Ġant ib
Ġpup il
ĠOs ama
Ġhal t
Ġstruct ures
Ġfrustr ated
ĠNic ola
Ġvirt ually
Ġcooper ation
Ġboot s
Ġanx iety
Ġgest ure
Ġoverd ose
Ġbes ide
ĠCu omo
ĠResc ue
ĠCase y
uten ant
ĠPere z
ĠTitan ic
ĠSchum acher
5 2
O LL
e a
h al
s or
in st
er ts
Ġb ases
Ġo dd
Ġl atter
Ġre aches
Ġhe al
st ead
ĠM ang
ĠB ever
ĠB erry
ĠH S
Ġha ul
ts hire
ĠN EW
ĠN BA
ĠG ro
ĠG olf
ew ork
Ġsp are
um my
Ġcl ick
ict ing
iss ions
ens on
ĠAl ong
Ġlong time
ĠCl ick
Ġstat istics
ĠPr ison
Ġsub mit
Ġdet ected
Ġve t
ĠCol bert
Ġtravel s
Ġocc urs
Ġexecut ives
friend ly
ĠSam ar
ĠWith out
sc ale
Ġconn ections
Ġ197 7
Ġ197 9
ĠCor p
ĠCong o
Ġfat ally
Ġbox ing
Ġcred ited
Ġsal t
Ġdeliver ing
Ġdin ing
ĠCap itol
ĠRos berg
Ġmaintain s
Ġexerc ises
Ġqualif ying
Ġnut s
Ġpled ge
ĠCommun ity
Ġfiref ighter
ĠBern ard
ĠMot or
Ġresol ve
ĠBang lades
ĠLyn ch
ĠEnter tainment
Ġnick named
ĠLenn on
Ġnomine e
ĠCroat ia
Ġunlaw ful
0 3
5 7
B ay
D P
I L
a ired
f inals
f eld
g iving
h r
r era
t here
u j
u ment
u ccess
he nd
in ted
Ġb old
Ġf ool
it ious
ar io
Ġto y
Ġd ated
Ġd imin
Ġd ementia
om ers
ĠT an
Ġg rie
ĠA rena
ĠM A
ĠM ey
ĠC roy
ĠB ae
ĠP R
ĠP ard
ch ild
ĠD J
ĠE mp
ĠE ti
ain ted
Ġse al
um ar
ĠK i
ĠK le
ell ar
Ġun t
Ġres ume
Ġsc are
Ġpol ar
Ġev il
Ġen able
Ġam munition
Ġcent ers
Ġexp ression
Ġaw ful
ĠWh ich
Ġgover n
Ġ8 4
uct ions
ĠMay be
ĠBe aut
aun ch
Ġ0 2
Ġed ition
Ġless on
Ġtre as
ump s
ump ing
Ġimm une
Ġexc use
Ġmean while
Ġri pped
Ġval id
Ġrac ism
ĠBel le
Ġconsider ation
Ġattr active
Ġsem if
Ġargu ing
ĠHel p
Ġcop ies
Ġpray er
ĠFin ancial
Ġwood s
Ġupd ate
Ġbatt les
ĠTor onto
Ġut ter
ĠIndones ian
Ġrelax ed
lec ts
ĠMors i
Ġautomatic ally
Ġridic ulous
Ġhaz ard
ĠHung ary
ĠPatri ots
Ġscrutin y
Ġelabor ate
5 1
c hester
f our
f air
i ya
l iest
m el
y es
z es
Ġs ank
Ġthe ater
en ko
Ġb ik
is k
is hers
Ġh orm
Ġin ev
ou ds
ent er
ot al
ĠA th
ĠM ug
ĠM itch
ĠI M
Ġst upid
ĠH a
ĠH erald
Ġat e
ĠP arents
ri en
Ġal ly
Ġy ard
th ree
ĠF isher
ĠN i
ĠE ri
ĠG w
Ġv om
um ing
iv a
ĠK ings
Ġcl iff
ie u
ber ger
ĠCh ange
ip ed
ĠTh ai
ens ed
Ġqu ant
Ġmon ster
Ġcent res
Ġind ecent
ĠSh i
Ġ7 4
Ġsign als
ĠCl ose
Ġ8 6
Ġmod erate
Ġcampaign ers
lin ing
Ġstri p
Ġthreat en
Ġfree zing
Ġhope fully
Ġsuper b
uk a
Ġcal endar
ĠCor oner
Ġimmigr ant
Ġinfl ation
Ġflood s
Ġspread ing
Ġconc lud
Ġconserv atives
ĠDet ectives
Ġcommunic ate
ĠMiddle ton
Ġowners hip
Ġdivor ced
ĠJer usalem
Ġfeed back
bel iev
ĠUs ing
Ġaffect ing
Ġeur o
Ġadvoc ates
ĠSwed ish
Ġmir ror
cont rolled
ĠSav ile
ĠWeek ly
Ġbelief s
Ġconstitution al
Ġcruel ty
Ġacad emic
ĠTechn ology
Ġdischar ged
arth y
hur st
Ġartific ial
Ġsophistic ated
m ir
n ew
p ound
r ings
u zz
Â ¿
Ġw and
Ġf ranch
ic ians
id o
Ġl od
Ġl ap
ĠT rain
Ġhe ated
ĠS et
Ġg room
ĠA ber
ĠC it
Ġst ir
ĠB ene
ĠP in
ĠP riv
Ġas h
ul ting
op ping
ĠF at
ĠR ams
ĠN ash
Ġr all
ĠE c
ĠG ove
ĠO ak
Ġj aw
ab outs
Ġsp an
se e
Ġab using
Ġor ph
Ġbut ter
ant an
ĠSt amford
Ġsc am
oy le
amp a
Ġhome own
Ġrel ating
ĠAr ctic
Ġ7 9
Ġcare ers
Ġdep uties
Ġsupport ive
Ġpar ole
Ġtrain er
ĠAustral ians
Ġemer ge
Ġel imin
Ġwear s
Ġhost ages
ortun ate
Ġsol utions
Ġexc itement
Ġsen ators
Ġlif ting
sp ec
Ġaut opsy
Ġdraw s
ĠArs ene
Ġbas ement
Ġtrou sers
Ġmind s
Ġdisplay ed
Ġpers ons
oz one
ĠDar ren
ĠWeb b
do ch
ĠFoll ow
Ġnut rition
ĠAh mad
Ġpal ace
Ġisol ation
Ġprin ted
Ġintrod uce
Ġdial ogue
Ġsubstant ial
Ġastronaut s
Ġunh appy
Ġfing ers
Ġendang ered
Ġgrandp arents
ĠTib et
0 9
5 6
I T
S c
f olk
m id
n orm
r ace
Ġt one
Ġa uthors
Ġc ave
Ġc ops
Ġb ip
Ġf isher
Ġp ills
Ġp oured
ou b
Ġm ug
Ġl inger
Ġn erve
Ġre verse
ĠS A
ĠM ul
ĠH ig
ĠH ook
ĠH uss
ĠP ast
un al
ĠD isc
ĠF le
ĠR est
ew hat
ĠJ un
Ġse aled
ab out
Ġpro stitution
Ġcl ues
ĠIn n
Ġpe er
Ġcont amin
Ġdis rupt
Ġpr ank
Ġpr isons
iz za
Ġ19 40
ĠNew ark
Ġstr angers
Ġspec ially
Ġsub mar
Ġref use
Ġmove ments
ĠAd eb
Ġsn apped
ĠCent ers
ĠWar ner
ey mar
Ġpres cription
Ġur gent
ĠAlex is
Ġmeas ured
ĠWil tshire
ĠMal ala
Ġsun shine
Ġdoub ts
ĠPer th
ĠBur ke
fort able
Ġdetermin ation
Ġconfident ial
Americ ans
Every one
Ġmonit ored
Ġmyster ious
Ġretail ers
ĠWild life
Ġtort ured
Ġclimb ing
Ġinstruct ions
Ġassass ination
Ġprofession als
ĠBol ton
Ġcert ific
Ġextrad ition
ĠMoy es
Ġfurn iture
Ġdiab et
threat ening
ĠTrip oli
Ġtradem ark
antan amo
ĠHuss ain
M ad
h ot
l ay
r ane
Ġt ipped
Ġt ropical
he ll
er ia
Ġs od
Ġw age
ed ed
an or
Ġb out
Ġp ave
Ġd a
Ġd rought
ic y
Ġth ousand
Ġl ion
ĠT ax
ĠS T
ĠS aints
ay or
ol ine
am bers
ĠC and
ĠC reek
ur ches
ch ange
ĠD iamond
ul us
ĠL ower
ĠE sc
ast on
Ġnot ing
oc a
ĠK atherine
oll s
ress ing
Ġsc ary
Ġatt rib
The n
ĠAl onso
year s
ier i
rib e
Ġkill ers
ric ted
Ġco al
ĠCl o
ĠMc N
omet own
Ġdep os
Ġprov ision
Ġtop ic
Ġsub way
Ġgl ory
Ġsw ift
Ġpar ks
Ġopp ose
Ġcost umes
eng u
ĠEd itor
Ġdeb ates
Ġdam ages
work ing
Ġpolic eman
Ġpriv ile
ĠSo chi
ĠDan ish
isc al
ĠCor ps
Ġdiscuss ing
Ġcomplain ing
ĠTe hran
Ġindic ation
Ġmagaz ines
Ġshut down
Ġstrate gic
Ġcab inet
Ġfarm ers
Ġrequire ments
ĠNiger ian
ĠBor is
Ġrefuge e
ĠGriff ith
Ġsac rif
beat en
Ġcancel ed
Ġfundra ising
ĠVenezuel a
ĠVin cent
Ġaston ishing
ĠCoch ran
) ;
P C
c ill
c ony
h ift
i y
i ating
j ud
m and
n ame
r owing
u z
v ity
en ess
Ġf ancy
it ches
Ġp and
il ot
ĠT on
ol ks
ut ral
am ic
ĠI T
ĠI ce
ĠI ron
Ġst ones
ĠH ass
un a
Ġal ien
th ouse
ĠR ou
ĠR SP
ĠN ever
ĠN eymar
ĠJ erry
Ġse as
Ġab usive
ong a
Ġover weight
Ġsome how
Ġmy th
Ġnow here
Ġcr ushed
Ġdec iding
ĠAn tar
Ġrem oving
Ġcount less
ov al
ĠAr med
Ġsee ks
ĠOb s
pr ise
Ġpar ach
Ġviol ated
ĠSe ahaw
ĠAd rian
Ġsn ake
Ġmain stream
ĠGu antanamo
Ġhuman ity
Ġball ot
Ġprocess ed
ĠMcC arthy
Ġval ued
Ġaut umn
Ġresident ial
ĠTra volt
Ġbank ing
ĠMur doch
Ġtrib utes
ĠSal mond
Ġimprove ment
Ġbal cony
Ġregard ed
Ġbelong ing
ĠBob by
Ġswe at
ĠRam sey
Ġtun nel
Ġdistrib ution
Ġdiscip linary
Ġprincip les
Ġsatisf ied
ĠNev ille
Ġintrod uction
Ġvacc ine
OW N
Ġimprison ment
ĠAlger ia
ĠSebast ian
Ġtiss ue
ĠSpani ard
F K
S mith
g s
n ation
p it
p ost
Ġt ong
Ġa steroid
in ness
Ġc ours
or ne
an ed
ou st
Ġm ail
Ġd re
Ġth under
ĠT ah
ĠS ri
ĠA N
ĠM ol
ĠM aid
Ġe ager
el ve
el ia
ro e
ĠB ody
ĠP ict
Ġha bits
ĠD a
ĠD ark
op ol
ĠL an
ag anda
ĠF ans
ĠR eds
if fer
ĠN az
ĠJ ol
Ġde ploy
Ġex amples
ĠU g
ak h
ok er
Ġoff ender
Ġun con
ĠCh uck
ind ing
Ġpol y
Ġac res
atch ing
ĠBrit t
ank ed
ĠRe yn
ĠWe ather
io x
Ġext ension
Ġdet ective
Ġsw all
Ġ0 1
Ġcampaign ing
Ġmor al
Ġprogram mes
ĠAll iance
Ġgrand son
Ġeng aging
Ġpriv ately
ocu mented
off s
Ġthr one
Ġ198 6
ĠMcC art
ĠWith in
Ġdisapp ointment
Ġcreat es
Ġdisp ers
Ġgold en
Ġrecogn ize
ĠLord s
ĠCam illa
Ġsens ors
âĢĿ .
ĠHug o
ĠKat rina
Ġharm ful
Ġthank ed
Ġassaul ts
Ġble w
Ġremind er
ĠRoberts on
ĠGun ners
Ġmotiv ated
Ġrecommend ations
Ġpsychiat ric
Ġfright ened
Ġdece ased
vere ign
ĠCrim inal
Ġdiabet es
ĠSeahaw ks
) :
M art
P A
b es
l on
n ock
p iece
t aking
u cc
v oy
w alk
Ġt an
Ġt emp
he art
er als
on ial
Ġc rop
at ab
Ġh ometown
il itation
Ġl ined
Ġn inth
Ġhe d
st ring
ĠM ata
ĠC L
ĠC ay
ĠC ord
Ġst em
ĠB es
ĠB ald
ĠH um
ĠH ave
ĠD al
ĠD ak
ĠD OWN
ĠL is
ĠL az
ĠR ush
ĠN one
Ġcom ic
ast ing
ok ia
ĠK am
ans k
ĠCh allen
ĠIn it
Ġres erv
Ġrep ay
Ġinc ent
ne ver
Ġrec l
Ġ19 30
Ġwhere abouts
Ġimp ose
Ġac ademy
Ġfin es
Ġem issions
Ġreg ulation
Ġfriend ship
ĠSh ah
ĠEng ine
Ġwr ist
Ġinj uring
Ġdep ending
by e
Ġrecord ings
Ġadv is
Ġhom osexual
Ġequ ality
Ġple ading
Ġhost ing
ĠSte enk
Ġ198 4
Ġweekend s
Ġvol ley
Ġcrash ing
ĠBlack s
Ġste ady
Ġ196 8
Ġstorm ed
het t
Ġrout es
ĠFar rell
Ġcoach ing
Ġreview ed
Ġobs c
Ġexperi encing
Ġblock ing
Ġlegisl ative
Ġmotor ists
ĠKar l
empor ary
ĠSl ov
Ġlog o
Ġess entially
Ġvess els
Ġder by
Ġadvoc ate
ĠMod el
Ġperman ently
Ġoccasion ally
ĠBrand on
ĠPot ter
Ġsubsequ ent
ĠHend erson
ĠTH E
Ġtoug her
pher d
ĠTai wan
ĠHus sein
intend ent
ĠTravolt a
ĠSteenk amp
E FA
M e
a ab
h ome
l ifting
m ill
r uption
Ġs add
Ġthe ories
an ium
Ġb oun
Ġb isc
Ġh ood
Ġd irty
Ġth igh
Ġn aturally
ĠT ob
ĠS ut
ĠS earch
ĠS CR
Ġg ren
ac les
et ary
Ġst icking
ĠH and
ĠH az
ĠP ay
ation ally
ĠF un
ĠR uth
Ġcon vert
ĠG add
ĠJ od
ĠJ agger
Ġch urches
Ġle ap
Ġle ather
ĠO z
Ġex ists
Ġsp o
Ġun beaten
Ġso vereign
ens us
Ġpre cious
Ġcar avan
Ġcr ashes
Ġdec k
Ġdes erved
Ġph r
Ġcons ol
Ġbelie ving
tern al
gr and
Ġsl ip
ĠMc Il
Ġ8 3
ĠCar a
Ġdep ressed
ys c
ten ance
Ġcommun ist
ĠMiss ion
Ġoper ators
ĠAfric ans
Ġappro ve
cent ury
Ġey el
ĠEx ecutive
Ġ198 7
ĠMcC onnell
sp oken
Ġaut om
Ġste pping
Ġport ion
ĠEv ent
Ġcard iac
ĠBur g
ĠFranc ois
Ġunf ortunate
udd y
Ġpromot ion
ĠDel hi
ER E
ĠEll iott
Ġprem ium
Al though
Ġpra ise
Ġwithd rawn
Ġnurs ing
Ġdistrib uted
Ġprefer red
ĠBart on
Ġpoison ing
ĠRub y
Ġglam orous
"""," (
ĠCrist iano
ĠJama ica
Ġunderc over
Ġresear cher
Ġphenomen on
ĠGCS E
Ġairpl ane
ĠBourn emouth
ĠSCR OLL
A d
E L
E d
W ell
i op
t z
t hen
Ġ *
Ġ x
Ġ ug
Ġt ap
in ction
Ġs ew
Ġs izes
Ġc ord
Ġc ure
Ġc ried
Ġto urs
Ġm akers
Ġd olphins
Ġg iants
ĠB ony
ĠH alf
ĠH off
Ġas pect
ĠD h
ĠD ist
ĠF em
ĠF ish
if ies
ĠN okia
Ġj unk
ia h
Ġun believ
Ġ( ""
Ġover c
Ġcomp assion
Ġ201 8
Ġdis ability
Ġar ts
hed ral
ĠV II
Ġpart ially
amp s
ning s
Ġser ves
Ġhel m
ĠSc ots
Ġsupp orter
Ġfin als
Ġend ors
Ġdon ation
Ġattack ers
Ġmar ine
ves on
Ġcontr acted
Ġ8 7
ĠBl anc
Ġbre ed
Ġrest ore
Ġuse ful
Ġref lected
Ġref lects
ĠBar on
Ġpar amedics
ĠHar rison
rain ed
Ġconsid ers
Ġbreak through
Ġinsp ire
Ġhor rified
Ġprep ares
ĠWil s
Ġcirc le
ĠRes idents
ĠQu inn
Ġmis d
Ġsuit able
Ġtrust ed
ĠFA A
Ġfle e
ĠInter ior
ĠStep han
Ġfest iv
Ġsmart phones
Ġfix ture
Ġprim arily
Ġuns uccess
Ġapproach ing
Ġhun ger
CA A
Ġactive ly
ĠDub lin
ĠBelg ian
ĠGP S
Ġtroub les
ĠLi u
Ġunp aid
Ġnarrow ly
Ġveget ables
Ġnomin ated
ĠRand y
Ġshall ow
ĠExp ress
ĠToy ota
Ġfab ric
Ġepid emic
ĠMcCart ney
% .
. âĢĿ
D e
R C
d es
r ation
r ows
Ġc am
Ġf olks
ar ry
Ġth ieves
Ġre j
Ġg ene
Ġg onna
ĠM ik
Ġst aged
ĠB und
ĠB anks
ĠP as
ĠP el
ĠP ret
ĠD awn
Ġr anging
Ġare na
ĠG ur
Ġsh aking
ĠJ ub
ĠO N
ĠSt ef
ip h
Ġ201 7
ick i
Ġtr ace
hen tic
ug ar
ric ulture
Ġwar s
ale z
Ġcap abilities
Ġcountry side
ĠJo an
ĠIs ab
Ġpost p
pr ot
Ġref und
Ġtest ify
Ġmet eor
ĠChrist ians
Ġrequ iring
Ġmain land
Ġbur ial
Ġequ ipped
Ġtw ist
ĠFrench man
ĠRich mond
Ġmakes hift
ĠMed al
Ġrock ets
Ġdeep er
Ġneg lect
Ġquar ant
Ġquar ters
oph ob
Ġreview s
Ġimprove ments
ĠMel issa
Ġfle eing
Ġarg ues
ĠAri as
ĠSant os
ĠBre ak
Ġfort night
Ġimpl ications
Ġhal ted
Ġepis odes
ĠLeon ard
imp se
ĠRoll ing
Ġovert urned
Ġcigaret te
Ġbackl ash
Ġbankrupt cy
ĠLamp ard
ĠCroy don
Ġlinger ie
ĠReyn olds
ĠMcIl roy
0 4
9 8
B ecause
f ig
i ere
r um
w l
z ens
Ġb unk
Ġto pped
Ġp ier
Ġp ione
al in
Ġm ol
Ġd awn
Ġth us
ĠT LC
ĠT ampa
ĠS i
Ġg ambling
ĠM ills
ĠC ory
th irds
op a
ĠF C
ĠR av
ĠG ul
ĠG arr
Ġle ak
ĠO wn
Ġnot or
ĠU EFA
Ġsp aces
Ġper ce
Ġ19 45
Ġfl our
Ġfl av
Ġchar ging
ĠFr ances
Ġteam mate
Ġhand gun
Ġrele asing
Ġdep ends
Ġmilit ia
Ġgl impse
Ġpop ulations
Ġcomple ting
Ġbar rier
ĠDem s
ĠAss embly
Ġinsp ectors
Ġwrong doing
ĠHol y
Ġneg lig
ĠAct ion
Ġunf ortunately
Ġfocus ing
Ġemot ions
ĠSand ra
ĠBal i
ĠWat kins
Ch rist
Ġjump s
ĠIm migr
Ġbelong ed
Ġspect ators
Ġeth ics
Ġswe eping
ĠAv iation
onym ous
ias m
Ġrank ed
Ġtim ing
Ġaccompl ish
ĠHon or
Ġcomprom ise
Ġho ax
ĠPen insula
Ġentreprene ur
Ġdetain ees
ĠDian e
Ġcondol ences
Ġadmin ister
Ġunnecess ary
ĠBanglades h
ĠPard ew
b ia
c al
e z
g one
i ors
k ind
k ward
p ired
Ġc ute
Ġc raw
is ive
Ġin ner
Ġm elt
Ġd uck
Ġl ips
ĠT aking
ĠA S
ĠM ason
ow der
ur a
ig ers
ĠB ened
ĠB eth
ĠP sych
ri ved
ĠW als
est ine
ĠL ed
em ies
ĠF ra
ĠN umber
Ġr ings
ĠG ir
Ġsh oe
Ġshe ep
ĠK a
ie val
Ġtr aces
Ġpre ced
ĠAl t
ĠNew town
ĠLe v
Ġchar ities
Ġac id
ĠSh in
Ġbus iest
ĠBl atter
Ġprov iders
Ġfac ial
aff e
Ġpar alys
co very
ĠPro p
Ġconv ince
Ġdifferent ly
Ġpartic les
ĠSer ena
Ġbreak down
Ġemploy er
Ġlight ning
Ġprosecut ed
Ġdifficult y
Ġri vers
Ġcho osing
Ġvol ume
Ġste ep
Ġsle pt
Ġbod ily
Ġattr action
Ġmist aken
ĠDon na
ĠNor folk
Ġengine ers
Ġphotograp hers
ĠShar on
For mer
Ġpromot ed
ĠDown ton
Ġtransport ation
ĠEvery one
Ġrum ors
Ġrum ours
Ġsom ewhat
ĠJac ob
Ġbon us
Ġblank et
found er
Ġuncom fortable
Ġplun ged
Ġobser vers
Ġpaedoph ile
ĠIsa ac
Ġorganis ations
rane an
ĠClo oney
ĠRSP CA
Ġmisd eme
h as
m its
o ft
r ise
v ious
w ord
y er
z b
he em
Ġc ere
Ġd im
il ater
Ġl uc
ĠM om
Ġst yl
us c
ec ute
ĠH an
ĠH ans
ĠP oc
ĠP ap
un ct
ĠL iz
ag ged
ke e
Ġch ips
Ġch ains
Ġde ployment
Ġle ts
Ġpro ving
ep hew
ĠHe ather
Ġim per
Ġro ots
pt ic
Ġser ial
Ġbr ide
Ġhand ing
ĠSh a
Ġche ese
Ġbus es
ĠRep resent
Ġmod elling
ĠChrist ina
Ġve to
esp e
ĠAd v
Ġdist raught
ĠEl sewhere
Ġlo aded
Ġprocess ing
Ġlight ing
yl a
umb ling
ĠNe ither
ĠMor oc
Ġdest inations
Ġcle ver
Ġ197 8
Ġren ov
Ġobs erved
Ġdocument ed
Ġhy per
Ġupd ates
Ġyouth s
Ġbatter ed
ĠCub an
Ġlaugh ing
Ġflo ating
ĠFur ther
Ġprepar ation
Ġbacter ia
Ġsolic itor
Ġcertific ate
Ġcours es
ĠDak ota
9 5
9 00
f ur
h it
i ago
r ary
Ġt ension
on el
at ri
Ġp ants
id av
Ġl ugg
Ġn od
ĠT iger
st s
ol and
ad i
ĠM asters
ur ance
ĠI D
Ġst ored
ĠW es
ĠL en
Ġr ated
ĠE le
ĠE SP
Ġle aks
ĠâĢ ¦
ĠK el
Ġout fits
Ġun ear
Ġint el
ĠIn s
Ġdis gu
Ġso ap
man ned
ĠTh rough
ĠTh ank
ick ers
Ġfam ed
Ġunder way
Ġmonth ly
Ġra ping
ĠLe ft
te en
ĠMar co
Ġret reat
Ġass ured
Ġind ef
ĠSh are
Ġmar gin
ĠMc M
ĠSy l
Ġrest ricted
Ġfar mer
Ġgl oves
iol a
be ing
Ġlot tery
eal ous
ĠCon c
ĠCon vention
Ġmark ing
Ġhard est
Ġgun men
Ġdesign ers
Ġdist ingu
Ġclass mates
Ġident ification
Ġbar g
ĠOr ig
ĠOr der
Ġeng ines
ĠMe gan
Ġcomment ed
Ġhar vest
Ġsuper vis
ĠPark inson
Ġprop aganda
Ġsoon er
Ġ198 2
Ġaut hentic
back s
Ġbox er
ĠFar m
Ġdemonstr ate
Ġjud icial
Ġsurf ing
Ġapolog ize
emb led
Ġillness es
Ġscen ario
Ġbow el
Ġbull ied
Ġmir acle
Ġrevel ation
ĠKenn eth
Ġlad ies
Ġoptim istic
ĠTem ple
ĠLion el
ĠGene va
ĠLank a
Ġprest igious
Ġug ly
Ġlugg age
D onald
P ro
b ear
m ort
p o
s ki
u ers
Ġb og
Ġb orough
Ġh ire
Ġh orn
Ġto pp
as ant
al le
Ġd atab
ĠA M
ĠC ass
ĠC owell
ir i
Ġwas hing
ĠB ird
ĠB order
"" "
ec hes
ill on
ĠH at
ĠH uff
ch anging
ĠW W
ĠW ine
est rian
ĠF ried
ĠN CAA
ĠE qu
ĠE lection
Ġsh y
ĠJ ur
Ġsp a
Ġshe et
Ġpl ug
Ġup rising
Ġwhen ever
Ġatt itudes
ĠV i
Ġbl own
Ġbl ades
ĠFr aser
Ġret ain
ĠSh ould
ĠRe uters
Ġmar riages
ster dam
Ġdr um
Ġaff idav
ane y
Ġinf lam
ĠRep ort
ĠRuss ians
ĠHer rera
ĠCol chester
cl aimed
Ġart work
Ġadv isers
Ġpress ed
ĠCent ury
Ġtechn ologies
aly mp
ĠMan ning
Ġgrand daughter
ĠApp eal
Ġmag ic
Ġalleg ation
Ġdisp uted
Ġchair s
Ġfirm ly
Ġcred its
het or
Ġcheck ing
Ġaddress es
Ġdecl ar
Ġvo ices
ĠJul ia
Ġult ra
ĠTer esa
Ġign ore
ĠDel aware
Ġcommission ed
Ġbelong ings
Ġcitizens hip
ĠFin ally
ĠAbd el
Ġbedroom s
Ġeur ozone
EA L
Ġestablish ment
part y
Ġcorrect ly
Ġsuburb an
Ġconsist ently
Ġlung s
Ġpleas ure
sk irts
Ġrif le
Ġce iling
ĠEconom ic
ĠDy ke
Ġanch or
Gen eral
Ġingred ients
Ġfranch ise
ĠWils here
7 8
F O
U S
W est
a uthor
b ishop
d ah
d rop
f illed
g reat
h yd
k ar
p iring
er ra
Ġs ends
on ic
Ġf ails
it tle
Ġp ays
il er
il ation
ĠS N
ĠS ally
ĠA ly
Ġe Bay
ĠC oul
el i
Ġst ating
ro ck
Ġsa fer
ĠP a
Ġas pects
ĠL iam
ag le
Ġr h
ĠG av
Ġsh ook
Ġsh ipping
Ġle ct
Ġle af
ĠO man
Ġpro stitutes
Ġpro ceeds
Ġsp erm
Ġshe ets
ge on
ĠK ind
ĠK ris
Ġad ap
Ġne utral
ĠHe y
Ġres erve
Ġinc l
og y
Ġjust ify
Ġkn ives
Ġtr ash
Ġwom b
Ġgr ant
ĠMar ines
Ġrel oc
ric ts
sh ots
ĠSh adow
ĠJo anna
ĠAs hes
ĠZ ucker
ĠPr im
Ġinj ection
con i
Ġsub jects
Ġdr owned
Ġ11 0
ĠChrist ine
Ġpolit ically
Ġfact ories
Ġdevelop ments
ĠPar alymp
Ġban ning
Ġrespons es
Ġneighb oring
ipp ers
Ġfr ank
Ġprosecut ing
Ġrepl acing
wh o
wh ite
Ġele v
Ġpun ished
Ġseek ers
Ġdisp os
tr ick
Ġbattle field
pro v
Ġcouncil s
Ġspeed ing
olute ly
Ġgrad uation
oz y
ĠDen mark
resp ect
Ġappl aud
ĠCur rently
ĠPri or
ĠTy ler
Ġweak ness
ĠMir ror
Ġwithd rew
Ġrub ble
Ġdomin ant
ĠMount ain
ĠLeon ardo
Ġscre amed
Ġtun n
ĠLind a
ĠPalestin ians
Ġpassion ate
ĠRev olution
Ġlover s
Ġinstru ments
Ġmotiv ation
Ġanx ious
ĠTs ar
Ġexcess ive
ĠBos nia
Ġerr ors
Ġclim bed
ĠBah rain
Ġancest ors
ĠGabri el
Ġtrem end
ĠArn old
ĠCov entry
ĠEti had
ĠObs erv
ĠGadd afi
6 2
O C
S hab
T A
b ig
f ried
g el
h or
r in
r ative
w ed
Ġa ver
Ġs ounded
Ġthe r
Ġm our
Ġd ive
Ġn ephew
ĠS ue
ay e
ot ted
Ġg rip
Ġg aming
ĠM ove
ĠC a
ur er
ĠB at
ĠB ian
ill ery
ĠH av
ĠP ad
ĠP orts
Ġy ield
ĠD ennis
ĠD ais
th als
Ġr hetor
ĠE cc
ĠG ol
ĠG arden
Ġv ic
ess a
Ġsp ill
Ġpl ain
ĠK it
ĠK ass
ĠK ane
Ġout lets
Ġout skirts
Ġcl ouds
ĠSt ri
Ġint imate
ĠCh loe
ile e
oll ar
ian g
ass es
Ġsc attered
Ġen cl
anc ies
Ġsec rets
Ġbr ows
Ġbr anches
Ġwhere ver
air y
Ġaw kward
Ġdef ined
Ġreg rets
Ġass ume
Ġhead line
aren cy
Ġinvest ed
Ġop ted
gr aded
cer y
ĠCl aud
ĠMc Q
min ent
ĠCar ney
Ġ9 9
ĠBar ca
Ġcou p
Ġshot gun
enn y
Ġdel ight
ĠHer o
for ward
ĠCo x
ĠAm sterdam
Ġcrit eria
Ġpress ing
Ġris en
Ġbook ing
Ġview ing
miss ions
Ġwrit ers
par ts
Wh o
ĠBen z
reg as
Ġste am
Ġpract ical
On ce
Ġself ie
Ġmusic ian
Ġcred ibility
ĠAnn ie
ĠGold man
Ġparticip ating
Ġexplos ions
Ch ina
ĠSun ni
Ġtrend s
Ġcart els
Ġagree ing
Ġbom ber
Ġdepart ments
Ġporn ography
ĠBet ween
ĠWork ers
ĠSher man
Ġhousehold s
Ġembarrass ing
Ġimplement ed
Ġembr ace
ĠLook ing
Ġdiplom ats
Ġpublish ing
Ġflex ible
fund ed
Ġric hest
Ġmotorc ycle
ĠBark ley
ĠNeander thals
ĠSuff olk
Ġhed ge
ĠESP N
1 20
E G
U R
b ish
v as
Ġt ense
Ġw ished
Ġc aut
Ġb ans
Ġb und
Ġf ict
is ure
Ġd ip
Ġd itch
Ġg ardens
ĠM erc
Ġfor b
ĠI mp
ĠB orn
ĠB ible
ĠB rew
ĠH ack
ĠH ERE
ĠW i
ĠW r
ĠW rit
ĠD ri
ul um
ul ates
ĠF if
ĠF inal
ĠJ ar
Ġch asing
art z
um in
ia z
ĠCh ase
oll o
Ġper ception
Ġbl asted
Ġinter pre
Ġinter pret
Ġam p
Ġam put
Ġgr ades
Ġexp ansion
ph is
Ġfin ances
ĠSp it
ope z
Ġass embly
Ġdon ors
ron ics
Ġhapp iness
ĠJo ey
Ġprot ester
Ġmem oir
ĠSy stem
Ġdr ank
ik ed
Ġgreat ly
ten ham
Ġsk ysc
Ġsw itched
Ġinf ections
Ġinst antly
ĠHar vey
Ġpat ron
Ġconv oy
Ġorder ing
ĠGe off
Ġtre k
Ġbur den
Ġeng ulf
ĠChel tenham
Ġgener ate
bo at
ĠBlack burn
Ġcirc uit
Ġens uring
ĠBel ar
Ġfit ting
Ġaccom pany
Ġencoura ges
Ġindic ates
Ġsecret ly
Ġgrad uated
Ġparticip ated
ĠJess ie
Ġapart ments
Ġpurs uing
ĠSom ers
iat ric
ĠDes ign
Ġcontroll ing
Ġacqu itted
Ġrail way
Ġpension er
Ġtraum atic
ĠFab regas
Ġconcentr ation
Ġexpand ing
Ġinnov ation
Ġmand atory
Ġcheer le
Ġlav ish
Ġpersu ade
Ġconfront ation
Ġvolcan o
Ġstrang led
Ġexperim ental
Ġvolunt ary
Ġperpet r
Ġprost hetic
Ġindict ment
ĠAssist ant
Ġvom iting
Ġtong ue
Ġluc rative
espe are
Ġintel lect
7 6
B r
e lect
i Le
n ut
p owered
r as
Ġt ube
at oes
an j
Ġb ats
Ġf old
Ġf ond
Ġf iscal
it ans
es y
Ġp atch
le ase
ĠT at
ĠS EAL
Ġon look
ĠA k
ĠM ann
ĠC ad
ĠC urt
ly mouth
Ġwas h
ĠB ag
"" ,
ĠP ul
ĠW igan
ĠW iggins
th rop
ĠL av
em pl
ĠF ull
ĠR ig
ĠR ica
ĠR ahman
ĠG os
ĠG iven
Ġsh apes
Ġch ann
Ġv icious
Ġsu e
ĠU pper
oc ial
ud ley
ĠK ens
Ġdis abilities
Ġapp alling
are th
ft y
reat ment
ade qu
Ġbl unt
ĠBut ler
pt ions
Ġcr ater
Ġinter cep
Ġbr ace
Ġph arm
Ġgr ace
Ġac ute
hen ko
augh ton
ah a
Ġ10 1
Ġ8 2
ĠBl ues
iet ies
Ġhum or
Ġprom pt
Ġhalf way
Ġheart breaking
Ġmain tenance
Ġpros per
Ġcour thouse
Ġproduc es
Ġstrong est
mon t
Ġmatch ing
Ġinsp iring
Ġexc av
ĠSte in
Ġmoment um
Ġaccount able
de ep
Ġrob ust
Ġaud iences
Ġamb itious
Ġcat astrophic
Ġtru cks
Ġemb ark
Ġpoor ly
Ġbid ding
Ġsell s
ĠCons um
ĠCap t
Ġgrad ually
ĠBow ie
ĠCur iosity
Ġinquir ies
ĠWel beck
Ġmanufact uring
Ġbrut ally
Ġretail er
Ġunem ployed
Ġcomplic ations
Ġnegoti ating
Ġsubs id
ĠStand ards
EN T
Ġtradition ally
writ er
Ġward ro
Ġpupp y
Ġrebu ild
ĠVill age
ĠGonz alez
Ġintr ud
ĠChes hire
ĠGlouces tershire
ĠBuff alo
ĠMug abe
norm al
hett ino
ĠBurg ess
Ġunbeliev able
Ġtunn els
B rien
C an
L ook
M en
O L
f rey
g ant
g ie
l av
m ud
n esty
p ack
s enal
t ech
Ġt ub
Ġt asks
Ġa ides
Ġs ar
en za
at ics
Ġp anda
Ġm aid
Ġm aps
Ġm aker
il ies
Ġl anes
ĠS ark
Ġg re
ĠM oss
am ents
Ġe ld
ur bed
ĠB ot
Ġha ird
ĠW oman
ĠD ays
ĠL uther
ĠF ul
ĠN ina
pp o
ĠG at
ĠG ard
Ġsu ms
Ġse iz
Ġsp ine
se ek
Ġab duc
Ġout er
Ġun armed
Ġall iance
Ġdis ruption
Ġ3 50
Ġtr im
Ġro ot
Ġcar n
ss on
Ġbet ray
Ġexp ed
Ġkill s
Ġsupp lier
ues e
Ġke ys
Ġret rie
ĠAr rest
Ġbu ff
Ġsm ooth
Ġmed ium
Ġconf ession
any a
Ġprot ein
ott i
Ġvict ories
Ġcontr ad
Ġspe eches
Ġexpl oration
Ġref lection
Ġauthor ized
Ġsk etch
ĠBar n
aff er
ĠBe h
ĠHer t
ĠHer itage
Ġopen er
af ter
Ġfire works
Ġcrit ically
ĠPal mer
Ġboard ed
ĠNe g
ĠMed iter
Ġeduc ated
oura ge
Ġabs ent
Ġbroad er
ĠTe en
Ġpred ecess
ĠAct ress
Ġcontract or
mark ed
Ġcrowd ed
Ġobs essed
Ġdefend ers
ĠDis covery
ĠRos ie
ĠWat ts
Ġartic les
Ġshel ling
Ġunderst ands
Ġunderw ear
ĠJess e
Ġprem ature
Ġwilling ness
Ġplot ting
Ġrub ber
ĠBu en
ĠWind sor
Ġham string
ĠCommun ist
Ġmusc les
ĠPortug uese
Ġinstru ment
Ġcock tail
Ġenthus iasm
Ġavo iding
Ġtoler ate
Ġpig s
Ġnomin ations
Ġrecruit ment
Ġrehab ilitation
ĠCher yl
Ġsmugg ling
Ġcos met
Ġcycl ist
spe ed
ĠChamp ion
Ġdisg usting
Ġsymp athy
Ġsustain able
ĠSin cl
ĠThanks giving
ĠCorpor ation
Ġseparat ists
Ġmourn ers
Ġphil os
ĠVers ace
Ġremem bers
ĠEc u
ĠEvent ually
ĠStephan ie
ĠBened ict
Ġinflam m
ĠSomers et
iLe aks
ĠKens ington
H A
P resident
c ts
c ap
g ence
g ically
l u
s ize
Ã ±
Ġt ire
in ity
Ġs orts
on ation
Ġw are
at ile
or gan
an iel
Ġf ert
Ġo k
es lig
ar ming
Ġp ne
Ġp als
al ie
Ġd ys
Ġbe aring
Ġl ighter
ĠS ay
ĠS usp
ut on
Ġg aining
ĠA IDS
ĠM oon
et ti
ĠP am
ĠP lymouth
Ġas pir
ĠW A
ĠW ang
ĠD oyle
ĠF ell
ĠR at
ĠG rey
ĠJ ail
Ġv ary
Ġnot ably
um onia
Ġdis hes
Ġsc ans
Ġev olution
Ġper mit
ĠV ogue
Ġlast ing
ĠAl ison
lud ing
oin ts
ss a
Ġra pper
ĠLe ah
ph oon
Ġmin ing
hen ge
Ġret al
ĠAr ts
sh ore
ĠBr ig
Ġplan ted
ĠSh ir
ĠRe view
Ġsecond ary
Ġloc ally
Ġ8 1
ĠDe bor
Th ank
Ġhealth care
Ġtravel lers
ĠFl oyd
Ġappro aches
Ġcoun cill
Ġdeal er
Ġdevelop er
Ġamong st
Ġform ation
ĠSm all
inc ing
que z
Ġsol o
na ev
Ġinsp ector
Ġ198 8
sp ace
Ġcreat or
Ġassist ing
Ġrob bed
Ġmat ched
Ġsouth west
Ġconsum ed
Ġdecl are
Ġattend ance
Ġund ocumented
ĠDen ise
Ġbreat he
ĠMos ul
Ġcab les
Ġhun ters
ĠWeb ster
Ġrid ers
ĠProt est
Ġcart oon
Ġconfirm ation
erm o
ĠIv ory
ĠCal der
Ġburn t
Ġuniform s
ĠFil m
ĠCont rovers
IC K
ĠSing h
ĠGib bs
ĠGal axy
ĠNich olas
Ġdispl aced
Ġchap ter
Ġmut ual
Ġru ins
ĠAny one
Ġoptim ism
ici ary
ĠBent ley
ĠCirc uit
Ġmos que
Ġcigaret tes
stan bul
Ġinher it
Eng land
ĠHop kins
ĠLie utenant
ĠValent ine
ĠKle in
Ġdatab ase
Ġaffidav it
ĠTsar naev
Shab aab
Ġabduc ted
ĠMediter ranean
ĠSincl air
eslig a
Ġpne umonia
ĠDebor ah
! âĢĻ
% ,
N C
N orth
P h
S ec
T r
W orld
d em
h ave
i otherapy
k ill
m art
s quare
u ke
y ch
z o
on te
Ġc rem
Ġo usted
Ġh iring
le en
Ġre acted
st ory
st ock
ĠS W
ol ve
ol son
ĠA ld
ĠM umb
ĠC S
ĠC able
ĠC amb
ĠC ON
ig en
ĠI RA
ĠB ou
ĠH ugh
ĠH utch
ri ately
ra k
ĠW end
ĠL ag
ĠL ist
ĠL opez
ĠR al
ĠR ail
Ġr upt
ĠE t
ĠE sp
ĠG em
ĠG ale
Ġsh aken
Ġch art
Ġch ip
ast ated
all ah
Ġsp ared
Ġsp ying
Ġpl um
Ġab ort
ich ael
Ġun l
ĠSt op
Ġall erg
ue en
Ġinc om
oll en
og a
Ġacc use
Ġapp oint
ĠY ard
ob le
aw ed
iz er
Ġbl essing
Ġro pe
Ġcar ved
Ġinter act
ĠUn til
ĠUn fortunately
ĠNew man
Ġrem orse
Ġra ge
Ġgr ay
ov ich
ah ar
ric ulum
Ġwar ming
ĠRe ading
ĠAs da
Ġpost ers
Ġrele g
Ġ9 5
Ġbre asts
Ġprov ider
Ġaff ection
Ġsk ies
Ġinst ant
Ġoper ates
Ġcost ing
Ġadv ances
elt a
Ġinsp ection
yl an
Ġpres erve
Ġ198 1
Ġgener ated
kn app
bo ards
Ġeduc ational
yan mar
Ġz omb
Ġrob ots
Ġpoll ing
Ġsal aries
Ġnon profit
Ġren ted
Ġpan els
ĠSal is
ĠRed knapp
Ġcollect ive
Ġcounter parts
ĠChurch ill
Ġbrief ing
Ġradio active
ĠFox conn
Ġmort ality
Ġbi ological
ĠMem phis
Ġsupposed ly
Ġbom bers
Ġremind ed
Ġsuppl iers
Ġmagn itude
ĠMont ana
ĠRa heem
Ġjew el
Ġcateg ories
Ġearning s
ĠGreg ory
Ġnav al
ici ency
Ġdecor ated
ĠEth iop
ĠAmb assador
Ġadvent ure
Ġrib s
ĠClay ton
Ġvit amin
ĠWik iLeaks
Ġcin ema
ĠViol ence
ĠAber de
Ġcontamin ated
ĠChallen ge
ĠBund esliga
Ġindef in
adequ ate
ĠEcu ador
a que
b one
c m
g ian
l ies
l isted
m ails
s ome
s upp
Ġt une
he alth
er able
Ġw ig
Ġw ise
Ġc ro
Ġb ug
it ime
Ġp ensions
Ġin ch
as p
Ġm ock
Ġd ose
ic ke
om p
Ġbe head
Ġl iver
ĠT oul
Ġre iter
Ġhe m
ĠS ac
am ore
am ination
ĠC yr
ur bs
ig e
et e
ĠB oot
ĠH ood
Ġsa iling
ri x
Ġy acht
ĠD est
ĠL ear
ĠF ellow
ĠR u
ĠR ud
ĠN ass
ĠE ld
ĠE lement
Ġnot ified
art isan
um ble
qu et
Ġcl uster
ong ol
Ġad equ
Ġ20 22
Ġrep eal
og en
Ġim minent
ks hire
ors et
ood y
Ġfl ower
Ġinv itation
ons on
Ġinter rog
ix on
Ġdon ate
ank ing
ĠSh ane
Ġrun way
Ġsl ashed
ĠCl aim
ĠMon roe
ham ed
ĠAt hens
Ġgood bye
ex pl
alf ord
Ġ9 8
Ġbre ached
Ġtrans cript
Ġsex y
ĠBe ing
ĠHar am
ĠMiss ing
Ġjoin s
ĠEd en
ĠTw enty
Ġbur gers
ĠMan ager
uff icient
Ġdest ro
Ġtele vised
Ġdisp at
Ġ196 5
Ġamb itions
Ġconst ructed
Ġaddress ing
Ġmis le
Ġjud ged
bl ack
ĠAnn abel
Ġpo et
Ġpers ecut
ĠWal ter
Ġbeg ged
Ġmount ing
oz ni
ĠWall ace
ĠBeck y
Ġtack ling
Ġprem iere
ĠProt esters
37 0
Ġprinc iple
Ġhur ricane
Ġtherap ist
ĠJen ner
Ġexpress ing
ĠMcK enna
Ġtransl ation
Ġsurviv or
ĠHun ter
Ġcock pit
Ġsty les
Ġsty lish
ĠWhe ther
ĠStat istics
ĠAp ollo
Ġrecru ited
ĠShak espeare
sign ificant
Ġcompon ents
ĠDaw son
Ġantib iot
Ġgrie ving
ĠAth let
ĠBald win
zb ollah
ĠDais y
ĠBelar us
ĠSark ozy
ĠElement ary
E P
F P
O ver
d uty
e ast
f ive
g ents
h op
h uman
h anded
s ub
Ġ 00
Ġt ale
Ġt uck
Ġs inking
at re
or able
an im
is i
Ġp ope
as ers
Ġd ug
om er
ĠT oo
ĠS ign
ut ter
ĠA yla
ĠM oney
ĠM yanmar
ĠB ak
ĠH em
ĠH ilton
ĠW ould
ĠW ozni
ĠD ylan
Ġcon j
ĠN ice
ĠN ep
ĠJ ove
ĠJ oint
Ġv ib
Ġsp raw
Ġpl ight
ff e
ĠSt ory
Ġme ets
Ġcomp ly
Ġso b
Ġsc or
Ġper f
Ġjust ified
uc ed
iz a
ens en
Ġmon keys
Ġplay ground
over ing
Ġadd ict
Ġexp orts
te am
ĠSc outs
augh lin
ven ile
Ġtri ple
Ġreg istr
Ġbu zz
Ġind icted
az ine
Ġformer ly
Ġprot oty
ott o
Ġdep orted
Ġbre eding
Ġhealth ier
Ġposs essing
Ġdesc ended
Ġviol ently
ĠCon ference
Ġsing les
Ġdeb ts
Ġeconom ist
Ġblack s
Ġfun ctions
inc ere
ĠGo ing
ĠEar ly
Ġpick up
Ġ198 5
Ġaut o
Ġrespond ents
Ġ197 2
Ġpun ch
Ġz ones
Ġsun ny
ĠBer kshire
ĠDo zens
Ġreview ing
Ġsil ly
ĠKe ep
Ġwond ered
ĠNor wich
Ġprotest ing
ĠGold berg
ĠStud y
Ġagre es
fl ix
Ġcatch ing
Ġpurch ases
ĠTim othy
ĠKh al
Ġir re
ĠTy son
ĠEr dog
Ġrub bish
Ġqualif ier
ĠDou g
Ġsuppl ied
ĠChampionship s
Ġtransp arency
Ġmigr ation
ĠLind say
Ġrestr ict
Ġsymbol ic
aug hed
Ġrom ance
Ġmer ch
ĠStand ard
Ġrestrain ing
Ġadministr ative
Ġmemor able
Ġportray ed
ĠHM S
rend ous
ĠCust oms
ĠBrid get
Ġhung ry
ĠHeath row
ĠAle ppo
ĠPed ro
Ġenh ance
Ġreluct ant
Ġinterven e
ĠAlg ieri
Ġstereoty pes
Ġsacrif ice
ĠWine house
ĠPorts mouth
ĠBenz ema
Ġchann els
ĠJove tic
ĠErdog an
8 1
E M
S ometimes
b ra
c at
c ribed
e ves
e ats
f ar
g ame
g inal
m ain
n is
n ered
t hed
u is
v ag
Ġ iv
in is
in os
in ley
on ce
Ġw is
ed y
Ġh ats
ion a
ĠT ak
ĠT ogether
Ġre ject
ĠS ide
ĠS ina
ĠS uk
ĠS kin
ĠS alford
ĠM ous
ĠM uch
ĠM obile
ĠC O
ĠC our
ow ler
ig ation
ĠH ob
ĠH orn
ĠP ep
ĠD iet
ĠD elta
est hetic
ĠL ock
ĠR oland
Ġv oy
ĠO cc
Ġj oking
se at
ere k
um a
red o
qu er
Ġout s
Ġup grade
Ġun le
ĠSt ars
Ġint end
og ram
ass ing
ress ive
ĠTh orn
Ġacc ord
ĠV inc
Ġnew est
Ġen emies
Ġjust ices
ĠY az
pl aced
Ġqu ad
Ġshow c
we gian
Ġtra p
Ġexp ense
Ġmake up
ĠBrit ney
Ġass ert
Ġwar mer
uth an
Ġmed ics
Ġbo asted
ĠPol icy
br aska
Ġinvestig ator
ĠCl arks
ĠPr inc
pr ising
pr int
Ġ9 1
aj a
Ġtop s
Ġsw orn
ĠAm endment
Ġcampaign er
Ġlaun ches
ĠTr acey
Ġcommit ting
ĠWar ri
Ġhost ile
Ġsqu ir
Ġbirth s
ĠPl us
umb ria
ĠMcC oll
Ġtit led
ĠSch neider
Ġaccess ible
Ġ197 6
Ġlab elled
Ġkey board
Ġrac ially
Ġbul k
ĠTom lin
Ġpoll ution
Ġhear ings
Ġnorth west
Ġaim ing
Ġfocus es
ĠSur v
ĠSal t
Ġund ers
Ġflag ship
Ġ36 0
Ġeat en
Ġminor ities
ĠMac Donald
Ġsad ness
ĠCast illo
ĠLiber ty
Ġrap ist
Ġafford able
Ġaband on
boy friend
Ġcontain er
Ġstock p
ĠFil ner
Ġsatisf action
ĠNich olson
Ġske let
ĠMcL aren
ĠKenn y
ĠNat asha
Ġmask ed
writ ten
Ġvent ure
Ġcul min
ĠSerge ant
ĠDog s
Ġgentle man
Ġdistinct ive
ĠPit ts
Ġrelie ved
Ġpod ium
ĠJub ilee
ĠImmigr ation
ĠPoc hettino
ĠMoroc co
ĠZucker berg
ĠMumb ai
ĠSalis bury
B R
C o
G u
c ard
c lear
s u
t able
w ould
y ne
in ator
er k
Ġs ang
Ġc ater
Ġc ott
Ġc roc
Ġf illing
Ġto b
Ġp ir
Ġp istol
Ġp engu
Ġin hab
Ġm ales
Ġd iversity
Ġd iox
ic on
Ġl aser
Ġl aughed
Ġn a
ĠT ol
ĠT el
ĠS S
ĠS ic
ad ise
ĠM all
am med
ac ent
ĠC ond
ĠB A
ill as
ĠH oy
ĠH oms
Ġal ley
ĠD om
est e
em ade
ĠF actor
ĠR iley
ĠG one
Ġv oc
ct uary
end all
ĠO g
Ġsu p
Ġnot ion
Ġex isted
Ġsp ies
ĠK os
ie ge
Ġun born
Ġun manned
ĠHe zbollah
Ġinc ar
Ġcont acts
Ġar son
Ġsc ra
Ġapp lying
act ic
iss an
anc ers
Ġfl owing
Ġinv ented
Ġmon ument
ink ed
ĠUn ivers
ĠShe pherd
ters on
Ġrem oval
Ġra ided
ĠMar a
Ġem bed
ah o
ric ia
Ġass igned
ĠBr anson
Ġsent iment
Ġsign atures
Ġsl ide
ott est
Ġvis ual
Ġ9 00
ĠFor um
Ġspe aker
ĠWor ces
Ġsever ed
ĠAust rian
Ġintern ationally
Ġdesc ent
ept ion
Ġdist ricts
Ġsuccess ive
work ers
ung le
ĠAir bus
Ġimm un
Ġcapt ive
ĠGl en
Ġri ots
ĠNe braska
Ġesc ort
Ġesc orted
ĠMid d
Ġpri ests
Ġdiv ide
Ġ197 4
mar ks
Ġ196 3
Ġamb ition
Ġtem ple
pro of
Ġsil ent
ĠiP ads
Ġhero es
ĠIr say
Ġpray ing
Ġexch anges
Ġheav en
ĠEll ie
Ġstreng then
Ġprem ier
ĠJenn y
Ġreven ues
boy s
Ġrank ing
Ġspons ored
Ġbound aries
ĠCat al
ĠArch bishop
Ġconce aled
Ġoccup ied
Ġhang ed
ĠDick ens
Ġru ined
ĠPear ce
ĠEth an
ĠTrib une
ĠMors y
Ġarchae ologists
ĠAmb ulance
Ġanticip ated
lus coni
ĠMedic ine
Ġconvention al
Ġdisgr ace
ĠSale h
Ġecho ed
Ġgradu ates
ĠEmp ire
ĠCay lee
Ġphr ase
ĠStef an
Ġperce ived
Ġmisdeme anor
Ġtremend ous
ĠObserv atory
Ġrhetor ic
Ġwardro be
ĠCalder on
ĠClarks on
A b
I F
I nd
K ahn
L ondon
O ff
Q aeda
b led
c le
d ist
g ue
g rove
l ia
n ell
r ice
s aving
t iz
z ek
Ġt ally
Ġs ink
Ġs incere
re hend
Ġc her
Ġc emetery
or ie
Ġb unch
it ual
Ġh ind
Ġh ik
Ġp icks
Ġm oist
Ġd il
Ġd up
Ġd rain
Ġth ief
Ġn ic
Ġn est
ĠT ud
ĠT ost
ĠT ian
st age
ĠS ang
ot ion
ac er
ĠC ro
ĠC ool
ĠC raw
ur ora
im s
el ka
et ah
Ġst ays
Ġwh ales
ĠThe atre
ĠD im
op y
ĠF uk
Ġsp ree
oun ge
Ġab ol
ĠK o
ĠK as
ell s
Ġint ends
Ġcont ents
ĠTh or
Ġen quir
Ġkn ot
pl ed
Ġbl az
Ġbl ows
Ġfl ies
Ġqu e
Ġqu een
Ġcar riers
Ġbr ink
Ġbet ting
te es
ĠMar ks
Ġfin est
ĠSp ie
Ġtake over
sh aped
Ġcap ability
ĠMon te
Ġloc ate
Ġann ually
Ġpat ri
Ġviol ating
ĠCon cer
af a
Ġoper ational
ĠGer mans
ĠAd vent
Ġdevelop ers
ĠGu inness
Ġban ner
ĠOr tiz
Ġexecut ions
Ġpolic ing
ĠEx c
uff le
Ġimm ense
Ġcapt ivity
ĠPal in
Ġwrong ly
ĠHam mond
ĠMcC lus
ĠThom son
ĠSch oles
Ġeduc ate
ĠBer lusconi
cel and
Ġ196 7
Ġcheck point
Ġexam s
che on
Ġtrib unal
ĠOp rah
ĠSal v
Ġpack ages
ĠLaw son
ĠKn ights
St ar
rie z
Ġdefin ition
Ġsan ction
Ġachieve ments
Ġdoll ar
Ġscr atch
Ġbow l
Ġfatal ities
bel ief
ĠMir anda
ĠBu ilding
Ġconsult ation
Ġorganiz ers
Ġwound ing
Ġreact ions
ĠGlob e
ĠNap oli
Ġembarrass ed
Ġembarrass ment
ĠBM I
Ġmanufactur er
Ġprohib ited
Ġadopt ion
ĠPle ase
Ġcycl ists
Pr ince
ĠDew ani
Ġincor por
Ġreck less
ĠKob ane
Ġbarr ister
Ġlibr ary
ĠBever ly
Ġdre amed
ĠIsab ella
ĠHert fordshire
Ġplum met
6 8
S ince
b ek
f al
f irst
h u
l ain
p ur
t heless
v ia
Ġt ide
he ro
er r
Ġs ect
re z
Ġc alf
Ġc udd
or o
Ġf et
Ġf ug
ing rich
Ġh obby
Ġp y
Ġp or
ou ver
Ġd orm
Ġd aring
om i
Ġn ar
Ġre ver
Ġhe s
st ro
st rom
ĠS ak
Ġg ut
ĠA ub
ĠM oll
ĠM ersey
Ġe uthan
ur i
ur ring
el ed
ĠI N
ĠI rene
ĠB oko
ĠH ind
ĠH osp
ĠP ic
ri pt
Ġal ike
ear y
Ġy elling
ra vel
ĠW id
ĠD rew
ĠD anger
ĠD orset
ĠD erek
ĠL um
ĠL ille
ĠF alls
ĠR ather
ĠN olan
pp ling
ĠG erald
ĠJ ak
Ġch illing
Ġwe ird
ast rous
Ġse gment
up ert
out heastern
ĠK ep
ĠK az
ĠK ai
ap le
ĠSt orm
Ġres emb
Ġinc ons
Ġcomp iled
Ġdis qual
Ġsc rap
ick er
ĠV idal
Ġ19 39
Ġback yard
ons ense
ĠAn onymous
ĠAn elka
Ġadd icted
iver se
oot er
oss ip
ĠMar ina
ĠMar tha
Ġins ufficient
ov ir
Ġass umed
Ġmil estone
Ġter rain
ative ly
ple x
con f
Ġreal istic
Ġfar ms
Ġsk ipper
ĠBar low
ĠEur opa
Ġpar ish
Ġkeep ers
att led
ĠAm ir
Ġelect oral
ĠCup s
Ġtreat s
ĠEd die
ĠTr acy
Ġorgan ic
Ġfree ly
room s
ĠUS S
Ġdi ary
Ġlim bs
Ġenc ry
Ġ198 3
ĠPat terson
Ġfem ales
Ġpun ct
ĠRes ort
ĠSim ilar
ĠBer mud
Ġrob ot
ĠKen yan
iff s
Ġforeign ers
Ġexam ining
ĠBur ton
ĠAct or
Ġpan icked
bl ower
Ġdrive way
ĠWood y
ĠRec ords
ĠIm ages
Ġshel ves
ĠPre vious
Ġappl ause
Ġblog ger
ĠLuc as
Ġprem ises
Ġkidn app
ĠCru ise
ĠPet ro
Ġcorr id
Ġkne es
ĠStone henge
Ġquiet ly
Ġcorpor ations
Ġadvoc acy
Ġmagn etic
ext reme
Ġshar ply
ĠRel ations
Ġinstru cted
ĠAT M
ĠGet ting
Ġinstruct or
Ġchap el
Ġadministr ators
ĠLes lie
Ġlad der
ĠSudan ese
Ġrenew ed
Ġlav a
Ġalt itude
Ġlapt op
Ġinaug uration
Ġsemif inal
ĠRal ph
Ġiv ory
Ġdiox ide
ĠTost ee
6 3
A D
B ar
D uring
R oy
d id
d ec
f r
i ability
s ky
u ition
Ġ u
Ġt ug
he arted
Ġs ore
Ġw rap
Ġc ans
Ġc ogn
at ra
es is
Ġh ub
Ġto ss
Ġm im
le man
Ġl oses
Ġn avy
ĠT ech
ĠS ep
ĠS ime
ĠS ometimes
ot ton
ĠA Z
ĠA j
ĠA lder
ĠM aking
ĠM ead
am y
am as
am per
am bo
ĠC es
ĠC orey
ur ry
Ġfor ged
ter ies
ter bury
ĠI stanbul
ĠI celand
ĠB rett
ĠThe res
ĠP od
ĠP orter
ĠD esc
ul ted
th is
ĠL ess
ĠL ang
ĠF ig
ĠR over
ĠN atural
Ġr ang
ĠE W
ĠE ston
ĠG ate
ĠG DP
Ġpro stitute
art a
Ġpl acing
ĠK oz
Ġwor ries
Ġor ient
ap ova
Ġag ing
Ġover haul
ĠTh irty
ib us
ish a
are st
amp ed
Ġwork place
Ġbl essed
Ġbl aming
anc ouver
Ġpre jud
,' ""
Ġunder lying
Ġunder gone
ĠÂ ©
ĠLe gal
Ġimp osing
Ġgr ows
Ġhelp ful
Ġins ult
Ġmin im
Ġret iring
sh ould
sh aw
Ġsm ash
Ġcol ors
Ġrun ners
Ġsl og
Ġmem o
min ed
ĠCom es
ĠBl ock
Ġsub urbs
Ġsw ollen
Ġsim pl
Ġpast or
Ġmurder er
cl osed
Ġprof ound
Ġsn akes
Ġgun fire
Ġheart broken
Ġsuccess or
Ġfree ze
Ġpros pects
Ġident ifying
Ġden ying
Ġbar ric
ĠKore ans
ĠEm il
off icial
ĠGl enn
ĠCan terbury
ĠDan i
Ġexc luded
Ġcontrib ution
Ġcontrib utions
Ġcoll ided
ĠMad ison
wh at
ĠPat rol
Ġlab els
Ġpun ching
Ġmusic ians
Ġstation ed
Ġsepar ation
Ġ196 9
Ġspeak ers
Ġsal mon
Ġren owned
Ġdemonstr ates
Ġclos ures
ĠMy ster
Ġdecl aring
Ġintro ducing
ĠSur vey
Ġbra very
Ġbra ins
Ġbal anced
Ġcollect ions
hold ers
ĠGar ner
ĠMet ro
fl oor
Ġmotor b
Ġlay er
Ġlay ing
ĠShar apova
ym ph
Ġdrop s
Ġspark ing
ĠKar zai
ĠKat y
Ġdismiss al
Ġadvert is
Ġswe ep
Ġcart el
Ġtransp arent
ĠSol lec
Ġtouc hes
Ġexclusive ly
Ġanonym ity
rog ba
Ġresol ved
ĠGall ery
Is lam
ĠRh ys
ĠNov ak
Ġinnov ative
ĠChen g
Ġwithdraw al
Ġhabit at
Ġla under
Ġvolunt arily
ĠConst able
ĠPS G
Ġuncertain ty
Ġrevers ed
ĠAgain st
Ġmerc y
ĠIM F
Ġpave ment
Ġsadd ened
ĠBaron ess
Ġunear thed
Ġdeclar ation
ĠKass ig
Ġfict ional
Ġintrud er
Ġwis dom
ĠSollec ito
A P
A pp
B eing
H ill
L ast
M o
S outh
W here
c ross
c asts
d ep
f ol
f elt
g i
g ay
p aid
s he
v an
he ard
Ġa isle
in ning
Ġs outheast
re ated
Ġw ives
Ġc age
Ġf ut
Ġf oster
ar ity
Ġbe ard
ĠT ucker
ve z
ĠS on
ĠA P
ĠA ires
ĠM ult
Ġst ark
ĠB rent
ĠB ella
ĠH onda
Ġsa ke
Ġsa uce
ĠP ur
ĠP ors
Ġ' '
os henko
ĠD C
ĠD rogba
op ed
ĠL ough
ĠR ugby
if est
ĠN othing
Ġr ack
ĠG areth
ĠG ingrich
Ġsh ipped
Ġch im
Ġle aking
ust y
Ġj umper
se en
iv est
Ġab und
Ġcl ashed
ĠSt y
ĠSt ore
Ġcan al
Ġres ur
Ġrep airs
Ġcomp are
Ġdis asters
Ġar ra
Ġar ray
ru gg
ign ant
Ġpr iced
Ġsc orer
ib a
Ġper mitted
ĠV ancouver
The ir
ĠY ang
ens itive
fore st
ĠAl v
Ġinter action
Ġsec uring
ĠNew ton
ĠShe ikh
Ġra b
ĠMar athon
ĠSp ice
ĠSp ect
ĠBrit s
sh irts
Ġhand bag
Ġbo ards
Ġche etah
Ġsl ot
ham mad
Ġ8 9
ĠDe ep
Ġcur ve
Ġposs essions
Ġpop ulated
ĠHer oes
for cement
Ġhard ware
lin er
Ġpress ures
ai res
Ġ14 0
Ġshort age
the med
ĠPar ish
ĠSer ies
ĠSm art
ĠPaul o
Ġpresent ing
Ġvot er
ĠMark et
Ġrock ed
Ġ197 1
Ġabs or
Ġallow ance
Ġpeace fully
Ġsens ation
Ġclean er
ĠIndian apolis
Ġaccept ance
Ġenfor ce
Ġinsur gents
ĠShar p
Ġpsych ologist
Ġign oring
ĠConserv ation
run ning
Ġpurp orted
Ġbatter ies
ĠOut side
Ġstuff ed
Every body
ĠSom ali
ĠStr ong
Ġmonit ors
Ġcorpor ation
ĠBurn s
ĠUp d
Ġrevolution ary
Ġhonest ly
Ġstro kes
Ġcolour ful
ĠBull ock
ĠHard y
ĠRoll s
ĠSum mer
girl friend
Ġcub s
ĠDra g
Ġforest s
................ ................
Ġpsychiat rist
ĠWas ps
angel ical
Ġalt ogether
Bl ue
Ġexperim ents
ĠProv ince
ĠBron x
ĠQuest ions
Ġmath s
Ġconscious ness
ĠFall on
ĠEp stein
Ġsuic ides
Ġdign ity
Ġbic ycle
May be
Ġutter ly
ĠShi ite
Ġelimin ate
Ġbip artisan
Ġsubmar ine
Ġbisc uits
Ġgren ade
ilater al
ĠBian ca
ĠBuen os
ĠMersey side
C ol
F irst
M anchester
T ON
c ut
d ings
f ires
g ov
h ma
k ie
z or
Ġt ents
in ces
er ting
er ving
Ġs id
Ġw ra
Ġc akes
Ġb ang
is y
it ate
Ġh id
Ġh ills
Ġp ale
Ġd read
om as
ve t
ĠS ays
ĠS pl
ĠS ains
ĠS ources
ĠS ource
ol ving
ol ves
ĠM ald
ac ious
el in
Ġst air
ĠB end
ĠB ale
ec o
ĠP ain
Ġha un
and als
est ab
ĠL il
ĠL ot
ĠR aul
Ġcon greg
ĠN issan
Ġsh orter
Ġsh attered
ain i
Ġse af
Ġex ternal
ĠU pton
ard y
oc ide
Ġout spoken
ong o
Ġup held
Ġun related
Ġun anim
ail ing
Ġme g
og s
Ġso ared
Ġqu ir
ock ets
ĠLe x
ĠAnd er
." ,"
Ġrel ent
Ġind ex
Ġhapp ily
Ġconf isc
Ġmar ched
Ġsl ogan
Ġstr ay
Ġcontr ac
Ġair space
rem lin
ĠCom pl
Ġcur tain
Ġbre w
Ġtrans g
ĠDav os
Ġref ers
Ġsk ill
Ġmet re
Ġinst ances
Ġ18 0
istr ate
ĠNorth ampton
be it
atter ing
ush ima
go ers
ĠSer bian
Ġbar red
Ġnet ted
Ġthr illed
Ġsuper star
Ġhor rendous
Ġguil t
Ġgra ph
Ġur anium
Ġhands et
Ġaut obi
Ġsun light
het amine
ĠPart ners
ĠComm ander
Ġsurf aced
Ġhistor ian
Ġairl ifted
Ġchamp agne
ĠStud ies
ĠNet flix
ĠMag azine
Ġic y
ĠWin frey
Ġtom b
Ġrequire ment
ĠWell ington
ĠCath y
ĠRam os
Ġtow ers
Ġexhib it
Ġcoff in
Ġentertain ing
Ġded ication
uster ity
ĠId aho
Ġspell s
Ġking dom
Ġje opard
Ġrecon cil
Ġtheat ers
ĠFre eman
ĠFro ch
Ġemp ire
ĠDid ier
Ġfract ured
Ġreun ited
abil ia
ĠShort ly
Ġdies el
Ġbarrel s
Ġles bian
ĠGriffith s
Ġparach ute
ĠPict ures
ĠHoff man
Ġbunk er
ĠWals h
mort em
Ġmour ning
ĠAberde en
Ġsquir rel
Ġtob acco
ĠTheres a
ĠSains bury
9 2
D r
G H
I R
L ife
S te
b ot
c ation
c ry
f light
g ot
h on
k ok
m ay
p a
p resident
r ate
t ry
u y
u ire
w r
w orld
Ġt aun
Ġs ections
Ġs iege
Ġw iped
Ġc ri
Ġc ove
or ient
is ms
Ġto re
Ġp ad
Ġp el
al t
Ġm un
Ġm ush
Ġm ounted
om ous
id an
Ġl ig
Ġl ump
Ġn ortheast
ĠT rou
st ep
ĠS z
ĠS ene
ĠS inger
ĠA ve
ĠM is
ĠM ig
ĠM ak
ĠM RI
ĠC ould
ur an
ur ious
im m
el ong
ĠI p
et heless
Ġst ead
ro se
ĠB ust
ĠP oint
ĠP ayne
ĠP uer
ĠP ablo
Ġal beit
ra ham
ĠD ad
est on
ag ine
ĠF ah
ĠR if
ĠR ory
ĠR upert
if ford
ĠN on
ĠN ut
Ġr ats
Ġsh arks
ĠJ a
ĠJ agu
Ġch in
Ġch ol
Ġde le
ĠO c
Ġsu ck
ast air
red it
iv ic
ĠK il
ĠK eller
Ġwor s
ry s
Ġout raged
und ers
Ġint rig
ĠHe at
ĠCh o
ĠCh or
Ġman ages
Ġcont ra
Ġdis astrous
ind y
Ġso fa
ib o
Ġev ident
ĠV A
ĠY aya
aw i
Ġ19 20
Ġback wards
Ġinv ite
Ġdown load
Ġbr ick
Ġbr idges
Ġunder age
ĠLe igh
Ġgr im
ĠSp rings
Ġneed ing
ĠAr lington
Ġass ure
Ġwar fare
ual a
Ġhapp ier
ĠSh annon
Ġdisc ount
ĠIs le
Ġbus h
duc es
Ġcur b
Ġcur ious
Ġprov oked
Ġfac ilit
com plete
Ġpar aly
Ġmod e
Ġopp osing
ĠWest on
ĠCo ach
ĠFl ood
Ġprof iling
Ġsum mon
ĠCr icket
Ġvisit or
Ġfootball ers
Ġident ical
Ġball oons
Ġsuggest ions
ĠSw ift
gu ards
uff y
Ġdi ets
Ġi OS
Ġrepresent ation
Ġaccident al
ĠMad onna
Ġdiv isions
Ġindust ries
ĠCor rect
Ġ196 4
ĠCongress ional
ĠDo e
ĠDaniel le
Ġtweet ing
ĠChe m
gen eral
ĠNor wegian
Ġpur se
Ġagre ements
ĠSuper ior
ĠSuper intendent
Ġfix ing
onn ie
ĠBoy s
Ġsurvey ed
Ġpurs ued
Ġlands l
ĠSky pe
Ġton nes
ĠHod ge
ĠBu y
Ġmagn ific
ĠVer izon
Ġreact or
ĠFil ip
ĠHay es
Ġkiss ing
ĠPop ular
Ġoutrage ous
Ne il
Ġoverwhel med
Ġmechan ism
Ġexplo itation
Ġbon uses
Ġdepend ent
Ġjihad ist
Ġarchitect ure
Ġemotion ally
Ġsequ ence
ĠMah m
Ġgri ev
ĠIvan ovic
Ġcler ic
Ġdeleg ates
mind ed
Ġincor rect
Ġcorrespond ent
ĠKier an
ĠNaz is
ĠBritt any
ĠCL ICK
ĠRepresent atives
Ġintellect ual
ĠFul ham
ĠFell aini
igen ous
Ġallerg ies
ĠBermud a
ĠKoz l
ĠPors che
ĠPuer to
G od
J on
L E
M P
M c
N D
P er
S D
b ott
b acked
d ri
e ven
f ly
f rom
f old
f ix
h usband
i ak
n et
p rom
p ine
Ġ umb
Ġ âĤ¬
Ġt iger
Ġs idelines
at ton
Ġb ury
Ġh ottest
Ġp irates
Ġp izza
Ġm o
Ġd irt
Ġd ancers
ic able
ion age
Ġn ets
Ġn ude
ĠT ests
Ġhe ir
ĠS ul
ut ical
Ġg ol
Ġg inger
Ġg host
ĠM ake
Ġfor um
Ġst icks
ĠB ann
ĠB att
ĠP ra
Ġas hamed
un s
op ular
ag ra
em bl
ĠF u
ĠF alk
ĠF uture
ĠR ab
ĠR ace
Ġr ider
ĠE ug
ĠG round
Ġcom r
ĠJ unior
ĠO t
Ġsu ite
ess ler
ab ies
art ing
ist ically
qu est
ĠK al
ant i
ber y
Ġun ited
ĠCh ambers
ace utical
Ġpr incess
Ġacc uses
ick y
Ġen rich
ĠY outh
Ġam endment
Ġhel pless
ĠLe o
ĠLe aders
oot ing
te acher
ĠMar i
Ġear ns
ĠFr ampton
Ġins ider
Ġdef ine
Ġret ained
Ġbo o
Ġsl ain
Ġdr un
Ġmod ified
Ġhum our
Ġpat ent
ĠCol lection
Ġgun ned
Ġdesign ated
Ġeconom ies
Ġhom emade
ĠEx eter
ĠGo als
ĠWhite hall
Ġthr ows
Ġgra ves
Ġcontrib ut
Ġer ected
Ġimpro per
Ġperform ers
ĠLib rary
Ġworth y
Ġbuy er
ris k
Ġmis ery
Ġver bal
Ġindic ating
bl ood
Ġstab il
Ġtrust s
Ġattend ant
Ġdark ness
ĠOf com
Ġpaper work
ĠInter state
ĠRos enberg
Ġmaintain ing
Ġbudget s
Ġexpert ise
Ġsad ly
Ġrecomm ends
Ġbelong s
Ġspect acle
ĠJeff erson
Ġflu id
Ġfort un
ĠGuard iola
Ġnegot iate
ĠPet ra
Ġir rit
ĠLat ino
mod el
Ġaggress ion
Ġhat red
ĠLo ft
Ġeditor ial
Ġrank ings
Ġencoun tered
Ġburgl ar
Ġ@ @
Ġconce al
Ġcalm ly
Ġunw anted
Ġunw illing
Ġaccompl ished
ĠFern andez
Ġintent ions
wa ite
ĠPass engers
Ġdiver se
Ġgest ures
Ġramp age
ĠPear son
ĠVen ice
Ġdiscl ose
ĠDomin ic
Ġsponsors hip
Ġexha ust
ĠKath leen
Ġfrag ile
ĠFlyn t
Ġgru esome
mid t
Ġprivile ge
ĠHass an
Ġunsuccess ful
ĠRav ens
ĠSN P
Ġphilos oph
ĠWend y
ĠCyr us
Ġdestro ying
ĠTomlin son
ĠFuk ushima
C om
G e
d u
e very
f ight
s burg
v on
v aged
w au
Ġt ed
Ġt ang
Ġt apes
in ner
Ġs lic
on line
re ach
ed uc
en ary
or f
an ie
Ġb ump
Ġb ubble
Ġf ury
ar ra
Ġp ic
Ġp ear
Ġin adequate
as ia
Ġm ant
Ġd ent
Ġd ear
ic ia
om ar
Ġth riving
Ġl ia
Ġn aming
ĠT ask
ĠS add
Ġg am
Ġg ays
ĠA A
ĠA be
ĠM end
ĠM anny
Ġfor ming
Ġst ron
Ġst int
Ġst umbled
ĠB P
ĠB and
âĢ Ķ
ĠP itt
ch t
ĠW an
ĠD V
ĠD over
th an
ĠL im
ĠL ump
ĠF aw
ĠF let
ĠN ike
ĠN ortheast
Ġr ant
Ġhas ht
our g
Ġv ows
Ġv andal
ak y
um ption
Ġk icks
ĠK ham
ff ee
Ġint act
Ġrep ublic
Ġover th
Ġover look
Ġcont emporary
og ging
ĠTh ings
Ġacc um
ĠV ett
ĠV IP
amp hetamine
Ġqu otes
Ġcr ude
ĠAn aly
Ġfound ing
Ġunder mine
Ġbel l
Ġcount ing
ĠLe veson
Ġchar ts
Ġreg ain
Ġmed ieval
ĠSh ock
ĠWe ber
Ġent ers
ĠAt kinson
Ġrele ases
Ġdr own
Ġlit ter
Ġsw elling
ĠHar rington
ĠMin i
Ġclear ing
ĠSe v
Ġorgan isers
ĠGr ade
Ġbar riers
Ġhom ophob
ilar ious
ĠUS B
ĠEx change
uff s
ĠEm m
Ġlist ened
ĠEar l
unt ary
ential s
Ġshop lifting
Ġtro op
arr ow
ĠMus ical
Ġaccount ing
ĠWil fried
Ġcand y
ĠTra vis
Ġran ch
Ġdisp utes
Ġdoub les
Ġpred omin
ĠVal erie
Ġvers us
Ġsuit case
ca ution
Ġsens or
Ġinflu enced
elly fish
Ġvo iced
ĠArab ic
Ġcounter part
Ġprior ities
Ġlay ers
ĠAsh ton
Ġargu ably
Ġamaz ed
eder ation
Ġimag ined
ĠMcD on
Ġlic ensed
Ġmeth amphetamine
ĠPet e
Ã© e
ĠMarc us
ĠMarc os
ĠFire f
Ġsuffer ers
ĠLo ch
ĠBra ve
Ġbot hered
Ġhur ting
Ġtransform ation
Ġfant asy
-- --
Ġscream s
def ense
ĠSub way
Ġdeliber ate
Ġknock ing
Ġtrail er
ĠPhot ographer
Ġaccommod ate
ĠSport ing
col m
Ġcul p
Ġshell s
ĠLeban ese
Ġcomprom ised
Ġdism ant
ĠBed ford
storm s
Ġcolumn ist
Ġfasc inating
ĠVik ings
Ġfiance e
Ġstim ulus
Ġhoney moon
ĠRobb en
ĠCou ple
ĠHag el
Ġunfold ed
Ġrans om
Ġinev itable
ĠNash ville
Ġhomeown ers
ĠJun cker
ĠJol ie
ĠUg anda
ĠMcQ ueen
ĠConsum er
Ġfert ility
Ġok ay
ĠClaim s
Ġantibiot ics
Ġspraw ling
ĠOcc up
ĠTud or
Ġgol fer
Ġstron gh
Ġhasht ag
G M
H aving
K K
M ichael
P al
W he
a o
b n
c or
d uct
h ole
m aster
p res
s list
w ark
x icated
er man
Ġs wo
Ġs ights
Ġb ay
Ġb aff
Ġh oard
Ġh ackers
Ġp owder
Ġm aj
le igh
Ġl y
Ġn iece
Ġre ct
ĠS ed
ĠS id
ĠS ure
ĠS oon
Ġg ains
ĠM ach
ĠM ath
Ġe ve
ĠC ell
ĠC hester
ĠC ulture
ĠC umm
ĠB od
ĠB ren
ĠB udd
us ky
ĠH es
ĠH itch
Ġat op
ĠP ill
ĠP iper
ĠW a
ĠW ald
ĠW yn
ag ging
ĠF itz
Ġcon fer
ĠN ort
Ġr uth
ĠG as
ĠG ang
ĠG ross
ĠG iles
ted ly
ĠJ ob
ĠJ FK
Ġv est
Ġde af
Ġle mon
ĠO d
ĠO m
ess es
oc c
Ġpl ag
ĠK agan
ĠK remlin
Ġout put
ĠSt rip
ĠIn j
Ġover looking
Ġdis rupted
og g
Ġacc eler
ĠV el
act ory
Ġwork force
pl an
ily n
Ġbl ames
Ġro de
ĠUn it
ĠAn im
Ġra ft
Ġra ids
Ġra zor
te gr
ĠMar ilyn
Ġdef eats
ric s
uss ion
gr own
Ġche ered
Ġloc ks
Th ose
ĠBl ood
ific ance
Ġprev ention
Ġdet on
Ġinf licted
ĠRep orts
Ġhum ble
ĠMay er
ĠBe a
ĠInd ust
atic ally
ĠFl oren
Ġconv incing
ĠAb raham
Ġadv ise
Ġconcer ning
ev a
Ġdist ant
Ġred und
ĠDem onstr
Ġblood s
Ġpot atoes
Ġrespons ibilities
Ġgra vity
ĠMil wau
ĠMus k
Ġaut on
ĠSch w
Ġrespond ers
Ġsafe guard
ĠPat ricia
Ġcand le
Ġlink ing
Ġperfor mer
Ġglob ally
Ġten ure
Ġport fol
ĠTe a
Ġsal ad
ĠMur der
yc ling
bor o
Ġclean ed
ĠDun ne
ĠGood man
ĠDet ails
ĠDar fur
ĠOver all
udd in
ĠWall is
keep ing
Ġcast ing
Ġow ed
Ġfresh man
ĠTre k
ĠDam ien
Ġpurs uit
Every thing
Ġcontest ants
Ġarrang ement
EA D
Ġanalys ed
Ġut ility
Ġacqu ired
Ġspons or
ĠMcK enzie
Ġjack pot
ĠSupp orters
Un fortunately
ĠHas an
ĠNap ole
Ġske leton
Ġrent al
Ġunivers al
Ġsurprising ly
Ġmemor abilia
Ġmand ate
acc ur
Ġski ing
ĠChile an
Ġhyd rogen
ĠVictim s
ĠBuckingham shire
ĠQuest ion
Ġborr owing
Ġlapt ops
Ġpubl isher
Ġlod ged
Ġpand as
ĠTon ight
ĠSut ton
ĠDh oni
ĠVII I
ĠGir oud
Ġfrank ly
Ġhaird ress
ĠSW AT
Ġadequ ate
ĠNep al
Ġcroc od
ĠKep ler
ĠEston ia
ĠSene gal
6 7
8 6
E ur
G A
H ope
H ING
L ike
P aul
S em
b ay
b est
b ral
c ore
d ev
d ollar
f ighting
l ace
m at
q a
u h
w right
z uk
in ery
Ġs idel
Ġw ings
an ne
Ġb its
Ġf res
Ġf oss
Ġf its
it ivity
ing e
Ġp ent
Ġp ap
Ġp uzz
Ġm asc
id y
Ġl ure
Ġl amb
Ġl ining
Ġn asty
st able
st ellar
ĠS qu
ĠS elf
ĠS ister
Ġg ates
ĠA w
ĠC ob
ĠC emetery
im ents
ir it
ĠB i
ĠB uch
"" .'
ĠH ands
ĠP oul
ĠD ig
ĠD ort
ĠF ind
Ġr aced
ĠE ye
ĠG iants
Ġsh orts
ĠJ ake
end ants
ĠO il
ĠO ll
ĠO dd
Ġsu cc
Ġsp at
ome ter
ĠK ur
ĠK ids
Ġcl ay
Ġag ony
ub a
Ġres umed
Ġman ifest
.' ""
Ġdis belief
per ed
og o
Ġsc ope
ne x
Ġapp et
Ġper mits
ĠY ous
Ġ19 14
Ġno on
ĠAl astair
Ġph oned
Ġcomm ute
Ġcount ies
Ġgr id
Ġmin us
Ġmin imal
ov en
Ġrel ate
Ġass isted
ĠSh ip
ĠSh ield
ĠRe illy
Ġsign ificance
Ġsl aying
ĠMc A
ĠZ oe
Ġcontin u
ĠCom p
ĠFor bes
ĠOn tar
Ġref uses
com be
Ġsw ine
Ġgen ius
Ġsit uated
ĠWest wood
att i
co on
ran o
Ġprof iles
Ġannoun ces
ĠGu erra
Ġdist ressed
Ġpros ecute
ĠSer ious
ĠOr te
Ġple ad
Ġhar med
ĠCan al
Ġcontrib uting
ĠJack ie
Ġ197 3
Ġele gant
Ġhon ored
ĠMal colm
Ġvill a
Ġfat igue
ĠVict ory
Ġaud it
Ġsurger ies
ĠBy ron
Ġcat walk
ĠX i
Ġdeliver ies
Ġjud gement
Ġsurround ings
Ġhous ed
Ġmater nity
Ġobs ession
Ġwond ering
hold ing
Ġrain fall
Ġang le
Ġroll er
mond s
Ġsick ness
emb ourg
Ġuns ure
ĠRad amel
Ġlangu ages
Ġexch anged
ĠEll en
ĠEll iot
Ġstress ful
Ġacknow ledge
IV E
Le od
ĠInc red
Ġexcept ional
Ġcas ino
ĠJew s
war f
Ġequal iser
ĠBra vo
Ġtall est
ĠRoman ian
cho a
umber land
cont in
ĠCop eland
ĠBul gar
Ġconcentr ate
Ġtoler ance
Ġtoile ts
Ġmechan ical
irm ary
Ġregul ator
cot ics
Ġshr ine
Ġju venile
ĠSat urn
ĠFel ipe
Ġpip eline
Brit ish
Ġdeport ation
ĠBud get
Ġsquee ze
ĠNi Ã±
ĠGw yn
oub tedly
ĠGarr ido
Ġmelt down
Ġamput ated
Ġonlook ers
Ġeld est
Ġcosmet ic
ĠPitts burgh
Ġslog ans
Ġautobi ography
Ġdrun ken
ĠVett el
ĠCumm ings
ĠDort mund
9 7
F i
G O
I E
R S
b ling
b ands
d r
f ood
g or
g art
l ane
n al
n ik
r ons
r ants
s chool
s omething
w he
y ans
Ġ /
Ġ âĢĻ
Ġt ainted
Ġs ung
ed e
it ably
ar is
ar ians
as io
Ġm aul
Ġm asks
Ġd ash
Ġd azz
Ġl ured
Ġl aughter
ĠT igers
Ġre ef
st ant
st eps
ĠS ave
ĠS outheast
ĠS neider
ĠA x
ad ows
ĠM olly
Ġe t
ter ior
ver ts
Ġsa us
Ġsa ves
ĠP ry
ĠP ole
ĠP iers
ĠP ensions
ĠP acker
os i
os ity
ĠW is
ĠD ot
ĠD ana
th am
ag y
ĠF en
ĠR other
ĠR ange
ĠN ar
ĠN em
ĠN TC
ĠE aster
od ka
ĠJ as
Ġv ivid
ab al
ĠU d
Ġpl ates
Ġk its
ge ons
ĠK and
ĠK oh
Ġbut t
Ġoff ended
Ġoff ending
Ġout lined
Ġout cry
Ġun av
Ġun tr
ĠSt ones
ĠHe avy
ĠHe idi
ĠIn quir
av i
act ing
ĠY a
Ġback drop
Ġget away
ater nity
Ġdown stairs
Ġcar er
Ġcr ane
Ġcr owned
ition ally
ĠNew port
ĠShe en
ĠAn a
rib ly
ĠMar se
Ġear liest
Ġaw esome
Ġdef iant
ov ie
Ġfin ale
ĠAr men
Ġend ure
ene y
Ġconf ined
ĠWe iss
ĠJo han
Ġ7 50
Ġ7 37
ins pired
Ġext inct
ĠMc All
Ġair bag
ĠCar lo
Ġ9 2
to os
Ġsusp end
ĠSouth west
com mun
Ġpar as
Ġinst inct
Ġ11 1
ĠPresident ial
ĠBe y
uck ily
roll ing
ĠCo e
Ġoper a
cl iff
Ġart illery
ĠAd ela
Ġ16 0
Ġcoun ted
Ġcommit ments
ĠWar ning
ĠSer bia
Ġhom eland
Ġpolic emen
Ġconfir ms
Ġimportant ly
Ġnation als
ĠPaul a
Ġstep father
Ġpair s
Ġeye br
Ġround ed
Ġcred entials
ĠLu iz
Ġrev ive
ĠOffic ial
Ġver ge
Ġcoast line
Ġtrib al
ĠSal man
Ġhistor ians
ĠCle ver
Ġpers istent
Ġcerem onies
Ġund is
Ġang el
Ġdevast ation
ĠShar ma
Ġclin ics
ĠDu ell
ĠFin land
ĠTre acy
Ġweak ened
Ġanger ed
Ġ195 4
ĠSa o
ĠRay mond
Ġpen insula
Ġevac uate
Ġneighbour hood
ĠBet ter
Ġjack ets
Ġtroub ling
Ġgym n
Ġintention ally
Ġaggressive ly
Ġtex ted
ĠBang kok
Ġgro cery
Ġadministr ator
ĠKer cher
Ġsib ling
ĠMu hammad
ĠFur ious
ĠNat alie
Ġemp ower
Ġnick name
Ġbru ising
ĠWol ver
ĠWol ves
ĠRef eree
Ġfare well
Ġrif les
ĠNa omi
ĠGM T
Ġenthusi asts
ĠNeighb ours
Ġalter cation
eff ective
Ġexha usted
ĠJoy ce
Ġovers ight
Ġannoy ed
Ġprecise ly
Ġdecre ase
ĠLux embourg
ĠSamar itans
ĠPriv ate
prot ected
Ġquarant ine
fig ure
Ġsupervis or
eli hood
Ġintercep ted
Ġpredecess or
Ġcouncill or
Ġvib rant
ĠVinc i
ĠUnivers al
Ġcogn itive
ĠMyster y
ĠLump ur
ĠOntar io
ĠOrte ga
ĠSneider man
) "
C ons
E l
F l
P lease
U Z
W ill
b in
b ie
c am
d led
f at
l ive
l oved
n r
p oints
t ree
w atch
Ġ :
Ġ Ã¢
Ġt uition
he im
Ġa usterity
re ason
re nder
at em
Ġb ure
Ġb ailed
Ġf ib
Ġf ring
it ic
Ġh inted
Ġto uring
Ġto uted
ou g
Ġm og
Ġd od
Ġd amp
Ġd airy
il ty
ĠT ier
ĠS ach
ot hes
ĠM es
ĠM oody
ĠC ir
ĠC age
ĠC ian
ĠC pl
ĠI ain
ĠB il
ĠB ear
ĠH ell
ĠH air
ĠH ock
ĠP ut
ĠP ub
Ġan a
ĠD ann
ĠL or
ĠL aunch
em ics
ĠR w
ĠR ain
ĠR acing
ĠN ation
ĠN est
Ġr ice
Ġr ides
ĠG iggs
od ing
ĠJ ade
Ġch ased
ĠO choa
Ġj ungle
ab ling
oun ce
red ict
qu in
ĠK ab
ĠK ick
Ġor al
Ġoff shore
Ġad ul
ĠSt re
ĠSt yle
ĠSt alin
ĠHe b
ĠCh at
so le
Ġdis reg
Ġsc ript
Ġev olved
Ġatt ach
ĠV o
Ġinto xicated
Ġwork out
ĠY as
Ġtr aced
Ġbl asts
Ġinv ention
Ġcar p
Ġcr icke
ink y
ult y
ĠAn t
Ġbr ush
Ġwhere as
Ġcomm uters
Ġsur rend
ph ies
ĠFr is
ĠSc he
ĠSc ud
Ġfin ishes
ĠSp ears
Ġrel ay
Ġsm ashing
Ġgu ided
Ġter rier
ĠSh aun
Ġmar ble
Ġmar row
ley s
ret te
ins k
ĠMon ica
Ġcamp ing
Ġ12 5
hel p
Ġsub mer
ĠBar r
aff ected
Ġdirect ions
Ġdel icate
ĠHar le
Ġtrain ers
Ġcost ly
Ġfire arm
Ġart istic
head s
ĠAll an
Ġdra gging
ĠGu id
ĠTw elve
ĠWar nock
ey ed
Ġdam ning
ĠAcc used
Ġcapt uring
ĠLab r
Ġsuper vision
Ġpresent ation
ĠPal m
Ġgra bs
weet ed
Ġhol y
sw ich
Ġaut istic
ĠSch we
Ġmeas uring
ĠHigh land
Ġvol atile
ĠBlack pool
arent ly
ĠMal ta
Ġcred ible
Ġsal on
Ġconsider ably
Ġchem istry
ae h
ĠChe ck
Ġattend ants
Ġpret ending
Ġdangerous ly
Ġmeant ime
Ġroll s
Ġparticip ation
ĠNick y
Ġalcohol ic
ĠKar im
keep ers
ĠFam ilies
ĠVan essa
Ġsuspic ions
Ġproud ly
Ġstreng the
Ġbi ography
Ġsche mes
ĠLau rent
Ġfaith ful
Ġbackground s
rell a
ĠFoot age
ĠUs ers
Ġtast es
Ġsight ings
ĠBet ty
ĠOrgan isation
Ġcommand ers
ĠArch ae
ĠJane iro
Ġcanc ers
ĠCraig slist
Ġchat ting
ĠFred er
Ġattract ing
ĠMull en
Ġguarant eed
Ġaccur acy
Ġfault y
Ġtat toos
Ġiniti atives
Ġobst acles
orge ous
Ġbru ises
ĠVictor ian
Ġdisag ree
Ġtrick y
Ġdisgr aced
Ġplun ge
Ġprol ific
ĠUr ban
ĠAlf red
ĠBeaut y
Ġeyel ashes
Ġpostp oned
Ġadap ted
ĠHav ana
ĠRig by
Ġappoint ments
Ġreleg ation
Ġprototy pe
ĠMidd les
Ġquir ky
ĠMig uel
ĠIp swich
ĠChor ley
Ġsummon ed
ĠFlet cher
ĠBren nan
ĠAdela ide
3 50
7 2
L R
L U
O r
W omen
a ic
b ath
b rough
c os
c ules
f in
g om
i q
i ates
m om
p in
u ah
v iol
w ait
â Ħ
he id
Ġc erv
Ġc ares
or c
an z
an ity
Ġb ands
Ġb ureau
Ġf etch
ar at
Ġh ilarious
Ġp enc
Ġin nings
ou fl
Ġd ancer
ic ism
ĠT oni
Ġhe aling
ĠS P
ĠS em
ĠS ound
ot hel
ol ars
Ġg y
ĠA D
ĠA er
ĠA urora
ĠM um
ĠM atic
ĠM agn
am ante
ĠC el
ĠC art
ĠC lear
ĠI B
ro ots
ĠB ased
ĠH ous
ĠH BO
ĠP A
ĠP erson
Ġal ight
Ġha irst
ĠW onder
ĠD ob
ĠD ancing
ul ances
ul ously
th ink
th ird
ĠL ith
ĠL ions
ĠL ance
ag les
ĠF resh
ĠF idel
ĠR ico
ĠN ature
Ġr ushing
ĠE to
ĠG ome
Ġsh am
od ox
ĠJ in
ct ica
Ġse ize
ack i
Ġpro state
Ġsp ear
Ġab uses
ge ant
ĠK urt
ĠK uala
Ġoff ense
Ġout law
ong ed
own er
Ġad verse
ĠHe ights
ass ed
Ġsc rew
ĠV as
ĠV ern
Ġen voy
Ġbl ade
Ġro d
Ġcar ers
Ġam end
ather s
Ġexp ort
Ġins ight
Ġday light
ov an
ric ks
ric ultural
Ġass ists
Ġass essed
Ġass embled
iel sen
Ġsm oked
ST R
Ġsl ower
Ġsl aves
Ġent ries
ax man
ĠZ ak
Ġcontr ary
Ġmiss es
Ġsub stances
Ġremain der
Ġexpl oring
Ġpay out
com es
Ġsw ord
ann ers
ĠMin isters
Ġpat ience
af ia
ĠAm ber
ĠSe oul
Ġthreat ens
Ġsing led
ĠDep ression
ĠAll ied
ĠCr is
Ġfore casters
ĠEd mund
Ġdist urbed
Ġel im
the y
Ġpain s
esc ope
Ġfun erals
Ġroad side
Ġpub s
inc ome
Ġprocess es
Ġsimilar ly
ĠIran ians
Ġtro phies
Ġcreat ivity
Ġdeep est
ĠCor onation
Ġbul ld
Ġbroad band
Ġmob ility
ĠTom my
Ġmat hem
ĠDo es
yc les
Ġexam iner
Ġcard i
Ġmis erable
Ġoccur ring
Ġcontact ing
Ġaccep ts
Ġpur ple
ĠLaw ton
ĠStud ios
Ġwel coming
Ġrain bow
ĠWal ton
asc ular
ĠRec ord
Ġorigin ated
Ġmedic ines
Ġimag ination
ĠProfess ional
Ġbi as
Ġfalse ly
Ġimpl ants
Ġfro st
Ġparent al
ĠPlay er
Ġextrem ism
Ġterrit ories
Ġaccus ation
ĠMont gom
Ġheight ened
Ġaccompl ice
Ġthin ner
Ġpoison ed
ĠDick inson
Ġrestrain t
AS HING
olph in
Ġscar f
uls ion
Ġglam our
ĠTar get
ĠDerby shire
ĠChad wick
Ġenthusi ast
Ġdeleg ation
Ġprepar ations
Ġreplic a
ĠVis itors
Ġcollabor ation
ĠEnvironment al
ĠOpp osition
Ġreop en
Ġsuic idal
ĠWo j
Ġscholar ship
Ġpure ly
Ġdyn amic
Ġexceed ed
Ob viously
ĠWH O
ĠLis bon
Ġfestiv als
Ġhorn s
ĠParalymp ic
Ġcaut ious
ĠWr ite
ĠControvers ial
ĠGem ma
Ġjewel ry
Ġdispat cher
Ġvoy age
Ġfug itive
ĠAZ UZ
ĠBust amante
Ġdele ted
Ġmagnific ent
Ġbloods hed
ĠMilwau kee
ĠNapole on
Ġhairdress er
âĦ ¢
ĠGome z
ASHING TON
4 50
C hel
J ack
M S
M al
M us
T H
b ecause
f am
f aced
h ang
h ua
h istor
l at
l as
l io
m i
n ow
o os
p en
x on
y stem
Ġt ill
Ġt ends
Ġw olf
Ġw aved
en ne
Ġc ough
or ity
Ġf t
Ġf ist
Ġf olk
Ġm it
ic le
Ġbe e
Ġbe ans
Ġn ap
Ġn ause
ĠT aser
ĠM ia
ĠM ans
ĠC ant
ĠC umbria
Ġwas ted
Ġst iff
ĠB uc
ĠB omb
Ġwh opping
âĢ ĺ
ĠP ham
ĠP att
Ġan ten
ĠW ess
ul u
ul ence
op p
ĠL ad
ĠL und
ag li
ĠF S
ĠR ena
ore st
ĠN ielsen
Ġr owing
Ġch anting
Ġv end
Ġle isure
end ant
ĠO pt
Ġse eds
Ġex ting
ust ers
ĠU A
ĠU se
ak ov
oc aly
Ġpl aint
qu ette
ĠK ag
ĠK endall
ord e
Ġun ity
ĠSt ag
so ever
Ġdis respect
ĠTh rones
Ġen abled
aw ays
Ġtr unk
Ġ19 18
Ġfl ows
Ġwhat soever
ĠAl le
Ġcr acked
ult an
Ġdec isive
Ġexp ose
rib ing
Ġmin ers
uch y
Ġcons ulting
ĠSp a
Ġ6 50
ĠEn forcement
ĠBrit on
Ġass ignment
Ġend less
uss ia
ene g
ĠWe eks
ĠJo h
Ġche ated
Ġsl umped
ĠMc F
Ġfil ters
Ġmen ing
ĠCar ole
ĠDe e
Ġdep icted
IS IS
con trol
ĠBl ades
Ġtrans mission
Ġprev al
Ġiss uing
ele cted
ĠSouth wark
Ġpar am
He y
Ġdeal ers
ĠPh ys
Ġsn atched
ĠJu arez
ĠGu ild
ĠGu atem
Ġform ula
Ġident ities
ĠMichael a
ĠEx xon
me ter
Ġrisk y
Ġhar bour
Ġhar rowing
Ġdi arr
ĠEm manuel
ĠNews night
Ġpres cribed
Ġchallen ger
Ġcoll ar
lo ads
Ġaccount ability
reg ular
ĠHol iday
ĠKing ston
Ġaccess ories
Ġprob able
Ġconn ects
ĠBo at
ĠRob son
Ġcirc les
Ġcirc ulated
Ġphys ics
Ġesp ionage
hol m
Ġpoor er
che str
Ġachie ving
ĠWood ward
gen er
Ġindepend ently
add ington
ĠBill ings
ĠWal t
ĠSand usky
Ġlegisl ators
Ġshut tle
Ġprogress ive
Ġrespect ful
Ġcorn ers
ĠMag uire
Ġshel ters
Ġlearn t
ĠGre ene
An n
ols ki
Ġbail out
Ġunus ually
Ġnurs ery
Ġbroadcast ing
ĠEvery thing
Ġast hma
ĠPlay ers
Ġtight ly
ĠGP s
ĠOper a
ĠHor se
ĠCont in
ĠAgu ilar
Ġcooper ating
Ġcanc ell
ĠColomb ian
Ġdict ators
bu ilt
ĠSum mit
ĠRick y
yd ia
ĠRem ember
ĠLincoln shire
Ġjihad ists
Ġcalc ulated
ĠCas illas
âĤ¬ âĦ¢
Ġgenuine ly
ĠLeg end
ih anna
Ġimprison ed
Ġhumil iating
Ġju ice
Ġelement ary
auc r
ĠCav ani
Ġbol ster
ĠKu wait
Ġbarr acks
ĠRobb ie
ĠBroad way
ĠFlyn n
ĠGro ves
ĠBae z
Ġhorm one
ĠRams ay
Ġrall ies
Ġfisher man
ĠAntar ctica
Ġsovereign ty
Ġoverc row
ĠOwn er
ĠPrim ary
Ġengulf ed
ĠCurt is
ĠBeh ind
Ġware house
Ġdys f
ĠWozni acki
ĠSic ily
Off ic
Ġdisqual ified
ĠSime one
ĠPoul ter
Ġundis closed
Chel sea
Ġexting u
8 4
9 1
A re
C O
L D
W ASHINGTON
Y our
c ourse
d riving
k ers
l off
p ted
p se
p ress
s i
s ix
t or
Ġw aving
en ia
Ġc ement
Ġc apped
at able
Ġb ass
Ġb orrow
Ġb ambo
Ġf ren
Ġo un
is se
ing le
ar ter
ar ts
Ġh ated
Ġp ouring
Ġp ushes
Ġin fer
Ġm alf
Ġd wind
om ayor
Ġl ounge
Ġn erves
ĠT ip
ĠT ough
ĠT ric
ĠT reatment
Ġhe n
ĠS aw
ut al
ĠA uck
ĠM ast
ĠM old
ac ies
ĠC H
ow ay
Ġwh oles
ĠP il
ra ud
ra per
ĠW ing
ĠD emp
ĠD ata
ĠD odge
ĠL ate
ĠL ah
ĠL ima
ĠF E
ĠF ac
ĠF ew
ĠF raz
ĠF ein
ĠF iona
Ġcon sole
ĠN air
ĠG ian
ĠG ardens
Ġsh ine
Ġsh aped
Ġsh ifts
Ġch anted
Ġv ou
ĠO tt
Ġpro ves
ĠU mun
Ġsp inal
ard i
Ġad am
Ġres embl
Ġman e
Ġinc on
Ġar range
ĠV ince
ĠY ale
ĠY ellow
Ġtr icks
Ġfl esh
Ġpre med
Ġpre caution
Ġcar c
lic ts
Ġser geant
ĠAn c
ty pe
ĠSc iences
ger y
sh aring
Ġinvest ing
Ġmar itime
ret ion
br id
ĠZ ur
ĠSy ndrome
ĠDe al
Ġ9 3
ĠBl u
ĠBl ind
Ġtrans mit
Ġtrans actions
Ġsub tle
Ġrest ing
ĠJohn ny
ball s
Ġinf ect
Ġgen ocide
Ġsuff oc
ĠMin utes
ĠWill ingham
ĠDavid son
ĠJan et
ĠFl ores
pe ace
ĠAb by
Ġadv ancing
less ness
Ġsmall est
Ġfore head
Ġhot sp
book s
Ġroom mate
ĠWilliam son
ĠEl vis
Ġlo ad
inc ial
Ġfr action
ĠPal ermo
Ġbene fic
ĠHam mers
Ġfear ing
ĠMcC oy
ĠMcC orm
lo an
Ġcustom s
Ġlif elong
Ġsexual ity
Ġexpect ation
iec es
Ġteac hes
ĠMad uro
reg or
ĠPat ients
ert es
Ġvill agers
Ġens ured
Ġdraw ings
Ġdisp ro
Ġphys ician
Ġamb ulances
Ġfinanc ially
het ics
Ġtouch screen
Ġdin ners
ĠOp ening
Ġhistor ically
ĠAnn an
Ġice berg
Ġpo ised
ĠArab ian
Ġund oubtedly
Ġcounter terrorism
Ġlegisl ature
angu age
Ġmotor ist
Ġdig est
ĠSil icon
alys is
Ġdefin itive
ĠCorn el
ĠTer ror
ĠKh aw
ĠTrans cript
ĠCarl ton
ĠArt uro
Ġmeaning ful
Ġcommer c
ĠiPh ones
Ġir respons
ĠAv on
Ġnarr ative
ĠBor ough
ĠSa unders
Ġcollaps ing
New s
Ġgrab bing
Ġterrit orial
Ġfrustr ating
Ġforg ive
Ġsav age
Ġqual ities
Ġflo ors
Ġtact ic
With out
Ġcup s
Ġtor ch
Ġunp opular
Ġreward ed
ĠTele vision
Ġlabor atory
ĠNich ols
Ġdiver ted
ĠNob le
Ġdiscl osed
ĠIndepend ence
ĠSent encing
Ġrecru iting
Ġembr aced
ĠMack ay
abs olutely
Ġabd uction
ĠGray ling
Ġdepth s
ĠSot omayor
Fr iday
ĠWhit ney
Ġinher ited
Ġundert aken
ĠIP CC
ĠMust afa
abul ary
Ġadj our
Ġfrag ments
ĠHistor ic
ĠLuk aku
Ġsou p
ĠGay le
Ġwrest ling
umar an
Ġtreas ure
Ġhazard ous
Ġwand ering
ĠCit iz
ĠCord le
Ġhomosexual ity
ĠOz il
Ġhelm ets
ĠPret oria
Ġcere bral
ĠWrit ing
ĠGard ner
Ġretrie ve
ĠSuk umaran
ĠMcColl om
Ġcott age
Ġincar cer
Ġorient ation
ĠCheng du
ĠJagu ar
Ġportfol io
redict able
ĠAuck land
ĠUmun na
Ġresembl ance
' "
7 50
B agy
M ark
R ight
S uper
b les
b uster
d el
e iger
f ounded
g reen
h art
i ary
j ad
l if
m ic
m os
t imately
w d
he v
in ally
er gic
on ado
Ġb ere
Ġb iting
Ġb aked
Ġf ats
es are
Ġh ockey
Ġp anc
Ġin und
as a
as se
Ġm ates
Ġd ual
ic io
ic emen
om is
Ġth res
Ġbe gging
Ġn ec
Ġn ail
ĠS ales
Ġg ossip
ĠM ing
ĠM orm
ĠC rom
ĠC ott
im on
ir able
ro b
ĠB le
ĠB ast
Ġwh ites
ĠH il
ĠH ir
ĠH ew
Ġat roc
Ġat omic
ĠP un
ĠP ick
ĠP ric
her ty
Ġal arming
ra pe
ch y
ĠW ag
ĠL ip
ĠL ucky
em er
ĠF ighting
ĠR itz
ĠR ihanna
ĠE C
ĠG CH
Ġsh ifting
Ġch ic
Ġ"" (
ĠO le
ast rop
Ġnot able
ist ical
Ġshe er
Ġab ilities
ĠK ady
ĠK ee
ĠK esha
Ġcl utch
Ġag on
ans w
Ġun iverse
Ġne at
ĠCh in
Ġcomp atri
ild er
ian c
ian ces
Ġcont ing
Ġcont empl
ind a
Ġsc ars
Ġacc el
Ġev angelical
ĠV ery
rit z
Ġthem es
ĠY ates
ĠY ears
ang le
aw ned
Ġfl ip
Ġinter stellar
Ġfe ud
Ġra ins
Ġexp osing
Ġworld s
ĠEn nis
Ġconf licts
gg y
ĠSh o
Ġvide ot
Ġmar sh
Ġbo ast
gr ad
Ġext inction
Ġsy rup
app s
Ġalle ge
Ġvis as
Ġbeh ave
Ġdep rived
Ġmilit ias
Ġrest oration
Ġprev ents
Ġfoot steps
Ġref usal
Ġsk ate
Ġdirect ing
enn ium
ĠNorth umberland
ĠHow ell
be h
ĠCol ts
Ġelect ronics
Ġav ail
Ġadv ising
Ġsn ub
let te
ĠMail online
ĠTr uman
Ġfront line
Ġfinal ists
the m
Ġstaff ers
Ġshoot s
Ġcompet ed
ĠMan ila
Ġkind ness
Ġbed side
ĠMo D
Ġty coon
Ġer ad
Ġbit es
Ġfail ures
ĠTra gedy
Ġself ies
Ġmag istrates
Ġrefer ences
Ġpil gr
Ġstra pped
Ġconst ruct
Ġcompan ion
Ġlik ened
Ġwed dings
Ġsens ible
Ġswim mer
Ġbal let
Ġfre ak
Ġfavour ites
Ġapolog ies
ĠGood win
ĠFrank ie
Ch ris
ĠAtt ack
ĠShar pton
Ġkit ten
Ġpromot es
Ġwid th
Ġpool s
ĠLiber ation
ĠLit vin
Ġmanufact ured
Ġathlet ics
ĠAg riculture
Ġbrut ality
Ġexcl usion
Ġdomin ate
ĠCab aye
arch y
Ġliber ty
Ġneighborhood s
Ġ194 4
ĠAbb as
Ġflo at
Ġconce ived
Ġpill ow
Ġlock er
Ġstream ing
ĠCop y
Ġkiss ed
Ġpatrol s
Ġconcl usions
Ġtoler ated
ĠMas sey
Ġfier y
Russ ia
mo il
Ġmini ature
Ġemphas ized
Ġbru ised
ĠOliv ier
Ġabd omen
tra um
TS D
ĠInf irmary
Ġcongrat ulated
ĠLabor atory
Ġnavig ate
Ġmart yr
ĠJet Blue
ĠAlexand ra
zh ou
Ġreop ened
Ġdish on
Ġmamm oth
Ġgal axy
Ġsculpt ure
Ġhandc uffed
ĠCelebr ity
inst eiger
Ġgovern ors
ĠEri ks
uka emia
Ġswift ly
Ġincent ive
Ġconsol id
Ġstyl ist
ĠWes ley
Ġincl usion
Ġdispos al
Ġinterpret ation
Ġperpetr ators
Ġinflamm ation
Ġbehead ing
ĠToul ouse
ĠBoot s
Ġregistr ation
prising ly
ĠPod olski
Ġparaly zed
Ġstrongh old
Eur ope
Ġbure aucr
ĠScud amore
ĠVern on
ĠCris is
ĠMontgom ery
ĠRena issance
Ġdispro portion
Ġthres hold
? "
D espite
G ood
G irl
J am
M ag
N ever
N BC
R es
S ad
S am
d et
g usting
l ove
l ov
m ac
m ist
n eck
o eb
s ocial
t ion
t ails
v ana
y ers
Ġt ablo
in stein
re ally
re ement
Ġw ool
Ġw ards
Ġw itch
Ġc raz
Ġb er
Ġb ent
Ġb ored
Ġb acon
ar ound
Ġto e
Ġp ine
Ġp owered
Ġm ocked
Ġd ull
om enal
Ġbe ats
Ġbe headed
Ġl in
Ġl ashed
Ġn onsense
Ġhe ights
st e
ĠS per
ĠS ne
ĠS ah
ol ics
ut tle
Ġg ifted
ĠA L
ĠA EG
ĠC hed
ĠC reat
ĠC ock
ĠC auc
ĠC indy
ur ers
im ated
ig ma
Ġst akes
Ġst aging
Ġst alking
ĠB ooth
ĠH ai
ĠP TSD
Ġha il
ch ief
ĠD ru
ĠL ost
ĠL oss
ĠR outh
ĠN orm
ĠN ixon
ĠE manuel
ĠG aga
ĠJ nr
Ġv odka
Ġle opard
Ġwe ights
Ġsu g
Ġse ated
up ol
Ġj ar
ab i
Ġsp ite
ist ing
ard less
oc us
Ġab rupt
ĠK or
Ġwor ship
Ġres ent
Ġme ga
ild a
ĠTh ird
ish ment
Ġatt ends
Ġtr illion
Ġcr ush
oin ed
ĠAn ger
Ġbr othel
Ġimp erson
rib ution
Ġcons ulate
ĠSp irit
Ġrel ies
Ġret ro
Ġstar ing
Ġteam ed
Ġass ail
ull en
Ġhead aches
Ġind oor
ĠRe eves
Ġche ating
Ġsl apped
Ġcourt esy
ĠZ ach
Ġmillion aire
pr ing
Ġ9 6
Ġbre aching
Ġrece iver
ane ously
Ġinst ability
Ġseason al
Ġdel ic
Ġinvol untary
att ack
ĠCol es
ĠWill is
ĠAm nesty
cl usive
Ġadv ises
ĠSyri ans
Ġshort ages
Ġtre ad
Ġsuccess ion
ator ial
Ġshoot out
Ġsuper ior
Ġsuper model
Ġill icit
ĠEar n
Ġcor ps
Ġhor rifying
Ġur ine
iers hip
lo ving
lo ading
Ġesc aping
Ġtal ents
reg n
uk ov
wh ich
Ġaccess ed
ps y
ĠQue bec
Ġ197 5
ĠBro oke
Ġ196 2
ĠEv an
Ġpred ators
ĠX V
Ġresc uers
Ġcell phone
ĠEgypt ians
Ġtrib e
Ġlack ing
Ġswim s
Ġpo aching
Ġquarter finals
ĠInter pol
Ġspl ash
Ġveter inary
Ġvac u
iest a
Ġmedic ations
ĠCorn well
Ġmix ture
Ġthank ful
Ġfuel ed
Ġcool er
ĠMa o
Ġstret ches
Ġimpl ant
pre hens
Ġcorr upt
Ġmum s
ĠMcG regor
ĠDes ch
Ġpen et
ĠMount ains
Ġevac uation
Ġgar nered
ĠLar ge
Ġforg ot
ĠKir by
ĠMod ern
ĠCommun ications
Ġencoun ters
Ġpension ers
ĠTown ship
Ġliter ature
Ġlabel ed
Ġtact ical
Ġven ues
Ġdiscover ing
Ġcoin s
Ġcasual ty
Ġveget able
Ġblank ets
Ġtur moil
ĠSerge y
ĠCall um
Ġfundra iser
ĠBol iv
Ġpersu aded
ĠMaur icio
Ġregul atory
ĠPoll ard
Ġnomine es
ĠCust omers
Ġtoug hest
ĠGor b
Ġinstall ation
Ġescal ated
Ġintens ity
ĠElect ric
Ġdeterior ated
EC D
ĠVeter ans
Ġprovoc ative
Ġreconst ruction
Ġrall ied
ĠOak land
Ġorph an
oca ust
ĠHaz ard
Ġbog us
Ġther mal
ĠMerc ury
Ġretal iation
ĠHutch inson
Ġzomb ie
Ġmisle ading
ĠSina i
Ġhik ing
Ġmotorb ike
ĠMari upol
ĠDV D
ĠSchwe insteiger
ĠDemp sey
ĠKhaw aja
ĠGCH Q
6 6
8 7
? âĢĿ
E m
G et
L iverpool
N obody
O ut
S aturday
b c
b ad
b ably
d ated
e av
h s
h ouses
i ens
k ara
m ary
n ames
s ic
t urned
v ol
z i
he a
er in
Ġs outheastern
Ġthe fts
on ti
re a
re cy
Ġw aking
Ġw ickets
Ġc ad
Ġc ens
Ġc attle
Ġc yn
Ġb other
Ġf ianc
Ġo ught
is man
Ġp ond
Ġm ole
Ġd ense
ic he
ic ulous
Ġl ens
Ġl ashes
Ġl ymph
Ġn ort
ĠT ry
ĠT ara
ĠT roy
Ġre he
ĠS it
ĠS ox
ĠS iber
ĠA G
ĠA br
ĠA FP
ĠM D
ĠM aster
ĠM iley
ĠC ash
ĠC az
Ġst itches
ĠB ach
ĠB oss
ill es
ĠP ow
ĠP ir
ĠP irates
ĠP esh
ri et
Ġal tered
Ġha v
ĠW ade
ĠD ow
ĠD yn
est hes
ĠL ack
ĠL ak
ĠF ury
ĠF ifth
ĠR as
ĠR ib
ĠR emy
ĠR EAD
ore t
ĠE state
Ġby stand
ĠJ P
ĠO ECD
Ġj ersey
Ġj ockey
ĠU mar
Ġsp ar
Ġsp ider
ak ia
um bs
iv ated
Ġab normal
qu ins
qu ality
ĠK ra
ĠK ats
ĠK abul
ry an
Ġoff enses
Ġout p
ous ed
Ġad vers
Ġun respons
ĠSt utt
ĠCh il
Ġres h
Ġres il
ound ing
Ġdis l
Ġdis ad
per or
Ġsc ent
Ġsc rapped
ĠTh ink
Ġacc ent
Ġper il
ĠV ita
Ġpart isan
ied ad
Ġtr amp
Ġfl ame
Ġqu izz
Ġbeing s
Ġplay off
Ġdown ed
ĠAl am
ĠAl ps
Ġadd icts
Ġrem inis
Ġsur render
Ġgr ants
Ġsupp ose
Ġsupp lement
Ġrel ied
Ġhead set
sh op
Ġind igenous
Ġresp ir
ĠWe ight
Ġmar ginal
Ġcol on
Ġcol oured
ott a
ĠCl imate
Ġext ending
Ġcare t
ple asant
ĠCar n
Th ree
Ġsub d
Ġdet ection
Ġrece ip
Ġref urb
ane ous
Ġgl oss
Ġposs ibilities
Ġdel ivers
ĠHar bour
Ġparen ting
ĠInd ians
ĠFl ower
Ġart if
pe ople
erv ation
cent er
ĠCourt ney
go al
Ġemer ges
Ġel bow
Ġball istic
ĠSw im
Ġide ology
Ġspecial ists
par able
Ġcapt ures
Ġthr ill
ĠMed ina
isc rim
ĠSch midt
Ġperform s
Ġfail ings
Ġpage ant
tr ack
Ġrob otic
aud e
Ġamb ush
amb ia
Ġpred ictions
ĠAct iv
Ġenter prise
ĠPort o
Ġsuit es
Ġbrand ing
Ġairl iner
Ġsecret ive
gen eration
Ġlik elihood
hold er
ĠCharl ton
ĠSoc iedad
ĠSant iago
inn on
Ġgreen house
ĠPre viously
Ġsan ctuary
Ġappl ies
Ġcool ing
Ġstret ched
Ġathlet ic
ĠCard osa
Ġcondem n
quar ium
Ġsky d
Ġunve iling
ĠCrime an
Ġaltern atives
Ġporn ographic
ĠColumb ine
ĠOper ations
Ġtim eline
Ġreflect ing
ĠCat hedral
bu ilding
Ġtor rent
Ar senal
Ġtex ting
ĠDra per
ĠLyn n
ĠCirc le
Ġcoord inated
Ġarchae ological
Ġcaution ed
ĠRow ling
Ġhumil iated
Ġvolcan ic
ĠDomin ican
ĠStock holm
Ġsail ors
ĠBeat les
Ġturb ulence
Ġoblig ation
Ġconven ience
ĠBeaut iful
Ġconclud es
Ġattrib uted
ĠInit ially
Ġcam oufl
Ġnotor iously
Ġparalys ed
Ġbarg ain
ĠHuff ington
ĠGav in
ĠMove ment
ĠFif ty
health y
Ġreiter ated
Ġaccord ance
ĠYaz id
Ġenquir ies
Ġpy ram
ĠCes ar
eco ach
Ġtransg ender
Ġcomr ades
Ġfortun ate
Ġphilosoph y
Ġoverth row
ĠNort on
ĠFloren ce
ĠMarse ille
histor ic
ĠStag ecoach
ĠZur ich
ĠCopy right
ĠStutt gart
A F
B oth
H ere
I B
M ichel
S er
b et
b ons
b ucks
e er
f ax
g ged
j ection
l en
l ength
l estone
m ia
m aid
m aine
s ection
t ures
Â °
Ġ Ã
Ġ vel
Ġt el
in ia
Ġb end
Ġf iction
is co
it ants
Ġh us
Ġp ix
Ġp orts
Ġin accur
Ġm uddy
Ġd ess
Ġd warf
Ġl ions
ĠT and
ĠT inder
Ġre lying
st ill
st ra
st ated
ĠS ny
ot ional
ut er
ad der
ĠM ongol
ĠC out
ĠC oss
ĠC ody
ĠC ann
ĠC esc
ĠC PR
ĠC obb
el ance
Ġst alk
ro iled
ĠB ass
ĠB ert
Ġwh ale
ĠH und
ĠH ouses
ĠP ant
ĠP av
ĠP roud
ĠP ont
ĠW ired
and y
and ro
ĠD U
th y
th ia
ĠL all
ĠF a
ĠF ed
ĠR ene
Ġr am
Ġr ude
ĠE ff
our y
Ġsh ores
Ġv ile
ĠO BE
Ġex agger
Ġex otic
Ġsp ate
ĠK ol
ĠK FC
ant ically
Ġcl ips
ine jad
Ġup market
Ġdo omed
Ġad ren
Ġun int
und ee
Ġint ric
ĠCh is
ĠCh udley
ame ter
Ġinc umb
Ġso aring
ire z
Ġsc andals
Ġbl at
Ġbl owing
Ġqu ote
Ġinv o
we ed
Ġdown loaded
Ġcr acking
Ġdec ides
Ġdec lining
Ġdes erted
Ġchar ter
Ġsur pass
Ġexp elled
Ġins ec
Ġins iders
Ġinvest or
Ġinvest ments
ĠSh op
Ġmar vel
Ġdisc ont
gr ily
Ġsl ump
ĠCl int
ĠCar men
Ġdep icts
Ġ9 7
ĠFor rest
Ġtrans mitted
ik er
Ġlit re
Ġreal ising
Ġpar cel
ĠBe ast
Ġthought ful
ĠNorth west
for man
ĠCon an
ĠAm elia
Ġmid st
Ġsn ails
Ġsn aps
Ġgun shots
Ġheart felt
Ġtechn ological
Ġform at
Ġdesp air
Ġconfir ming
ĠSo ft
gu ided
Ġcomment ators
Ġsol ved
Ġlist ing
Ġri fe
Ġstrik ers
Ġhands ome
yn thia
Ġbit ten
ĠMid west
ĠHol ocaust
Ġlaws uits
Ġpract icing
ĠSu u
Ġsun set
Ġdisp atched
Ġbul ly
play ed
Ġ196 6
ĠBel ie
Ġextra vag
amb led
Ġstra w
ĠEv a
rid i
Ġsal ute
Ġgas oline
Ġemb roiled
Ġconsum e
Ġbag gage
ĠMy ers
Ġtrib es
ĠMill ions
As ia
Ġswim mers
Ġpo orest
Ġhero ic
Ġprotest ed
Ġheavy weight
St ud
Ġjump ers
ĠMcD aniel
ĠMoham mad
ER V
Ġscr um
ĠRam irez
ĠSl ater
Ġhosp ice
Ġlux urious
Ġsetting s
ĠChap el
ĠSa ad
ĠDes ert
Ġcontain ers
Ġapprop riately
Ġremark ably
ĠBra gg
ĠLeices tershire
icip al
Ġreact ors
ros se
Ġtraum at
ĠFal con
Ġpill ar
Ġcongress man
Ġharass ed
Ġunp redictable
Ġarchit ects
Ġobject ive
ĠLow e
ĠAT P
Ġrestrain ed
ĠHo oper
ser ving
ĠPear l
Ġtail ored
Ġped estrian
Ġportra its
Ġrecru its
erg art
Ġcopy right
ĠMedic are
Ġid ol
ĠProv idence
Ġflex ibility
ĠAst ron
ĠBerg dah
Ġcounsel ing
Ġpip es
ĠGil bert
Ġfer oc
ĠKy i
Ġforth coming
Ġobserv ation
ĠLuk as
GB T
Ġhandc uffs
Ġbik ini
Ġdepos it
Ġadvis ory
Ġdisgu ise
ĠVi agra
Ġsubsid ies
Ġmaid en
ĠCamb od
Ġindefin itely
Ġinterrog ation
riez mann
Ġnar cotics
ovir us
ĠMead ow
Ġcheetah s
Ġsid ew
Ġrelent less
Ġconfisc ated
Ġcove ted
bott om
ĠLoft us
ĠFiref ighters
ĠOccup y
ĠBulgar ia
ĠOpt a
Ġbambo o
Ġmalf unction
ĠMorm on
esthes ia
Ġunrespons ive
ĠSny der
ĠLall ana
1 30
A L
E E
F our
K A
L P
M I
M T
O K
T e
c igaret
f eed
g ently
h y
h ne
i ations
i wa
l iv
l asses
m ass
n bc
p aste
r anking
t ub
t ake
u ain
u ating
w anted
x im
Ġt ick
Ġt ender
Ġt aped
er acy
Ġs atur
Ġw ary
Ġw ax
at ella
an throp
is d
it i
Ġh ier
Ġh int
Ġp ipe
as ive
al c
Ġm ature
ic ist
Ġth ugs
Ġbe ast
Ġre wards
Ġhe ck
st art
st ars
st orey
ĠS ew
ĠS ultan
Ġg ir
Ġg reed
ĠM ind
ĠM ered
ĠM EP
ĠC ome
ur able
ir k
ir ational
ĠB E
"" )
ĠH ul
ĠH ours
ĠH ann
ĠP ig
ri ft
un ks
Ġan grily
os ion
os ystem
ch at
ĠD ett
ĠD aley
ĠL em
ĠL if
ĠF i
ĠF inn
ĠR um
ĠR iot
Ġr ays
Ġr itual
Ġsh aved
Ġsh ifted
ĠJ up
ĠJ ailed
ĠJ ihad
Ġle ase
Ġex empt
ĠU V
um ont
Ġpl uton
qu ay
ĠK C
ĠK ash
ĠK BR
ant om
ber to
Ġup s
Ġun sc
Ġun marked
ĠSt acey
Ġint ake
Ġcan ine
ĠCh ong
ĠIn sur
Ġpe pper
Ġres on
Ġres ource
Ġdis in
Ġar teries
per ate
per ger
per fect
og ged
ress es
Ġpol o
ĠV ic
ft ime
ough lin
Ġpart ying
ath lon
Ġbl ess
ĠBut ton
ens ual
Ġfl ank
Ġinv al
Ġinv aded
Ġshow ers
Ġinter rupted
illion aire
Ġra ging
ĠLe ading
ĠLe vy
Ġchar m
Ġgr at
Ġgr ams
Ġgr ammar
Ġcons c
ĠSp ot
ĠSp okes
Ġmake over
Ġem ailed
Ġem igr
ĠAr chie
ĠAr rington
Ġend uring
ull s
sh ow
ĠBr in
Ġind ul
Ġschool boy
Ġco ats
ĠWe ibo
Ġmar ching
Ġdisc retion
Ġche ers
Ġche ering
Ġprot ocol
Ġcond oms
Ġext ends
app ointed
Ġcontin uous
Ġcre ep
Ġ9 4
nes burg
Ġprov inces
Ġspec ulated
Ġsex ism
ield ing
Ġprev iew
ik t
Ġarrest ing
Ġmur al
Ġsw at
Ġcou ch
Ġdem ean
Ġhum ane
ĠBe yond
ĠHar old
Ġstand off
ĠCon nor
Ġav al
Ġconcer ts
Ġtreat y
eng ine
ĠAll ardy
ev il
Ġtechn ically
Ġclass ical
ĠPar ade
ey e
Ġwear able
ĠEl omar
Ġtw isted
Ġhar ness
Ġsol ving
ask ell
Ġhor izon
Ġcondition ing
yl ah
ĠPl ant
Ġur ges
Ġri p
Ġorig ins
Ġer uption
Wh ite
ps ons
Ġtrad itions
Ġrock y
Ġpersonal ities
Ġeduc ators
ĠIS S
ĠBer gen
oul a
ĠX in
Ġcomb ine
Ġjournal ism
Ġver ify
ĠRod ney
Ġfra il
mark ets
Ġjud ging
ĠMill wall
ĠCam den
Ġbra kes
ĠGreen wich
Ġbal ancing
Ġprotest ors
ĠGold s
ĠJon ny
St ation
stitution al
Ġprior it
rim inal
ĠMac le
Ġoccas ional
ĠDar ling
Ġtourn aments
Ġpromot ional
Ġant ics
18 0
Ġhun ter
Ġadm ir
Ġcircum c
ĠChief s
ĠChristian ity
ĠAc ross
ĠCole en
Ġlimit ations
Ġbull ies
Ġfrequ ency
Ġcook ed
ĠReg ional
Ġunve il
ĠMcG inley
ĠLo han
Ġsight ing
Ġneighbour ing
Ġscre ened
ĠMod i
Ġbound ary
ĠHear n
Ġintegr ated
IC EF
Ġmuseum s
Ġwal let
Ġaffil iated
Ġrelax ing
Ġqual ification
Ġhall way
Ġtask ed
Ġment ality
har med
ĠStand ing
Ġcaps ized
Ġstrict ly
ĠLow ry
ĠMcL aughlin
Ġpin ned
ĠHo ang
ĠKer r
lar gest
Ġcoord inator
Ġdistress ing
Ġsmugg led
Ġacad emics
ĠGonz alo
Ġcler k
ĠYe ager
Ġturb ulent
Ġreplic ate
Ġrecre ational
ĠVis it
Ġhook ed
Ġfemin ism
Brit ain
ĠHold er
Ġovers aw
Ġthorough ly
Ġmart ial
ĠDonald son
enh agen
ĠSold ado
Ġcease fire
Ġgadget s
ĠPier ce
Ġpubl ishers
ĠRic ci
ĠProgram me
Ġstrateg ies
Ġsin ister
Ġlone ly
ĠTan z
ĠAhmad inejad
ĠAntar ctic
Ġvolley ball
ĠPel osi
ĠHans en
ĠThrough out
ĠGeoff rey
Ġbats man
Ġprosper ity
Ġexped ition
ĠEthiop ia
Ġskelet ons
extreme ly
ĠAj ax
Ġprejud ice
Ġmush rooms
ĠKozl owski
Ġted dy
educ ated
Ġpredomin antly
occ up
ĠDemonstr ators
Ġsung lasses
Ġsubmer ged
ĠLabr ador
ĠMiddles brough
Ġnause a
ĠJoh ans
Ġadam ant
Ġmane u
Ġinund ated
ĠLitvin enko
Ġnort heastern
Ġreminis cent
ĠBergdah l
xim ity
ĠJup iter
Ġpluton ium
ĠAllardy ce
1 10
A ust
A lex
D onnell
G erm
K e
N othing
U K
U p
c ount
c overed
f ashion
g ical
h is
h ampton
l os
l ast
m ember
m ines
m atic
o gh
r ine
r one
on ge
re x
Ġw arden
en es
Ġc av
Ġb aking
Ġb anging
Ġb ikes
Ġf ares
Ġo ath
Ġo uster
is able
it ical
Ġh orr
Ġp und
Ġp oker
Ġp ockets
Ġin put
le v
Ġth rive
Ġl ac
Ġn anny
ĠT as
ĠT ul
ĠT all
st aking
ĠS ou
ĠS ig
ĠS tern
ut ches
ĠA val
ĠA zz
ĠM und
ĠM au
ĠM az
ĠM ats
ĠM ee
ĠM ental
ĠM TV
ĠM ikh
am ework
Ġe co
ĠC unning
ver al
et us
ĠB un
ĠB ani
ĠB enson
us z
"" ),
ĠH ab
ĠH ang
ĠH app
ĠH oney
ĠP i
ĠP end
ĠP ilot
ĠP KK
ri que
her ic
ch a
ĠW orth
ĠD rive
ĠD zek
ĠL aun
ag s
ag han
ĠF ry
ĠF aul
ĠF aith
ĠR ut
ĠR olf
Ġcon gest
ĠN obody
ĠE id
ĠG ut
Ġsh ovel
Ġsh adows
ĠJ ensen
Ġv int
ĠO ri
Ġj am
Ġj ealous
Ġj ellyfish
ab a
Ġpro ximity
ĠU nd
ist ocr
rou f
Ġpl aster
ĠK w
ĠK ad
ĠK iss
Ġor b
Ġout right
ren ched
ord in
Ġun spec
ĠSt ella
Ġint est
ure en
Ġdis orders
Ġar bit
ose vel
Ġpr one
Ġsc ooter
ib al
Ġacc l
Ġapp rehend
ĠV a
ft en
Ġen listed
Ġpart ial
ĠY un
Ġro oft
Ġfl oral
ĠAl cohol
ĠAl icia
Ġcr unch
Ġinter f
ult on
Ġtra iling
lud e
Ġbel ly
ĠLe go
Ġmin ors
Ġdef ied
Ġdef ences
ĠAf ridi
ĠSp ark
Ġwar rants
Ġind o
ĠSh ore
ĠSh ark
Ġmar ital
Ġcol ony
Ġext ortion
Ġdri p
Ġdri ft
Ġvis ibly
ĠZ abal
ĠCom b
ĠCom pet
Ġcre ations
Ġbre aches
ĠWor ks
ĠYork ers
iet ro
Ġref ere
Ġgl ac
Ġgl itter
Ġsim ult
Ġ11 4
ĠHar riet
ĠHer mann
ĠPro duc
Ġdeb uted
Ġtar mac
Ġstaff ing
Ġland l
Ġsocial ite
ĠGr im
Ġden ial
ĠSm alling
ox ide
Ġfilm maker
Ġpot ato
ĠRo jo
ĠRo osevel
ĠAng ry
Ġlow ered
Ġlim b
ĠPl ans
ĠPl aza
ĠRich ie
umb o
Ġdest ructive
Ġexpect ancy
ĠIslam abad
** ***
ma res
Ġrespond s
Ġconn ecting
Ġpun ches
irst y
On ly
ĠSchool s
oul os
Ġvar ied
Ġ196 1
Ġfinanc ing
ĠEv idence
Ġcompan ions
Ġpred icts
Ġcat al
Ġcat hedral
Ġemb attled
Ġconsum ing
ĠBur berry
Ġstre ak
bor g
Ġdiagn ose
Ġindic ations
Ġsell er
Ġcit es
lant ic
Ġavoid ance
ĠDon atella
12 5
Ġarch ive
ĠMel anie
ĠLaw yers
Ġcollect or
ĠMer ah
ĠKn ow
ĠSn ap
ĠArgent in
ĠShar rouf
ĠRec ently
ĠRec overy
Ġbath tub
ĠTer rit
ĠTer min
Ġvirus es
Ġspect rum
Ġapplic ants
ĠEll is
run ner
dom inal
rip ts
Ġir regular
Ġhal ftime
ĠUN ICEF
ĠReg iment
ĠUs ain
Ġrobber ies
Ġremind s
Ġinstit ute
Ġacqu aint
ĠSaf e
Ġbot ched
Ġintegr al
Ġsand wich
ĠArch it
Ġflo ated
Ġprin ter
onna issance
ĠRel atives
Ġresol utions
ĠCop enhagen
Ġmal ware
ĠSub s
ĠHun ger
ĠIb iza
ĠRh ode
ĠSpring field
Ġrecommend ation
ĠDra ke
Ġchampionship s
Ġru in
Mar c
Ġpredict ing
Ġloyal ty
âĤ¬ âĢĿ
Ġportray al
ĠHM RC
Ġlobby ing
Ġsolid arity
ĠRef uge
Ġsucceed ed
Ġuncom mon
Ġdischar ge
Ġsymp ath
Ġlip stick
RE E
Ġhug ged
ĠChan el
Ġoblig ations
Ġborr owed
Ġintens ified
Be fore
ĠBain es
Ġcompon ent
Ġdimin ished
ĠRest aur
ucc i
ĠLaz io
ĠFem ale
Ġneglig ence
Ġdistingu ished
ĠKind le
Ġpals y
kill ers
Ġabort ions
Ġpersecut ion
ĠSkin ner
ĠSak ho
ĠKaz akh
Ġresemb les
ĠSep ar
ivest ock
Ġabund ance
ĠSadd am
ĠAnaly sts
Ġbaff led
ĠBudd h
Ġplag ued
Ġfoss il
Ġunav ailable
ĠMcAll ister
Ġeyebr ows
Ġcerv ical
ĠUA E
Ġadjour ned
traum atic
Ġvacu um
Ġrespir atory
ĠHund ley
forman ce
ĠDett ori
ĠTanz ania
Germ ain
ĠDzek o
Ġunspec ified
ĠZabal eta
ĠRoosevel t
7 7
8 2
B ig
C amer
L os
M ex
M ID
S y
S isi
U k
a very
b ank
c roft
m n
n on
r and
u v
Ġt in
Ġt ab
Ġa iling
in to
Ġc ries
Ġc rystal
an men
Ġb oring
Ġb ubb
Ġf usion
Ġh ack
Ġp ec
Ġp ie
Ġin ability
Ġin hib
Ġm ouse
Ġd are
Ġd ads
Ġd umping
ic ans
ic ular
il ogy
Ġhe fty
st ed
ĠS ikh
ot o
ot ers
Ġg ust
Ġg raz
Ġg aps
Ġg orgeous
Ġon board
ĠA qu
ĠA part
ad io
ĠM ovie
ĠC ous
ĠC aught
ĠC ynthia
ir ut
Ġst ip
Ġst aple
ro ph
ec a
ĠH ers
ĠH iggins
ĠP D
ĠP ound
Ġan nex
Ġal umin
os aur
ĠW ake
and an
ĠD ed
ĠD ue
ul ah
ul ator
est ing
th ood
op lin
ĠL ay
ĠL ily
ĠL imb
ĠL izz
ĠF ly
ĠF av
Ġcon cess
ĠN R
ĠN ib
Ġby pass
ĠG az
Ġsh akes
Ġsh ining
ain es
Ġher s
Ġv iable
Ġle ukaemia
Ġex ile
ust ain
Ġpro jected
Ġwho ever
ist air
se ki
ud dle
Ġpl aque
Ġab dominal
Ġafter ward
Ġtheir s
ĠK id
ĠK ill
ell ion
Ġor chestr
Ġbut tons
Ġout going
Ġout look
Ġout comes
Ġup ro
Ġun harmed
ĠSt ring
ĠCh rys
Ġall ergy
Ġall ergic
Ġman ate
Ġar istocr
ĠV it
ĠV ine
Ġte e
Ġtr ol
Ġtr actor
Ġ19 12
Ġfl awed
ĠAl ready
ĠAl berto
Ġinter ference
Ġinter active
Ġsec recy
Ġam oeb
Ġunder est
ier ry
Ġsur fer
Ġexp ired
Ġexp ires
ĠMar ion
Ġaw ake
Ġmin ibus
ven ir
ĠEn t
ĠBr anc
ual ity
Ġind ec
Ġlong standing
uss y
Ġlaw maker
Ġmar rying
Ġbo oming
ina ult
Ġrun off
Ġpublic ist
Ġsign ings
Ġsl opes
Ġsy nd
Ġalle ging
Ġstr oll
ĠZ ar
Ġeff iciency
ĠCar rie
pr us
pr ints
ĠBl asio
Ġprov isions
Ġspec im
Ġrecord ers
be aut
Ġviol in
for ced
ĠCon tr
ĠAm al
ĠAm id
Ġmid term
Ġcoun selling
Ġsn acks
ĠCr ash
ĠCourt ois
ĠTr ad
ĠTw icken
Ġpain staking
Ġpain killers
Ġcompet itor
aut ions
Ġden ounced
Ġlo oming
inc red
ĠGo al
ĠEm ory
Ġcompl iance
Ġthr ust
ĠGl end
Ġill um
Ġmass age
ĠPl ace
Ġur gency
Ġfear ful
ĠMcC ull
lim ited
Ġhon ours
Ġcirc ular
Ġste ering
ĠRes erve
ĠBer cow
Ġport able
Ġdoor step
Ġcat ches
Ġcat astrop
Ġcru c
Ġrev ol
Ġmis under
Ġbid s
Ġsil k
ĠClin ic
Ġattr acts
ĠKe en
ĠKim ber
Ġdin ers
ĠLouis ville
Ġsens ational
Ġpers ist
ĠDis p
Ġfix tures
ĠIm agine
Ġneck lace
Ġcast le
ĠCur ry
ĠCur riculum
Ġactress es
Ġadvert ised
Ġheav iest
ĠJer maine
Ġeth ical
Ġmort g
Ġmort ar
ĠCarl isle
ĠArt eta
ĠWalk ing
Americ a
Ġboost ed
ĠStr ange
Ġcondem ning
Ġcondem nation
Ġsky line
ĠDou ble
ĠBry n
Ġtend on
Ġtend ency
Ġtum ours
Ġmigr ant
Ġ194 8
ĠWork ing
imal ay
Ġremote ly
ĠMcK innon
ĠLind sey
sec urity
Ġcooper ate
ĠCare y
Ġnovel s
Ġattract ions
ĠFern and
ĠPop py
Ġcompar isons
Ġethnic ity
ĠMull er
Ġexplo it
Ġexplo ited
with out
ĠTes la
Ġcolor ful
ser ious
Ġemphas is
ĠNav ar
Ġhyd ro
ĠMajor ity
ĠSad ly
Ġrig orous
ĠSot loff
ĠDeb uchy
Ġextrad ited
Ġneur ological
**** **
Ġcongrat ulate
Ġreass ure
Ġec osystem
ĠCy prus
Ġrecip ients
ĠBase ball
rac ial
Ġeval uation
Ġseparat ist
ĠErn est
ĠYan ukov
ĠCow boys
Ġgradu ating
isp here
Ġslaughter ed
Ġdemol ition
ĠFle et
ĠAdeb ayor
ĠEsc ape
Ġendors ed
ĠPas o
Ġnotor iety
ĠShin seki
Ġtopp led
ĠHey wood
Ġskysc raper
seek ers
Ġpoet ry
Ġperf ection
Ġpengu ins
Ġimmun ity
ĠJak arta
Roy ce
Ġtoss ed
ĠMald onado
ĠMahm oud
Ġumb rella
Ġconfer ences
Ġruth less
ĠAnim als
Ġappet ite
ĠGwyn eth
Ġsaus age
ĠRother ham
Ġmog ul
Ġpenc il
Ġhairst yle
Ġinfect ious
ertes acker
Ġcompatri ot
Ġrehe ars
ĠLizz ie
ĠTwicken ham
ĠYanukov ych
' ."
, âĢĿ
D ay
J an
R eal
W ar
b ach
b ows
b ians
c ourt
d oes
e em
g ressed
h unt
h ansk
i enced
j ury
n othing
r ir
v ine
w hen
w aters
w ishers
Ã ĥ
Ġt ires
in el
in able
Ġs ack
Ġw icket
Ġw ires
at op
or ously
an agan
Ġb ore
Ġf ron
Ġo we
es ame
Ġh ike
Ġp aired
Ġin hal
Ġd ump
Ġd oses
Ġd oping
il ings
il itary
Ġbe ts
Ġl ending
Ġl iability
ĠT u
ĠT ank
Ġre acts
Ġre duces
ĠS omething
ol y
ol ese
Ġg ently
Ġg ala
Ġon set
ĠA Q
ĠM ut
ĠM ays
ĠM oor
ĠM aps
ĠM ertesacker
ac i
ĠC ore
ĠC ip
ur r
ur ances
im o
im an
ig ator
ĠI AA
Ġst ew
ĠB ri
ĠThe o
ĠH R
ĠH ost
ĠH atch
ĠH iggs
Ġsa ga
ĠP H
ĠP f
ĠP og
ĠP eral
ĠP addy
ri y
un ned
ce ans
Ġha irc
ĠW ear
ĠD O
ĠD w
ĠD ol
ul ly
ĠL ec
ĠL ester
ĠL aud
ĠL ogan
ĠF D
ĠF lying
ĠF ritz
ĠR ip
Ġcon vey
ĠN uclear
Ġr ash
ĠE agle
ĠG ru
ĠG riezmann
Ġsh red
ew itness
Ġch oke
Ġv ine
Ġde hyd
ĠO F
Ġj azz
Ġpro gressed
ĠU ber
Ġsp here
Ġsp elling
oun cing
out ing
ant ry
Ġcl aw
ap or
ff iti
Ġag riculture
ord able
Ġun just
ĠHe ichel
ĠIn v
Ġres emble
Ġcomp osed
Ġcomp ares
av age
Ġcont ag
Ġcont empt
Ġsc ales
ib les
Ġacc ounted
Ġrec ounted
ĠV AT
Ġen viron
Ġen lar
Ġen abling
amp tons
Ġtr act
Ġtr aded
Ġtr icked
Ġbl under
Ġpre historic
Ġinv iting
Ġmon k
Ġdown turn
ĠAl istair
Ġcar riage
Ġser vant
ĠAn alysis
au er
Ġbr ighter
Ġour s
Ġins ects
Ġclaim ants
Ġdef ect
irl ing
ven ge
Ġend eav
ĠBr atton
Ġsm iled
Ġmed ically
ĠRe ady
ĠRe eva
Ġnight mares
Ġsl ave
Ġprot ects
Ġperson a
ĠAt omic
ĠZ one
ex per
Ġbus hes
ĠCom edy
ient ists
Ġ9 99
Ġtrans c
Ġsex ist
ik i
AT CH
AT IVE
Ġdem ise
ĠBe au
Ġve ts
ĠNorth amptons
att a
Ġtravel ler
ĠEurope ans
ĠGer ard
Ġmess aging
Ġless er
ĠAll ow
ĠTr ay
Ġeconom ically
Ġcommit tees
the tic
Ġthird s
Ġwa its
Ġden im
Ġanim ated
Ġpriv at
ald o
ĠAss ange
Ġcolle cts
Ġlo ads
inc inn
Ġfig ured
Ġlight ly
Ġthr iller
Ġsuper markets
Ġlim iting
Ġbill ed
Ġpres umed
ĠHam mer
Ġty res
ĠMcC oist
Ġcirc us
ĠCor respond
ĠAfgh ans
Ġpract iced
ĠSim s
ĠBrown e
Ġabs urd
tr ans
Ġrob bers
ĠTom as
Ġtem pt
ĠEv angel
pro f
ĠLu hansk
Ġcomb ining
Ġren ting
ĠSpe ed
ho ea
Ġencoura gement
Ġcontract ors
Ġclos et
Ġtraff ickers
Ġobs erve
Ġcharacter istics
ĠMill ie
ĠMill ennium
hib ition
ĠRed d
Ġpack ing
ĠAnn ual
Ġpo achers
Ġmach inery
ĠWal id
ĠRos a
itt al
Ġcommunic ating
ĠRec ent
Ġsick ening
ĠIr win
ĠMos es
ĠPre p
ĠStar bucks
ĠCost ello
Ġadm ired
ĠHot els
Ġadop ting
ĠJeff s
ĠMa ureen
Ġflu ids
ĠTre v
Ġupset ting
ĠCath olics
Ġtrend ing
ĠWel by
Ġbow ling
Ġtow el
ĠEr in
Ġassess ments
Ġlength s
Ġstruct ural
Ġbond s
Ġhur ts
Ġpit ched
Ġdiss ident
Ġprec autions
Ġhonest y
Ġlaugh s
ĠScient ology
Ġmaster mind
Ġtransl ate
Ġdiscip lined
def in
ĠHu hne
ĠGal actic
Ġmer it
Ġconcentr ated
Ġcock tails
Ġtranspl ants
Ġcompar able
Ġearthqu akes
worth y
ĠStra it
ĠPhot os
dis gusting
Ġsch olars
Ġskull s
Ġconced e
ĠFerr ero
ĠFro zen
Ġpleas ant
ĠBond i
zy ns
ĠVen us
Ġrebu ilding
ĠMack enzie
ĠBook ed
Ġawa its
ĠNottingham shire
Ġdisg usted
ĠCer es
ĠAlb ion
ĠPlan et
ĠNeighb ors
Ġrecip ient
Ġvigil ant
ĠGlouces ter
ĠJav ier
Ġcin em
Ġserv icemen
ĠEri k
Ġhomeown er
ĠTibet an
iffer ent
ĠEngine ers
Ġcompassion ate
ĠON S
Ġadminister ed
Ġmistaken ly
ĠEcc lestone
Ġcheerle ader
Ġembark ed
Ġtub es
Ġseiz ure
Ġinherit ance
ĠNass er
ĠHorn er
Ġna ive
Ġsup rem
Ġembed ded
ĠWorces tershire
ĠCraw ford
ĠKas em
ĠSpie gel
Ġreconcil iation
Ġstead ily
complete ly
Ġculp rit
ĠMath ieu
ĠBea umont
Hope fully
ĠSqu ad
ĠBey once
reason able
Ġdisreg ard
Ġsurrend ered
Ġelim inated
Mus lim
ĠKee gan
Ġhus bands
ergart en
ĠMered ith
ĠXin hua
Ġenviron ments
ĠNorthamptons hire
incinn ati
7 4
A rab
C r
C ap
D ec
F rench
G reat
I O
S ERV
Y oung
b enc
b ai
d ig
d rug
e ah
h ours
i ative
l it
l ib
l ights
m ajor
n ian
r ush
s end
s eller
t ical
t ax
u ber
w ild
w ords
Ġs us
on ents
Ġw re
at ford
or ig
Ġb ou
Ġb ree
Ġf a
Ġf aded
Ġf ederation
Ġto ured
Ġp int
Ġp enny
Ġin he
ou ane
as co
al ion
Ġd ing
le um
le ments
id dle
ent on
Ġl ur
Ġl akes
Ġl acked
Ġn an
ĠT amer
ĠT ennis
Ġhe ars
ve illance
ay y
ol er
ĠA R
ĠM ob
am my
Ġe ats
ĠC rew
ĠC PS
Ġfor wards
Ġwas ting
el come
et on
ĠB ess
ĠB ug
ĠB ork
ĠB irth
ĠB orders
ĠB CS
us ra
ĠH K
ĠH ue
ĠH imalay
Ġat he
ĠP ew
ĠP oor
ĠP ined
un c
ers k
Ġy elled
ra red
ra ordinary
ĠW en
ĠD res
ĠD uf
ĠD undee
th ra
ĠL ara
em i
em ployment
ĠF ame
ĠF REE
ĠR is
ĠR IM
ĠR NC
ĠN al
ĠN am
ĠN OT
Ġr ug
Ġsh ave
ĠJ orge
Ġch ant
Ġch ick
Ġch oking
ct ional
ĠO S
ight on
Ġex terior
Ġsp ur
ist on
ĠK T
ĠK ou
ĠK ell
ĠK yr
ant as
ine e
ĠCh ung
ĠCh amber
ĠIn stitution
Ġall ied
Ġres isted
Ġres erves
Ġrep ly
Ġinc oming
ile m
Ġcont end
Ġcont enders
Ġar ming
Ġso ber
ĠTh ierry
oy ds
Ġapp le
ĠV all
ĠV ale
Ġen acted
iz oph
Ġtr olls
Ġbl o
land er
Ġback pack
Ġshow down
Ġdown ward
Ġcr ushing
Ġchild care
Ġbr un
ĠÂ ¿
Ġcall er
oot ed
rib es
ĠSp y
Ġrel iable
Ġret rial
Ġreg ained
ĠWh atever
Ġset back
Ġlaw n
ĠSh ocking
Ġdisc ounts
ĠPol o
Ġche que
Ġsl ick
Ġsl owing
ĠCl ive
rest rial
ham s
Ġstat s
ĠQ uran
Ġinj ust
Ġinj ections
ex c
ĠCom mer
ĠCom plex
ĠCar s
Ġdep icting
Ġ12 8
Ġdet ached
Ġdet ector
Ġdr astic
Ġtest ament
Ġauthor ize
Ġsk et
Ġsk ating
ĠBar row
Ġdem ons
Ġ11 5
Ġsoc ks
port ant
amed ic
ĠAd vis
ĠPh arm
eb ook
eb ale
Ġdesign ing
Ġdra fted
Ġrul ers
Ġdist ances
Ġbar bec
Ġfun ctional
ĠMart ian
ots pur
ĠNo el
Ġlo op
ĠRoy als
ĠRo ch
Ġfall out
Ġfr antic
ĠPal estine
Ġprop osing
unt a
ĠMo ving
ĠPl at
ĠPl ain
Ġsimilar ities
Ġur gently
Ġbeat ings
ĠHam id
ĠHam za
Ġdest abil
Ġpri zed
bol ov
ĠBlack wood
ĠCong olese
ĠRes ources
Ġindivid ually
Ġens ued
Ġsat ir
ĠSu ccess
Ġgoals c
Ġphys iotherapy
Ġpoll ed
Ġpil ed
oper ation
ĠDo ha
ĠBur kh
ĠFore nsic
Ġrev olt
che ck
isl av
Ġobs ess
Ġgang ster
sex ual
Ġsquad s
Ġinflu x
rap ers
Ġstraight forward
Ġdetermin ing
Ch ar
Ġveter in
Ġbrief ed
Ġpsych ology
ĠUnder wood
ĠGeorg ian
ĠMag ic
ĠHel mand
ĠSant or
Ġproduct ive
Ġuns ett
Ġuns afe
Ġpray ed
ĠRyan air
Ġign or
ĠBow en
ĠBeck er
ĠBoy d
Ġheav ier
ĠDam on
Ġir ony
Ġobtain ing
ĠAv iv
Ġbow ler
ĠReg ister
Ġplot ted
ĠUs ed
Ġdepart ing
Ġoverse e
Ġ195 7
Ġnut ri
ĠPlay Station
Ġestablish ing
Ġextr as
Ġpen ned
Ġgar b
ĠLar ke
ĠUp on
Ġmir ac
azz i
Ġtim et
Ġrat io
ĠPhilipp e
ĠRa q
Ġtransl ated
Ġtransl ates
Ġquit ting
Ġqual ifications
Ġlunch time
Ġtear ing
ĠLA BO
Ġprin ts
Ġprin ting
ĠHas let
Ġdiscover ies
car at
ĠRy bolov
ĠGet ty
ĠPhot o
ĠKey nes
ĠBrother s
Ġsac red
Ġmisc ar
Ġmicro sc
ĠJud iciary
!! !
ĠLt d
Ġramp ant
Ġcous ins
ĠHend ricks
inter o
ĠTunis ian
Ġdiplom at
Ġdiplom acy
Ġfunction ing
ĠMaj esty
ĠLatin os
Ġce ilings
Ġfract ures
Ġenthusi astic
inf licted
ĠWars aw
Ġrecre ate
conn ected
Ġcra fted
ĠPres by
Ġintimid ation
Ġingred ient
ĠVeter an
Ġsou venir
Ob ama
ĠScar lett
Ġov arian
Ġconstitu ency
Ġhorm ones
Ġgroom ing
Ġfisher men
ĠHig uain
aston bury
ĠNever theless
Ġthunder storms
Ġswall owed
ĠBes ides
Ġincent ives
ĠPay ton
wl aki
ĠKel ley
Ġbrows ing
ĠNeg redo
ĠCON SERV
ĠAthlet ic
ĠThorn ton
su icide
Ġplummet ed
Ġadvertis ement
Ġcontrac eption
Ġsquirrel s
ĠJohan nesburg
viol ent
Ġmening itis
ĠCornel ius
Ġorphan age
Ġquizz ed
ĠGolds mith
ĠPend leton
ĠFaul k
ĠArgentin ian
ĠLimb augh
ĠChrys ler
ĠIAA F
ĠPeral ta
Ġsus cept
izoph ren
ĠLABO UR
ĠCONSERV ATIVE
7 9
8 9
A N
A cc
A wlaki
D id
G ov
G erman
H ar
L ove
N eal
P art
Q u
S e
T er
V E
b is
c ur
c ould
c ah
c hest
d eal
f ew
m ott
o aks
q ing
r anked
s usp
t orn
t ank
u ania
v ous
v io
v icted
Ġt urt
Ġa ug
on ne
Ġw olves
ed in
en y
Ġc el
Ġc af
at ical
or us
Ġb ins
Ġb ung
is ly
it ives
Ġh alls
Ġh ugs
Ġto x
Ġto pless
Ġin k
Ġin equ
ou che
Ġm ast
Ġd izz
Ġd addy
Ġd ummy
ic ating
le ine
le ased
Ġbe am
Ġl aps
Ġl ivestock
ĠT az
ĠT ube
st ic
ĠS und
Ġg au
ĠA uss
ĠM anc
ĠM OR
ac het
ĠC in
ĠC ala
ĠC incinnati
ur ous
ur ities
im ag
im age
ig ail
ĠI k
Ġst all
Ġst alled
Ġst ellar
ĠB ac
ĠB our
us er
ill ions
ĠH otspur
ĠP urd
Ġas c
Ġha uled
ĠW ong
ĠW ounded
ĠD mit
ĠL iv
ĠL ister
ĠL ydia
ĠF CC
ĠR ing
ĠR udd
ĠR uther
Ġ1 000
ĠN ou
ĠN ote
pp led
Ġr anged
ĠG and
ĠG ains
ĠG ye
ĠG rove
od ies
ĠJ ett
ĠJ oplin
Ġch ill
Ġch au
Ġv ain
Ġv ague
Ġwe pt
ĠO sp
Ġnot ices
Ġse greg
Ġpro port
Ġsp ike
ist le
oc ese
um mer
iv or
ĠK inn
Ġwor sh
Ġout bur
Ġcl own
Ġag ricultural
Ġun pleasant
ime ter
und ra
Ġpe an
Ġman hunt
so bel
Ġover head
Ġover time
Ġcont ention
Ġcont ender
ount ain
Ġapp rent
Ġrec ons
Ġrec alling
Ġper ished
ĠV uit
ach im
Ġtr ilogy
Ġ19 15
Ġfl ock
Ġfl aws
Ġshow case
ĠAl leg
Ġsec ular
Ġbr icks
Ġrem atch
Ġchar ism
Ġchar itable
hen a
ov o
Ġneed le
Ġass uming
ĠBr anch
uss ions
ney s
Ġhand outs
Ġhand written
any on
ĠRe venue
tain ly
ute e
Ġsl ur
Ġsl ice
Ġsl ated
Ġsl avery
br and
ĠCl apper
rest ed
ĠMon th
ĠMon etary
ĠPr ide
ĠCom ic
ĠSy m
ĠCar rick
Ġprov incial
Ġspec ify
Ġsub stit
Ġdr ill
Ġdr ills
ĠJohn ston
Ġgl orious
Ġ11 6
Ġgen et
Ġgen ital
ĠHar bor
Ġpop ped
Ġpop ping
ĠGer ry
ĠAb igail
Ġob jected
ĠGe a
Ġevent ual
Ġed ited
Ġprogram ming
Ġsum mary
ĠEd win
ĠEd monds
Ġlevel ed
ĠGr ac
Ġread er
Ġread ily
ĠSw ans
ĠNo ah
Ġcolle ges
ĠEl ena
Ġemploy s
ĠAir Asia
Ġprocess ion
Ġpot ent
Ġcomment ator
ĠEm ployment
iber y
ĠGl astonbury
agn osed
Ġfr amework
Ġmot oring
Ġinsp ect
Ġinsp ections
Ġprop ose
Ġgra ffiti
ĠHam burg
Ġcoll isions
Ġdest ined
ĠSch ae
Ġpri zes
Ġmeas les
ĠPat erson
Ġcal orie
ĠMal t
ĠApp eals
Ġinfl atable
Ġpictures que
Ġmag ical
Ġsle e
Ġmult ip
Ġsal v
ĠQu intero
Ġsouth western
Ġren amed
Ġdemonstr ating
ament o
Ġpul s
Ġmist ress
ĠSur geons
Ġsell ers
bl ue
ĠChe rie
Ġpo ignant
Ġbra wl
Ġcerem onial
ĠAtlant is
ĠKn own
St ate
ĠRos em
Ġenfor ced
Ġdig ging
ĠSoc cer
Ġinsur gent
ha ired
met re
Ġpull s
Ġsick ened
ĠTal ia
ĠCorn ish
board ing
Ġow ning
ĠMcD onnell
ĠCur rent
Ġjourney s
Ġfort unes
ĠArt ist
Ġnegot iated
Ġswe ets
ĠPet it
ĠTy phoon
ĠGra ves
ĠGra eme
ĠEvery body
Ġqualif iers
ON D
Ġoverse eing
rec ord
Ġnut rit
Ġdomin ance
Ġpit ches
Ġkil omet
Ġconsequ ence
Ġdistrib ute
ĠId ol
ĠId lib
Ġoccup ation
ĠFab io
ĠRick ie
ĠPan el
ĠStevens on
ĠJac qu
Ġknock out
Ġgro in
ĠHait ian
Ġswitch ing
Ġairstri ke
Ġbreath taking
ĠAre a
writ ing
ĠBrend a
Ġstamp s
Ġhyp not
ĠSent ebale
Ġcoord ination
AC P
Ġhighlight ing
Ġsubstant ially
ĠCher ry
ĠMaur o
Ġregul ators
ĠWy oming
Ġfright ening
Ġanticip ation
Ġstrang ling
ĠNik ki
ĠHope fully
Con nor
Ġdistr acted
Ġsyn thetic
Ġdesk top
Ġwhistle blower
ĠMade leine
Ġwhis key
ĠCorpor al
Ġov ation
ĠHos ni
ĠBelle w
Ġinev itably
ĠMul cah
ĠLower y
Ġasteroid s
oust ache
ĠTah rir
Ġcrop s
Ġfestiv ities
Ġrej ection
Ġpione ering
ĠIns ider
ĠHat field
ĠCoul son
Ġrh yth
ĠJar vis
Ġskysc rapers
deep ly
ĠTian anmen
ĠSalv ador
ĠHosp itals
ĠDesc ribing
ĠLex us
Ġlig ament
dri ven
Ġoverlook ed
ĠMcDon agh
Ġly rics
ĠCell ino
Sem itic
ĠNiÃ± o
cliff e
Ġcricke ter
ĠLith uania
Ġanten na
ĠEarn est
Ġmole cules
Ġcaret aker
ĠKash mir
ĠMacle od
ĠCunning ham
Ġvint age
ĠString er
ĠBranc ato
Ġmortg ages
zyns ki
ĠDres den
ĠRuther ford
ĠVuit ton
3 20
7 3
B re
D is
F S
H arry
L N
L arry
M on
R od
U D
W A
W ow
b il
d irect
e ur
e us
f em
i ress
l ift
l ittle
l anguage
m g
m op
o it
p un
r ill
r act
z man
Ġt ut
he y
in qu
Ġw oes
Ġc ured
or la
Ġf ox
es on
ar ah
Ġto ast
Ġp iv
Ġp aus
Ġp oo
Ġp add
Ġin ad
al ine
Ġd uct
Ġd well
Ġd uration
Ġd ilem
il iar
ent ric
Ġl id
Ġl ays
Ġl amp
Ġl iable
ĠT alk
ĠT ina
ĠT rial
st ad
ĠS ick
ĠS we
ĠS app
ĠS weet
Ġg rit
ĠA ce
ĠA verage
ĠA zer
ad ays
ĠM ale
ĠM urch
ĠM eth
ac ens
Ġe ater
Ġe go
ĠC T
ĠC redit
Ġfor c
ĠI z
ĠB am
ĠB ax
ĠB alls
us ch
ec es
ĠH ed
ĠH ust
ĠH udd
ĠH aven
ĠP or
ĠP ipp
ĠP izza
ĠP axman
ri o
ri ous
ri ans
Ġal erts
os ures
ra ved
ĠW ins
ĠW onga
ĠD I
ĠD ara
ĠL one
ĠL BC
ĠL igue
ĠL GBT
ag ain
em ployed
ĠF ife
ĠF ears
ĠR ac
ĠR ap
ĠR ising
ĠR ule
ĠR ibery
ts man
if ics
ĠN ess
ĠN ord
pp ers
Ġr ows
ĠE k
ĠG ren
ĠG iant
Ġsh rug
od s
ĠJ ets
ĠJ ayne
ould er
Ġle an
Ġnot icing
Ġex h
ard ieu
rou ch
Ġpl ac
ĠK ro
Ġcl ergy
Ġun stable
Ġcan vas
Ġres usc
ile k
ip es
ip ers
Ġcomp aring
Ġcomp elling
Ġcomp uls
Ġdis par
Ġpr ic
aus er
Ġrec ipe
ved ev
uc us
ach o
ach ael
Ġbl end
Ġbl adder
Ġfl urry
ool s
we iler
ĠAl tern
Ġ4 50
ĠShe n
over ished
Ġbr ides
Ġcent enary
Ġimp art
Ġimp overished
ĠMar in
ĠMar quez
ĠFr um
Ġins ulting
Ġdef eating
Ġday time
Ġsupp lying
Ġem ulate
ric o
ric hed
Ġtake away
Ġend urance
Ġhead ache
ĠBr an
ĠAmeric as
Ġhigh ways
Ġco ached
az ed
Ġconf using
Ġyour s
Ġche wing
Ġsl id
Ġsl ay
Ġinvestig ative
ĠCl are
ĠAs cot
ĠZ ara
Ġbeh aving
Ġinj ected
Ġcontin ually
Ġdep arted
ĠBl og
Ġbre eds
Ġrest ed
Ġfar ming
Ġpay outs
Ġsever ity
Ġaff lu
Ġauthor ization
Ġsk ier
Ġsk irt
Ġgl ow
Ġsw am
Ġsw ell
Ġsw earing
Ġpar alle
Ġinf ur
Ġinf ants
Ġinf ilt
Ġposs ess
Ġboy cott
Ġstop page
ĠBe irut
ĠMiss y
ĠMin ne
Ġdead liest
aun ted
ĠInd ex
gy z
ĠCol onel
co x
Ġoper atives
cl ock
ĠFl anagan
ĠSe yc
ĠAd mir
lin ers
Ġmor ally
Ġgun point
Ġmess y
ĠDep ardieu
Ġhold er
Ġfore front
Ġmain s
ĠGu ests
Ġdist inction
Ġemer gence
of i
Ġclass ed
ĠSw artz
Ġwind y
Ġquestion able
ĠEl is
inc luding
ĠMe h
ĠRo hing
Ġsol icit
Ġfr idge
Ġturn out
Ġprosecut ions
Ġinsp irational
Ġwrong ful
ĠCaliforn ian
ĠMo ammar
Ġty phoon
Ġtro oper
ett es
ĠMed vedev
ĠIsrael is
Ġste ak
ĠTra il
Ġresearch ing
Ġself ish
ĠSim psons
Ġbank er
Ġsun rise
Ġsle ek
Ġsepar ately
Ġcult ures
Ġbomb ard
Ġbomb arded
Ġmob il
Ġoppos es
ĠPer formance
pro duct
iff any
ĠJe ep
ĠQu ick
Ġrev oked
Ġver te
ĠDaniel s
Ġjud iciary
Ġsurround s
ĠSur veillance
ĠMic ro
ĠChe chen
Ġinflu enza
icks on
Ġcollect ors
ĠKn icks
Ġmotor way
Ġshut ting
chen ko
Ġshel f
ĠBre aking
Ġsan itation
reng th
ĠInvestig ations
ĠDi P
ĠHen ri
bour g
ĠDev astated
Ġvolunte ered
Ġswe ater
Ġcook ies
Ġcook ie
ĠReg ardless
Ġassess ing
Ġentertain er
ĠBor ussia
Ġ195 3
Ġ195 6
Ġ195 9
Ġarrang ing
Ġrival ry
Ġham pered
Ġextr act
rep resent
Ġtum or
Ġalbum s
ĠWild stein
Ġgall on
ĠBern abe
ĠId ent
Ġbathroom s
ĠMother s
ĠHay den
Ġtermin ation
ĠMot ors
achel or
ĠPot ts
ĠRub io
ĠLow rey
ĠMcL oughlin
Ġaccur ately
Ġrein stated
ĠJud ith
zy k
Ġtur tle
uls a
Ġtent ative
Ġspr int
Ġpump ing
ĠSent inel
Ġmos qu
ih uah
ĠSilver man
ĠSilver ton
Ġspin ning
Ġmel ting
Ġmel amine
ĠRet ired
Ġdisag reed
zan ne
ĠLenn y
ĠCer em
ĠAlb any
ĠCrow ds
ĠKrist ina
ĠAlger ian
Ġec st
ĠVik tor
Ġenh anced
Ġprol onged
Ġbuck et
ĠGran ada
Ġclar ity
Ġclar ify
Ġadj acent
Ġentreprene urs
ĠLoc als
Ġax ed
ĠIV F
Ġtattoo ed
ĠHag man
ĠNeander thal
Ġmamm als
Ġprovoc ation
Ġfu els
ĠShel ley
ĠExt reme
ĠRaj oy
Ġrend ered
Ġdemol ished
Ġquant um
Sc ientists
ĠLan za
ĠReds kins
Ġpoly g
Ġoverc ame
Ġneglig ent
ĠMcM ullen
prov oked
Ġforb idden
ĠSEAL s
ĠPul is
ĠFull er
Ġseiz ures
Ġcarn age
ĠArrest ed
ĠPam ela
Ġcrem ated
ĠKhal id
Ġmerch and
Ġunle ashed
ĠKos ilek
ĠMcClus key
ĠFig ures
Ġwra ps
estab lish
ĠLot tery
Ġseaf ood
orient ed
Ġintrig uing
ĠFilip ino
Ġgriev ous
Ġcontribut or
Ġreef s
ĠClever ly
Ġpremed itated
ĠWag ner
Ġclutch ing
Ġtablo id
ĠXV I
names e
ĠCaz orla
Ġartif acts
Ġincumb ent
ĠMikh ail
ustain able
ĠPog ba
ĠAllow ance
ĠPined a
ĠRaq qa
ĠAzer bai
ihuah ua
3 80
6 9
7 1
A h
C D
E ver
F M
H el
J et
M ur
N S
S ur
T rent
U s
V ict
d est
d anger
e on
h ound
l oss
m ur
m ake
r amento
s uper
v ie
v isions
w ives
Ġt ant
Ġt ren
Ġs q
re asing
Ġw art
Ġc ush
Ġb ark
Ġb esp
Ġb umped
Ġf ried
is ible
Ġp ard
Ġp ork
Ġp ins
ou ched
as ley
al om
al ks
Ġm ound
Ġd ang
Ġd ental
le w
le va
om ical
il ic
id able
Ġl iner
Ġn ud
ĠS ard
ĠS lam
ĠS onia
ĠS ugar
ay ers
Ġg le
ĠA id
ĠA kh
ad ay
ĠM ap
Ġe cc
ĠC ec
ĠC anc
ĠC orr
ĠC alled
ĠC onduct
ĠC anyon
ĠC rouch
el rod
ĠI A
et ed
et tle
Ġst ing
ĠB ard
ĠB ake
Ġwh ipped
"" ?
ec on
ĠThe r
ĠP L
ĠP ackers
ce y
Ġan them
os lav
ch airs
ĠW on
ĠW idd
ĠD f
ĠD ell
ĠD ame
ĠD aly
ĠD raw
est ation
op ic
ĠL ud
ĠL ights
ĠL uckily
ĠR i
ĠR im
ĠR out
ĠR aid
ĠR anch
ĠR FK
ke ley
if ficult
pp e
ĠE at
ĠG am
ĠG us
ĠG ins
ĠG iving
ĠG rief
Ġsh ack
Ġsh ade
Ġsh rim
Ġch ambers
all ero
Ġex its
ĠU FO
Ġsp ew
Ġsp ouses
um ably
ort ing
ok a
Ġk ay
ĠK in
ĠK ok
ĠK ib
ĠK yl
ĠK essler
Ġor th
ant a
Ġout let
Ġcl ue
Ġcl amp
ap art
ber ra
Ġun ravel
Ġun protected
ĠSt arr
ĠSt unning
und ry
old en
Ġall oc
Ġrep eating
Ġover l
Ġover fl
ip al
Ġcomp r
Ġcomp act
Ġar c
ru ck
Ġpr icing
ib el
ĠV oters
reat ing
iss on
ors hip
ach i
ood le
ens ity
Ġ19 37
Ġfl are
Ġinv isible
Ġplay ful
Ġinter fer
ĠUn ite
Ġdec ree
Ġtra gically
Ġam assed
ĠAn cel
Ġfe ast
ier rez
ph al
te f
ĠMar ian
ise xual
Ġear rings
Ġaw ait
Ġdef raud
Ġcons ensus
ĠEn rique
Ġreg ulated
Ġass et
Ġass urances
Ġend anger
sh ake
Ġwar ri
Ġind uced
Ġlaw ful
Ġter ribly
ĠSh awn
ĠRe ve
ĠWe ap
ll a
Ġdisc arded
Ġbo asting
gr ading
Ġsl ides
Ġprot e
br ance
ĠCl aus
ĠQ antas
ĠZ atop
Ġfil ter
Ġmen us
ĠCar p
con tr
Ġplace bo
Ġtop ics
hel les
Ġdr illing
ik o
ele z
Ġref res
Ġsk ip
Ġsk irts
ĠBar roso
Ġgl owing
Ġsomet ime
Ġstart ling
Ġsoc ieties
ĠMin o
Ġpat rons
Ġstand ings
ĠWed ding
Ġmid day
ĠSe ason
ĠSe vent
Ġfire place
Ġmark ings
Ġsing ers
ĠGu zman
Ġdeb ating
ler osis
Ġfinal ist
Ġsuccess es
Ġground ed
Ġclass mate
ĠPar adise
Ġban quet
Ġbar rage
Ġinterview ing
Ġhom ework
Ġequ estrian
ograph s
ĠSw anson
Ġwind ing
Ġ24 0
Ġage ing
ĠEm ploy
Ġill usion
ĠAng lia
Ġmass es
Ġfr ig
Ġfr amed
ĠCan berra
Ġpres ided
ĠNe uman
ĠMor gen
In stead
Ġinit iated
Ġval ley
Ġgener osity
Ġlif ts
ĠPrem iership
Ġcreat ors
Ġcross es
Ġhon oured
ĠCor in
Ġcand les
Ġpun k
Ġcomput ing
ĠTra ins
Ġvill ain
Ġprotect ions
Ġdoub ling
Ġoffer ings
oper ative
rid den
ĠX ia
Ġrev ived
Ġrev ival
ĠKe ys
Ġrequest ing
ĠAnn ette
Ġsens eless
Ġsens itivity
ari os
ĠOf qual
Ġblock buster
can o
ĠGar ros
ĠStep h
Ġinsur ers
Ch inese
Ġfreed oms
ĠSun shine
ĠOld field
ĠEven ing
ĠIm ogen
ĠFam ous
ĠRiver a
Ġroy als
Ġadm ire
Ġ37 0
Ġconvers ion
ĠLuc ie
Ġexerc ising
Ġguard ians
ĠFin ance
An other
Ġscr ambled
Ġtack led
Ġrap ists
Ġmeasure ments
ĠNA ACP
Ġkidn ap
Pe ter
eman ja
Ġmanufact ure
ĠStr ict
ĠStr atford
Ġbom bed
ĠInc ident
Ġmayor al
Ġfro gs
Ġ195 2
Ġauction ed
Ġut il
ĠMatthew s
Ġacknowled ges
ĠPeters burg
Ġkil ogram
ĠOxford shire
Ġcommand ing
Ġtermin ated
Ġoccup ants
ĠRel ief
ĠHun ting
Ġcha otic
Ġapprec iation
Ġapprec iated
Ġske pt
ĠYemen i
Ġsac rific
Ġvacc ination
ĠWhe eler
ĠLl oyds
Ġmicro phone
col oured
ĠBent e
ĠStat en
Ġjur isd
Ġlegit im
Ġobst ruction
Ġarchae ologist
Ġpupp ies
Ġrebu ilt
ĠAut o
ĠAut umn
ĠClass ic
ĠRet ail
Ġclassroom s
Ġdisg ust
ĠEconom ics
ĠGor man
Ġcurren ts
Ġreun ion
ilit ating
Ġcommemor ate
Ġundert ake
Ġunexpected ly
mans hip
Ġrecip es
Ġfemin ist
IM E
ĠAud i
Ġinaug ural
ĠSold iers
ĠNy ad
Ġrelie ve
Ġinterven ed
ĠErn st
Ġsquee zed
Ġfu elled
ĠTa ub
Ġguitar ist
ĠHos kins
ĠHS BC
ĠMey iwa
Ġbout ique
ĠFun eral
ĠJod i
ĠBreak fast
ĠSi enna
ĠProp het
ĠConc ord
ĠEcc les
ĠStri ker
ĠClaud ia
ĠSpit fire
ĠGos ling
Ġexcav ation
Ġaspir ations
ĠTak ata
Ġassert ion
ĠPrinc eton
Gu ard
Ġpor ch
Ġkidnapp ings
Ġlaunder ing
Ġarra ignment
ĠCompl aints
Ġcri ppling
Ġenrich ment
Ġhomophob ic
Ġdeton ated
ĠAx elrod
Ġgymn ast
Ġincon ven
Ġirrespons ible
ĠPric es
Ġtread mill
Ġcorps es
Ġoutp ouring
Ġintric ate
Ġinvo ices
ĠCambod ia
Ġhier archy
ĠSew ol
occup ied
Ġmaneu ver
Aust ral
Ġhorr ors
Ġlac rosse
Ġrooft op
Ġsimult aneously
ĠKazakh stan
beaut iful
ĠCorrespond ent
ĠKyr gyz
ĠBurkh art
ĠManc ini
ĠCala is
Ġrecons ider
mop olitan
Ġdilem ma
ĠSeyc helles
ĠBernabe u
Ġtren ches
% )
6 1
8 8
A sh
B razil
B aghdad
C lear
E ach
F oll
L ab
L ittle
O p
P H
P l
P lay
S B
T im
b els
c ock
g le
j ana
m or
m is
m us
p our
r at
r ays
r ating
r ata
s im
s ite
y ll
y ster
z in
Ġ idi
Ġt ended
re f
ed o
Ġc reek
at al
at ches
an as
Ġb io
Ġf ou
it imate
ar ling
Ġh ints
Ġp iano
nd man
al ke
Ġm oth
Ġm asse
Ġd y
le ving
Ġth umbs
Ġbe es
Ġbe wild
Ġl ord
Ġl aud
Ġl odge
ĠT ab
ĠT ens
ĠT ulsa
ĠS ame
ĠS amp
ut z
ad owed
ĠM ist
ĠC A
ĠC ah
ĠC ron
ĠC att
ĠC ivic
ĠC agli
im ental
ir r
ir vana
et ooth
ĠB ec
ĠB ub
ĠB apt
us a
ĠH ond
ĠH umm
ĠP s
ĠP oy
ĠP aw
ĠP ars
ĠP inault
Ġ' (
ch oes
ĠW inn
ĠW addington
ĠD A
ĠD art
ĠD ock
ĠD ale
th orne
op en
ĠL af
ĠL odge
ĠF olk
ĠF owler
ĠR ough
ĠR anj
ĠR achael
if iable
ĠN um
ĠN urs
ĠN ye
ĠE b
ĠE cho
ĠG ust
ĠG ina
ĠG omis
ew ski
Ġch uck
Ġv owing
Ġle apt
Ġle wd
ĠO val
Ġse ab
Ġj aws
ab as
ĠU den
Ġsp urred
ak kara
ok s
ok ers
out hed
qu is
ich i
ĠK ut
ĠK athy
ĠK iller
ry n
Ġcl ause
day s
Ġup graded
Ġun well
Ġun real
Ġun official
Ġun healthy
Ġ20 50
ub en
ub by
Ġres id
Ġres orts
Ġrep et
Ġman g
oll and
Ġar che
Ġar tery
Ġso aked
Ġpol es
ne eded
Ġev olve
Ġper ver
rit is
act ice
iz ations
Ġbl oc
ĠBut t
ĠBut ter
Ġ19 10
Ġfl op
Ġfl att
pt u
Ġany time
Ġplay maker
Ġcr ad
Ġcr ammed
Ġinter cept
Ġinter face
Ġcomm uter
ĠMar ouane
.. .'
Ġins ights
Ġdef enses
Ġcons piring
Ġcons ensual
form ing
Ġreg ulate
Ġbu oy
Ġtake off
Ġhead phones
Ġdon ating
sh a
sh ocked
Ġind iscrim
aren ce
Ġhand y
az y
ĠRe iger
Ġ10 9
Ġdisc ounted
Ġpass ers
Ġpass word
ĠOb ie
Ġsl ap
ins ky
br inging
ĠAs perger
app ro
ĠMon k
hip s
Ġmillion aires
ĠCar son
ĠDe leving
Th rough
Ġspec ifics
Ġsw ap
Ġsw apped
Ġcou pled
Ġdem on
Ġbuild er
Ġdel icious
ĠBe e
Ġ15 5
ĠMin t
ĠCon ley
ĠSe pp
ĠSe lect
ĠSe eing
Ġart works
Ġcampaign ed
Ġpower less
ĠPh D
Ġdevelop s
Ġsn iper
ĠAll ison
ush i
ĠTr ue
ĠTr ish
Ġtar n
ator ium
Ġpain ter
ĠWar wick
ĠPar amedics
Ġblood stream
ung ing
ĠEl m
ĠChar ged
ĠMe et
ĠMe eting
Ġimm ers
Ġcomment ing
Ġquick er
Ġexc uses
Ġcor ro
Ġfav ored
Ġpres erved
Ġdeter rent
Ġer ect
ĠMil es
ĠMcC aw
ij i
Ġaccess ing
Ġcho oses
Ġtrad ers
Ġmag istrate
ĠTom orrow
Ġsurpr ises
han i
ĠTe vez
Ġsurve ys
Ġrecogn izes
Ġrecogn isable
Ġver ified
Ġholiday makers
ĠPeter borough
Ġcaptain s
ĠJackson ville
ĠChe f
Ġpack aging
Ġlack s
Ġdocument ation
Ġhy brid
Ġcollect ively
ĠKn ock
ĠWal cott
St op
St ep
Ġassoci ates
Ġskin ny
ĠGood ell
âĢĿ .âĢĻ
Ch ildren
ĠMac Leod
ĠHel mer
ĠHel ena
ustr ated
udd led
Ġcop per
ĠIr vine
Ġdefin ing
row ave
Ġanaly se
ĠLuc an
ĠMa ersk
Ġvolunte ering
ĠEver est
ĠRam zan
Ġplant ation
Ġsplit ting
Ġboost ing
bel ie
ĠMir iam
Ġaband oning
ĠMcG u
Ġdisappear ing
bro ok
Ġder ail
ĠCab allero
Ġtum ble
Ġcontent ious
ĠMont real
put er
ĠPeters en
Ġ194 1
Ġ194 6
ĠBid dy
Ġtun ed
ĠBern ie
ĠHor ror
Ġburgl aries
Ġdetail ing
ĠHay ley
ĠInt el
Ġsatisf y
Ġplatform s
Ar t
Ġbench mark
ĠPolit ics
ĠStan ford
Ġmechan ic
Ġmut ilation
Ġconced ing
ĠMu eller
ĠFro ome
Ġselect ive
Ġteach ings
Ġscan ner
ĠSocial ist
Ġconver ting
ĠTro phy
ĠFair fax
ĠLeg isl
ĠTem per
ĠHy ndman
Ġsmugg le
ĠViet namese
ĠSoph ia
Ġpartnership s
ĠJill ian
Ġhumil iation
ĠCampaign ers
Ġwire less
spe aking
Ġmad ness
Ġsustain ability
ĠDrug s
Ġsail or
Any one
Ġdiamond s
ĠDew s
Ġbackl og
Ġfulf ill
Ġfulf illed
Ġfer til
Ġobserv ations
ĠPier re
Ġles bians
ĠWH AT
ĠKier a
Ġcow ard
Ġconven ient
Ġconstitu ents
ĠMang ala
ĠMey ers
Ġsemif inals
Ġstir red
Ġmug shot
Ġseas ide
Ġreserv ations
ĠJod hi
Ġconsol ation
Ġflour ish
cal iber
affe ine
Ġparalys is
Ġauthentic ity
Ġapplaud ed
Ġencl osure
Ġinterpre ted
Ġprompt ly
ĠStein berg
Ġgre ets
Ġcontrad ict
ĠBarn ett
ĠSusp ect
ĠWA G
ĠRat ley
Ġrupt ured
ĠSac ramento
ĠSang akkara
stro ke
ĠAub urn
ĠDanger ous
Ġcorrid ors
ĠUpd ike
Ġcurtain s
Ġmun icipal
Ġchol ester
ĠEug ene
ĠPetra eus
Ge orge
ĠWald orf
ĠInj ured
Ġsidel ined
Ġpap ar
ĠYous af
ĠJas per
ĠLor raine
ĠArchae ologists
ĠBuc key
ĠLad ies
Ġoun ces
Ġdwind ling
Ġwholes ale
ĠBlu etooth
Ġbere aved
Ġcamoufl age
nbc LP
Ġsatur ated
ĠInsur ance
Ġaval anche
ĠMund o
ĠGut ierrez
Ġcatastrop he
ĠNavar rette
urr le
Ġhairc ut
ĠTray von
thra x
Ġtimet able
Ġsuscept ible
Ġturt les
ĠMOR E
Ġchau ffe
ĠMulcah y
Ġinad vert
ĠDara a
Ġafflu ent
ĠRohing ya
Ġmerchand ise
ĠAzerbai jan
Ġwart ime
Ġecc entric
ĠGins burg
ĠAncel otti
ĠBente ke
ĠCagli ari
ĠDeleving ne
3 30
3 40
? :
A IDS
I m
L eary
R ich
S uch
T en
U T
V ER
W atch
b oth
c ond
c utting
d ro
e i
h ay
h rystal
i ator
j en
j ean
l ost
l ived
l aden
l iter
m ins
o za
p riv
r ot
r ors
r ates
s ac
s ided
u ley
v i
v it
w omen
Ġt apping
he avy
in ers
er get
Ġs led
Ġw oo
at hed
or gh
or ama
or pe
Ġb ounced
Ġb ribe
Ġb ilateral
Ġf ries
Ġo ak
ing ale
ar in
Ġp aw
Ġm att
le cht
om be
Ġl ace
ĠT os
ĠT ED
ĠT alking
ĠT iffany
Ġhe ating
ĠS op
ĠS ite
ol aj
ol ulu
Ġg n
Ġg ur
Ġg um
Ġon sl
ĠA ra
ĠA head
ad an
ad ic
Ġe choes
ĠC ort
ĠC ove
ĠC ush
ĠC ros
ur istic
im i
ir med
el u
ĠI sobel
Ġst igma
ro z
ĠB ates
ĠB ott
us ual
Ġwh ip
ill ie
ĠH G
ĠH Q
ĠH uge
ĠH ampton
ĠP ugh
ĠP agan
ĠP AC
ĠP rag
Ġas piring
Ġy oga
ĠW K
ĠD ry
ĠD ong
ĠD olan
ĠD iaz
ĠD udley
ĠD uffy
ĠL un
ĠL ink
ĠL ines
ĠL akes
ag asc
ag eway
ĠF an
ĠF ear
ĠF ight
ĠF ile
ĠF CA
ĠF ortunately
ĠF ulton
ĠR ot
ĠR ita
Ġcon quer
ĠN ex
ĠN GO
pp le
Ġr anges
ĠE y
ĠE gg
ĠE agles
ĠG B
ĠG ug
Ġsh rap
od a
od en
ĠJ al
Ġch ats
Ġch unk
Ġch lor
Ġwe aker
ĠO sw
ĠO ften
Ġnot ebook
all a
all ess
ĠU C
se vere
um ptions
Ġpl as
iv ens
Ġab ide
ĠK ap
ĠK ony
Ġgo alless
Ġor n
ant asy
Ġcl ad
ap ix
Ġup ward
Ġup side
Ġad missions
Ġad verts
Ġun answ
ĠSt raw
Ġne on
ub s
ĠCh i
Ġus age
Ġall igator
Ġrep rod
Ġman ned
Ġinc omes
ip ing
ip her
per ial
per ty
ind eer
Ġim aging
man y
ĠTh iago
ib i
ib ans
ĠV ease
ĠV erm
Ġen raged
uc a
ĠY u
pl aces
pl anes
Ġbl ond
Ġbl oss
Ġro gue
Ġqu o
Ġpre ference
Ġdown fall
ĠAl ves
ĠAl ford
Ġtra its
Ġtra ils
Ġtra inee
Ġdes irable
oin ing
Ġbr ig
Ġra ils
Ġra vaged
ĠLe vel
fer red
Ġsur real
Ġsur plus
Ġsur gical
ĠMar l
ĠFr anks
Ġins anity
Ġdef ault
Ġret ribution
ah l
ull ing
Ġind irect
Ġsm ear
Ġgu ides
Ġwin es
ale b
ĠRe y
ĠRe form
Ġdisc rep
Ġbo ob
olog ically
br other
ĠCl arence
ĠIs la
Ġwr ink
ĠAs her
ĠAs if
Ġstr icken
ĠZ hang
ĠLondon ers
ex amination
ĠCom ment
Ġdep osition
IS K
Ġcur riculum
Ġtrans fers
ik ova
iet al
Ġref rain
ĠBar rett
Ġpar an
Ġpar adise
Ġgen es
Ġpat rolling
Ġbro ker
Ġviol ate
ped ition
ĠPro gress
Ġconv ict
Ġinform al
ĠPh one
Ġsn atch
eb us
Ġpress ured
Ġhold ers
Ġbook ings
Ġdra ped
Ġrul er
ĠGu ide
ĠGu ards
ĠGu ilty
Ġey ewitness
Ġred uctions
Ġorgan ising
Ġel usive
Ġland marks
Ġcompet ent
Ġform idable
ĠSer rano
Ġsocial ist
ĠGr owing
ĠGr ammy
Ġbar bar
ĠOr th
ĠOr bit
Ġanim ation
Ġhop eless
ĠChar ity
Ġtw ent
Ġrisk ed
Ġrisk ing
Ġemploy ing
Ġnation ally
Ġcompl iment
ĠGl oria
Ġinsp ected
Ġbad ges
Ġcor al
Ġpres ervation
ĠMo h
Ġimpro ves
ĠMcC hrystal
Ġlif esty
ĠIslam ists
uk es
ĠSch war
ĠSch urrle
Ġaccess ory
Ġprob ing
Ġprob ability
ĠCor cor
Ġposition ed
ĠSu zanne
Ġsun k
Ġmult im
Ġbroad ly
de ath
fect ure
ĠTe achers
Ġcheck points
ĠQu igg
ĠPart icip
ĠFar ah
ĠBur ger
Ġmis led
Ġmis guided
Ġjud o
ĠFranc o
Ġunf it
Ġsnow y
Ġdin osaur
ĠChe er
Ġwond ers
ram ble
Ġattend ees
Ġarm our
ĠGreen peace
Ġdark er
Ġhy ster
Ġsales man
ĠLaw s
Ġund ec
Ġund ef
ĠInter est
Ġmassive ly
pan ies
Ġpromot er
Ġbeautiful ly
Ġscen arios
onn ect
ĠDi as
Ġmix ing
ĠPri ebus
ĠYoung s
Ġroyal ty
ĠTrans itional
ĠDev ast
Ġcomed ians
Ġtrend y
ĠDam ian
Ġstret cher
ĠFour th
Ġimpl icated
Ġpitch ing
ĠUN C
ĠBus ch
Ġess ay
ĠCal um
Ġ195 5
ĠExper t
ifer ation
ias is
ĠBurn ham
ĠSix ties
Ġut most
Ġforg iven
Ġ08 45
ĠMont eneg
ĠJournal ist
Ġwreck ed
Ġintegr ation
ĠPhilipp ine
Ġstick y
Ġtear ful
Ġcompens ate
Un til
ĠMax well
ĠBul g
Ġmal aria
Ġcaps ule
Ġimplement ing
ĠPan ama
ĠTraff ic
Ġsatell ites
ĠDisney land
Ġburst s
fe it
Ġgrass roots
Ġsch izophren
Ġsett ling
Ġster oid
ĠFerr er
ĠFather s
Ġcalc ulate
Ġprohib its
Ġscan ning
Ġtur key
Ġstamp ed
ĠLy on
ĠLy nd
ĠNav al
Ġrenew able
ĠBos nian
ĠMaur er
ĠIbrahim ovic
Ġunfair ly
Ġanticip ate
Ġphen omenal
ĠCrow e
ĠBron cos
ĠResc uers
ĠMust ang
Ġfemin ine
Ġbol ts
Ġhij ab
Ġhij acked
ĠLamb orgh
ĠDead ly
Ġtooth paste
Ġlun ar
Ġlun ches
ĠLine ker
ĠTam ara
ĠMort on
ĠPast or
Ġsubmar ines
opol y
Ġdeploy ing
Ġdispers ants
EL ES
ĠFra ud
Ġpreced ent
ĠLev i
Ġdistingu ish
ĠVi enna
Ġaccompany ing
Ġpharm aceutical
ĠGat wick
affer ty
Ġvary ing
ĠLag os
Ġtuck ed
Ġstockp ile
Ġinhab itants
Ġsincere ly
Ġabol ished
Ġsanction ed
Ġcorrid or
Ġmim ic
Ġpurported ly
ĠAnder lecht
Ġpel vis
ĠMis rata
ĠNon etheless
ĠChem ical
ĠBatt alion
Ġboo ed
Ġexhaust ion
Ġpear l
Ġvandal ism
dev astated
Ġpent house
ĠShip man
ĠInquir y
ĠRw anda
ĠHeb do
Ġamend ments
ĠAlle ged
Ġovercrow ding
Ġdysf unction
ĠAnc ient
ĠCrom well
Ġcraz e
Ġsug ary
Ġdelic acy
ĠBoliv ia
ĠSiber ian
Ġtel escope
ĠTand oh
ĠChis ora
Ġextravag ant
ikt as
ĠRicci ardo
Ġaccl aimed
Ġinterf ere
ĠVit amin
ĠEvangel ista
defin ition
ĠSquad ron
orig inal
ĠSantor um
achet te
Ġproport ions
ĠBax ter
ĠPor oshenko
ĠMinne apolis
ĠDiP ietro
ĠTaub man
ĠCah ill
Ġcholester ol
agasc ar
ĠNex us
Ġshrap nel
ĠVease y
Ġlifesty les
ĠCorcor an
ĠMonteneg ro
" '
. ),
1 40
2 20
6 4
8 3
A ir
A ct
C U
D a
D ear
D ep
E ast
G iven
H ong
I ON
L V
L ou
N I
N ING
P age
R ay
R ob
R ober
S ir
S ex
T om
U C
b as
c ases
c uro
d al
d isc
f ired
g ain
h ou
h ler
h uge
h appy
k il
l ade
n atural
p ublic
p ically
p ieces
s ick
u ates
u ette
w elle
x x
y ards
Ġ ul
Ġt rench
Ġt ighter
Ġt igers
Ġt undra
Ġa ided
in ement
Ġs cept
Ġs orted
Ġs acking
Ġthe or
re qu
Ġw ishing
en i
en act
Ġc otton
Ġc uddle
at ops
at hetic
or as
or ian
Ġb red
Ġb ask
Ġb onn
Ġb anners
Ġb isexual
Ġf ru
es ley
Ġh ay
Ġh oll
Ġp aces
as so
Ġm ice
Ġm oustache
Ġd ucks
le gal
il i
ent e
ent ions
Ġl ing
ĠT end
Ġre int
Ġre jects
st ore
st own
ĠS ag
ĠS end
ĠS my
ĠS ung
ĠS eth
ĠS inn
ĠS oma
Ġg or
Ġg ases
Ġg igg
Ġg astro
ĠA bs
ĠA FL
ĠM oin
ĠM ix
ĠM ane
ĠM aze
ĠM ansion
am ins
ac com
ĠC aus
ĠC ech
ĠC hern
ĠI ker
ĠI CE
ĠI veson
et o
Ġst ub
ro duced
ro ads
ĠB B
ĠB ai
ĠB irds
ec d
ĠH icks
ĠH ubble
ĠH aughton
ĠH achette
ld on
ĠP u
ĠP and
ĠP all
ĠP ue
ĠP ath
ĠP ele
ĠP emble
ĠP onder
ri ety
Ġan gu
Ġal um
ch n
ch ron
ĠW u
ĠW er
ĠW earing
ĠD inner
est rians
th orpe
ĠL ian
ĠL LC
ag lio
ĠF M
ĠF irm
ĠF actory
ĠR ah
ĠR anger
ĠN ag
ĠN ab
ĠN aj
ĠN oor
ĠN emanja
Ġr acked
ĠG ers
ĠG ior
ĠG ifford
Ġsh amed
Ġsh ades
od o
Ġch ained
Ġle aning
ast ically
ess ional
Ġse ism
Ġex orc
ust omed
Ġj unction
Ġsp illed
ard om
ak able
um bed
Ġpl ots
ĠK ot
ĠK illed
ell in
ant es
Ġout ing
Ġout dated
Ġcl oth
ber ov
Ġup hold
Ġdo od
Ġun cont
Ġun provoked
ĠSt im
ĠHe in
ĠHe ene
ect ar
ub bs
ĠCh ang
Ġover r
Ġover sh
oll ing
Ġar tef
ook ed
Ġpr ow
Ġsc ath
Ġsc uba
Ġsc ramble
ree ks
ĠTh reat
Ġacc ustomed
aus ible
Ġatt ire
Ġrec urring
ĠV ent
Ġen rolled
Ġkn ighth
ĠY uk
ob e
ach ts
iz ard
Ġfl ick
Ġfl ocked
Ġfl ashing
Ġpre fers
Ġno ises
Ġmon etary
Ġdown hill
Ġbefore hand
Ġinter actions
Ġdec ap
Ġdec omp
ĠShe ila
ĠAn s
ĠAn war
Ġrem anded
Ġcomm ence
Ġbel ls
Ġimp orts
Ġgr in
Ġexp end
aim a
ĠMar oney
ful l
Ġins ane
Ġins ults
Ġmin erals
ĠSc ores
Ġcons ists
augh an
Ġneed lessly
alk y
Ġbu ys
Ġhead teacher
sh oot
Ġco aster
az ing
ĠSh am
ĠSh uttle
ĠRe ver
ĠRe bels
Ġ10 5
Ġdisc ourage
ĠPol es
Ġpass er
Ġpass ports
ĠOb ser
Ġsl ams
br ight
br ick
ĠCl iff
ĠIs is
Ġalle v
Ġvict orious
ĠZ en
ĠZ al
Ġtrans f
Ġref r
Ġsk illed
Ġgl ance
Ġmod er
Ġbuild s
Ġhospital ised
ĠBe har
Ġpat ches
ĠSec curo
Ġclear er
cl ad
ĠAd olf
ĠGe ographic
Ġ13 1
Ġmor ale
Ġmust ard
ĠJu ve
Ġfore casts
ĠGu zan
ator ies
ĠWar rington
Ġban ana
Ġbar n
Ġhom age
ĠSm oking
Ġbur ger
ĠSw at
str icken
Ġactiv ated
ĠIraq is
inc ts
Ġprocess or
Ġdi ameter
ĠEm re
Ġsuper intendent
Ġsuper iors
ĠPaul ine
ĠSte ele
ĠHam ad
ĠNe ed
ĠNe ur
ĠMil ton
ĠMcC on
ĠMcC abe
Ġrad iotherapy
Ġhands ets
ĠSch alke
Ġcross bar
bo hyd
ĠRob shaw
Ġreb ellion
Ġ27 0
ĠLib yans
Ġneg lected
ĠApp arently
mar nock
oura ble
ogn ito
Ġansw ering
Ġphotograph ic
omin ated
ĠBer keley
Ġphys icist
amb les
ĠMore no
rid ges
rid iculous
ĠHealth care
urb an
ĠDo herty
ĠFar berov
Ġemb ar
Ġbrain child
Ġsurf ers
ae i
ĠDef ender
Ġsnow fall
ĠOl tz
ĠCle an
add in
Ġbra gging
Ġdocument ing
Ġfre estyle
Ġfre elance
ĠGold stein
ĠSand ers
ĠJul io
ĠWat ford
Ġparticip ant
ĠOld ham
ĠItal ians
Ġtransfer ring
ĠMag gie
ĠDen is
ĠDar cy
ĠVe hic
ĠIm age
Ġstun ts
ĠGre ens
Ġpath ologist
Ġcomfort ably
Ġadm iration
ĠOhio ans
Ġrid dled
Ġguard ian
Ġfarm house
Ġscr ambling
Ġbi ology
Ġwarm th
ĠProt ests
Ġnegot iation
do ors
ĠRam adan
ĠProsecut ion
Ġlog s
oles cent
Ġstret ching
DA R
ĠStr ate
Ġbright est
OR C
ĠCard inal
ĠLat via
Ġcyc les
Ġsuffer er
Ġcorpor al
ĠFort y
ba um
Ġfrustr ations
Ġslam ming
Ġtum ult
Ġorganiz er
Ġpit cher
Ġmir rors
ĠDirect ion
Ġ194 2
Ġ194 7
ĠHart ford
Ġpal m
ĠMcK ay
ĠTour ists
char ge
ĠTown send
Ġintention al
ĠBull s
Ġstream s
EN CE
AR NING
ĠPy th
Ġovert urn
onz i
ĠRub en
Is rael
Ġexplo iting
ĠPass enger
Ġannounce ments
ĠAff ordable
ĠWhe el
Ġdepend ency
ĠFre in
Ġarchitect ural
Ġtent h
ĠPle ban
ĠPers ian
Ġpump s
Ġsequ ester
ĠMI T
ĠBook er
Ġmos ques
ĠWy ly
Bl ack
ĠSot o
ĠStock port
Ġdism ay
Ġstrain ed
Fr ance
ĠGM C
Ġspray ed
Ġboom ers
Ġdistr action
avan agh
bul lying
ĠYe ah
Ġundert aking
ĠPS V
Ġendang ering
bus iness
Ġwhis ky
ĠVol vo
Ġnavig ation
ĠRoc hester
Ġ77 7
Ġphil anthrop
oop la
pat ient
Ġserv ants
Ġinvent or
Ġdisrupt ive
Ġsod a
Ġsod ium
Ġdepos its
ĠBes iktas
Ġrecl aim
Ġboun ce
Ġboun cer
ĠKa iser
ĠMom ents
Ġaver aged
ĠKit chen
ĠDri vers
Ġsar in
ĠShir ley
ĠCS KA
ĠHob bs
ĠPep e
ĠCatal onia
Ġdup ed
acer b
ĠDim it
Ġpatri otic
Ġrever ed
Ġincons ist
Ġkidnapp ers
did n
Ġsalmon ella
Hill i
Ġchim pan
ĠSty les
Ġstair case
Ġcongreg ation
Ġunanim ous
Ġunanim ously
Ġjeopard y
ĠCorrect ions
ĠMend oza
Ġdrown ing
Whe ther
Ġacceler ated
plan ned
Ġauton omous
ĠOll ie
ĠOdd ie
ĠShield s
Ġcontinu ously
ĠIncred ibly
Ġmaul ed
stant ial
Ġuntr ue
ĠArmen ian
ĠWolver hampton
Ġfring e
ĠSach s
ĠWrite bol
fam ily
ĠContin ental
ĠTric er
ĠSaw yer
ĠFE MA
ĠMcCorm ick
det ached
ĠSne jana
Ġassail ant
Ġcad ets
ĠBach mann
ĠUmar ov
cigaret tes
ĠChong qing
Ġgrat itude
Ġorb iting
Ġapprehend ed
ĠRestaur ant
Ġupro ar
Ġtrol leys
ĠTrev or
Ġinjust ice
Ġbarbec ue
ĠRoch dale
ĠGand hi
ĠSym ptoms
Ġslee ve
ĠAdmir al
Baghdad i
ĠHumm els
ĠRanj ini
Ġflatt ened
ĠYousaf zai
Ġchauffe ur
Ġinadvert ently
erget ic
ĠPrag ue
Ġunansw ered
ibans erin
Ġknighth ood
. :
8 50
D ef
D EF
D aniel
F ive
H ouse
H arr
H appy
J im
J ames
L a
L aw
M C
M iss
N usra
O ther
P I
S al
S il
T w
T y
U l
W ork
b ase
c ers
c ity
c ost
c alf
c ett
c het
d ick
g re
g ang
g encies
i u
i ren
k iss
k hi
l az
l iving
l inked
p op
r int
t w
u i
u ments
v ir
w ic
y me
Ġt roup
Ġt resp
Ġa ce
Ġa ort
in ting
Ġs or
Ġs amp
Ġs ings
Ġs ectors
Ġw ipe
en berger
Ġc ant
Ġc ob
Ġc odes
Ġc affeine
at on
at isf
an an
Ġb outs
Ġb olt
Ġf art
Ġf aint
Ġo min
is ans
it ations
Ġh atch
Ġh ars
Ġp ause
Ġin h
ou m
Ġm utation
le vard
Ġth umb
Ġth read
Ġbe ers
Ġbe ams
Ġl ush
Ġl umps
ĠT uc
ĠT rent
ĠT weet
ĠT ym
ĠT ensions
ĠT ito
Ġre ne
Ġhe iress
st y
st ance
st ood
ĠS out
ĠS ond
ĠS ax
ĠS mit
ĠS uther
ol in
ol ith
ut o
ĠA gn
ĠM C
ĠM ond
ĠM onson
Ġe cl
ĠC ut
ĠC ly
ĠC ul
ĠC oy
ĠI R
Ġst ained
Ġst ung
Ġst ocks
Ġst aunch
ro od
ĠB C
ĠB rix
ĠB orde
us ks
ec ca
ĠH alif
ĠH omes
ĠH yd
ĠH LN
Ġsa iled
ĠP us
ĠP red
ĠP ure
ĠP ile
ĠP ug
ĠP owers
un ky
Ġan ecd
Ġal tar
Ġal arms
Ġal iens
ĠW ick
ĠW ait
and ing
and el
ĠD R
ĠD ill
ĠD ress
ĠD ever
ĠD ane
ĠD ressed
ĠD ipl
ul ing
ul iar
th ritis
op ath
ĠL ED
ĠF O
ĠF ey
ĠF inding
ĠF ocus
ĠR id
ĠR ally
ĠR ound
ĠR are
ĠR ye
ke es
[...]
