#version: 0.2
Ġ a
Ġ t
i n
e n
e r
e s
o n
č Ċ
Ġ c
Ġ s
Ġ d
h e
Ġ p
o r
a t
a r
a n
Ġt he
r e
Ġ l
Ġ m
Ġ o
a l
a s
i s
i t
Ġ f
i c
Ġa n
Ġ w
Ġd e
o s
in g
Ġ e
en t
Ġ b
e d
Ġ in
u n
r o
Ġan d
Ġt o
i on
Ġo f
l e
Ġ h
o m
u s
Ġ y
a c
a d
q u
i d
U S
E R
S T
E M
US ER
S Y
ST EM
SY STEM
u r
Ġ n
Ġ Ð
i l
o l
i m
u t
Ġ un
e l
a m
e c
i v
Ġ g
e t
Ġ re
Ġ en
Ġl a
h at
Ð ¾
Ġc on
Ġ qu
Ġ T
u l
es t
Ġ A
Ġ is
Ã ³
i g
Ġ v
Ð µ
Ġ W
Ġ C
i r
Ġ S
o w
Ġ I
Ġf or
Ġp ro
Ñ Ĥ
Ġqu e
e m
u c
er s
Ġ r
Ð °
Ġc om
Ð ¸
t r
a b
at ion
i f
Ġa l
c e
Ġe l
o t
Ã Ń
Ġ E
t er
a y
c i
an t
Ġ P
at e
Ã³ n
Ġs e
Ã ¡
Ġ 1
Ð ½
o d
u m
is t
Ñ ģ
Ġt h
Ġb e
a g
Ð¾ Ð
it h
Ġ es
Ġp ar
s t
l y
Ġ on
Ġa s
Ġy o
Ġe x
Ġ us
es s
Ñ Ģ
t h
Ġs t
Ġt hat
Ã ©
a v
p l
Ġ D
i z
ec t
Ġ M
c h
ĠT he
an d
Ġw ith
Ġ B
en d
Ġ it
or t
u d
Ġ L
Ġ H
Ġ -
i b
Ġ or
a k
o p
Ġun a
Ġw h
v er
i Ã³n
Ġc an
o c
Ġ G
Ġ 2
Ġ F
Ġt r
Ġa re
a in
a p
c t
Ġ im
Ġs u
iv e
Ġ he
Ġ "
ĠW hat
Ġ est
Ġl os
Ġ R
m ent
o g
Ġcom p
i ent
Ġp r
Ġw as
Ġpar a
i es
er e
Ġs o
ig h
it y
il l
p er
i a
Ġ (
Ð »
Ġyo u
Ġ N
i e
en ce
t e
Ġn e
Ġr es
u e
i p
Ġl e
i al
Ġim p
i o
Ġd es
Ġp u
ac t
ac iÃ³n
d uc
Ñ ĥ
or e
u g
in e
ic h
u re
Ġc h
ĠI n
u p
Ġp l
Ġ k
l ow
an g
ro m
o ul
' s
Ġw or
Ġm e
Ġp er
oul d
Ġ j
us t
un d
Ġde l
id e
Ġa b
Ð° Ð
or m
ad o
uc h
Ñ ı
Ġa r
av e
Ġs h
al l
ab le
Ġ 3
Ġin c
igh t
Ġ O
Ġt e
ic a
am e
el l
Ġl as
Ġa p
ĠW h
id ad
ÃŃ a
en er
Ġc re
t o
Ġs er
ion s
c r
Ġa d
Ã¡ s
Ġb y
Ñ ĭ
Ġm an
ag e
0 0
it e
Ñ Į
i en
ic al
Ġc l
Ġl o
Ġf rom
v e
Ġs p
s e
ul t
Ġa c
u al
ak e
Ġd is
Ġn o
Ġ J
g r
Ġpu ed
os t
ac h
in d
Ġ U
o ut
Ġa t
Ġyo ur
Ðµ Ð
Ġd at
f er
Ġp re
f orm
ar e
ar d
- -
i er
â Ģ
c es
ĠT h
om e
Ã ±
ad a
o ur
e p
as t
Ġp or
Ġw hat
Ġh ave
Ġg r
Ġcon t
Ġw e
as s
f f
Ð¸ Ð
Ġ =
Ġd o
Ġd if
Ñ ĩ
ĠÐ ¿
Ġe m
e ar
r a
Ã º
a j
if ic
as e
Ġ 5
Ġcon s
k s
ig n
p t
ar t
an s
Ñģ ÑĤ
Ġs ent
Ġa m
s o
l o
c ess
p r
Ġin ter
Ġd id
Ġ 4
en s
Ġthe ir
th er
ic e
on g
ation s
Ġf ol
ĠÐ ¸
ĠÐ ²
at ed
b er
ion al
Ġp ers
i re
Ġm ore
i k
ion es
Ġimp ort
Ġm Ã¡s
Ġre c
ac k
t ic
ac e
Ġcom o
ĠI t
p le
un t
l es
Ġs ol
Ġfol low
Ġc o
Ġ ent
Ġo b
Ġ ro
ec h
ar g
im e
Ġ Ñģ
Ġs tr
Ġn ot
ug h
ent e
Ġth is
Ġg o
Ġfor m
i le
ar i
Ġdat a
an ce
o k
Ġal g
Ġh as
Ġhe l
or d
iv en
in t
Ġpers on
Ġc ol
ĠE n
ol og
Ġc u
ĠÐ ½
Ġp e
Ġus ed
e y
Ð ²
Ġe v
at er
Ġinc l
v el
Ð º
Ġwh ich
ci a
Ġ V
h er
Ġre l
p e
Ġa ct
Ðµ Ð½
Ġfollow ing
Ġm od
ĠH ow
Ġf e
Ġs y
Ġt w
id o
a z
Ġpro duc
Ġ up
ant e
on d
Ġf r
Ġs uch
Ġhel p
Ġpro v
at ur
d it
Ġp os
en g
Ġal so
ĠU n
Ġe le
Ġ K
o v
ci Ã³n
Ġab out
Ġin d
Ġo ther
u b
Ġus e
and o
ĠC h
Ġo ut
Ġ Y
er g
l d
Ð¾Ð ²
n ing
Ġde c
ar y
p ort
a il
on s
Ġsent ence
x t
Ġm ed
ul ar
Ġb et
Ġne w
or y
Ġpro gr
re e
o us
or es
b re
Ġtw o
Ġin t
Ġin v
pl ic
j ect
Ġf un
on e
i end
Ġun d
Ñ ħ
Ġl ist
ĠTh is
w e
Ġit s
st em
Ġ i
Ġres p
Ð ¼
ĠA d
er t
o y
am b
at ing
ent s
er a
Ġal l
f t
Ġc ar
ar k
Ġman y
ĠL a
m er
cr ib
f ic
Ðµ ÑĤ
ĠÐ º
Ġthe y
Ġm ake
ĠÐ ¾
c o
Ġon e
qu e
Ġin to
Ġn um
Ġt y
l ic
Ġs on
el y
c on
iz e
ĠA n
uc t
Ġo p
e g
e w
Ġh er
id a
Ġt ime
is m
ib le
Ġ1 9
ech n
os e
ĠE st
f ul
i an
ust om
Ġa g
Ġprogr am
Ð ´
ĠD es
or s
Ġcom m
Ġg iven
o b
Ġap p
Ġ 6
Ġdif fer
Ġin form
Ġb r
Ġe ff
Ġp ol
Ġw ill
l a
u y
al es
ÑĤ Ð¾
ĠA l
ĠS t
Ġpued e
ð Ł
Ġincl ud
Ġh is
Ġs i
op le
Ġ Â
Ġw ay
Ġex per
r it
Ġthe m
at ive
as ed
Ġ ut
is h
Ñ İ
Ġsy stem
ang e
Ã© n
al s
if y
il iz
Ã© s
Ġv al
p ut
Ġle ar
Ġ z
Ġc ustom
Ġsh ould
c ul
Ġf o
Ġl ik
es e
Ġp h
Ġus ing
er m
at es
Ġg ener
Ġh ow
ÑĤ ÑĮ
p o
Ġ if
Ġw ould
ro l
Ġo ver
Ġen erg
Ðµ ÑĢ
ad os
n ow
a us
ic s
` `
Ġwor k
Ġv ari
Ġwor d
Ġp o
Ġ âĢ
Ġ <
-- --
Ġm ay
Ġ2 0
Ġser v
Ġpe ople
Ġa ut
Ġre g
r ite
Ġm uch
Ġc al
Ġb ut
n e
Ð° Ð½
t s
in al
ĠÐ ¼
Ġp at
b le
Ġne ed
Ġex am
Ġv er
Ġ ðŁ
ĠC re
Ġs ome
ow er
it ies
Ġm et
Ġc or
Ġan y
ient o
Ġy ear
il d
ir st
Ġt u
Ġh um
iv ers
ic k
ĠE s
i os
ter n
Ġc ould
Ġcomp le
ci al
t en
Ð¾Ð »
ĠE l
Ġt echn
" ,
ĠWh o
vel op
ak ing
Ġh ab
Ġes p
in a
Ð½ Ð¾
u est
we en
a x
ing s
Ġs im
r es
Ġt em
al th
Ġbet ween
ĠÐ ´
Ġto d
Ġ *
Ġre al
d e
Ġwh en
Ġb o
Ġp od
ĠG ener
ĠE x
Ġpro cess
Ġut iliz
y s
ĠC om
Ġs ec
Ġh ad
ĠÐ¿ ÑĢ
Ġ #
Ġwh o
Ġb l
Ð ¿
it s
Ġg ro
Ġin s
Ġpl an
Ġwe b
Ġm ost
Ġtr ans
ur n
il ity
d er
Ġmod el
id ent
Ġlik e
Ġ1 0
Ġre duc
g e
Ð¾Ð ¼
an y
Ġc ap
Ġpr es
Ġimport ant
r y
ec es
em ent
Ġ 8
Ġ Ñ
Ġl arg
Ġpar t
Ã¡ n
Ġs c
at iv
Ġw ere
p h
io us
ot h
Ġd i
re at
ro ugh
Ġb ec
crib e
z a
g an
Ġm in
Ġt ien
Ġs et
ic t
Ġac c
is e
Ġe j
Ġinc re
en cia
Ġf irst
ut ion
Ġb us
Ġ 7
en e
Ġh igh
Ð½ Ñĭ
Ġre qu
ĠGener ate
g o
Ġb u
or k
Ġde f
Ġres ult
ad e
Ġsp ec
ble m
am ente
Ġk now
i ed
ï ¼
id er
Ġwor ld
olog y
w n
Ġth an
Ġex pl
r as
ac iones
od e
ic o
ĠA s
t a
Ġs us
ĠH e
ĠCre ate
Ġe qu
el f
amb i
r en
ag es
ent ial
ment s
em pl
Ġar t
Ġ ÑĤ
ĠP ro
Ġde velop
ang u
Ġm at
Ġse g
Ġpro blem
y th
m o
ĠC on
Ġp ot
if e
ur a
w are
u er
Ġenerg y
Ð¾Ð ³
c l
ct ion
ar m
p os
ic es
Ġs al
end er
ar a
Ġt as
Ġs ign
Ġproduc t
Ġa v
cr ip
ĠA I
Ġdiffer ent
Ġde b
Ġh ac
Ġhe alth
Ðµ Ð»
ce pt
t ing
oc k
Ð°Ð º
Ġexam ple
Ġ '
Ġd ay
re d
Ġp op
Ġdo es
Ġs k
er o
it ion
Ġv is
Ġso bre
er c
Ġd r
Ġth ere
Ġm on
Ġ [
l ine
at ure
Ġcomp ut
Ð ·
Ġc r
_ _
Ġo tr
Ġ2 00
in k
f r
Ġ ide
Ġlear ning
Ġwh ile
) .
ĠD e
y ud
Ġal low
Ġd ur
um ent
ĠA r
ap h
Ġbe en
Ġent re
Ġcustom er
ĠR e
Ġa yud
ers t
p ect
Ġre t
Ġad v
Ġm ain
Ġs m
Ġ ÑĢ
idad es
pr es
Ġte xt
Ñ Ī
ĠWh en
Ġth rough
Ġl angu
Ġhum an
a f
Ġc Ã³
" .
er n
Ġme j
Ġn ame
Ġ {
Ġe ach
Ġl oc
Ġc am
Ð¸ Ñı
ab les
ad or
i ence
Ġ |
Ġcre ate
Ġf am
Ġs in
Ġsu b
in ess
Ð ³
Ð¾Ð ´
Ġs he
i x
ate g
m in
Ġpu b
c u
ä ¸
Ġc ur
ro und
Ġth ree
i em
un g
ent es
Ġimp ro
Ġpued en
Ġalg un
Ġf l
âĢ Ļ
v ir
Ġst ud
Ġde p
Ġm ov
it ed
Ã± o
ad as
Ġprov ide
i or
i Ã³
ient e
l ar
Ġ +
Ġf ind
Ġprov id
Ġty pe
i el
at a
Ġh a
Ġin st
Ġnum ber
Ġcon tr
Ñ Ĩ
ac ter
Ġsu p
Ġ Ñĩ
ambi Ã©n
he d
Ġin f
Ãº n
crip t
ÃŃ as
o u
yth on
Ġp ower
Ġch ar
Ġm y
u es
ment e
iz ed
dit ional
Ġh ay
w ay
Ġan al
Ġcons ider
Ġact iv
Ġt ake
ation al
is s
Ġpro p
Ð¸ ÑĤ
Ġej empl
ĠÐ ±
c ion
Ġc he
Ġg et
Ġ 0
Ġh ist
Ġinclud e
ic an
en ces
Ġm us
Ġo ur
Ġf in
erst and
Ġ 9
Ġn eces
iv id
Ġl ong
ow n
en a
ic as
ol d
us tr
ol v
ĠI d
Ġw ater
Ġ }
tr uct
Ġc aus
Ġre m
u ro
as es
Ġa f
Ġ er
Ġdif er
Ġalg or
Ġle ad
atur al
c om
Ġf il
an c
Ġmej or
Ġ $
Ġl ife
Ġpro f
in es
m ar
Ġs ur
Ġc ent
g et
ã Ģ
v en
vir on
er v
Ġl ib
h ip
le ct
Ġor gan
Ġcl ass
iend o
ĠÐ½ Ð°
an a
Ñģ Ñı
Ð ±
Ġword s
Ġde m
Ð¾Ð ¹
Ġf act
Ġe t
Ġas s
ÐµÐ ¼
Ġco un
Ġw ell
Ġund erstand
j et
o ugh
Ġm o
il y
ie w
ï¼ Į
e x
Ġlangu age
Ġ Ã
Ġan im
r os
Ġwh ere
) ;
c tr
Ġde t
Ġpl ay
Ġl l
l ed
Ġe ver
p ar
Ġt erm
Ð¸Ð ¼
Ġs um
ĠDes cribe
Ġm ark
Ð¾Ð ¶
ith m
Ġdes ign
Ġeff ect
Ð° Ð»
Ġpro t
Ġreduc e
ĠF r
ical ly
Ġd ire
ar io
et y
Ġper o
Ġty p
Ġo pt
' t
Ġso ft
i as
Ġst art
Ð¾ ÑĢ
im ent
Ġar r
Ġex ist
Ġob ject
ant s
ĠWh ich
) ,
p a
ĠÐ ·
ur es
aj e
Ġ20 1
Ġpr in
ue go
Ġcon f
Ġinform ation
Ġe con
ĠW rite
ific ial
Ġen g
ist em
qu ÃŃ
at o
ĠA mer
Ġp as
iv o
Ġpr im
Ġqu est
t il
z e
Ġst ory
p re
u el
Ġen viron
Ġper form
Ġ ident
Ġm en
Ã± os
ĠÂ ¿
pl es
Ġam b
ig o
le v
ĠS e
Ġc ode
Ð¸ Ðµ
Ġp ass
Ġc as
Ġb el
Ġimport ante
ap p
Ġs uc
Ġto p
ch o
Ġdec is
on es
r am
Ġesp ec
d en
Ġd ist
Ġv e
Ġbe ing
Ġalgor ithm
Ġ Ñĥ
it al
Ġad d
Ġper m
Ġhac er
Ġd er
`` `
Ġbus iness
Ġc ost
ĠF or
ue v
Ð° ÑĤÑĮ
u a
Ġejempl o
Ġcomm un
Ġret urn
ĠAd ditional
Ġ1 8
Ġen d
Ġcoun tr
w ard
Ġl ight
Ġn atural
Ġrec om
Ġtechn ology
Ð°Ð ¼
ĠAdditional ly
Ġ x
Ġs istem
Ġre f
Ġapp ro
im iento
od s
e b
n ect
en c
ic os
Ġpos s
ar r
Ġm ater
ent a
atur es
Ġenviron ment
t ica
Ñ ī
et s
at her
) :
Ġt iem
iz ar
v ers
Ġc ult
Ã© r
Ðµ Ñģ
ĠP or
Ġb as
Ġac cess
iv es
Ġsoft ware
Ġc ada
ĠT r
Ġpar tic
ÃŃ s
ç ļ
Ġth en
ach ine
Ġs it
çļ Ħ
/ /
f ore
Ġb ene
ol s
Ġcor re
Ġt ener
h ing
Ġap r
Ã ¼
Ġl et
Ġ ing
ĠO n
ÐµÐ ´
ĠN ew
Ġimp act
00 0
Ġc all
Ġp ur
iz ation
ver t
Ġtem per
Ġ ```
os s
o h
Ġb est
Ġof f
ĠP r
Ã ¤
it ive
Ġm em
b ers
Ð¾ Ð½
u z
n ess
Ġcon oc
Ġth ese
Ġso ur
p s
Ġst at
Ġsm all
Ġtiem po
l l
om et
Ġde ter
Ġa ir
ci p
Ġat t
Ġb ack
c iones
Ġan t
ĠY ou
Ġob jet
ak es
Ġpot ential
en se
ar s
Ġso cial
al e
Ġg u
Ð» Ð¸
ĠP ython
Ġpub lic
Ġl im
Ġcont rol
l and
Ġen s
g est
Ġs ig
Ġb oth
ĠEx pl
Ġo per
und o
Ġdep end
v ent
an k
Ġp a
Ð¾Ð ±
or n
ar ch
Ġcont in
Ġl es
Ġtas ks
u ir
Â ¿
in s
Ġperson al
m e
Ġt ip
f ect
Ġt ambiÃ©n
en ci
Ġm as
Ġo wn
g en
Ġe as
ast a
Ġfr iend
Ġh and
iv ing
ÑģÑĤ Ð²
Ġind ivid
e ver
it o
Ð° ÑĤ
Ġlarg e
Ġv ida
Ġecon om
u ed
Ġb re
ar te
Ġl eng
in o
ĠÑ į
Ġ Ã©
am ent
a ut
Ð» Ñı
Ġpre d
ar rol
Ġ Z
ell ig
Ġpo int
2 0
j o
n er
Ġdat os
---- ----
Ġtr av
Ġmark et
Ġa round
Ġd ie
at s
Ġor der
Ġbet ter
Ġme an
Ġsp e
Ġaut om
j a
g er
o unt
Ġest a
it a
Ġform a
Ġmater ial
ĠN ame
Ġeff ic
Ġg re
od y
i qu
Ġcon c
Ã ¨
ual ly
Ġest Ã¡
Ġweb s
Ġm ade
Ġr est
Ġinv est
Ġcom b
Ġest e
ver n
Ġbu ild
Q u
at h
T he
Ð°Ð ²
Ġfo und
Ġof ten
Ġpop ular
ĠS i
Ġr is
Ġap plic
Ġpued es
w ork
ĠC l
pr ess
Ġm aking
Ġb ased
Ġm ot
Ġm uy
Ġinter n
it ar
il idad
Ġus er
b r
Ġj ust
Ġexper ience
Ġgener al
t on
ut e
Ġpod r
am iento
on t
ĠAmer ican
Ġy a
b al
Ġgo od
e ep
Ġo c
ĠS he
r aph
Ġre v
Ġcon cept
ient es
Ġk ey
ous e
Ġd os
ur al
ab aj
ot e
Ġlo ok
Ġd oc
Ġele ctr
c k
Ġf ive
Ġdes arrol
t ro
Ġm ag
Ġm i
ĠI f
Ð°Ð ·
or a
Ġst ep
Ġpre g
v ed
Ġpr int
Ġmet h
Ġm ill
im ate
Ġon ly
Ġcon nect
Ġindivid ual
an n
Ġsu per
Ġf ut
Ġs ci
Ġab le
Ġdis e
Ġart ificial
Ġin te
ant es
ĠThe y
Ġt us
ĠExpl ain
i ar
iv a
ĠT o
Ġfe el
as on
Ġr ight
Ġit em
Ġso ci
ear ch
a h
Ġn i
Ġres our
Ġm ult
Ġtr abaj
Ġsuc cess
us s
Ġc ual
Ġpro m
Ġserv ice
Ġfo od
Ð¾ ÑĤ
Ġde v
ab ility
c a
Ġe duc
tr act
Ġev ent
ĠCom p
Ġg reat
ĠP l
Ġotr os
Ð ¶
or ia
Ġcon st
ĠL os
Ġgro up
Ġn et
Ġm il
ÐµÐ º
L a
Ġfun ction
ic ation
ro p
ÑĢ Ñĥ
b o
Ġbe fore
Ġop en
1 9
Ã ł
Ġd own
ir d
Ġon line
oc us
Ġtien e
ellig ence
Ġin put
Ġev en
Ġl og
il ar
Ġlear n
t ed
Ð¸Ð ²
ãĢ Ĥ
o od
Ġd a
am a
Ġre pres
Ð¾ Ñģ
b ot
Ġch ange
Ġimpro ve
Ġsup port
Ð¸ Ð½
tr ar
ain ing
Ġc ity
ĠG iven
Ġar tic
ant o
Ġex p
c il
ill s
Ġch ang
Ġdire ct
Ġtr ad
Ġes c
Ġele ment
al k
Ġsh ow
Ð¾Ð» ÑĮ
oh n
e k
Ġa plic
Ġinf l
w s
id os
ist a
Ġpreg unt
Ġl ÃŃ
Ġc le
Ġem b
Ġcorre ct
Ġen c
Ġsign ific
av ing
iel d
Ġse a
Ġm ism
Ġh asta
Ġg ame
Ġre ad
ug ar
Ġever y
m os
Ġinv olv
ĠA m
Ġcol or
Ġprin cip
Ġb ro
Ġor ig
Ġman era
Ġm undo
Ġ1 2
Ġgo vern
Ġs ame
Ã¡ tic
ert ain
aus e
ur s
Ġun ivers
ÐµÐ ¹
. "
Ġqu ick
d igo
t t
Ġt est
Ġd og
u f
am os
Ġg lo
Ġmin ut
Ġbene f
Ñ ĸ
Ġs w
ab a
Ġcre ar
Ġcomp any
Ġrequ ire
Ð¾Ð³ Ð¾
Ġes s
ĠB e
Ġcomm on
Ġg en
em os
Ġare a
Ġar ch
= "
Ġw rit
le g
Ġpres ent
l ing
ĠB ey
i que
Ġm achine
Ġv ir
Ġw ant
iv er
Ġc os
Ġv ers
ar se
Ġf ocus
ĠN o
Ġexper ien
Ġdef in
ĠW e
Ġsol ar
Ġp ap
ĠÐ °
ĠS o
ĠÐ½ Ðµ
Ġsit u
E l
b e
r ent
ĠA p
Ġr un
Ġd ig
at ely
av a
ĠId ent
Ġwebs ite
an o
Ġpr act
Ġyear s
Ġcomput er
Ġ Ã¡
ol a
Ġperson as
co unt
ÑĤÐ¾ ÑĢ
ac y
ĠUn ited
Ġs ing
. .
et a
ĠWh ere
Ġresp ons
Ġcomple x
Ġresour ces
Ġacc ur
ĠBey on
ĠF ind
Ġte am
r ess
y m
ar th
Ð¸Ð ·
Ġs un
Ì ¦
Ġpl ace
port un
Ġchar acter
Ġsistem a
Ġd on
Ì¦ Ì¦
z ar
ã ģ
Ġv eg
( "
iv os
Ġcont ent
Ġind ustr
Ġn uev
ol ution
ĠJ ohn
l as
at ch
ic iÃ³n
Ð¸Ð º
p or
Ġre d
ĠS in
ot her
ÃŃ cul
( )
Ġis s
l os
l ish
Ã ¶
Ġt ec
ĠcÃ³ digo
a w
c er
Ġv ar
Ãº s
Ġdifer entes
Ġt en
Ġd est
at or
al ity
og n
Ġsystem s
Ġknow n
ĠO ne
inal ly
Ġ1 1
ist s
Ġsu g
d o
re ad
Ġto m
Ġh y
ĠB r
Ġle vel
Ġsol o
Ġbe h
ed ad
Ġh ard
el s
Ġam ount
ĠÐ ³
e e
Ð¸ Ñģ
Ġinform aciÃ³n
Ġne g
Ġph ys
Ġinte gr
s c
Ġv ol
Ġest r
m ing
re am
Ġn ight
Ġpro ject
l i
Ġst and
p ro
ad ores
Ġcom un
ĠÐ¾ Ð±
Ġdur ing
] [
t le
Ġm ar
Ġfe w
Ġfe atures
Ġanal y
Ġaf ter
i um
or ies
Ġv ide
âĢ Ŀ
Ġposs ible
ul l
Ġ1 5
n a
ä »
Ġl ess
I n
im es
ĠS ch
Ġex t
Ġcons um
e le
op in
Ġdes c
Ġspec ific
c ed
Ð¸ Ñĩ
ĠY ork
ĠcÃ³ mo
s elf
ur ing
Ġinter est
Ð¸ ÑĤÑĮ
Ġwith out
Ġc our
am es
Ġk eep
Ġmed ia
Ġnum bers
Ġcal cul
Ġe in
Ġun til
tr a
ĠG r
ient s
Ġz u
Ġdevelop ment
Ġmean ing
Ġcu enta
Ġinclud ing
Ġincre ase
ĠC ol
ĠG o
Ġle g
Ġbec ome
Ġartic le
Ġcre ating
it ud
ul ation
ÐµÐ½ Ð¸Ñı
Ġen con
ĠI m
Ġpred ict
ä º
he ad
ent r
ap e
ill a
Ġstr uct
ĠCh opin
Ð ¹
id es
Ð¾Ð ·
ÑĨ Ð¸
Ġh ome
ĠÐ »
Ð¾ ÑģÑĤ
ain s
om bre
Ġincl uy
Ġcustom ers
Ġ US
Ġst ore
Ġs omet
Ġb i
em Ã¡s
w ord
Ã¡ l
Ġr ange
d a
å ı
Ġstr ateg
ĠâĢ ľ
Ġident ify
Ġrepres ent
Ġbo ok
l ess
Ġm om
Ġm aj
ĠS p
Ġgr an
Ġmay or
ĠIdent ify
v al
ĠC al
Ð¸ Ñħ
Ġbel ie
Ġtec n
Ġs elf
Ġl ine
Ġf ac
l ab
Ġp i
ep end
Ġgr and
ĠâĢ ¢
Ġfriend s
all eng
le ase
Ġt er
Ġcomp r
Ġalgun os
Ġh im
ur y
Ġtr y
Ġj ob
Ġinter act
ect or
Ġopt im
t ion
ĠI s
ĠIn d
ĠÐ² Ñĭ
ĠEn g
Ġsim ple
Ġc are
re g
Ġsu re
olog ÃŃa
Ð½Ð¾ ÑģÑĤ
Ġint elligence
pl oy
ari os
Ġcur rent
Ġla b
Ġex c
enci as
p ing
t y
id as
Ġr en
arg o
Ġrel ations
Ġgro w
Ġfin an
Ġun o
fic ult
Ġide a
Ġdeter min
' m
Ġfam ily
Ġto t
Ġcom e
ch ie
Ġk ind
Ġglo bal
Ġm ent
Ġpat tern
Ð° Ñģ
Ã± a
Ġens ure
Ġc ir
le t
em ber
it ch
ĠE uro
Ġbec ause
ec ess
Ġdis c
u j
Ġm ust
le ment
Ġex press
te xt
Ġsim ilar
Ġc i
Ġleng u
l ight
Ġb ase
Ġpro ces
Ġman ag
Ġway s
Ġs cho
av or
Ġdif ficult
Ġh app
Ġcu ando
Ġquick ly
or ld
Ġg e
Ġus ers
Ġar g
ĠÐ¾ ÑĤ
Ġitem s
Ġve z
æ Ī
Ġst ay
Ġsh ort
Ġfun ciÃ³n
Ġval ue
Ġto get
ÃŃ n
Ġperform ance
Ġtoget her
z en
Ñ Ħ
ient ras
out h
Ð¸Ð ¹
way s
Ġtod o
v es
Å Ĥ
Ġb ien
x im
ĠC an
Ð° ÑĢ
Ġsig u
Ġcall ed
w er
Ġl uz
Ġg ust
ĠR ew
ĠHow ever
Ġd ue
Ġv o
ĠE m
Ġcomp ar
Ġres earch
Ġele ments
Ġs ab
re es
Ġl ugar
ur ther
Ġch alleng
Ġmus ic
l t
u x
Ġ X
Ġ Ãº
ec e
ÃŃ an
Ġperson a
n o
j oy
ad es
ĠS h
ÃŃ st
Ġunderstand ing
c ar
Ġr ad
ist ant
Ġreg ular
Ġtod os
Ġprot ect
Ġ Ñı
ĠR ec
Ñİ ÑĤ
Ġbenef its
Ġa Ã±os
ur as
ient os
Ġsk ills
Ġayud ar
Ġse ason
Ñĥ Ñĩ
Ġemb argo
' ,
Ġf our
Ġveg et
Ġth ink
Ġme as
Ġserv ices
ĠÑĩ ÑĤÐ¾
Ġd iv
ond e
ĠÂ ¡
as ing
Ġg ive
Ġeffic ient
E n
Ġf re
Ġag ain
Ġa ff
Ġpro per
Ġneed s
Ġeng ine
ä ½
Ġl and
Ġn Ãº
Ġwh y
Ġest os
Ġus ar
i et
m at
Ġquest ions
Ġs ong
Ġp ost
Ġf ue
Ġab s
ul a
Ġrec ord
b ol
er os
an cia
le x
op e
Ġallow s
Ġof fer
y le
Ġc ant
Ġth ough
Ġch o
ĠSt ates
Ġ //
Ġw ind
Ġre ach
iqu es
Ġinfl u
Ġb ody
Ġse e
Ġf und
Ġe d
Ã³ m
tr ib
Ġhe ad
ĠÐ¸ Ð·
Ġrelations hip
o ve
Ġp al
Ġqu Ã©
Ġbe g
on a
Ġre fer
Ġequ ip
i ate
m a
Ġa chie
Ġp el
Ġb at
ow s
Ġlist a
Ġtien es
Ġgovern ment
Ġmaj or
it es
ur ity
__ __
Ġf ield
Ð½ Ð°
Ġro bot
Ġtyp es
ĠnÃº mer
Ġc ell
Ġc ertain
ĠR es
Ġcountr ies
h or
u le
ent o
ĠW ith
ĠC ons
uc iÃ³n
Ġse arch
ĠEst o
Ġide as
Ġre ci
Ġpro te
Ġt eng
on o
Ġalg o
ut ions
Ġact ual
r ic
Ġprogram aciÃ³n
ĠâĢ ĵ
in ation
Ġresp uest
ĠAd emÃ¡s
p on
Ġl it
ain ed
it ect
Ġarr ay
ĠÐ µ
ÃŃ fic
Ġne ver
Ġstr ong
Ġcountr y
Ġoc c
ĠO p
Ġa ud
it os
ro w
ĠJ ava
m ed
an e
ver age
qu ier
Ġis t
Ġest ud
Ġrec ogn
ram ient
m end
Ø §
ac es
ĠTh ere
co ver
ĠÐ¼ Ð¾Ð¶
Ġer r
i ere
om b
Ġprovid es
Ġsour ces
Ġfut ure
Ġ â
en o
av es
Ġob t
Ġmod ern
Ġher ramient
* *
ç Ķ
Ġf inal
Ġde ep
ĠO ut
Ġcl imate
Ġout put
cl us
Ġstat ement
Ġm ant
Ġm Ã©
ĠP ar
Ġav ail
ĠRew rite
a Ã±
f ace
Ġc up
Ġs a
Ġn ecess
iz ing
Ġpl at
Ġapr ender
1 0
Ġm ientras
ĠH ere
ne a
Ġsomet hing
ir es
Ġas ÃŃ
Ã© c
Ġdes de
Ġag ua
Ð½Ñĭ Ñħ
ĠCl ass
Ġstep s
a ur
it or
Ġencon trar
r ase
im a
Ð¾ ÑĤÐ¾ÑĢ
b y
c le
Ġs at
ĠL ist
dit ion
ĠId ol
p ose
er y
Ġd en
Ġf ile
Ġe fect
Ġh or
Ġ1 00
Ð¾Ð º
Ġst ate
Ġcon vers
Ġse ver
ĠO r
Ġvis ual
Ġdoc ument
Ġmill ion
Ġd om
un to
ĠA t
ĠP ort
Ġj ug
Ġn on
Ġpo em
Ġmuch os
Ġapplic ations
Ġnet work
Ġch ild
Ġtyp ically
il idades
Ġbe aut
Ġus u
Ġpre fer
our n
Ġphys ical
ly m
Ġcomp on
Ġlo ve
Ġexpl or
< /
v ing
Ġqu ier
Ġpro b
Ġal ways
ĠEst e
Ġvari ety
Ġsec ond
Ġstud ents
Ġapr end
Ġdig ital
Ġw arm
Ã³ g
Ġactiv ities
Ġprop or
ĠF inally
Ð°Ð ´
led ge
c y
f or
Ã ²
Ġt anto
Ġo tro
Ġf u
iv ed
Ġas k
Ġim ag
Ð½Ñĭ Ðµ
j ust
Ġh an
Ġn os
ĠL e
ĠIn tern
y n
oc o
Ġcomp et
Ġac count
Ġtien en
Ġstruct ure
M L
Ġcon se
Ġespec ial
Ġtemper ature
Ġtip o
Ġ Q
ud d
Ġrel ated
Ġpos itive
Ġvir t
Ġa quÃŃ
Ġs ens
re t
Ġf as
Ð°Ð ¶
Ġhelp s
ĠAn d
Ġf el
ĠT w
ĠS um
ĠM ake
Ġvar ious
Ġfinan cial
r ar
Ã §
Ġ /
Ġ ir
le c
ĠP ara
ĠN ot
Ġdes cribe
Ġab ility
ĠPro v
Ġmov ie
c ent
it le
Ġ1 6
Ġth ose
Ġcap ac
Ġing red
Ġtot al
is tr
Ġpar te
Ġloc al
c are
Ġ id
Ġp an
Ġo ld
ĠC o
Ġimp lement
Ġsk y
Ġp ast
Ġan s
od o
Ġpr iv
Ġpoint s
in ar
Ġest Ã¡n
Ġgo als
Ġinvolv es
Ġvide o
Ġm ind
Ġf a
Ġ1 7
Ġcre ative
Ġmejor ar
ÐµÑģ Ðº
5 0
Ġd ÃŃa
uc k
Ġop portun
Ġver d
+ +
Ġin n
Ġpol it
any e
ĠK anye
Ġprovid ing
Ġcontr ib
Ġe g
ĠUn ivers
Ġint ro
Ġsci ent
an ces
al y
ĠW orld
ĠUn a
Ġanim als
Ġquest ion
Ġper i
Ġpol l
Ġe ar
Ġres um
Ġlengu aje
k e
p ed
un a
us h
Ġwor ks
Ġsec urity
Ġbeh av
: //
i us
Ġan other
ĠH T
Ġmism o
ĠEuro pe
Ġm it
ĠB y
Ġtas k
w w
Ġb al
if ica
Ġpl ant
Ġpued o
Ġdur ante
k o
Ġ um
Ġf uer
Ð° ÐµÑĤ
ĠL as
ip le
Ġbre ak
Ġintern et
Ġd ivers
Ġd onde
Ġen joy
og raph
ill ed
Ġproduc ts
Ġpod er
o ks
Ġund er
Ġeconom ic
Ġp ort
Ġm or
el ig
Ð½ Ð¾Ð¹
Ġme et
Ġutiliz a
Ġpower ful
o id
â ł
Ġ `
Ġc ard
is hed
ĠB l
Ġj uego
ĠÑģ Ð²
Ġsy n
Ġutiliz ar
Ġcaus e
ĠlÃŃ nea
Ġminut es
Ġ ÑģÑĤ
Ġs af
Ġtrans port
c he
æ ľ
Ġd in
Ġg l
Ġ3 0
ĠTh ese
ire d
ord ing
Ġpe que
Ġdet ect
Ġpattern s
Ä Ļ
ĠC ity
Ġexper iment
Ġalgorithm s
Ġci ud
il ities
ĠS ol
end o
Ġso und
ight s
ier ra
Ġem ploy
Ġ* *
" :
Ġre p
ÐµÐ» ÑĮ
Ġloc ated
Ġsour ce
l ich
Ġc at
Ġl ow
Ġen cu
ag ing
Ġadv ant
Ġhist oria
Ġtrav Ã©s
Ù Ħ
Ġf ree
Ġn uest
ĠÐ Ĵ
ĠR ep
Ġresp ect
Ġcommun ication
Ġsing le
Ġa verage
Ġf ÃŃs
im ientos
ec ut
ĠM an
Ġsent ences
unt os
Ġcar acter
ĠÐº Ð°Ðº
Ġmon ey
s erv
w ar
Ġpro y
ib les
Ġgener ate
Ġ \
Ġm is
so ci
Ġmeth ods
Ġsug gest
a ff
w or
Ġ Ã©s
Ã³ r
pl ace
Ġstud y
ued es
P od
b ased
d ay
â ĸ
Ġc oc
Ġm ass
Ġb ar
Ġth ings
Ġhealth y
h a
Ġm Ãºs
Ã¡ g
ien e
Ġexpl ain
Ġallow ing
Ġalgun as
Ġp ay
Ġ1 4
iz aciÃ³n
Ġsp ace
Ġcons tr
g os
Ġtr ack
Ġph rase
Ġ< /
Ġknow ledge
v is
en n
ĠA c
pl ay
ĠM e
Ġpre c
ĠPort ug
Ġd u
Ġd ark
Ġf avor
Ġdes crib
Ġem ail
Ġcar b
Ġdiffer ence
Ġ il
er ing
ĠA quÃŃ
Ð¸ ÑĢ
ĠP re
ib r
eng th
Ġind epend
ĠAd d
ew able
Ġchang es
Ġsignific ant
Ġvirt ual
y stem
Ġc amb
Ġd ate
Ġv a
Ġus es
Ġj ourn
ĠÑĤ Ð°Ðº
ward s
Ġeduc ation
Ġcle ar
Ġess ential
Ġproy ect
Ġ era
ĠM ar
Ġor den
act ion
ys is
Ġdecis ions
Ġintro duc
o und
it as
it ional
Ġn orm
Ġest o
Ġme ans
Ġhist ory
Ġavail able
v a
Ġm al
Ġn ut
Ġg ar
Ġv el
Ð¾Ð ¿
Ġcomp os
ĠAr t
Ġll am
m an
p ir
å ¤
if ied
ist ic
pr iate
ĠDes ign
Ġmarket ing
d r
Ġs ort
al u
ent ly
Ġh ace
Ġte or
ĠAl g
Ġplat form
Ġp ain
Ġh aving
Ġdes cript
Ġcl o
Ġenerg ÃŃa
Ġdeb e
Ġfam il
Ġc rit
is is
Ġb Ã¡s
Ġre ce
Ġel se
um n
Ð°Ð ¹
ÐµÐ½ Ð¸Ðµ
Ġrecom mend
Ġa way
ĠE arth
Ġprof ess
tt ps
Ġsever al
Ġm es
Ġst ill
Ġcual quier
Ġestr uct
o f
Ġt imes
Ġm ess
it ing
un e
Ġre lev
ĠS te
og le
Ġact ion
Ġmed ical
Ġpop ulation
ĠClass ify
Ġt aking
us e
th ers
Ġresp ond
mar ize
enc y
c el
Ġus o
Ġest ab
ik e
Ġincre asing
Ġspec ial
Ġinvest ig
Ġsuccess ful
b ack
Ġo l
iv el
Ñģ Ðº
Ñĭ Ðµ
ĠÐº Ð¾ÑĤÐ¾ÑĢ
Ġmat em
Ġpa ÃŃs
å ħ
Ġpartic ular
ĠBeyon ce
et ic
Ġv iew
em pre
Ġal m
Ġst or
per o
Ġrel ig
Ġsy m
Ġpos ible
Ġresult s
ĠAs s
Ġscho ol
ĠProv ide
n ame
s on
Ġc op
is f
ers on
ĠP h
Ñĥ ÑĤ
Ġrespuest a
h t
j os
ac ks
ien cia
Ð¾Ð² Ð°Ð½
ĠÐ´ Ð»Ñı
lar o
Ġet c
Ġbusiness es
d ic
r al
Ġs l
Ġp ack
Ġn ow
im in
end ing
ĠG ive
ich t
Ġat mos
Ġproduc e
Ġ19 9
c ome
Ġm ol
Ġf Ã¡
Ġ1 3
ag n
end s
Ġval ues
Ġver y
Ġdet ail
Ñ ĳ
Ġs ay
Ġs ize
an z
ec u
atur a
Ġprogram ming
Ġhigh er
ĠÑĢ Ð°Ð·
Ġciud ad
â £
Ġt ax
Ġp es
Ġh ouse
Ġun ique
ĠW est
Ġdes e
Ġad ap
Ġris k
Ġnecess ary
Ġt or
on om
ĠIn st
ra w
Ġappro ach
Ġbeg in
Ġp oco
Ġw in
ci o
ĠM y
Ġproblem s
] ,
Ġm ight
Ġm ax
Ġco ok
Ġlevel s
Ġpropor cion
" )
is ion
Ġw alk
ĠG P
Ġlas t
Ġorig inal
Ġagain st
Ġs ense
Ġmuch as
anc ed
Ġperm it
Ġclo ud
Å ¼
Ã¡ ct
ens ive
Ġsome one
Ġplan et
C laro
t or
Ġs ust
Ġl leg
Ġal tern
ib ility
Ġincre ased
Ġmain t
æ ĺ
ot s
Ġare as
Ġam pl
Ð°Ð» ÑĮ
ĠOn ce
ĠnÃºmer o
ĠHT ML
e ad
Ġf low
em ents
act ers
Ġappro priate
Ġ Qu
Ġt able
in ed
Ġl iving
ĠC ar
oc a
ĠÐ± Ñĭ
Ġdecis ion
Ġlook ing
o le
Ġc ase
our s
Ġop in
Ġterm s
N o
a i
x to
Ġw ar
Ġto ols
ac iÃ³
Ġhe art
Ġest ar
Ġval or
Ġhab ilidades
Ġpartic ip
Ġpal ab
Ġvel oc
Ġd ar
Ġwith in
Ġwork ing
Ġspec ies
Ġmeth od
Ġa qu
er ve
iv al
Ġqu ant
Ġte ach
Ġcent ury
Ġanim al
Ġgre en
Ġo il
om a
Ġ2 5
Ġ= =
Ġexam ples
Ġmodel s
Ġchar acters
on se
Ġo thers
ĠP er
Ñģ Ð¿
ĠR ed
ĠU s
Ġtechn iques
Ġeffect s
Ġcontin u
Ġiss ues
å Ī
Ġs qu
ĠT ambiÃ©n
ĠS ug
Ġdis cover
Ġpre par
ĠÑģ Ð»
Ġperm ite
ĠOp en
c ol
Ġqu ality
Ġv i
ific ar
Ġotr as
Ġfact ors
Ġwrit ing
Ġdesc ub
ĠB udd
ĠWh ite
Ġem ot
ph ere
Ġpur ch
Ġtrav el
ĠS ie
Ġrec urs
Ġfil m
Ġinn ov
ĠfÃ¡ cil
Â °
Ġs ide
Ġre port
Ġex erc
Ġyour self
uest o
Ġcas o
Ġperi od
m it
ĠW ar
Ġex pect
Ġdes p
aj es
Ġdec id
Ġsi empre
Ġdesarrol lo
Ġmult iple
è ¯
Ġh ere
ĠU se
Ġprocess ing
Ġant es
Ġindustr y
Ġcant idad
e ff
Ġla y
Ðµ ÑģÑĤÐ²
ĠEst a
Ġarg ument
' re
) )
p y
Ġf ull
ĠB rit
op s
ÐµÐ ³
Ġev ents
Ġmon th
Ġpregunt a
Ġa gr
om s
am ple
ĠA ut
Ġdec ir
Ġfun ct
Ġeffect ive
ĠD o
ativ o
b s
t es
er as
Ġw rite
Ġv ent
Ġsh ar
Ġem pres
arg et
Ġtrad itional
Ġelement os
Ġjourn ey
P I
Ġb ot
Ġn ivel
est s
Ġse en
Ġex plic
ang er
Ġpre v
Ġint elig
Ġfun cion
Ð¼ Ð¸
ä¸ Ģ
Ġaff ect
ĠSug gest
u an
Ä ħ
Ġp ep
ĠI I
Ġhe at
ĠN e
Ġro le
Ġup on
Ġnew s
Ġsec ure
Ġsal ud
ĠmÃ© t
Ġbehav ior
å Ĭ
Ġt are
Ġm iss
Ġf ar
ic ate
Ġas soci
ch es
Ġne xt
Ġspe ed
Ġpap er
ĠGo ogle
j ar
z y
ĠA g
ag raph
ĠD is
Ġim age
pt ion
Ġanal ysis
Ġche ck
Ġment al
wor ks
ĠmÃºs ica
Ġc ort
Ġcon j
ĠA f
Ð°Ð ¿
fic ial
Ġreal izar
ãĢ ģ
Ġt itle
Ġl lev
Ġde g
Ġto o
ad r
ĠG e
pos it
E s
k ey
Ġc y
ĠÐ ¶
ag on
ĠD ec
Ġcomp an
ien cy
Ġ19 6
Ġins truct
Ġdog s
ĠEng lish
Ġans wer
âł Ģ
Ð¸ Ð¸
Ġno vel
Ġpol ÃŃ
Ġhum ans
Ġbl ue
Ġobject s
Ì¦Ì¦ Ì¦Ì¦
c ular
h r
Ġt urn
un que
Ð¸ Ð»
ĠIn s
Ġpol ic
Ġprovid ed
Ġtop ic
Ġaplic aciones
ed er
am m
ĠP lym
Ġfe ed
Ġtechn olog
Ġayud arte
Ġa cr
on y
Ġe y
om an
am ed
Ġv ia
Ġr ate
if t
ĠD ata
Ñĥ Ñİ
ĠCh ina
Ġresum en
r up
Ġn ature
ĠM ed
Ġper fect
Ġev alu
ĠÐ¿ÑĢ Ð¾
Ġhealth care
Ġrecom end
Ġs em
Ġb ig
ĠS tr
Ð° ÑģÑĤ
ith er
Ġest as
Ġvari able
ĠÑ Ħ
ĠDe velop
Ġpodr ÃŃa
Ġenc our
Ġtecn ologÃŃa
ĠSum marize
Ġ :
Ġt end
Ġc ab
id d
id ence
ĠT e
ĠS u
Ġim ages
ific ation
Ġimport ance
Ġotr a
ĠTr ans
-------- --------
ir m
Ð° Ñı
ard s
aj as
ub lic
Ġtrans form
Ġmot iv
Ġneg ative
Ġatmos phere
" >
f ort
Ġt arget
Ġdis trib
Ġmuch o
Ġpat h
Ġtod ay
Ġmat ter
Ġf urther
Ġcre ated
( '
v iew
ä ¹
Ġm el
is ter
ĠÐ Ŀ
est a
âĢ į
Ġcap t
Ġconsider ed
Ġadd ress
Ġobjet os
Ġof re
Ð½ Ð¾Ð³Ð¾
Ġas pect
ap s
Ġ5 0
Ġinst all
Ġdeter m
en ed
ol ve
ĠI r
Ġsp read
Ġgr am
Ġstr ing
arm e
Ġsistem as
Ð¸Ñĩ ÐµÑģÐº
r ist
å ®
Ġ Ãºn
Ġd ir
ac ional
ĠW ind
ÃŃ m
Ġle y
Ġcl os
ĠÐ¿ Ð¾
Ġcons ist
Ġresp onse
Ġbr ing
Ġproblem as
Ġayud a
Ġlead ing
Ġeas y
ĠÐ¼Ð¾Ð¶ ÐµÑĤ
ĠAlg un
1 2
ĠT echn
ĠP ol
Ġtr ue
Ð°Ð ±
Ġdat ab
Ġlib r
ĠÑį ÑĤÐ¾
Ġsci ence
Ġb lo
ĠÐ Ł
iv ely
Ã¡ m
ell o
tic o
Ġsol ution
Ġneed ed
Ġtrabaj o
Ġteor ÃŃa
ĠPlym outh
z o
å Ĳ
Ġ &
Ġ Ø
Ġt ur
un ch
Ġg al
um b
Ġinc or
Ġrev iew
Ġsitu ation
c an
m l
er r
Ġs ido
Ġd as
ur idad
Ġre le
Ġve h
ÑĢÑĥ Ð³
Ġgrow th
h o
Ġt akes
Ã©c n
1 8
h ere
Ġa z
Ðµ Ñĩ
Ġse par
ĠB ell
Ġapp ear
Qu Ã©
u it
Ġa uf
Ġr ul
ĠF ren
t he
t ers
Ġt ro
Ġl ives
Ġf ig
un ter
ur r
il os
and s
Ñĥ Ð´
Ġsh are
ell ing
ast ic
Ġfe ature
Ġproduct ion
Ġeffic iency
Ġrest aur
çĶ ¨
Ġencu ent
ĠL o
ĠIn t
ub le
Ġdiffer ences
Ġeas ier
Ġmag n
lab or
Ù Ĭ
Ġe ine
Ġcont act
ÐµÐ½ ÑĤ
Ġcap ital
Ġapplic ation
c Ã©
Ġl ive
Ġl ado
Ġf al
ic io
et er
Ġus ually
ill o
Ġres ist
ang le
Ġfr es
Ġins tr
Ġopt ions
ĠAp ple
Ġren ewable
Ġc ateg
Ġf all
Ġse qu
Ġpre vent
Ġcont ain
Ġtod as
Ġsub ject
Ġpur pose
Ġpolit ical
Ġpoll ution
âĸ Ī
Ġt reat
Ġl ower
ĠB ut
ĠN or
ens iÃ³n
Ġent ren
Ġequ ation
Ġday s
Ġenvironment al
Ã £
in as
Ã³ s
Ġes crib
Ġyo ung
ain t
ue gos
Ġph ot
Ð¿ ÑĢ
Ġexpl ore
iss ions
Ġindividual s
Ġmatem Ã¡tic
æĺ ¯
u Ã©s
ar ÃŃa
ac ion
Ġv ac
ly ing
iz aje
Ġwe ather
Ġlik ely
Ġprof es
Ġmo ve
Ġlim it
S cript
j as
Ġt rees
Ġd ass
Ġm akes
ĠS al
Ġfor ce
Ġes cr
ĠD ame
Ġtr i
ÐµÐ ·
Ġcam pa
Ġmen os
Ġgre ater
Ġarch itect
ĠFren ch
c ciÃ³n
Ġt Ã©cn
Ġe ither
Ġg as
Ġcon text
ce an
ib ilidad
ĠG erm
Ġk n
Ġsin ce
Ġfund ament
t os
Ġ .
Ġo x
Ġe dit
ig ual
op h
Ġsol utions
Ġprocess es
Ġsign ifica
Ġespec ÃŃfic
Ġcle an
Ġc eb
Ġp ens
it able
Ġn ombre
il t
Ġcon vert
Ġr a
Ġdeterm ine
Ġb uy
ĠA PI
ĠE dit
Ġpr ess
Ġj o
ÐµÐ ²
Ġob serv
Ġcol ors
Ġloc ation
Ġdesign ed
Ġingred ients
d ro
d om
e za
è ¿
at ic
ic ial
Ġh ope
ul o
Ġv ector
ĠS ome
ĠD r
iz a
Ġcol lect
ĠAn aly
Ġelectr ic
Ð¾Ð»ÑĮ Ð·
ĠBeyon cÃ©
b l
f ica
re en
le ep
le ction
il o
ul ate
ĠP e
Ġar m
Ġconf lic
Ã¼ r
Ġlab or
Ġsat isf
Ġaprend izaje
f o
he mat
at u
is on
ion e
ak en
Ġpl ants
ĠO ver
Ġgr av
Ġmed io
ĠEs pero
Ġmodel o
Ġdisc uss
Ġnorm al
t ar
Ġp age
Ġl at
Ġw ide
om ing
ers e
Ġne ar
Ġadv ent
Ġfeel ing
Ġstrateg ies
Ġcapac idad
ĠAf ter
Ġc it
Ġm Ã©s
ĠC u
ĠH ar
Ġinter pre
Ġstr ength
Ġimportant es
Ġset ting
.. .
ÃŃst icas
Ġto mar
ĠT ierra
Ġdis play
Ġcomple te
Ġleng th
ĠfÃŃs ica
Ġcarb on
Ġrecurs os
t om
Ġ u
Ġd one
Ġp and
is ing
ic ios
ĠA b
ĠC ome
if ul
Ã¡ p
Ġpar agraph
Ġex tra
Ġad dition
ism o
Ġcas a
ä» ¥
ĠÃº til
ĠNot re
c hed
s ide
ic ult
Ġv on
ĠL ear
ie f
Ġle ft
Ġad ecu
ugh t
Ġgo ing
Ð½Ñĭ Ð¹
Ġelectr Ã³n
ÃŃcul as
Ġdescript ion
Ġassoci ated
Ġa ument
Ġs cript
Ġp ut
Ġcon clus
ĠB ar
Ġtr aining
Ġpr ice
Ġser ver
ĠÐ¿ Ð¾Ð´
Ġem p
dit ions
Ġaut hor
Ġobt ener
Ġprofess ional
l er
n um
ent ion
ĠS et
Ġcom en
Ġprogr ess
Ġcar r
Ġmus ical
Ġbuild ing
æĪ ĳ
Ġsigu iente
Ġmeas ure
Ġcon ditions
ĠL et
Ġtr es
Ġsh op
Ġsol ve
Ġbl ack
Ġlarg est
Ġimpro ved
a ft
Ġde ber
os a
Ġe fic
ĠM on
end ed
ier en
Ġbec ame
Ġsw itch
ĠCal cul
Ġfeed back
C u
s et
em ic
Ġdis posit
ep t
Ġstr ess
Ġacc ording
Ġbas ic
Ġpract ice
ĠCons truct
Â ¡
Ä ĩ
Ġa le
ar on
is es
ic ious
Ġh ours
ĠÐ ŀ
Ġro om
ob ile
Ġactiv ity
lt im
Ġrelationship s
Ġsa id
Ã£ o
n ot
s tr
Ġa Ã±o
ar ia
Ġf lex
Ã¡ tica
ist as
Ġap ro
Ġent r
Ġpos ition
Ġinclud es
ĠComp are
Ġext re
ĠJava Script
Ġchild ren
Ġt ell
Ġs ave
Ġb aj
ol ver
Ġv iv
Ð¸ ÑģÑĤ
ĠG u
ĠâĢ Ķ
Ġesp aÃ±
Ġutiliz ando
ativ a
Ġprincip al
Ġcampa ign
Ġb an
Ġg ain
Ġem issions
ĠÐ¸ Ð»Ð¸
ĠDes p
Ġval id
Ġhab it
Ġresult ado
Ġcost s
Ġmaterial s
A I
j s
Ġs n
it ions
om es
Ġcon duc
iz es
Ġper cent
Ġj oy
Ġwe ight
Ġpe ace
ian o
Ġver b
Ġstrateg y
Ġmom ento
Ġtor ch
Ġc af
im al
Ġcal idad
Ġsoci ety
ÑĨÐ¸ Ð¸
ĠWhite head
H ola
c os
n en
Ġc ambi
Ġe ta
Ðµ ÑģÑĤ
Ġes e
ĠL in
ug g
Ġcl ar
ĠÐ´ ÑĢÑĥÐ³
Ġproces o
y al
Ġ ill
Ġt ables
am p
ci ent
ĠM achine
ort s
Ġim m
Ġpr ior
ĠN ational
ĠÐ¸ Ð½
ĠV er
Ġav oid
Ġiss ue
Ð½Ð¾ÑģÑĤ Ð¸
Ġeg g
â£ ¿
idd le
3 0
U n
Ġ Ñħ
ĠE r
um ents
ĠM in
Ġcre dit
Ġman age
Ġinter es
ok e
Ġmanag ement
Ġvo ice
Ġveget ables
Ġopportun ities
t re
Ġp ow
ĠP ero
Ġrel i
ĠEst os
Ġseg uir
Ġcaus ed
Ġorgan iz
Ġpas os
Ġarch ivo
Ġthough t
Ġrele ased
g es
or ial
Ġun s
et es
po on
Ġcos as
Ġbelie ve
Ġcompan ies
Ġt al
es is
Ġs il
ic ed
Ġfor est
ud o
Ġest able
Ġme z
Ġform at
Ġequip o
s el
Ġ ur
ĠT ake
ĠA pr
Ðµ Ðµ
Ġel s
Ġst yle
Ġbr ight
Ġvari ables
Ġdise Ã±o
Ġmess age
s h
Â »
å Ń
Ġ igual
Ġm ys
as h
Ġw he
Ġqu al
ĠP res
Ġse lect
Ġdis pon
ier to
Ġam or
Ġbl ock
ĠFr ance
Ġrelev ant
âłĢ âłĢ
W hat
å Ĵ
an as
om en
uc e
Ġr az
Ġpers pect
Ġche m
Ġaf ect
ĠÑį ÑĤ
ĠPortug al
ĠArt ificial
Ġacr oss
b all
in ary
it ation
ic aciÃ³n
Ġh i
ĠÐ ¡
ce p
ci as
Ġwh ite
lo ad
Ġgo al
Ġfr ame
Ġele ct
ub e
Ġrequ ires
Ġobjet o
Ġwrit ten
Ġherramient as
Ġf ail
Ġf uel
qu es
Ġpr Ã¡ct
Ġpor que
Ġcol labor
Ġ19 7
Ġesp ac
Ġnuev o
Ġceb ol
ĠCalcul ate
åĴ Į
b a
b um
Ġm ix
Ġun os
ĠD et
Ġgr up
Ð¸Ð ´
Ġent ender
Ġover all
Ġcontr ast
Ġintegr al
Ġadvant ages
Ġsust ain
d iv
k en
â ķ
Ġs ÃŃ
or ed
Ġh uev
ce ite
and om
oc ol
Ġseg uridad
Ġaccur acy
ĠOut put
Ġtransport ation
Ġtechnolog ies
C om
a ir
Ġs low
ĠÐ¸ ÑģÐ¿
Ðº Ð¸
i ante
ĥ ½
Ġl if
al a
Ġf ace
Ġn amed
Ġv ot
Ġse lec
ud e
ĠJ ap
ier on
Ġwe ek
ĠÐ¿ Ð¾Ð»
ĠAl l
ĠÑ Ĩ
Ġbu ena
Ġproblem a
ĠCon vert
Ġfl u
Ġeconom y
Ġpi ece
Ġprec is
en ing
iv ity
Ġpat r
Ġbo oks
orn o
Ġincluy endo
ĠIntern et
Ġb and
Ġh ttps
Ġst op
all a
Ġte as
Ġcu er
ĠCom m
Ġreduc ing
Ġcomput ing
Ġass ist
Ġdev ice
Ġrespons ible
Ġanaly ze
Ġsqu are
Ġdescub r
1 6
I N
Ġ Ù
Ġt i
Ġe th
Ġh id
im um
ig ur
ĠS c
Ġind ic
Ġlarg o
Ġinst it
Ġlet ter
Ġmant ener
Ġcompon ents
Ġquier es
Ġveh ic
E x
o ver
Ġn av
Ġr Ã¡p
Ġel los
ch en
Ġlos s
Ġmet aph
Ġseg Ãºn
Ġdem and
Ġminut os
ĠÃ¡ re
Ġid i
Ġpep per
O N
å ľ
Ġs ich
Ġd ream
he l
Ġh ot
um e
Ġes per
Ġte xto
ĠÂ «
Ġdi et
uer ra
ĠRe v
Ġrev olution
Ġexperien cia
Ġsab er
Ġla w
if f
Ġcu Ã¡n
Ðº Ð°
Ġoff ers
Ġhy dro
Ġbeaut y
Ġestruct ura
Ġintelig encia
ĠLear ning
p ly
Ġc ient
Ġs or
Ġb ud
Ġb ird
ed a
el o
ĠA fr
ÃŃ cil
Ð°Ð ³
ĠJ ul
Ġmed ic
Ġvari os
Ġdesarrol l
ĠInd ia
P or
m ore
Ġ ][
Ġen ough
Ð¾ Ñĩ
ig os
Ġ19 8
Ġmat hemat
Ġcomb in
Ġni Ã±os
Ġdev ices
Ġexperien ces
A r
t ime
Ġ ÑĤÐ¾
on ic
on ym
Ġs ch
Ġm a
ĠS im
ist ics
oc r
Ġle ast
Ġj ud
Ġad just
Ġac id
Ġdif ÃŃcil
ĠEs pa
Ġcam po
Ġbel ow
ĠSch war
Ġveloc idad
ĠBudd h
S S
l in
t as
v as
Å Ľ
Ġ >
Ġw id
Ġb ill
ĠA ct
Ġv an
ĠS ec
Ġal ong
Ġas eg
Ñı ÑĤ
Ġem erg
Ġcons ult
ĠCh rist
Ġ20 2
Ġide al
Ġfam ous
Ġstud ent
Ġstart ed
Ġpass word
Ġcommun ity
Ġeas ily
Ã¶ n
åı ¯
Ġreci pe
ĠBrit ish
Ġd ivid
Ġp ad
Ġf lo
Ġh o
ac ias
il es
Ġse em
ag o
Ġform s
eg ger
Ġph one
Ġvis it
ÐµÐº ÑĤ
Ġaccur ate
zen egger
Ġchalleng es
ĠSchwar zenegger
' ll
l ished
Ġt re
Ġe cu
Ġh on
Ġis land
ter ior
ĠR o
ure d
Ġac ord
Ġcont en
Ġbut ter
Ġtemper atura
Ġgrand e
Ġcell s
Ġusu arios
d ata
u its
æ Ĺ
et h
ĠR uss
Ġwas te
Ġcl im
Ġcons truct
ĠÃ ł
Ġcult ure
Ġconc entr
Ġconnect ed
Ð½Ð¾ÑģÑĤ ÑĮ
Ġrecogn ition
Ġscient ific
ä ¾
Ġc m
Ġp Ã¡g
Ġb all
el es
Ð° ÑİÑĤ
Ġap pl
Ġgr ad
Ðº Ñĥ
Ġup d
Ġdeb ido
Ġfact ores
Ġspe ech
Ġmom ent
1 5
Q L
Ġd ud
Ġm ir
ac ed
ow l
od os
Ġtr ends
ĠIn c
ĠÐ¿ ÐµÑĢ
Ġco ver
Ġset s
Ġconoc ido
Ġrun ning
Ġachie ve
Ġherramient a
T P
v o
Ġm ic
Ġm uest
ol Ã³g
Ġun e
ĠA ustr
uc le
ab ilidad
ÃŃ o
Ġst ates
ĠF rom
Ġest Ã©
ĠR eg
Ġele g
Ð°Ð¼ Ð¸
Ġpalab ras
n y
Ġp et
Ġde ath
le y
il it
ut h
ĠB o
Ġest im
Ġcl ase
Ġgr aph
Ġcol umn
ail y
Ġear ly
Ġfunct ions
u k
è ®
at ors
el a
ĠT om
Ġr ain
Ġ2 4
Ġab ove
Ġad ditional
Ġcol ores
ĠK ing
ÐµÑĤ ÑģÑı
Ġ200 8
Ġalgun a
Ġhist or
Ġmult i
Ġdefin ition
Ġmaint ain
Ġescrib ir
1 4
e in
å º
Ġs leep
or g
Ġl ed
Ġf arm
Ġto ol
ĠH el
ip s
Ġdis h
ber t
ional es
olog ical
Ġsal t
Ġlangu ages
Ġorgan ization
Ġhard ware
Ġbeaut iful
Ġusu ario
Ġtare as
y r
es o
Ġc um
Ġd raw
ent ro
Ġqu i
ĠP art
Ġst ars
Ġest ado
Ġcont est
tic as
ĠÑģ Ð¾
Ġreg ul
Ġbl og
ato es
ÃŃcul a
Ġfas ter
ĠAss istant
P ara
Ġc ele
Ġp our
Ġh ost
ĠI A
ay s
Ġbe gan
ĠF urther
ap a
ra ft
Ġsent iment
Ġro ck
Ġcult ural
Ġevery one
Ġrequire d
Ġrad i
E T
b it
g a
è ĥ½
Ġc hat
Ġg est
Ġg ames
ĠC O
uc ciÃ³n
Ġbe ach
ĠB ost
Ġne ur
Ġcre ativ
Ġac cept
Ġfr ut
Ġcar s
Ġplan eta
Ġhigh est
ĠÃ ¨
ĠmÃ©t odo
â£¿ â£¿
2 00
å °
æ ĸ
er ÃŃa
ur t
ot ec
ĠM ay
ĠN et
uch ar
Ñĭ Ð²
Ñĭ Ñħ
pr int
ĠCh ar
Ġinst ead
ĠÃ© l
Ġgroup s
Ġcaracter ÃŃsticas
g round
t ies
Ã ª
Ġm obile
Ġf illed
Ġg ir
ig en
ib li
Ġk ann
Ġdat as
Ð¾Ð² Ð°ÑĤÑĮ
Ġpres ident
Ġcomput ers
Ġejempl os
Ã©r ica
Ġpregunt as
Ġrobot s
Ġtri angle
f l
Ġt Ã©r
Ġt alk
Ġm ach
as ter
Ġb ur
Ġg ases
Ġal bum
Ġst ar
Ġst ock
Ġnum er
Ġval ores
Ġvari edad
ĠÐ¼ Ð¾Ð³
Ġautom at
Ġright s
N A
Ġ %
in ese
ig e
ĠS m
Ġal iment
ĠP ark
ĠP uedes
Ġex act
ĠH um
Ġtr at
we et
Ġbus car
Ġbu ilt
Ġprim ary
Ġmem bers
ĠSte p
ht ml
Ġdatab ase
ĠÐ¸ÑģÐ¿ Ð¾Ð»ÑĮÐ·
A quÃŃ
h ouse
l en
u ary
Ġt aken
Ġp s
ĠW eb
Ġr ap
Ã© ctr
Ġtr a
ĠO b
Ġser ies
Ġac ces
ÐµÐ ±
Ġem pe
ons tr
Ġi Pod
ĠÐ¿ÑĢ ÐµÐ´
Ġlarg er
Ð³ ÑĢ
Ġass istant
Ġdist ance
Ġni Ã±o
Ã¡tic o
Ġinterest ing
Ġgrand es
e f
e es
o on
Ġ rom
Ġa ceite
Ġt ree
Ġc iv
Ġc ast
Ġw on
Ġin it
ci os
ĠP ot
ag ed
ĠG reat
ill as
Ġinc ome
ong o
tic s
ĠðŁ ĺ
Ġneces idades
Ġsmall er
Ġstand ard
Ġter r
Ġfel t
ĠAnaly ze
Ġcebol la
2 5
E st
j e
Ġa unque
or ge
Ġf uego
ĠÐ ĺ
Ġen v
ÑĤ Ðµ
Ġne ural
Ġser ÃŃa
art s
ĠÐº Ð¾Ð½
Ġgro und
Ġprim er
ĠWind ows
Ġchem ical
' )
c al
l Ã©s
z as
Ġc and
Ġl ot
Ġh ar
ad amente
Ã³ mo
Ġinter face
Ġequ al
min istr
Ġinst al
Ġleg al
æľ ī
Ġadap t
k a
u as
v est
Ġs enc
Ġd ÃŃas
an os
Ġl ack
Ġl ink
as ons
Ġlo yal
Ġdo uble
Ġdec re
Ġtem a
Ġrequ est
Ġmon itor
Ġproject s
Ġerr or
Ġmys ter
1 7
h old
Ġc od
re l
Ġl ic
un o
ter m
Ġsh ape
ell a
ĠÐ¿ Ð¾Ð¼
Ġam ong
Ġrel ativ
Ġbr an
Ġdevelop ing
fr ut
Ġsur face
Ġprin ci
Ġmem ory
Ġnet works
Ġvers ion
Ġproyect os
Ġteas poon
. -
4 0
B C
e qu
f fer
i ans
m ary
Ġ ?
Ġt ab
ent ar
Ġh old
ig er
Ġcom fort
ab or
ĠP erson
Ġdifer encia
Ġcent er
Ġunivers o
Ġempres a
Ġrul es
Ġbud get
ĠEspa Ã±a
ĠBost on
h ora
at os
Ġh arm
ĠÐ ļ
ol f
Ġv uel
ĠH ay
gr ess
az a
res p
ĠCon t
Ġlit er
Ġlibr ary
m y
Ġt ail
Ġc erc
Ġd ial
Ġd aily
at as
re ct
Ġl ines
ic ient
Ġcon v
ĠC ateg
ĠS ystem
Ġsu itable
und a
Ã± ar
ific aciÃ³n
az on
ĠLin ux
ĠFurther more
] .
m en
Ã Ł
Ġd am
Ġf ast
Ġw ild
Ġb owl
le ge
Ġv oc
ĠW ord
ĠS an
Ġel Ã©ctr
pl ica
ect ion
Ġem oc
ĠCh inese
Ġout side
Ġreg ion
ung en
Ġsoci edad
Ġmil k
ĠÐ» Ñİ
Ġocc ur
ĠTechn ology
, "
I t
b lic
Ġt an
Ġo cean
Ġan g
ÑĤ ÐµÑĢ
Ġth ird
ĠR em
Ñĥ ÑĢ
Ġreg ard
ĠðŁ ĳ
Ġhac ia
Ġ200 7
itud e
z ing
å ¸
Ġt im
Ġm Ã¡
Ġm ens
al f
Ġf it
Ġk il
Ġrel acion
Ġcomm and
ĠSt ud
Ġcal or
Ġcent ral
ĠAmer ica
Ġunivers e
Ġcour se
Ġcalcul ate
ĠGP T
ĠespaÃ± ol
9 9
s p
è §
Ġs ides
Ġd ies
Ġp unto
Ġo portun
it er
Ġpr os
Ġso on
ĠWh y
Ġman ip
ech an
arg e
Ġag e
Ð´ Ð°
ĠÂ ·
Ġpart ir
Ġorgan ism
ĠPr in
ĠComp ose
bo ard
Ġexpress ion
Ġpurch ase
Ġarchitect ure
Ġfundament al
Ġconten ido
ĠtÃ©r min
Ġw ent
ĠÐ Ķ
Ð¾ Ðµ
Ġr andom
Ġes a
st it
ĠD uring
ĠM ark
ĠF in
ĠIn g
Ġk Ã¶n
Ġdel iver
Ñħ Ð¾Ð´
Ġprogram s
Ġthem e
Ġacc om
Ġget ting
Ġlong er
Ġdepend e
Ġtrabaj ar
k now
o ft
in put
Ġc art
Ġthe ory
ed or
ĠE ver
Ġst ream
ff ee
Ġ4 0
Ġco ol
Ġev idence
Ġact ive
ert a
Ġpat ient
ativ es
ph as
Ġneces ario
Ġmo unt
Ġcult ura
æ ķ
Ġa j
Ġc a
Ġe arth
ĠÐ Ĳ
iv as
Ñģ Ð»Ð¸
ĠM ic
ĠM us
Ġfollow s
Ġev itar
Ġmed ida
ĠEst as
Ġpol lo
Ġhab ÃŃa
Ġdeb en
Ġthrough out
ograph y
Ġapro xim
h en
ci Ã³
Ġes o
ĠM od
ib et
Ġcan not
ra f
Ġsol uc
ord er
ĠÐ¾ Ñģ
Ġhigh ly
Ð¸ÑĤ ÐµÐ»ÑĮ
Ġtop ics
Ġtemper atures
Ġoper ating
Ġtip os
pro duc
ĠEurope an
Ġdecid ed
Ġcit iz
Ġpercent age
h i
Ġc ut
Ġd ol
Ġto wards
ĠÐ Ń
et e
ĠC he
ot a
ĠE d
Ġpar k
ĠF irst
Ġad ject
Ġdis cr
Ġform as
Ġprogram a
Ð½Ð¾ Ðµ
ĠDe f
Ġmism a
Ġprincip ales
Ġabs or
____ ____
Ġrece ive
âĸĪ âĸĪ
' .
S i
r ÃŃas
ç »
re et
id ge
Ġse Ã±
ĠB ro
Ġcl ose
Ġem phas
Ġco unt
Ġform al
Ġuse ful
Ġop ciÃ³n
Ġcor r
Ġhay a
Ġobjet ivo
Ġvir us
Ġincluy en
Ġencuent ra
A n
i j
l ist
ð Ŀ
al ing
it z
un k
Ġn a
ut ed
Ġen ab
Ġcom es
ag ram
Ġtr ust
Ġres olver
all s
Ġob st
ĠÐº Ð¾Ð¼
pos ed
Ġback ground
Ġmil es
ĠÃº ltim
ww w
Ġexerc ise
Ġinstruct ions
ĠpÃ¡g ina
c la
u ation
Ġd io
Ġl ate
Ġo der
om ic
Ġn ada
ĠC or
ir th
em pt
Ð» Ñİ
ech a
Ġpod emos
Ġplay ing
Ġplay ers
Ġexist ing
Ġecon Ã³m
Ġris ks
Ġtry ing
ĠAlgun os
ĠCu ando
Ġcele br
i antes
è ¦
Ġ ich
Ġl uego
Ġm erc
Ġf ish
Ġb ibli
Ġto wn
im ens
el low
Ġre ason
Ġk ing
fer a
Ġro ut
Ġop ciones
Ġbu en
Ġsum mer
Ġspe ak
Ġdise ases
Ð¶ Ðµ
Ġgust o
Ġaud ience
ĠUnivers ity
ĠÑģÐ² Ð¾
Ġdeg rees
Ġgal ax
Ġinterpre t
Ġwhe ther
" ?
b ody
r Ã¡
in ks
Ġd Ã©
Ġd entro
Ġh ora
ĠT ibet
ĠC r
ĠG et
Ġim plic
ĠTh ree
Ð¸Ð ±
Ġdo ing
Ġdist ancia
Ġconst ant
Ġtest ing
Ġpi eces
Ġnav ig
I I
O M
l s
at ory
Ġm ist
Ġf ear
ac ciÃ³n
Ġre pl
Ã³ l
Ð° ÑĪ
ĠP o
ĠB u
ĠH er
ĠÐ² Ñģ
Ġhab er
Ġins pir
ativ os
Ġcr isis
olv ing
Ġfil os
Ġprim era
Ġdesarrol lar
Ġprom ot
Ġstor age
ĠNor th
Ġc er
al ia
Ġb reat
Ġcon ven
Ðµ ÑĪ
th rop
Ġtr ained
Ġfo ot
Ġvari as
ï¼ ļ
uer da
ä¸ į
Ġfil es
Ġref lect
Ġing lÃ©s
Ġcontin ue
Ġconcept os
Ġaccur ately
Ġconsum ption
Ġcour age
Ð¾Ð· Ð´
Ġconse qu
Ġcamb io
Ġgar lic
Ġvi ol
Ġfres h
ĠmatemÃ¡tic as
? "
p ers
Ġs ales
il i
Ġpar ts
Ġpl ata
Ġdis frut
Ġeng aging
Ġimag en
Ġsaf e
ĠGerm any
Ġshop ping
è¦ ģ
L os
Ġl ived
un s
Ġqu ed
Ð° Ñħ
Ð½ Ð¸Ðº
Ġ- >
Ġhe av
ell ent
Ġpued a
ian a
Ġdi agn
Ġbec oming
ict ion
Ð½Ñĭ Ð¼
Ġamount s
Ġfre qu
Ġalm ac
Ġhydro gen
C an
a u
v il
å ¯
Ġm echan
ĠÐ ¢
Ġr ise
ĠP lease
Ġex tern
ĠL at
Ġpr ices
ier a
Ġsent ido
Ġhel d
Ġcol d
Ġmed ium
Ġmed iante
con t
Ġaut h
Ġevent ually
Ø§ ÙĦ
ĠUs ing
Ġrestaur ant
in ter
on al
Ġp lease
an za
el er
um in
Ġon ce
Ġins ide
Ġcontr a
Ð¸ÑĤ Ðµ
Ġmen or
Ġoper ations
Ġteng o
ĠpaÃŃs es
Ġpand emic
H ow
O S
S ure
h ol
Ġf i
Ġf ire
Ġw atch
Ġex tract
Ġ- -
ĠF l
Ġcomp ort
Ġcre aciÃ³n
Ġrel aciÃ³n
ĠY our
Ð°Ð½ ÑĤ
ĠCom put
Ġmat ch
Ġhuman o
Ġmo on
Ġplay er
Ġtip s
Ġfut uro
Ġproyect o
ĠJap an
8 0
T h
y a
Ġs ind
Ġp ic
Ġf ab
ĠS E
Ð° Ñİ
ag ement
ÑĢ Ð¾Ñģ
end e
Ġor ient
cr aft
ĠJ o
gr am
Ġcont ains
Ġutiliz an
Ð¾Ð¼ Ñĥ
Ġsc ore
Ġrem ain
Ġrem ember
Ð¾Ð± Ñĭ
tro duc
Ġsigu ientes
" );
] )
g u
å ¥
or ize
ar ing
Ġf ul
ic ar
os o
Ġn ational
ol uciÃ³n
Ġv eces
ÃŃ t
ÑĢ Ð°Ð½
th ing
Ġest Ã¡s
Ġdes ired
ve y
ari an
ĠAn g
Ġpart y
Ġdeb es
Ġass ign
Ġsum mary
Ġstart ing
Ġatt ention
Ġexp and
Ġpap el
ä½ ł
Ġcho ice
Ġwarm ing
Ġprev ious
ĠDesp ite
Ġcient ÃŃfic
C Ã³mo
H ay
P uedes
Ġt ut
Ġc iencia
Ġs av
Ġp ython
ar c
Ġf er
el ine
Ġre lease
Ġcon ect
Ġv ill
Ġfor ward
em on
Ġse x
Ã© tica
Ġsh o
our ce
ĠÑģ Ð¿
Ðº Ð¾
Ġpos it
Ġinv olve
Ġi P
Ġej ecut
Ġexist en
ĠPr act
ĠAm azon
Ġess ay
Ġvide os
Ġdetermin ed
Ġmeas ures
Ġbal ance
Ġsaf ety
Ġpain ting
Ġampl ia
ĠRev olution
M e
p ire
ï ¸
Ġd anger
Ġp ie
it en
Ġde dic
Ġn icht
Ġla ws
ĠS ub
em ente
ĠE in
ci pl
Ð½ Ð¾Ð²
um p
Ġst e
ver b
Ġimp res
ĠWh ile
Ã± as
Ġrec ent
Ġdec lar
Ġ6 0
Ġserv id
Ġmej ores
Ġant ib
Ġcompr ensiÃ³n
Ġscho ols
Ġopportun ity
Ġrep et
ĠRep ublic
Ġcomen zar
Ġcambi ar
ĠDet erm
Ġaseg ur
Ġempe zar
s s
v i
Ġa us
Ġo s
is ed
Ġb aking
ro z
ĠS w
Ġth ing
Ġor d
ĠF orm
ĠIn ter
Ġj uegos
Ġcol on
Ġinv ent
Ġag reg
Ġany thing
Ġins ights
Ġequ il
Ġdevelop ed
Ġder iv
Ġprom pt
Ġaplic aciÃ³n
Ð¸Ð· Ð½
Ġjo in
Ġplata form
ï¸ ı
. ,
i ot
r ing
å ĩ
es iÃ³n
Ġd yn
Ġf at
est ic
ĠW ars
ot os
Ñģ Ð»
Ġex pres
Ã© d
ap er
Ġhe cho
Ġac erc
Ãº blic
ari as
Ġincl us
Ġsi x
Ġcor resp
Ġcr oss
Ġmov imiento
Ġprop ied
Ġmas a
Ġintern ational
Ġlit tle
Ġincor por
Ġbill ion
Ġs art
Ġw oman
Ġv ect
ĠS ov
ĠS outh
Ġest Ã©n
ient a
ÐµÐ ¿
Ġcar ne
mo ve
Ġhuman os
Ġamb iente
Ġmag ical
Ġbro ad
Ġengine ering
ĠTw o
Ġfa ir
Ġpack age
Ġadvent ure
Ġegg s
Ġreli able
i ado
Ġw er
Ġof ficial
Ġh az
ig u
Ġr ule
ĠG od
Ġalg Ãºn
Ġcomple t
Ġresult ing
Ġlib ros
Ġdem onstr
Ġlim ited
Ġinvolv ed
ĠÃ¡ r
Ġpredict ions
Ġfu ente
Ġmetaph or
Ġbibli otec
C T
I D
S t
b ar
b an
u ff
y pe
Ġ ult
en ciÃ³n
Ġp en
Ġto ok
qu ir
qu itect
ol es
ut s
ĠC at
Ġr iver
Ġ2 1
Ġj u
Ġad vert
Ġph ilos
Ð°Ð½ Ð¸Ñı
ĠÑĤ ÑĢ
Ġ200 9
iss ion
Ġdet all
Ġnatural eza
Ġimpact o
ament o
Ġmeaning ful
Ġsequ ence
ĠPres ident
x ide
è Ģ
Ġc el
Ġs aw
is iÃ³n
Ġf ight
Ġan throp
id s
Ġg ather
ĠS aint
Ġpro ced
ort e
Ġpr ime
Ġat tract
fer ence
Ġgr Ã¡
ĠÐ¸ Ð¼
ĠIt s
Ġcu b
Ġind ex
Ġ19 3
ph one
ador a
Ġpersonal ized
Ġconc ern
Ġcir c
Ġdesp uÃ©s
Ġpolic y
Ġcaf Ã©
Ġcuer po
Ġcand id
Ġcitiz ens
a im
v ant
y ch
é Ĺ
Ġc ot
Ġp ob
re ci
im os
Ġg ot
Ġcon dic
Ġqu ien
ag en
Ġas tr
ap es
Ġest ilo
ill i
Ġdes af
Ġpl astic
Ġad op
Ñĭ Ð¹
Ġcl oth
Ġinter f
tic os
Ġfe et
Ġfun ciones
Ð¾Ð» Ð½
cl ude
ÑĪ Ðµ
Ġsur v
ĠÃ ¼
Ã¨ n
Ġmil it
Ġchang ed
Ġhy p
Ġfuer za
Ġcateg ories
Ġdisposit ivos
é Ģ
ac ing
Ġre ct
ab ilities
Ġst ir
Ġor g
oc ks
Ġest oy
Ġest aba
Ġsol uciÃ³n
Ġprogram as
Ð· Ñĭ
ĠÐ· Ð°
Ġgu id
Ġprom ote
Ġtecn olog
Ġverd ad
Ġverd uras
âĢį ðŁ
Ġalmac en
H ere
å ¼
Ġc in
Ġs int
ar lo
Ġm Ã³
Ġf Ã¼r
Ġw ond
Ġe ating
et r
ers hip
Ġal ta
ist e
Ñĥ Ð¼
ik o
Ġco ffee
Ġstr ugg
Ġact ions
als a
Ġdr ink
Ġcaus es
Ġdire cciÃ³n
Ġ201 0
Ġder ech
Ġdepend ing
Ġconcept s
bo ok
Ġchang ing
Ġcho ose
Ġplatform s
Ġfamil iar
ĠÐºÐ¾ÑĤÐ¾ÑĢ ÑĭÐµ
ĠHar ry
ocol ate
ĠÐ¼Ð¾Ð³ ÑĥÑĤ
Ġsart Ã©n
i u
ã Ĥ
Ġc ities
ar Ã¡
as k
os p
Ġen se
Ġqu ery
Ġqu ÃŃm
ĠS ci
ant ic
ag er
ĠL ond
ich a
Ġcl ave
Ġam igos
ens es
lic k
Ġeff ort
Ġpass age
Ġatt empt
Ġdepend iendo
Ġbre ad
uf act
Ġjug adores
Ġadvant age
vis ed
Ġinvestig aciÃ³n
Ġquant um
Ġagr icult
Ġconflic t
Ġespac io
Ġsustain able
ĠIng red
( );
Ù ħ
Ù Ĩ
he it
Ġp on
Ġm ut
Ġo d
al ada
os trar
Ġto ur
ĠÐ ľ
am s
ĠS erv
Ġst ories
ĠH is
Ġest re
Ġso y
Ġpre m
Ġro ad
Ġcu anto
Ġbo x
Ġadv ice
Ġrem ind
Ġcommun icate
Ġmaterial es
Ġfocus ed
Ġproper ties
Ġconvers ation
Ġmeet ing
ÐµÐ³ Ð¾
Ì¦Ì¦Ì¦Ì¦ Ì¦Ì¦Ì¦Ì¦
Ġey es
Ġacord es
p ic
æ ³
Ġa Ã±
Ġt ort
Ġp un
ro om
Ġh ip
Ã¡ r
Ġhe ight
Ġsent ir
Ġform ula
Ġrel ax
ÐµÐ½ Ð¸
az o
Ġhelp ing
ros oft
Ð¸Ð¼ ÐµÑĢ
Ġdecis iones
oss il
Ġorig in
Ġteng a
Ġdetail s
ĠInt elligence
Ġorganiz ations
åı¯ ä»¥
ĠDeterm ine
6 0
å Ĩ
Ġt ama
Ġb ank
ac er
Ġn p
im ize
Ġg iving
et ers
ĠS eg
Ġcom Ãºn
Ġal t
ch a
Ġlo op
ĠJ an
Ġtw e
Ġproduc to
Ġactiv idades
Ġconoc imiento
Ġpract ices
Ġcharacter istics
Ġnuev as
Ġconstr ucciÃ³n
eff icient
Ġbaj o
sel ves
Ġcorresp ond
L E
p ass
in ct
Ġo ven
ic ks
Ġw ood
om as
us ed
Ġg old
ig r
ĠM at
Ġte lev
Ġsp ir
ÐµÐ ¶
aj a
ĠCh ange
Ġ8 0
Ġsc en
ex ample
Ġpas o
Ġsoci ales
Ġlog rar
Ġtom ate
Ð¸Ñģ Ð»
Ã¡l isis
Ġnuest ro
Ġincreasing ly
Ġconclus ion
ĠÃ¡r bol
A N
T e
k y
n g
t d
á »
en cial
Ġr h
Ġpre cio
Ġgo ods
Ð² Ð»Ñı
ĠSt art
Ġreal idad
Ġ201 1
Ġgeneral ly
Ġlog o
els ius
Ġcomun es
entr al
Ġregular ly
ĠRes earch
Ø§ Ø
ĠUnivers al
Ġemploy ees
Ġey e
! "
Ġa just
in y
Ġw r
ing u
Ġh om
Ġg an
ĠS up
ĠI h
ĠB us
ĠB oth
og ue
Ġser ve
Ġfr uits
erg e
Ġreduc ir
Ġsc hed
ĠHe alth
Ġalgor it
Ġlib re
Ġ201 3
Ġsug ar
Ġinflu enc
Ġopin ion
Ġexpect ed
know n
ĠLond on
r Ã³
r ange
Ð ļ
Ġp ant
is a
Ġw ie
im o
Ġg uerra
Ġcon dition
Ġqu er
ĠT hat
Ġal red
Ġse an
ist en
ĠB re
Ġ2 2
og raf
ĠO ther
Ġap ar
ĠTh en
Ġent ire
Ġgener ar
Ġhab lar
Ġsc ale
Ġneces itas
Ñī ÐµÑģÑĤÐ²
Ġcompar ed
Ġgrup o
1 00
= =
L as
c ional
d own
ang es
Ġj a
Ġ= >
ra z
art ment
iel o
Ġchalleng e
Ġbat ter
Ġdom in
Ġespecial ly
Ġconstr uir
Ġmach ines
ĠkÃ¶n nen
Ġdiscr imin
Ġequil ibr
h op
k i
Ġ ub
Ġt all
Ġs weet
ion ar
Ġen f
ĠT ell
ĠC hat
ab an
Ġit er
ĠIn troduc
Ġlo ad
ĠÐ½ Ð°Ð¿
Ġwho le
Ġallow ed
Ġmen cion
Ġbenef it
Ġbelie f
Ġcare er
ĠbÃ¡s icos
Ġlleg ar
Ġentr ada
Ġmez cla
Ġhuev os
Ġmyster ious
Ġservid or
' ve
P ress
r ies
å Ľ
Ġc ier
it am
Ġf ossil
Ġb irth
ed s
ro te
ac hed
Ġn ing
ĠC SS
ĠS ant
Ġcom ida
Ġon es
Ñĥ Ð¶
Ġar te
Ġar quitect
Ġsp orts
ĠJ uan
po ons
Ġpat atas
Ġsim pl
Ġreal ity
Ġpart ÃŃculas
Ġav anz
Ġ200 6
Ġadv anced
Ġconf igur
Ġcult ures
ĠSo cial
Ġanaly zing
Ġhapp y
ĠCo un
Ġmor ning
Ġdese as
ĠAut om
ĠGe orge
âĢį â
Ġaz ul
Ġbird s
1 1
4 5
L P
l ife
x i
Ġs mo
it at
Ġb arr
Ġn oc
ut es
ec ciÃ³n
Ġus age
ÑĢ Ð°
ĠD on
iz ado
ĠB at
ĠR ob
Ð» ÑĮ
Ġte le
Ġcre ature
ĠTh rough
Ġsol d
ä¸ ª
Ġfact or
Ġhand le
Ġautom ate
lab el
Ġexc ellent
Ġthink ing
Ġpel ÃŃcula
Ġfield s
omb res
Ġjug ador
Ġprefer ences
Ġvideo j
Ġpeque Ã±o
ĠAc c
Ġnut r
Ġlif est
Ġs ost
re h
Ġw a
Ġcom ien
ĠD in
ĠF inal
âĢ ĵ
Ġrec on
arg a
iend a
ĠÐ¾ Ð¿
ĠðŁ §
Ã¡n d
Ġdr ag
Ġfind ing
Ġsup uesto
Ġsur round
Ġexist e
Ġprim ero
Ġconnect ion
Ġsuper fic
Ġlab el
Ġaud io
ĠÐ±Ñĭ ÑĤÑĮ
Ġfig ure
Ġselec cion
ĠCateg orize
Ġconsequ ences
Ġauth ent
A R
r ight
u ien
å ·
er al
al ly
Ġb or
Ġh alf
Ġy ellow
id en
Ġla unch
Ġv ibr
ĠS er
ÑĤ Ð¾Ð±Ñĭ
Ġal co
Ġas ist
Ġhe ard
og ram
Ġcomp art
Ġj ugar
Ġgr atu
lo ud
cul o
Ġsc ene
Ġej erc
Ð³ Ð¾
Ġche ese
Ġanaly tics
Ġoptim ize
Ġindepend ent
Ġsym bol
Ġaltern ative
Ġconj unto
Ġfuel s
ĠMic rosoft
7 5
A S
H ello
l ines
u ar
z t
Ġs ell
Ġf em
Ġb ad
ad em
Ġj untos
se g
ĠÐ² Ð°Ð¼
ire ct
ok ing
Ġalg uien
ĠV al
ĠV is
ĠUn ion
Ġfo ods
Ġmov ement
Ġinf in
Ġrem ov
Ã©r ic
Ġinvest ment
Ġter rit
Ġcir cu
Ġinflu ence
Ġefect o
Ġvehic les
ĠWord Press
Ġdio xide
Ġmerc ado
3 2
A T
C on
b or
m od
p an
Ġt ard
Ġc ry
Ġm ac
Ġh oy
ol uc
Ġg am
ĠC ustom
ÃŃ os
ag s
ĠD av
ĠD ie
Ñĥ ÐµÑĤ
Ġhelp ful
Ġ19 5
ful ly
Ġtem as
ĠEx cel
Ġtrans l
ĠAr g
ĠRe al
Ġsin o
Ġopt ion
vers e
gen es
Ġconc ise
Ġshow s
ĠSo ft
Ġcomun idad
Ġfre ed
Ð½Ð° Ñı
Ġreci b
Ġestab lish
ĠtÃ©cn icas
ĠprÃ¡ct ica
åľ ¨
ä¾ ĭ
Ġloyal ty
ĠEver y
Ġsoluc iones
ĠSov iet
Ġwer den
6 4
h ttps
i ers
un ca
Ġn ucle
et as
ĠA ir
Ġv ast
ĠP a
Ġth reat
Ġpl aces
Ġser ie
Ġem ple
Ġro ot
ous ly
Ġcal cular
ĠÑĢ Ð°Ñģ
Ġlead er
Ġpodr ÃŃan
Ġbro ws
Ġdest ac
read y
Ġproporcion ar
ĠPe ople
Ġlat est
ĠApr il
Ġfab ric
p ython
y cl
Ġc atch
Ġw el
Ġde d
Ġb it
Ġy et
ad d
am ples
Ġse ek
ĠD ay
Ġtr ip
Ġsol ving
Ġcu adr
Ġcomm it
ĠÐ¼ Ð½
Ġamb os
ĠSe lect
Ġpass ion
Ġcompr ender
Ġthough ts
ĠAg reg
Ġdispon ibles
Ġchat bot
ĠÃ¼ ber
Ġtama Ã±o
Ġalred edor
Ġlifest yle
1 3
u v
Ġt un
Ġc e
Ġc ame
Ġs and
Ġw rote
ing er
Ġg Ã©n
ig a
ĠW as
ĠS pect
Ġal can
ĠE g
ĠE ach
um ber
ag a
Ġpar am
Ġtr ain
cr y
ĠJ une
Ġ19 2
Ġapp ly
Ġvari ar
Ġbo ard
Ġdi ab
angu age
Ġproduct os
ÑĨ Ð¸Ñı
ĠÐ± ÑĥÐ´
ĠFr Ã©d
Ġwant ed
äº º
ĠIs land
ĠCan ada
ĠnÃºmer os
Pod rÃŃas
Ġfamil ia
Ġmax imum
Ġmonth s
ĠHel ena
Ġphilos oph
ĠFrÃ©d Ã©ric
: :
A M
Y es
d ate
h al
p are
y gen
ç Ń
Ġh ol
ut o
el en
Ġla pt
ĠT ur
Ġ2 3
ĠO ur
Ġad ult
Ġman ual
Ġcl ic
Ãº r
Ġcons ists
Ġproduc ed
ÐµÐ» Ð¾Ð²
Ð¾ÑĢ Ð¼
Ġ201 5
Ġref iere
Ġbene ficial
Ġautom ation
ĠPl ay
Ġindustr ial
Ġerr ors
Ġcompet ition
ĠSu per
Ġfal se
Ġpatr ones
Ġecu aciÃ³n
Ġcum pl
Ġfilos of
A l
R E
g ar
Ä ģ
Ġ Ø§ÙĦ
Ġan n
Ġb ed
ro up
Ġel la
ant as
Ð½ Ñı
Ð½ ÑĥÑİ
Ġst orm
ĠD og
ĠM ax
ĠH az
Ġcomp are
Ġcomp reh
Ġch ocolate
Ġat enciÃ³n
Ð¸Ð ³
Ġco ord
Ġint ens
Ġhab l
Ġpres ence
Ã¡n ica
Ġincre d
Ð½Ñĭ Ð¼Ð¸
Ġimpro ving
Ġgu ard
Ð»Ð¸ Ñĩ
Ġgen etic
ĠRec uerda
Ġsyn onym
Ġcontinu aciÃ³n
ĠtÃ©rmin os
Ġ ice
Ġa uch
Ġan cient
ac he
am ic
Ġcon d
Ð° ÑĨÐ¸Ð¸
ot o
ĠL ee
Ġlos t
Ġpr on
Ġro und
ĠÑģ Ð°Ð¼
ord s
Ð² ÐµÑĤ
Ġapp reci
cul os
Ġ< <
ick en
Ġreal ly
rough t
fr iend
Ġmem oria
Ġpodr ÃŃas
ĠPar is
Ġpriv ate
Ġgrav it
Ġswitch es
ĠBuddh ism
Ġmuest ra
ĠSpect re
T o
c in
l ike
r or
å ¾
æ Ģ
Ġa Ãºn
ar es
Ġl Ã³g
Ġf ix
Ġe at
ro g
et ro
Ġre move
Ġen fr
uc ciones
tr es
ce ed
Ġel imin
ĠM al
ĠB ig
Ġsu fic
Ġman ufact
-- -
Ġcons erv
ugh ter
atur ales
Ġbr and
Ġsec ret
Ġtrans fer
ativ as
pect ed
Ġsm art
ĠÑĩ ÑĤÐ¾Ð±Ñĭ
Ġamb ient
Ġing en
ll as
Ġdise Ã±
Ġdise ase
ah ren
Ð¾Ð»ÑĮ ÐºÐ¾
Ġread y
Ġestr ateg
Ġcamb ios
Ġllam ado
Ġrespond er
Ġemot ions
Ġley es
Ġcollabor ation
Ġhid den
Ġacces o
Ġprinci ples
Ġtecnolog ÃŃas
Ġsuperfic ie
Ġs cr
Ġd ens
ar ter
Ġan terior
Ġe cos
ad ian
Ġre b
ĠS on
ĠS ir
ud den
ĠL ove
ill ing
Ġsh ad
Ġdis cipl
ier no
Ġsol ic
ĠÑģ Ð¾Ð·Ð´
Ġstr ange
ond o
ĠAl ong
Ġ20 20
ĠÑ Ī
uer zo
Ð¾Ð³ ÑĢ
ock er
Ġeffect ively
Ġposs ess
gen o
itud es
Ġoptim ization
Ġrecogn ize
ĠOr gan
Ġgreen house
Ġelectric ity
ĠOver all
Ġeleg ir
Ġfrut as
Ġdatas et
ĠÐŃ ÑĤÐ¾
ĠSci ence
' :
D e
P T
é ľ
Ġ !
Ġt ens
Ġp untos
Ġp Ãºblic
is l
ec er
Ġre act
ĠC ada
Ð° Ñĩ
Ġcom er
if orn
Ġal ready
ch ain
ip e
ang ing
ve ys
Ġent er
Ġro ll
Ð¾Ð» ÐµÐµ
Ġmodel os
Ġtas te
Ġvis ion
Ġconsider ar
Ġfact s
Ġsum mar
ĠÑĥ Ñĩ
Ġdest r
Ġencon tr
Ġjob s
Ġgram mar
Ġprofes ional
Ġeth ical
Ġimplic ations
iforn ia
3 5
h an
k t
æ Ŀ
é Ŀ
in clude
Ġc ases
Ġd ich
Ġl en
Ġm ec
Ġm uer
Ġm iddle
it an
Ġh ous
ur ch
ĠÐ ĳ
ĠA lex
Ġr ather
ÃŃ fica
Ġex pos
ak o
Ġinc ent
ĠO lym
ple ment
ĠÐ¾ Ð½
la f
ĠSt ate
Ġut il
ĠðŁ ¤
Ġdr ive
anc ing
Ġlet ra
Ð°ÑĤ ÐµÐ»ÑĮ
Ġwebs ites
ĠÑı Ð·Ñĭ
ĠÑı Ð²Ð»Ñı
Ġabs tract
Ġefect os
ĠQ ue
Ġwalk ing
Ġofre ce
Ð°Ð± Ð¾ÑĤ
æĹ ¶
Ġtwe et
A p
n el
y t
å ¹
è ¡
Ġa ire
er es
al le
Ġf ib
ic l
us ter
ĠA v
ĠC elsius
Ġfor ces
Ġr ank
ĠE duc
Ġse lection
th ough
pl o
ĠD em
Ġtr aff
Ġpl us
Ġcl aim
Ġgr acias
Ġrel ay
ĠK eep
ĠCh o
Ġtechn ique
Ġ+ =
com es
Ġdem Ã¡s
Ġelement o
Ġrequire ments
Ġrecord s
Ġestab lished
Ġinnov ation
Ġinstr ument
Ġgir l
Ġantib iot
w here
å į
Ġs lic
Ġs iendo
Ġan Ã¡lisis
ed y
ĠT ime
ĠE le
ĠB ob
ĠB BC
Ġ2 6
ĠN ov
Ġch ance
Ġper d
Ġj e
Ġab r
Ġar roz
ĠJ ames
ĠU N
xt ure
Ġits elf
Ġbr uj
Ġval u
Ġz ona
ĠÐ¿ÑĢ Ð¾Ð³ÑĢ
Ġdef ine
ĠÑĩ ÐµÐ»Ð¾Ð²
Ġclass ify
Ġet iqu
Ð¸Ð¼ Ð¸
Ġprot est
Ġprot agon
Ġsig ue
Ġcommon ly
Ġhim self
Ġchalleng ing
ĠÐµ Ð³Ð¾
Ġcompos ed
Ġmiss ion
Ġkn ew
åŃ ¦
ĠÃ¡re a
Ġadject ives
Ġvect ores
Ġmilit ary
âĢįâ Ļ
h ood
r im
r ay
u ate
u per
z z
Ä ±
Ġm id
ĠÐ ķ
ut a
Ã¡ genes
Ġex ecut
Ġst ores
Ã© ro
and er
Ġim Ã¡genes
Ġk m
Ġcre atures
Ġser Ã¡
Ñĭ ÑĤ
Ġdis rup
Ġcons id
ĠÐ¸ Ð³ÑĢ
Ġent on
ÐµÐ½ ÑĮ
uy e
ÐµÑĢ Ð¶
Ġaut onom
Ġresult ados
Ġfl our
Ġlib ro
Ġadd ing
Ġfeel ings
Ġbro wn
no un
Ġengine er
Ġhead line
Ġestud iantes
Ġpriv acy
Ġmor al
Ġpalab ra
Ġincor rect
ĠÐ»Ñİ Ð´
ĠÐºÐ¾Ð¼ Ð¿
Ð°Ð½ÑĤ Ð¾Ð²
ograf ÃŃa
éľ Ģ
P U
Q ue
S R
h one
w rit
an co
Ġm ad
Ġan tic
Ġun it
ĠP al
ÑĢ Ð°Ð·
Ġst y
ĠL anguage
Ġtr ade
Ġso il
ĠN atural
Ġle aves
duc t
ien en
Ġpre cios
ĠÐ¿ Ð¾Ð½
ĠÐ² Ð¾Ð·
Ġnot e
Ġaut or
Ġseg uro
Ġ9 0
Ġclass ification
Ġdire ction
Ġteam s
Ġbeh ind
Ġpel ÃŃculas
Ġexplor ing
Ã§ Ã£o
Ġdiscover ed
Ġlay er
str ing
ĠÐ¸Ð½ ÑĤÐµÑĢ
ĠInc re
Ġmic ro
Ġrap id
Ġsmo oth
Ġalco hol
Ġtraff ic
Ġvalu able
T r
c as
u en
u ido
æ Ĥ
é ¢
in i
en ess
Ġp le
Ġp iano
al ian
ad ir
Ġn ames
Ġn unca
el Ã©
Ġre tr
Ġre place
Ġen able
ul as
Ġr end
Ġal s
ĠB er
ĠN Y
Ġab ierto
ĠO k
ÑģÑĤ ÑĮ
Ġperson ajes
Ġthem selves
Ġwork ed
Ġtem por
de x
Ġsec re
Ġpart es
ph a
Ġexpl an
Ġequ ival
ÐµÐ» Ñı
cept ion
Ġshe et
Ġprof und
Ġorgan ized
Ġmo le
Ġconoc ida
Ġair craft
Ġdirect ly
Ġincluy e
Ġhor as
Ġhor iz
Ġdivers e
Ġfavor ite
Ġaqu ell
Ġfuncion a
ĠIns truct
Ġwid ely
Ġdam age
ĠAcc ording
2 1
7 0
C h
L o
c ast
p et
u ese
y o
å Į
Ġa tr
Ġp ick
or r
at t
at ro
an ish
Ġf inally
ent er
id ente
Ġn aturales
Ġg ent
ab ly
Ġal to
ĠD ar
ĠG re
ĠG ood
und ial
Ġam az
ĠÐ¸ Ñħ
Ġdec or
Ġint ent
ĠÐ¾ Ð´
Ġgener ation
Ġbut ton
Ġrequ iere
Ġart ist
Ġproduct ivity
red ict
ĠÐ± Ð¾Ð»ÑĮ
truct ure
ĠFr anc
Ġpur s
Ġconoc er
Ġeduc ational
Ġread ing
Ġfriends hip
Ġlengu ajes
Ġprotect ion
Ġask ed
Ð°ÐµÑĤ ÑģÑı
Ð¸ÑĢ Ð¾Ð²Ð°Ð½
ĠAustr alia
Ġaccom pl
c ing
m on
p ower
Ġs alsa
ic ional
Ġin tr
Ġh at
us ion
ĠÐ ł
ĠA re
ĠS un
ĠS ur
Ġcom mer
ÃŃ r
Ġth r
ĠM ount
ĠB el
ud a
ib ly
oc ar
ĠF al
per t
ĠIn vest
Ġap oy
Ġad ministr
Ġrec ently
ĠÐ½ Ð¾
Ð² Ð°Ð½ÑĤÐ¾Ð²
Ġinv ers
co unter
Ġcap able
Ġdevelop ers
ex pected
Ġ201 4
Ġdist int
arr ay
ino a
Ġautom ated
Ġmot or
Ġopen ing
ĠSp anish
Ġprob able
Ġol iva
Ġshar ed
ĠPot ter
Ġtut orial
Ġpob l
ahren heit
Ġenton ces
V ID
f low
n os
Â ²
Ġd or
is k
Ġw aves
Ġb os
im als
Ġre ward
ĠI N
Ġcom plic
Ġal ien
ÑĢ ÐµÐ¼
Ã© l
pl ies
ĠM ac
ch ange
ĠL ib
ĠL ife
ib ilities
Ġne ut
ug e
Ġdel icious
Ð¸Ð ¿
Ġro t
Ġhab ilidad
ĠDe ep
ĠAr ch
iem b
Ġbas a
Ġoff ice
Ġconoc imientos
Ġtom a
Ġcir cle
med i
Ġtrack ing
Ġstor ed
ĠÃºn ica
ĠcuÃ¡n tica
Ġabsor b
Ġalcan zar
Ġfilosof ÃŃa
Ġingen ier
[ '
f in
i ation
i Ã©n
r ÃŃa
Ġ iz
Ġt ense
Ġm Ã¡g
Ġh og
Ġen h
Ġen em
Ġen counter
ĠC ap
ist an
ĠH ave
ĠG ree
Ġtr as
Ġest ad
Ñĥ Ð½
Ġser es
Ġman ner
Ġro d
Ġpos iciÃ³n
Ð°Ð½ Ð¸Ðµ
Ġbo und
Ġcam ino
Ġsur pr
Ġass ess
Ġreturn s
ĠPl an
Ġexperien ced
Ġcomun icaciÃ³n
Ġinterest s
ĠCal ifornia
Ġinteract ive
** :
Ġdin ero
ĠPortug uese
Ġnut rit
Ð¾Ð¿ ÑĢÐ¾Ñģ
Ġcrit er
Ġpress ure
Ġsatisf action
Ġidi oma
ĠAfr ica
ĠMus ic
ĠBu ild
Ġlapt op
' d
8 9
N ame
O R
S ON
m aking
s cript
ä ¿
Ġa im
Ġa st
Ġc ats
Ġd ice
re f
Ġl ater
ic idad
ĠT er
ĠM ah
ĠL uego
ĠH y
ĠR iver
Ġdes ert
ang o
Ġcre c
Ġcre ates
ĠJ os
ĠU r
Ãº lt
Ġout comes
Ġ19 4
Ġset t
Ġwhere as
ĠPr im
Ġconst ante
Ġstruct ures
Ġgrow ing
ĠCan adian
Ð½Ð° Ñĩ
Ġdetail ed
Ġox ygen
Cu Ã¡l
Ġpow der
Ġdial ogue
Ġdanger ous
Ġrecon oc
ĠCho ose
ĠÐ¿ÑĢÐ¾Ð³ÑĢ Ð°Ð¼
3 3
6 5
b ur
s olving
t iliz
y ing
Ø ±
Ù Ī
Ġa id
Ġs ac
Ġs light
Ġp ul
Ġp ict
or o
it ter
ion i
Ġof icial
qu eda
im ately
Ġre asons
ul os
Ġfor e
Ġfor t
Ġr at
Ã¡ les
Ġst d
ĠM arch
ĠG al
ĠO f
Ġser ious
ost a
ÑģÑĤ ÑĢ
Ġinclud ed
Ġcap abilities
Ġsus p
Ġmus e
Ġdist inct
Ġhacer lo
Ð°ÑĤÑĮ ÑģÑı
Ġdoc uments
Ġsitu aciÃ³n
Ġcomplex ity
ĠÐ³ Ð¾Ð´
ĠIntern ational
Ġingred ientes
Ġnuest ra
Ġentren amiento
Ġtables poons
Ġmist akes
Ġcondic iones
P A
S e
s hip
y g
é ĩ
in os
Ġs now
Ġm arg
Ġm iemb
Ġm Ãºlt
ent ina
ec he
Ġen ables
Ġcon te
Ġv ary
Ġv itam
ĠG it
Ġ2 8
Ġtr ata
Ġim per
ill os
Ġle er
Ġro b
ĠEn s
az e
Ġfr uit
Ġwork place
Ġcal iente
Ġreduc ed
ĠPro t
Ġlib ert
Ġplay ed
ÐµÑģ Ñģ
Ġdoc tor
Ġren ov
xim ately
Ġfre cu
Ġproper ly
Ġrefer ence
ĠÐ¼Ð¾Ð¶ Ð½Ð¾
Ġefect iva
Ġbegin ning
ĠChrist ian
Ġestim ated
Ġestre llas
Ġpant alla
Ġfreed om
Ġdiab etes
L L
] ;
g ing
l ig
v ol
ä ¼
Ġs ie
Ġd f
Ġm amm
al low
Ġde ad
Ġn om
ĠP at
Ġex tr
Ġus ando
ĠH ouse
ĠR et
Ñĥ Ñģ
Ñĥ Ð¿
Ġme al
Ñı Ð·
Ġad m
Ġsp ending
Ġat m
âĢ Ķ
amb da
Ġph en
Ġ200 5
ĠDe b
Ġdifer ente
Ġobjet ivos
Ġlim p
Ġmas k
Ġfriend ly
Ġpopular es
Ġesc al
Ġnuev os
Ġred es
Ġvol ume
Ð¾ÑģÑĤ Ð¾
Ġrad io
Ġachie ved
Ġrespuest as
Ġcup s
ĠBl ack
aff e
Ġstudy ing
Ġwin ter
ĠÐ¶ Ð¸Ð·Ð½
Ð¸ÑģÑĤ ÐµÐ¼
Ġcreativ ity
ĠHum an
æķ °
Ġbibliotec a
Ġderech os
P ro
R L
i amente
l og
Ġt one
Ġc ake
Ġc int
Ġs end
le te
Ġn ie
am il
Ġg ente
Ġg ender
est r
est er
ĠA ug
Ġcom pl
ĠM ont
ĠO ct
Ġap ples
Ġ5 00
Ġinter view
az Ã³n
Ġfr ont
Ġbr ave
ĠAl ice
ras tructure
Ġhuman a
Ġcam p
Ġdem ocr
Ġrecom iendo
Ġmill ones
ĠÃ¡ tom
Ġconsum er
Ġgust arÃŃa
eder al
Ġvia je
Ġextre m
Ġinit ial
Ġbran ch
Ġaproxim adamente
ĠseÃ± al
Ð»Ñİ Ñĩ
Ġrout ine
å¥ ½
ĠJan uary
xi ety
ĠFranc is
) ^
2 2
A s
g ers
u ber
Ġc ro
ar ily
Ġe p
et t
Ġv ict
Ðµ Ñħ
st ein
ÑĢ Ð¸
ĠG lo
Ġhe ch
Ġimp os
Ġman o
Ġinter ior
Ġro ute
Ġhelp ed
Ġop pos
Ġcor por
yth ing
Ġ201 2
Ġident ity
Ġcomb ination
Ġnuev a
Ãºs queda
Ð¸ÑĤÑĮ ÑģÑı
ĠGr an
äº Ĩ
Ġed ific
Ġbat tle
Ġbal anced
Ġcrit ic
cel ona
Ġfunct ional
Ġexplic ar
Ġpolic ies
Ġencour age
Ġaument ar
Ġnumer ous
ĠiP hone
ĠFinal mente
Ġatm Ã³s
d es
n ers
å ¦
æ Ń
Ġc ielo
Ġp ed
or us
ic y
os tr
ut ton
ĠS pr
od es
ag r
ĠD ur
ĠB ay
ĠH igh
Ġcomp at
ĠN ob
Ġres id
ĠJ ust
ĠU tiliz
Ġcont ro
ĠÐ² Ð°ÑĪ
Ġob ra
la h
Ġtechn ical
Ġhigh light
Ġseg undo
Ġ200 0
fr ame
Ġmen udo
ÐµÑģ ÑĮ
Ġlet ters
Ġcontrol ar
Ġexp ans
Ġexp ensive
Ã¡tic os
Ġinterest ed
Ġdetermin ar
Ġhapp en
omb ia
Ġfas h
Ġcontrib ute
Ġparticular ly
ĠInst it
ĠAlgun as
cep to
ĠÃ¡re as
ĠAfr ican
Ġmulti plic
Ġcomport amiento
Ġanthrop ology
friend ly
æĤ ¨
ĠatmÃ³s fera
S ÃŃ
V al
n am
s ource
t ax
Ø ¨
æ ī
æ Ĭ
on os
Ġc Ã¡l
Ġm ap
it ure
ac o
ur os
Ġn ode
Ġre produc
Ġcon o
tr y
ab e
ĠL ast
ib t
Ġor ange
ain st
Ġsu e
ĠR en
ĠR ich
Ġwor th
ell en
Ġcre am
Ġcl ick
ĠU p
ier es
Ġrel aciones
Ġmod o
Ġresp ir
Ġaut o
Ġhab its
Ġsub st
Ġclass es
Ġdem as
Ġconf ident
Ġpas ar
Ġkey word
Ġmi xture
ĠAm Ã©rica
Ġein en
Ġexc el
Ġmant en
Ġemot ional
Ġlay ers
Ġaspect s
Ġcarr era
Ġill ustr
Ġinclus o
Ġhyp oth
Ġspir it
Ġecos ystem
G PT
c ks
d is
n i
n ic
r ia
t an
w ise
Ð Ŀ
on na
Ġs ample
ar ies
ic ing
Ġb ul
un ci
Ġh unt
ac ci
Ġn ad
im ienta
Ġg ard
Ġre pe
Ġen fo
Ġqu eso
ĠT V
Ġbe b
Ġas ign
ĠF ahrenheit
Ġtr ial
Ð» Ð¾
Ð» Ð°ÑģÑĤ
te gr
Ġle ave
Ġdel s
Ñı ÑĤÑĮ
Ġdis count
ĠJ e
ĠTh ank
Ġgr ant
Ġrec eta
Ġcol lege
Ðº ÑĤ
ob ject
Ġsi ÄĻ
ios o
ä¸ º
ä¸ Ń
Ġref ers
Ġpartic les
Ġmas ter
Ġgreat est
In dex
Ġcompr ar
Ġmind ful
Ġol ive
ĠmÃ©t odos
ĠespecÃŃfic as
ĠelectrÃ³n ica
ĠBar celona
Ġcampaign s
Ġult imately
Ġcompreh ensive
ĠOk lah
m es
p en
p erson
en os
Ġd ia
Ġl inks
al o
is o
Ġf en
ic ia
ent y
ent al
Ġb inary
us te
qu est
Ġg ave
Ġg all
ĠC ena
ir a
ir t
em b
em s
Ġse ven
ĠM ad
ap ole
ient ed
Ð» ÐµÐ¼
Ġcl ient
Ġgr ab
ĠÐ² Ð¾Ð¿ÑĢÐ¾Ñģ
Ġrec over
Ġincl uir
ĠV ers
Ġcar ry
Ġany one
Ġplan ning
Ġdr iving
Ġcr ÃŃ
Ġcr ime
ven ue
Ã¤ n
Ġrest r
press ion
Ġmot ion
Ġgovern ments
Ġcour t
entr an
Ġbelie ved
Ġline ar
Ġlugar es
Ġum a
Ġencu entran
Ġrece ived
Ġpermit en
Ġresist encia
Ġefic iente
Ġraz Ã³n
Ġtail ored
Ġvill age
ĠGree k
2 4
f ono
g ed
i ro
n ed
o x
u ac
w rite
å ½
Ġ ;
it ize
Ġf est
Ġf echa
Ġh it
Ġun expected
Ġv in
Ġv ul
Ġv ous
ĠW ater
ĠC ur
Ġr ich
tr os
ĠE ast
ay uno
Ġse in
Ġth ick
Ġas es
Ã© tico
ĠD ep
ĠD ios
ect ive
ĠF ort
Ġsu ffer
ĠR oman
Ġpr ue
Ġman z
Ġpued an
Ġdo or
ÐµÐ½ Ð¸Ð¹
ov en
Ġout do
Ð¼ Ð¾Ð¶
Ġprogram ar
po int
Ġhum or
Ġcomple ted
Ġsc al
ĠAs ÃŃ
ĠÑĤ ÐµÐ¼
ĠÐ± Ð¾Ð»ÐµÐµ
com ing
Ġeng age
cho ol
Ġdepend s
Ã¨ s
Ġcual es
Ġeduc aciÃ³n
ĠPl ace
ĠCol ombia
Ġmayor ÃŃa
val ue
Ġcurrent ly
ÅĤ a
ĠEm pire
Ġland sc
Ġestud iar
Ġsa uce
Ġquier o
Ġfu entes
Ã§ a
Ġscient ist
Ġbreak s
âĸ ĳ
Ġcook ed
Ġtare a
Ġbig gest
Ġencour ages
Ġmotiv ated
Ġgram mat
Ġadecu ada
Ġextre me
Ġslow ly
Ġcomfort able
Ġorganism s
Ġauthent ication
Ġmuer te
ĠOklah oma
f ile
n ote
w ers
z os
Ù ĥ
Ġc uchar
Ġs ector
re m
Ġf ont
Ġf irm
Ġan xiety
Ġw ave
Ġw omen
Ġde j
Ġb order
Ġb Ãºsqueda
Ġto uch
Ġre action
ay a
ÑĢ Ð°Ð²
ĠM icha
ĠL ink
Ġch arg
Ġch icken
Ġsh apes
ier t
ĠÐ¿ Ð¾Ñģ
Ġcons ci
Ġpers uas
ĠÑģ Ðº
ĠÑģ Ð¸ÑģÑĤÐµÐ¼
ok en
Ðº Ð¾Ð²
ĠY es
Ġdec ide
Ġserv icios
Ġpot atoes
Ġbel ong
Ġatt ack
ĠCl imate
Ġresour ce
Ġaplic ar
tt p
Ġpresent ation
be ing
Ġabs ol
Ġed ad
Ġconse jos
ograph ic
Ġdin ner
ĠÑĤÐ°Ðº Ð¶Ðµ
dr iven
Ġrecommend ations
Ġpes o
Ġdream s
Ġciv il
ĠNY C
ĠÐ¿ÑĢÐ¾Ð³ÑĢÐ°Ð¼ Ð¼
Ġconte xto
9 0
d y
d as
f it
h ib
i ors
o int
p x
s k
w in
w orld
Ġa hora
Ġt act
es la
Ġs Ã©
Ġd iced
Ġp ag
Ġp ages
Ġo u
ic le
Ġb py
un ction
ac les
ur ies
Ġn ac
il ing
il let
Ġg ives
Ġre ve
Ã³ tica
Ġv as
ir Ã¡
ĠE val
Ã© m
ĠM a
ĠM ore
ĠM art
ĠM oon
ĠH ol
ĠF las
ĠO pt
ĠJ ack
ian ces
ĠðŁ Ĵ
ĠCom o
Ġincre ases
ï¼ Ł
ĠCon stit
Ġsign al
Ġadd ed
eb r
hing ton
Ġimpact s
ĠComp any
ĠSch laf
ĠEuro pa
ÃŃn as
Ġpeque Ã±os
Ġgar ant
Ġrelig ion
Ġcloud s
Ġteach er
Ġinnov ative
Ġllev ar
Ġcy ber
Ġtreat ment
ĠJul y
ĠRuss ian
Ġregul ations
Ġmount ain
ðĿ Ĺ
Ġenab led
ĠgrÃ¡ fic
ĠSoft ware
Ġgent le
Ġcommer cial
Ġfash ion
S QL
Y ou
c ur
f ast
y ear
y ond
z i
Ġs Ã³n
Ġs od
or ing
Ġl eche
Ġw at
Ġw all
Ġw ird
Ġde al
il ight
am i
Ġen cry
Ġqu inoa
Ġv ert
ĠS and
Ġal ter
Ã³n de
Ġse va
Ġbe yond
ĠD iv
ĠM i
ĠF e
rom e
Ġac ciÃ³n
Ġno un
ĠJ SON
ific ations
Ġro w
ĠÐº Ð²Ð°Ð½ÑĤÐ¾Ð²
ĠAn other
Ġbr ind
ĠSt at
Ð°Ð½ Ð¾Ð²
Ġtod a
Ġrequ ests
ĠRe act
Ġcam era
Ġatt end
ÑģÑĤÐ² ÐµÐ½
Ġbuild ings
Ġfocus es
Ġge omet
Ġprote ÃŃnas
ĠBl ue
Ġdescrib es
Ġsort ed
Ġedit or
Ġdisposit ivo
Ġmathemat ical
Ġmathemat ics
Ġdecre ase
Ãºr ate
éľĢ è¦ģ
Ġcrec imiento
s er
t itle
w ood
Ø ¯
Ù ĩ
é Ľ
Ġ __
Ġt it
Ġt ierra
in ing
on acci
an qu
Ġl iqu
Ġf ather
ic iones
Ġb es
Ġh orno
iv idad
et o
ul ations
est o
ig ue
ĠW ork
ĠS ara
ĠS QL
Ġr ies
ĠP ued
Ġon to
ĠR ome
gr ad
ĠÑģ Ð¾Ð±
Ġform ed
Ġout come
ĠCre a
Ġutiliz ado
ĠAs ia
Ġinf rastructure
Ġdifer encias
uel ve
Ġappro ximately
Ġstat us
Ġhand s
Ġmot her
Ġconst it
ĠlÃŃ qu
ĠAp p
ĠIm pro
Ġachie v
ĠmÃ© d
Ġsound s
Ġpay ment
Ġshar ing
ĠTrans form
Ġdeber ÃŃa
Ġfail ure
Ġoportun idades
ĠÐ¾Ñģ Ð½Ð¾Ð²
Ġcloth ing
Ġvideoj uegos
Ġsost en
Ġvibr ant
ĠAgreg a
' ]
D E
d f
f u
f ol
u i
æ ŀ
è ĩ
en as
Ġs iento
Ġf is
Ġw olf
ro id
ac ia
Ġn ave
im m
ut ing
Ġun known
el ess
est re
ir se
ist or
Ã© e
ĠM o
op er
oc up
ĠF il
Ġsu ger
Ġres il
ÑĮ Ñİ
ÐµÑĤ ÑĮ
Ġag re
ios a
ĠÐ¿ÑĢ Ð°Ð²
Ġseg u
Ġav ent
Ġfil ter
Ġlib er
Ġclass ic
Ð°Ð» Ð¸Ð·
Ġdecis iÃ³n
Ġlight s
Ġsig lo
Ġsuper ior
Ġcos a
sc ale
Ġfac ial
ĠEng ine
Ġveget able
çĶ Ł
Ġsyn tax
Ġllam ada
ĠbÃ¡s ica
Ġplanet as
ĠII I
Ġcy cle
Ġphot os
Ġblock chain
Ġcombin aciÃ³n
Ġhistor ical
Ġaliment os
imens ional
Ġdiagn os
å¯ ¹
ĠCustom er
ĠNov ember
å¦ Ĥ
Y our
b on
d u
k et
o o
æ ²
ç Ĥ
ç Ĳ
Ġ ,
Ġt erc
is p
Ġb orn
ed ia
om o
ĠW illi
ĠC ongo
ĠI P
Ġpar ents
ĠM ex
ĠL im
ap or
Ġcomp rom
âĢ ¦
Ġgr ados
Ġam igo
Ġfollow ed
ĠÑģ ÐµÑĢ
Ġnot hing
ond s
Ġmed ian
ĠAn t
ĠSt ar
Ġwork ers
ĠÐ´ Ð¾ÑģÑĤ
ĠEx per
Ġsc he
ĠPro gram
ock et
Ġpub s
Ġfl ight
olv es
anc y
Ġsum a
Ġeng agement
Ġperm an
Ġmater ia
Ã¨ re
Ġprincip ios
ĠÐ° Ð½
ÃŃst ica
Ð°Ð¹ ÑĤ
Ġmes a
ĠpolÃŃ tica
Ġinstit utions
Ġful ly
vant ages
Ġbatter y
Ġnoc he
Ġantibiot ics
Ġaccompl ish
ĠMicha el
O IN
b en
e a
f all
n es
r on
w ich
æ İ
æ ı
ç Ľ
Ġa er
Ġc ad
Ġp us
or iented
ar ed
an ks
Ġm uj
Ġf t
Ġf os
Ġf ly
Ġde jar
le ts
et ros
Ġcon cepto
ĠT aj
ĠT esla
Ġus a
act or
ug a
Ġap art
ind ex
ĠU RL
Ġwe alth
Ġro jo
Ġcu atro
Ð´ Ñĥ
Ġacc iones
ĠCon f
ock ing
Ġdr ess
Ġcur s
Ġfl avor
Ġlong est
Ġcent ro
Ġpass ed
Ġcommun ities
Ġconc re
Ġfound ed
Ġmag ia
Ġopen ed
Ġlearn ed
Ġgen re
âĢĿ .
ĠEng land
Ġexc iting
Ġhapp ened
Ġdiv ert
Ġequip os
ĠSol ar
ĠBudd ha
Ġempres as
ĠGerm an
Ġflex ible
ĠmÃ¡ xim
Ġking dom
ĠcientÃŃfic os
ĠIngred ients
ĠServ ice
Ġbrows er
Ġparam eters
Ġbos que
C re
M A
h es
i ant
l ate
o ber
Ð ¡
Ø ª
Ġl uch
Ġb ases
Ġb rought
un es
ac ciones
Ġn ombres
Ġre in
Ġre form
em a
Ġr ace
Ġel las
ot t
ci es
ag g
Ġon ion
Ġyo g
Ġex ec
ĠD NA
iz z
Ñĥ Ð»Ñı
Ġ3 5
Ġte a
Ġap ple
Ġcre ation
Ġcl Ã¡s
Ġsp ent
Ġno v
Ãº car
Ġ4 5
ĠÐ² ÐµÑĢ
Ġrec ycl
Ġco ast
pe ed
Ġproduc ciÃ³n
Ġele ction
ub ble
eg o
ĠDes ayuno
Ġpol ice
ĠâĢ ĺ
Ġgro cer
Ġsk illet
Ġstud ies
Ġsup ply
ĠÃ ī
Ġever ything
Ġlight ing
vert y
ĠYou T
vent ajas
Ġpa ir
ĠÃ© x
ah r
ĠIm ag
Ġmanag er
Ġdiv is
Ġprob ability
Ġdark ness
Ġsignificant ly
Ġcrit ical
Ġreview s
Ġescr it
Ġra ÃŃ
Com o
Ġvehic le
Ġearth qu
osp ital
ĠquÃŃm ica
Ġtort illa
Ġbelief s
Ġfem ale
ĠArg entina
ĠWas hington
Ġhypoth esis
b i
m s
m et
n ombre
s ub
Ø ©
Ġ @
Ġa ward
Ġa head
Ġt a
er ap
Ġin icial
ur ance
il ed
ol ic
ĠA Ã±
ĠA unque
ĠD ear
ud ar
ĠF ib
Ġsu elen
og rÃ¡
Ġpre ocup
Ġperson ales
ĠEn joy
az ione
con nect
Ġag uac
ĠÐ¼ ÐµÐ½
uest a
ĠÐ´ Ð°Ð½
pos es
Ġdoes n
Ġvis itar
fr ont
ĠRe ad
Ġimpro v
Ġmark ets
ĠFr ank
Ġdest ination
ÑĨÐ¸ Ð¾Ð½
Ġsomet imes
Ġoffer ing
war eness
Ġemail s
Ġorden ador
Ġtax es
ĠWest ern
Ġprepar ar
Ġbot tom
Ġdistrib ution
Ġblo od
Ġaz Ãºcar
Ã³s ito
è¿ Ļ
Ġflex ibility
Ġpeace ful
Ġhuev o
Ġdivid ed
ĠKing dom
Ġregard ing
Ġdesaf ÃŃos
Ã¨n cia
Ġwond er
Ġsufic iente
ĠInstruct ions
Ġpobl aciÃ³n
Ġvul ner
Ġpersuas ive
. )
2 3
H e
I m
S tr
g uir
o ff
Ð Ĵ
Ð Ł
æ ĭ
æ ł
Ġt ÃŃt
Ġs ite
he et
an cias
ic i
Ġb ass
Ġh ier
il s
ĠT od
ul s
Ġv en
ĠC le
ĠC ub
ĠS ort
ant a
Ġbe ar
iz ada
oc ide
oc ado
ĠR ub
Ġne igh
Ġk ept
Ġad emÃ¡s
Ġsp end
Ġac eler
Ġwe ak
iven ess
Ġcu est
ĠV eg
Ġmod ify
Ð¾Ð² Ð¾ÑĢ
Ġint ellig
iend as
Ġexper t
ph ant
Ġmin or
Ġsk ill
Ġshe ll
ĠTr ue
Ġsit io
Ġris ing
Ġphys ics
Ġstand ards
Ġefficient ly
Ġprote ger
Ð°Ð¹ ÑĤÐµ
Ġalm ost
Ġdatab ases
Ġclar o
Ġselec ciÃ³n
Ġps ych
Ġarquitect ura
ĠAug ust
ĠRich ard
5 00
U na
k in
m ark
m ax
Å Ħ
æ ĥ
Ġp imienta
Ġm ort
it t
Ġf ict
Ġh ob
ĠC am
if er
Ġel if
ĠE ating
Ġth erm
ag ue
Ġas o
Ġcan ciÃ³n
ĠF ace
ap ar
ĠN apole
rom agn
ier o
Ġdif icult
aj o
ĠAn s
ivers ity
ĠÐ´ Ð¾
Ġbl anc
Ġsc reen
Ġbus c
Ġdr agon
Ġass um
Ġcoun ter
Ġexist ence
Ġsun light
Ġindustr ies
Ġten ÃŃa
Ġexc ited
ĠÐµ ÑģÐ»Ð¸
Ġfu era
Ġestruct uras
Ġmiss ing
ĠpolÃŃ ticas
Ġappl iances
Ġinstal ar
Ġmens aje
Ġsecre ts
ĠmÃºlt i
ĠSara h
çĲ Ĩ
C l
w a
Ġs ect
Ġd rop
or gan
Ġm Ã¶
Ġf ondo
ic amente
Ġb en
ec k
ĠI S
Ġal c
ÑĢ ÐµÐ´
ÑĢ Ð°ÑĤ
ÑĢ Ð°Ð¶
th esis
Ġst reet
ĠD ate
ĠL es
Ð» ÐµÐºÑĤ
Ñĥ ÑīÐµÑģÑĤÐ²
Ġdis s
Ġcont iene
Ġco up
Ġcol l
Ġev olution
Ðº Ðµ
Ġher mos
Ġinform ed
Ġmet al
ax is
Ġsim ply
Ġbus ca
Ġ7 0
Ġmat r
Ġseg unda
Ġ200 4
vir t
Ġdep th
Ġcaus ing
Ġet apa
Ġanim ales
Ġstart s
ĠNew ton
ness es
Ġpotential ly
ÑģÑĤÐ² Ð°
ĠZ e
Ġinput s
Ġrepres enta
Ġdefin it
ĠIm plement
Ġcompon entes
ĠTw ilight
Ġvent ajas
åĬ ©
ĠDec ember
Ġrecomend able
Ġnear by
Ġpow ers
ĠComm un
Ġgraph ics
ĠCO VID
Ġcalor ÃŃas
Ġoportun idad
Ġacerc a
Ġalgorit mos
udden ly
plo ad
ĠÑĩÐµÐ»Ð¾Ð² ÐµÐº
Ġretr ie
Ġdemas iado
( [
D O
a ult
b ird
p any
p ired
Â ·
ç ¨
Ġt amb
in aciÃ³n
Ġc ore
Ġs Ã³
Ġs op
Ġs ang
Ġl ect
as a
is chen
it lab
Ġf an
Ġf ur
ic ip
Ġw ish
Ġb old
qu ina
Ġn ation
im ents
Ġre ached
ĠT est
Ġv or
Ġv ista
ĠW ay
ĠC our
ĠC PU
Ġcom ing
ĠP op
ĠD el
ĠD oc
iz er
ĠF ire
ĠN ow
Ġdes em
Ġpu erta
Ġpu zz
Ġper ro
Ġman e
ÑĮ ÑİÑĤ
ĠJ OIN
Ġgr ie
Ãº a
Ġimport ancia
Ġent ertain
Ġnot as
Ġgo b
ater ial
Ġeff orts
Ġover come
Ġtem p
Ġtrans par
Ġcap az
ph ony
Ġsal ir
ÐµÐ» Ð¸
Ġvis ited
Ġcam pos
Ġrem ote
Ġexist encia
Ġlim its
Ġrespons es
ĠÐ¾ÑĤ Ð½Ð¾
æĪ Ĳ
Ġbeg ins
Ġestud io
Ġfuer te
Ġhouse hold
ĠDis c
---------------- ----------------
Ġcapt ure
ĠÃºn ico
Ġmez cl
Ġelect romagn
Ġaccept ed
ĠÐ¸ÑģÐ¿Ð¾Ð»ÑĮÐ· Ñĥ
Ġdeliver y
ĠChe ck
ĠDav id
éĿ ¢
ĠFal se
Ġhog ar
ĠOct ober
Ġvert ical
æı Ĳ
ĠÃ©x ito
= '
F r
N ombre
V iew
b ra
c en
e v
n et
p ara
y l
Ñ Ķ
æ Ħ
Ġ Ã³r
Ġa wareness
Ġs en
Ġp ip
Ġp az
an cial
Ġm ente
Ġo sc
as te
as ure
it Ãł
Ġf antas
Ġde port
Ġde ploy
Ġh ombre
Ġn ar
Ġun f
Ġun as
Ġen fer
ĠT ry
ul y
Ã³ ven
Ġfor get
Ġel lo
ĠE con
Ã³n ica
Ġse u
Ð½ Ð°Ðº
ĠD a
ĠM ary
ĠM use
ĠM iddle
ĠB ack
end en
ĠH i
op ped
ĠF re
Ġpl enty
Ġte Ã³r
Ġcl uster
ual mente
ĠÐ¿ Ð»
ber ry
ĠAn al
Ġbr ain
Ġreg las
Ġcomple jos
Ġhab en
Ġbo ught
ĠÐ¿ÑĢ Ð¸
ä¸ ĭ
Ġmov ed
Ġconsider ado
Ġneces idad
Ġrem ains
ĠFr iend
Ġaccess ible
Ġsitu ations
Ð¸Ð· Ð¼
Ġcalcul us
äº Ľ
Ġaff ord
Ġteng as
Ġconvers ations
Ġfel icidad
ĠTw itter
Ġscient ists
Ġfuer on
lich ke
Ġmaint aining
Ġinstr ucciones
Ġescr itor
Ġautomat ically
Ġcod ing
ĠPrin cess
ĠSE O
ĠBre ak
Ġcomien za
ĠÑıÐ²Ð»Ñı ÐµÑĤÑģÑı
ĠEduc ation
Ġslight ly
ĠYouT ube
ÑĮÑİÑĤ ÐµÑĢ
Ã³ven es
8 4
D es
L ist
S C
h am
j son
r t
Ã ¹
æ °
æ Ľ
è ¨
Ġa ware
Ġa ix
Ġa jo
Ġt aza
Ġt elÃ©
Ġd ance
he at
at isf
an ia
Ġl on
al t
Ġf ert
ic ciÃ³n
Ġin j
il a
am ientos
Ġcon virt
ĠT un
ĠT ype
est ation
Ġis la
ĠC enter
ĠS ept
pl it
ĠM ess
ĠH ab
Ġ2 7
ip ping
Ġj Ã³venes
ell s
Ġcl iente
Ġcl ases
Ġac om
Ġac ad
ĠEn erg
ular io
Ġpo verty
ĠðŁ İ
Ġcomple ta
Ġcomple jas
Ġtem pl
ĠCom ple
Ġbl anco
Ġtrans m
Ġtrans mit
Ġpart ies
ativ ely
crip ts
Ġcomput ador
Ġha ir
ĠÑĩ Ð°ÑģÑĤ
Ġanal og
olv ed
Ġlead s
Ġll ama
eb ra
Ġmem ber
Ġindivid u
sc he
ÑĨÐ¸ Ñİ
Ġvo id
Ġsat ell
ĠAt l
Ġexplor ation
Ġespecial mente
Ġdeg ree
umb led
ĠtÃ©cn ica
ĠrÃ¡p ido
ĠRuss ia
Ġtalk ing
Ġtim eline
ĠÃºltim o
Ġconcern s
Ġmiemb ros
Ġrestr ict
Ġfict ional
D ate
c ase
k ing
n ie
v ar
y me
é ħ
Ġ ign
Ġa x
Ġt ar
in c
in ado
on as
Ġc ogn
Ġd Ã©c
it i
it aciÃ³n
Ġde jo
Ġe ight
ro t
ac a
ac ial
Ġg low
Ġv ote
ĠC entral
ĠS en
Ġr ates
Ġr ender
ot al
ÃŃ geno
Ġpar ed
ĠM erc
and a
ĠG reen
ĠG roup
Ġtr anqu
Ġtr uly
per or
Ġle aving
Ġj est
ĠJ ane
Ġsol id
Ġob lig
Ġstr a
Ðº ÑĢ
Ġact ually
Ġmed ios
Ġint u
Ġlist ening
Ð¼ ÐµÐ½
ĠÐ¼ Ñĭ
ĠðŁ į
ĠðŁ ļ
ĠÐ¿ÑĢ Ð¸Ð²
Ġpres erv
Ã¡n g
ĠPro cess
Ġseg ment
Ġdr ivers
Ġcr ist
Ġpub lished
Ġprop ia
Ġsur vey
Ġpartic le
Ġbene fic
Ġsoci et
Ð¸Ð½ Ð°
Ġesc ala
Ġcorrect amente
Ġevery day
Ġprincip io
ĠCol lege
Ġrepresent ation
Ġfac ing
Ġproces os
Ġvo z
ä½ ľ
Ġed ge
Ġequip ment
Ġcompet itive
Ġintroduc tion
ĠÑĢÐ°Ð· Ð»Ð¸Ñĩ
Ġproporcion a
ĠQu ant
Ġexerc ises
ĠNe xt
Ġsalud able
Ð¸Ð» ÑĮ
ĠÐ¿ÑĢÐ¾ Ð¸Ð·
bl ica
âķ Ĳ
ĠSec ond
Ġseem ed
ĠSm ith
Ġinit i
Ġpropied ades
Ġcomplet ely
Ġinterf az
çŃ ī
Ġrend imiento
power ed
" "
. âĢĿ
2 7
2 9
6 3
B r
c ement
f e
p art
p ath
p aper
ç §
ç Ļ
Ġ ...
er en
re al
Ġan noun
Ġb ree
Ġb omb
Ġto fu
Ġy ield
Ġcon veys
ĠC iv
ir us
ĠS chool
Ġr ued
Ð½ Ð¾Ð¼
ag re
ĠD est
ĠM any
ĠB ill
ĠL una
ĠF ive
og o
Ġcl ara
Ġlo oks
Ġdid n
Ġent orno
Ġob s
Ġro les
Ġro ws
Ġcu be
ert as
Ġapp s
ĠAl pha
ĠðŁ Į
ĠEx amples
ĠCon nect
uer do
Ġinst ance
Ġanal izar
ĠÐ· Ð°Ð´
Ġpur poses
Ġgu ide
Ġcontin ues
Ġtrad ing
Ġmanag ed
Ġproper ty
Ġwind ow
Ġpeque Ã±as
Ġcoc he
Ġteach ing
Ġemot ion
Ġofre cer
Ġclos er
Ġafect ar
Ġframe work
ĠChar les
Ġbreat h
Ġplataform a
Ġsurv ive
ĠÐķ ÑģÐ»Ð¸
ĠÐºÐ¾Ð¼Ð¿ ÑĮÑİÑĤÐµÑĢ
Ġexplan ation
4 9
A d
D ata
I T
b les
c ado
d ad
f ound
r c
re z
ic ionales
Ġb ark
us er
iv ia
iv amente
Ġqu iet
Ġv ÃŃ
Ġv ie
ĠC oc
ĠI ch
ter a
ĠP ac
Ġth us
Ġth ous
ÑĢ Ð¾Ð²
ÑĢ Ð¾Ð½
ÑĢ Ð¸Ð¼ÐµÑĢ
iz ados
ĠB en
ĠB as
ap t
Ġhe ar
Ġj oke
Ġab ilities
Ġsh own
Ñĭ Ð¼
Ġcl as
ĠJ es
ier te
ier ta
Ġgr af
Ġwe ap
pt oms
Ġcol lection
ob e
Ġbr ings
Ġz e
uest os
de f
Ġtrans ition
ĠÑ ĸ
Ġdi am
Ġmin er
Ð¾Ð³ Ð´Ð°
Ġvis ible
Ġmain ten
ung s
Ġprop io
Ġfin ish
Ġterm inal
Ġgu itar
Ġcomb ined
ÐµÐº Ð¾ÑĤÐ¾ÑĢ
Ġdown load
Ġpregunt ar
Ġunivers al
Ġarch ivos
Ġdefin ed
Ġfac ed
Ġgust a
Ġdiv ision
ä½ ¿
Ġconse guir
Ġir on
Ġplant as
ĠMar ia
ĠPh otos
Ġapproach es
Ġevalu ate
ĠDevelop ment
Ġaspect os
Ġsepar ate
Ġcollect ed
ĠDesp uÃ©s
Ġmedic ine
Ġang le
è§ £
Ġenab ling
Ð°Ñİ Ñī
Ġsav ings
æ³ ķ
ĠGlo bal
ĠConstit ution
ebr uary
ĠWilli am
Ġearthqu ake
ĠSept ember
l ie
n d
p g
w h
ç ī
è ¾
Ġ ÃŃn
Ġc Ã¡
Ġc arga
Ġm u
Ġm ur
Ġb acter
Ġin her
ac as
Ġn arr
Ġg ibt
ĠC op
ĠS k
ĠS erve
Ġr ice
Ġal one
od ies
um s
ist ical
ag u
Ġex clus
Ġex change
Ġst ick
pl an
ĠD er
ĠH aw
ĠF ol
Ġhe m
Ġcomp aÃ±
Ġch art
Ġdel le
Ð¸Ð ¶
ens ion
Ġstr ings
Ġcu id
az z
ĠCh ild
Ġson ido
Ġbr ill
ĠAl m
Ġmet ers
ĠGener al
ph ab
Ġmov ies
Ġer es
Ġlib rar
Ġtyp ical
Ġcas os
Ġlook ed
Ġesc uch
Ġcorrect a
Ġdig est
Ð°ÑĢ ÑĤ
Ġcompar ison
Ġwind ows
Ġocc urs
Ġsens aciÃ³n
Ð°Ð¶ Ð´
Ġmit ig
Ġpes ar
Ġdistrib uted
Ġlabor al
Ġflu jo
Ġsor ry
Ġappl ied
åº ı
Ġcontest ant
Ġtra its
Ġsho es
Ġderiv ative
å¼ Ģ
Ġgravit ational
Ġequival ent
Ġaquell os
Ġfore ign
Ġdiscount s
ĠTaj ik
7 7
j i
s ign
Ñ į
Ġs ight
Ġl i
Ġm erge
al d
Ġw alls
ad er
ĠT ele
est e
ĠA le
ĠC loud
ĠS n
ĠS us
Ġr an
ĠP ower
Ġse asons
Ġpar ado
ÑĢ Ð³
Ġst age
av ia
ĠD u
and on
Ġsu elo
ĠR un
Ð» Ð³
ĠN LP
act ions
Ġj unto
ĠO ld
Ġcl ima
ast ÃŃa
ĠÐ² ÑĢÐµÐ¼
ik u
ÐµÐ½ Ð¸Ð¸
Ġmed itation
Ð´ ÐµÐ»
Ġbr idge
cul es
Ġreg istr
ĠðŁ ¥
ĠðŁ ĵ
Ġreal istic
Ġcap a
ĠHe at
Ġentre pr
Ġmov ing
Ġfin ance
Ġ} ,
Ġpass ive
Ġair port
ĠÃ© tica
Ġexp enses
Ġtom atoes
Ġfew er
äº İ
ĠÐ» Ð¸
ĠInd ian
Ġerr ores
ĠÑģÐ² ÑıÐ·
Ġintroduc ed
Ġrelig ious
ĠBrit ain
Ġconj untos
Ġconsist ent
Ġtreat ments
Ġprofes ionales
Ġgrup os
Ġdatas ets
Ġsenc illa
Ġagreg ar
Ġplataform as
Ġpropied ad
Ġcandid ate
Ġpun ct
Ġbank ing
Ġtelev ision
Ġscen ario
ĠÃ¡rbol es
Ġejerc icio
Ġphilosoph y
Ġprotagon ist
ç¨ ĭ
Ġbree ze
Ġlibrar ies
D P
b as
b ul
e ks
k er
p ace
p oca
z Ã³
| |
Ġs om
Ġd ra
Ġm ue
Ġw ing
Ġde tr
ion ante
Ġn erv
ul f
ul aciÃ³n
ĠA z
Ġfor ever
ĠE as
Ð½ Ñĥ
ĠR om
Ġres erv
Ġch arge
ĠIn form
Ġk on
Ġ3 00
Ġat omic
ĠÐ½ ÑĥÐ¶
Ġind ica
Ġfun cional
ĠAd ministr
ĠDes de
rol l
Ġpod e
urn iture
Ġrequ er
Ġspec ified
empl o
empl oy
ĠÑĤ Ð¾Ð³Ð¾
pos ition
Ġneces arios
Ġorgan ic
Ġconf irm
ze ko
Ġens alada
Ġpa qu
Ġeconom ÃŃa
Ġcomb ine
Ġjust ice
Ġmag az
Ġhy per
Ġpi Ã¹
Ġsimple mente
æĪ ĸ
Ġcompar aciÃ³n
Ġayudar Ã¡
Ġdiv ide
ĠÐµ ÑģÑĤÑĮ
ĠThere fore
Ġfas cin
Ġcapac ity
Ġdivers ity
Ġgl ass
Ġmal icious
Ġcop y
Å¼ e
Ġveloc ity
Ġfal ta
Ġpand as
ĠÃºtil es
ĠÐ¿Ð¾Ð» ÑĥÑĩ
ĠÙ Ī
Ġ202 3
Ġdud es
Ġcontest ants
â£¿â£¿ â£¿â£¿
Ġnavig ation
ĠÐ¸Ð¼ Ðµ
Ġsched ule
ĠgÃ©n ero
Ġshad ows
Ġmec Ã¡nica
Ã©ro e
Ġamaz ing
ĠDur ante
ĠFlas k
Str ing
ĠmÃºlti ples
4 3
G r
b ita
i est
m ail
o T
å ¿
æ Ļ
Ġa pert
er te
Ġs an
Ġs Ã³l
Ġd ro
Ġp ac
Ġp iz
Ġl yr
Ġm ied
it ative
Ġf ill
Ġb ias
Ġb ols
Ġh our
Ġun l
Ġst ation
ĠD i
ĠM et
ĠM ag
ĠM ov
end a
ĠL eg
ĠH a
Ġwh om
ĠF R
Ġtr ied
Ġcomp ound
up s
ĠU K
Ġat a
Ġher o
Ġag uj
Ġbr ief
ÑĤÐ¾ Ñĩ
Ġserv ed
Ġcal m
Ġpat ent
ĠðŁ ¦
ĠðŁ Ĳ
ios is
Ġ# #
Ð¸ÑĤ Ð¼
ĠÐ½Ð° Ñĩ
Ġamb as
Ġbas is
Ã¤ t
Ġmem or
Ġmil itar
Ġda ughter
Ġdirect amente
Ġten emos
Ġkeep ing
Ġcho ices
ites imals
pon se
Ġâ Ī
Ġavail ability
Ġcompon ent
for cement
Ġenjoy ed
Ġunder lying
Ġemploy ee
Ġcat al
Ġdescrib ing
ä¸Ģ ä¸ª
ĠÐ¶ Ðµ
Ġcab all
Ġrestaur ants
Ġox ÃŃgeno
ĠespecÃŃfic o
Ġbuy ing
Ġale gr
ĠrÃ¡p ida
Ġdud a
Ġdish es
Ġlic ense
Ġbran ches
ĠComput er
Ġadvert ising
Ġense Ã±
Ġgold en
Ġwr ong
Ġinfluenc ed
ĠÃ¡tom os
Ġenfo que
Ġlandsc ape
Ġreve al
èĩ ª
Ġaso ci
ĠAns wer
T here
c ons
t urn
å ±
æ µ
Ġd ado
at us
Ġe tern
Ġn ail
ĠÐ ĵ
Ġre wards
ĠC ard
ir te
Ġpro verb
em ail
Ġr ating
ay ana
ĠD ÃŃa
ĠB ol
ĠB arts
ĠB raz
ĠL E
ak ed
ĠF red
ĠF TP
Ġim plica
og an
igh ter
ip se
Ġch ain
Ġpl Ã¡
Ġsh ift
Ġsp ark
Ġsp aces
Ġdis tr
Ġpre pare
Ġcons ecu
Ġinter val
Ġpos ibles
Ġele v
Ġout line
Ġdec ade
ĠÐº Ð¾ÑĢ
lic he
Ġthem es
ify ing
erm e
Ġgener ated
ÐµÑĢ Ð°
Ġpo or
Ġcomple to
Ġreal ized
ene z
crip ciÃ³n
Ġadv anc
Ġprop ias
Ġhist Ã³r
ĠÐ· Ð°Ð²
Ġing res
Ġspe aking
Ġlog ical
Ġgen ocide
Ã¶ r
cer ely
Ġ15 0
Ġmanag ing
Ġdifficult y
Ġrad ius
Ġsearch ing
Ġprote in
ĠAnd roid
ĠÐºÐ¾ÑĤÐ¾ÑĢ ÑĭÐ¹
Ġflow ers
Ġparticip ants
ĠÑģÐ» ÑĥÑĩ
eff ective
Ġadecu ado
Ġprior itize
Ġperspect ive
Ġhon ey
Ġfarm ing
å¸ ®
ĠFin ancial
ĠTibet an
ĠDin astÃŃa
Ġded ication
Ġtun nel
Ġappreci ate
Ġestrateg ia
Ġconsid era
ĠÐ²Ð¾Ð· Ð¼Ð¾Ð¶
Ġcriter ia
ĠFR OM
6 9
A C
N D
c z
d ing
d ig
f en
w an
« ĺ
Ã ¯
ç Ĺ
Ġt ir
Ġt ag
Ġt Ã©
Ġd ry
Ġo m
os en
ro y
om in
ur re
Ġn or
il er
ut en
Ġre pos
Ġre fr
Ġre cip
Ġre venue
ĠT ai
ĠA seg
ĠS am
ow a
em p
Ġal ert
ĠP ublic
Ġes f
Ã© g
Ã© es
ect s
ch ied
ak er
ĠG old
ĠN av
Ġch opped
Ñı Ð½
Ġsh or
Ġlo ud
Ġpued as
ind er
ĠU til
Ġat trib
arg ar
atur as
Ġind icate
ĠCh orus
Ġlist en
ÐµÑĤ Ðµ
uct ion
Ġ19 0
Ġcomm ands
ĠðŁ ı
ĠðŁ Ķ
Ġbl ank
Ġins pired
Ġsc re
Ġmin imum
Ġloc ations
Ġneces itar
Ġeng ines
pre ad
Ġperform ing
Ġident ificar
Ġant i
Ġoper aciones
enci es
Ġautom Ã¡tico
Ġinvest ing
Ġsupport s
Ġshow ing
ĠlÃŃ der
Ġenc ant
Ñĸ Ð´
itch en
æĪ ·
Ġprefer encias
Ġask ing
Ġimplement ing
lich en
Ġrespect o
Ġmis ter
Ã³r m
Ġmes es
ĠInst agram
ĠGP S
ĠTrans late
Ġconsist e
Ġclean ing
Ġban ana
âłĢâłĢ âłĢâłĢ
Ġconstruct ion
Ġconcentr ation
gress ion
Ġobst acles
Ġsex ual
ĠEin stein
Ġdyn amic
Ġju ice
Ġcirc um
Ġcin co
Ì¦Ì¦Ì¦Ì¦Ì¦Ì¦Ì¦Ì¦ Ì¦Ì¦Ì¦Ì¦Ì¦Ì¦Ì¦Ì¦
Ġequilibr io
Ġantic ip
ÑĥÐ½ Ðº
ĠFrancis co
Ġfen Ã³m
Ġliqu id
ĠMex ico
Ġyog urt
Ġaguac ate
Ġintellig ent
ĠFace book
Ġmainten ance
6 7
A F
D I
I f
S er
e at
i i
l or
w ater
Ø ¹
é «ĺ
Ĥ ¬
er ican
Ġs ir
Ġm er
Ġf le
Ġw ings
Ġb il
Ġin m
ion a
id ay
Ġn ative
ĠÐ Ĺ
ut ch
el ines
ec raft
Ð¾ Ñī
ĠT op
Ã³ p
ĠW y
ĠS a
Ġfor ests
ĠP ers
iz o
ĠB ur
ĠL ong
ĠF ue
Ġsu ele
ĠN ote
Ñĥ Ð¹
ĠIn tegr
Ġme ant
Ġper ÃŃ
Ġab ord
Ġinc ert
Ġlo ved
Ġdis tract
Ġdo ugh
ĠÐ¿ Ð¾Ð²
ire less
Ġgo es
Ġform aciÃ³n
Ġform ato
ĠUn der
ĠÐº Ð¾Ð¶
ĠSt reet
ĠÐ´ ÐµÐ»
Ġmin ister
Ġ200 3
ĠÑĢ Ð°Ð±Ð¾ÑĤ
cu ela
ä¸ Ĭ
Ġ} );
Ġsur g
ĠÃ ª
Ð°Ð» Ð¸
Ð¾ÑĢ Ð¾
Ġpas a
Ġsuc ceed
ĠOn line
Ġcomb ust
Ġconnect ing
Ġsuper vis
Ð¾ÑĤ ÑĢ
ÃŃcul o
Ġten ido
Ġvol ver
Ġless ons
Ġconsum o
Ġleg isl
Ġbi od
Ġge om
Ġsong s
ĠÐ¸Ð· ÑĥÑĩ
Ġnuest ras
Ġsuggest s
Ġsuggest ions
Ġreport ed
Ġexpect ations
Ġaffect ed
adr id
ĠMed ia
Ð¿ÑĢ ÐµÐ´
Ġban ks
Ġperspect ives
ĠÑĤÐ¾ Ñĩ
Ġemerg ency
âĸĪâĸĪ âķ
LE CT
Ġnucle ar
Ġmanufact uring
ĠpÃºblic o
Ġsett ings
ĠsÃ³ lo
phab et
Ġincert id
E uro
G B
P E
P r
b ed
c d
c ido
h ab
h and
m edad
r ad
t Ã³
w ide
Ñ Ĭ
á º
æ ±
è °
Ġ ion
Ġa cept
Ġa tract
Ġc v
Ġd an
Ġp ig
Ġb oy
ed io
Ġto ken
il le
ol lo
el t
Ġg ift
et te
ĠT en
ir ing
ĠS ym
ĠP redict
um en
um bre
st ico
Ġst ret
pl ot
ĠThe ir
Ġor anges
Ġcan ciones
ĠG en
ĠG uerra
Ġso le
Ñĥ Ð²
Ñĥ Ð±
Ġch air
Ġab andon
orm al
ĠO h
ĠO s
ĠO cean
Ġap olog
Ġcre a
Ġsp ot
Ġdis ad
Ġno ise
Ġpre f
Ãº blica
Ġam ist
ik a
ik i
Ġob ras
Ġnot es
Ġform er
Ġalg ebra
ĠEn ter
Ġproduc es
ĠUn idos
Ġdec line
Ġmed idas
mer ce
Ġpol ar
ĠAl tern
ĠAl though
ish ing
Ġph ras
Ġbo at
Ġpres iÃ³n
Ġpres up
Ġhac en
Ð°Ðº ÑĤ
Ġactiv idad
Ð¸ÑĤ ÑģÑı
Ġer an
ven ir
Ġmo od
app end
Ġend ed
Ġcall s
Ġens uring
vent ion
Ġelectr on
19 9
Ġeven ing
Ġdirect or
Ġinvolv ing
Ġorig en
Ġunivers ity
Ġstand s
Ġpredict ion
Ġfinan ci
ÑİÑĤ ÑģÑı
Ġcant idades
Ġdom estic
Ġaccount s
Ġimplement ar
Ġdescrib ir
ĠPre m
Ġwin ner
åĪ °
ĠStr ing
ä¹ Ī
Ġblo que
Ġresist ance
ĠÐŀ Ð´
Ġinteres ante
Ġestable ce
Ġjud ge
Ġupd ates
Ġcorr iente
ĠBus iness
ĠChat GPT
ĠIntroduc tion
Ð»ÑĮ ÑĤ
Ġgam ing
Ġdestac ar
Ġambient al
Ġmole cules
Ġhoriz on
iÃ©n d
Ġsurpr ise
ainst orm
Ġecosystem s
ĠEval uate
ĠFib onacci
B S
C E
n ia
v id
w hel
Ð Ĳ
Ġs ection
Ġp ush
or row
ar en
ic icle
Ġh Ã¡
Ġh op
qu is
Ġn u
ec en
est ar
ĠA R
ig ua
ĠC E
Ð¸ Ñİ
Ġal le
ist ro
ag ers
st ep
av as
ĠM ing
ĠB ond
ĠL A
ĠL u
ĠL is
ĠG ram
ĠF ebruary
Ġtr en
Ġtr uth
ĠN ations
ĠIn put
Ġpl ug
Ġj ed
00 00
ast ed
Ġprogr esiÃ³n
Ġall oc
Ġover whel
Ġreg ions
Ġcould n
Ġacc eder
Ġcr uc
Ġprop Ã³sito
Ġenviron ments
Ġbas ket
Ã¼ h
oss ible
Ġlog ic
Ġvers iÃ³n
Ġein er
ĠGr and
Ġpredict ive
ÑĨÐ¸ Ð°Ð»ÑĮ
Ġinflu ential
Ġexplor ar
Ġpeque Ã±a
ha ust
Ġ199 0
Ġwalk ed
Ġdiscover y
Ġinstruct ion
Ð¿ÑĢ Ð°Ð²
Ġkn ight
Ġefic iencia
Ġestable cer
Ġflu id
Ġupd ate
Ġenv iar
ĠÐºÐ¾Ð½ ÑĤ
ĠÐ»Ñİ Ð±
Ġheav y
Ġextern al
ĠAng eles
ĠlÃ³g ica
Ġlibert ad
ĠRet urn
ĠTun is
ĠvÃŃ de
7 9
8 5
: **
C ont
T ime
b utton
l am
n ew
Ġ Ã³
Ġd ic
Ġd imens
Ġp int
at en
Ġm ang
Ġf Ã³rm
Ġw est
os os
ent ed
Ġh ospital
im s
Ġun idad
am as
et ing
ul es
Ã³ lar
ĠC her
ĠS qu
Ġr ut
Ġal ive
ĠP os
ĠM c
ĠM adrid
ĠH aving
Ġ2 9
Ġtr ig
ap ing
Ġpr Ã³
Ġne go
Ġsp in
ach ing
Ġwe eks
ĠIt alian
Ġent ry
Ġcol abor
ĠEn d
olog ia
Ġmod er
Ġmed ication
ian za
Ġag o
Ð´ Ðµ
Ġpol vo
Ġwill ing
ĠSt one
Ġpat ients
ĠEs c
Ġhab la
Ġsec u
Ġins ight
ern ame
Ġshe l
Ġcontr act
Ð°Ð» Ð°
pre cio
Ġpa id
Ġcorrect ly
Ġread ers
Ġpresent o
Ġcharacter ized
ĠSp ec
Ġinteract ions
ĠSh ow
Ġconvers aciÃ³n
ĠCo ok
Ġdin Ã¡m
ĠMan hat
Ġsym ptoms
Ġsl ogan
ĠGP U
ÐµÑģÑĤÐ² Ð¾
tes is
ĠÑĦ ÑĥÐ½Ðº
Ġtend r
Ġassist ance
Ġdescubr ir
Ġgest iÃ³n
Ġaj udar
Ġasegur arse
ĠWars za
ĠDog s
Ġetiqu eta
Ġsty les
Ġingenier ÃŃa
Ġgard en
Ġenfer medad
icicle ta
8 8
C ol
F PA
M y
N N
S erv
c s
c ode
d ar
e ja
l ast
n ey
y e
Ù ģ
å ķ
Ġt ech
in er
es ian
on aut
Ġc raft
Ġs ad
Ġd Ã³lar
Ġp unt
Ġm ail
Ġf urniture
Ġw al
Ġin ner
qu ality
im ation
Ġun able
el le
Ġcon ex
Ġqu ite
ĠA qu
Ġv ist
ĠP i
ĠP an
ĠP our
Ð½ Ðµ
um an
st al
st yle
Ã© tr
ĠM r
oc al
ĠG ame
Ġ" ""
ĠR ust
ĠR ock
Ġso ul
Ġimp ress
Ġpl aced
Ġ3 1
Ġ3 2
Ġinc on
Ġman eras
Ġcl ientes
Ġac uerdo
Ġdis aster
Ġdis pers
ast y
pt y
ÑģÑĤ Ð°Ð²
ens a
ĠÐ² Ð¸Ð´
ber g
Ġnot iced
ĠV ol
ĠV erse
az ioni
Ġother wise
ĠCh ile
ĠAl bert
ĠEx erc
ĠÐ¿ÑĢ Ð¸Ð¼ÐµÑĢ
Ġdi jo
Ġacc eler
Ġmat h
Ġhac iendo
Ġsk in
ern el
Ġ| |
Ġmov es
Ġneces ita
Ġcent uries
ĠÃ ģ
ctr ic
Ġll eng
Ġcas i
Ġbas ado
Ġstat ic
Ġlim Ã³n
enci ales
ĠSin cerely
Ġvol t
Ġmom ents
Ġcare fully
Ġhapp iness
Ġdivers os
Ġcard s
Ġindepend encia
Ġintroduc e
å¤ ļ
Ġfamil ies
Ġmatem Ã¡tica
Ġrelig iÃ³n
Ġdesp ite
Ã¡m ara
Ġcontain er
Ġpens ar
ĠelectrÃ³n ico
ĠRo bert
ĠNet work
Ġvoc ab
Ġcart as
Ġconven ience
Th is
Ġful f
ĠÑģÐ¿ Ð¾Ñģ
Ġcot id
Ġguid ance
pass word
Ġincred ible
ĠUN FPA
Ġautonom ous
ĠBer lin
ĠDar win
Ġapoy o
Ġencounter ed
Ġedific ios
ĠInstit ute
Ð½Ð°Ðº Ð¾
Ġintu itive
ĠCiv il
Ġmied o
Ġphras es
6 1
A c
U T
b ro
e j
i ores
r ics
Ã µ
Ġt ÃŃ
Ġt ono
in als
Ġs rc
Ġw o
os as
Ġb ell
ac on
ac idad
Ġla un
ĠA tt
ĠC ode
ĠC ath
ĠS I
em ple
Ġr ig
Ġel abor
ĠE vent
ay er
Ġpar Ã¡m
Ġst aff
ĠD ig
ĠD ocker
ĠM X
ĠM ost
ĠL ight
ib re
op her
Ġsu ave
ug s
ĠO ffer
ĠJ ay
ĠU ltim
Ġgr at
ĠÐ¿ Ð¾Ð·
ific ado
ther n
ĠÐ¸ ÑģÑĤ
ber ries
ĠÐ½ Ð°Ð´
Ðº Ð»ÑİÑĩ
ÐµÐ½ Ð½Ð¾
Ġele cciÃ³n
ĠEst ados
Ġcomple ment
Ġbo ost
ĠÐ¿ÑĢ Ð¾Ð²
Ġplan ets
Ġbec omes
Ġav ances
ink le
ĠÑĢ Ðµ
Ġmov ements
Ġfin ished
Ġclass room
Ġprin ter
uel a
uel o
Ġinvest ments
ton ces
Ġpodr Ã¡s
Ġsuper vised
Ġinte ger
ÑĢÑĥ Ð¶
Ġpract icar
ĠSin ce
Ð°Ñģ Ñģ
ĠRec ords
Ġfund s
Ġimplement ed
Ġmass ive
Ġdescrib ed
Ġcarb ono
Ð¸ÑĢ Ð¾Ð²Ð°ÑĤÑĮ
Ġmess ages
Ġinvestig ar
Ġagr ad
Ġevalu ar
ä¹ ł
num ber
Cu Ã¡les
Ġconduc t
Ġdispon ible
ĠÑĨ ÐµÐ½
ĠÙ ħ
Ġconsult ar
Ġ202 2
Ġpad res
Ġbur ning
Ġps ic
Ġdol or
Ġmechan ics
Ġexpres iÃ³n
Ġdetall es
èĢ ħ
âĢįðŁ ĳ
Ġdiscrimin aciÃ³n
Ġrecib ir
ĠOlym pic
ĠÐ¸Ð½ÑĤÐµÑĢ ÐµÑģ
Ġneut ral
yg ame
è¨ Ģ
ĠUltim ately
3 7
= {
D B
H P
I X
O P
c op
g i
r d
u ja
w ie
w ell
Ð ĺ
Ġ ]
Ġt Ãº
Ġc rop
Ġc Ã¡mara
or ra
at ter
Ġb on
Ġin fer
le vel
Ġh und
us iÃ³n
ĠÐ £
Ġre ly
Ġre gr
Ġre ps
Ġcon vey
Ġqu iere
ul ating
ĠI l
Ġfor ec
Ð° ÐµÐ¼
Ð¸ Ð»Ð¸
ĠP y
Ã¡ til
Ġpar ent
Ġst umbled
ĠM il
ch er
Ġcan cer
ap ed
Ġim medi
ĠR oy
ial es
Ġch il
Ġk e
Ġdis p
Ġcont aining
Ġwe ar
Ġinter Ã©s
Ġnot able
Ġcu is
Ġpe ak
Ð² Ð»
Ġev il
Ġfr ase
ĠK now
Ġint ense
Ġz um
Ġserv es
Ġreg iÃ³n
ĠÐ¼ Ð¾Ð´
ĠCre ating
Ġtu vo
Ġesp ect
Ġsim ples
ĠÑĤ Ð¾Ð¼
Ġsal ida
Ġcur ios
Ġhay as
Ġlong itud
com o
Ġanim ation
Ġ201 6
Ġ201 9
Ġespec ÃŃfica
Ġdist ant
Ġstat ements
Ġstat istical
Ġsmall est
land s
Ġconc ert
Ġcomb at
ÐµÐ¹ ÑģÑĤÐ²
Ġrun s
Ð¸Ðº Ð¸
Ġfac ilit
Ġinteract ion
Ġlab els
Ġproces ar
ĠEm peror
Ġoffer ed
Ġarray s
Ġcook ing
Ġampl iamente
Ġopin iones
anger ed
Ġaument o
Ġconduc tor
Ġqual ities
Ġprecis iÃ³n
Ġband a
Ġassist ants
æĸ ¹
ĠSm art
Ġciv iliz
Ġliter ature
ĠelÃ©ctr ica
Ġfoot ball
ĠSE LECT
Ġejecut ar
ĠWars aw
ĠCat al
Ġagricult ural
Ðļ Ð°Ðº
Ġning Ãºn
Ġbor ough
Ġincent ives
Ġfrecu encia
Ġneigh bor
æĽ ´
Ġacom pa
ĠÐ¿ÑĢÐ¾Ð¸Ð· Ð²
Ġpresup uesto
ĠManhat tan
Ãµ es
( ):
C A
S eg
e per
h ost
r is
z ko
Ð Ķ
Ñ Ĺ
å ĵ
æ Į
ç ´
Ġp ier
as p
Ġf ederal
Ġe ase
Ġin fr
Ġh ag
ur pose
im age
et ch
Ġre plic
ĠS atur
ĠS earch
ĠS cient
ĠI V
Ġr u
if ically
ÃŃ c
ĠE v
od ing
Ġth erap
Ġex haust
ĠM em
ĠM ientras
ĠB an
ĠB it
ĠB est
ĠL ord
ak a
ĠF A
ĠF uego
ĠN AS
Ġpl ot
Ġpl azo
Ġk om
ang ed
ĠTh ough
Ġco efficient
ond a
Ġfr ente
Ġint entar
ĠAd obe
Ġpo bre
Ġver de
Ġcor rup
Ġcor azÃ³n
Ġutiliz ada
Ġequ ations
Ġsign als
Ġdr iver
Ġinst ant
Ġcontr ario
ĠÐ± ÐµÐ·
Ġll uv
Ð¾ÑĢ Ð¸ÑĤÐ¼
Ġperform ed
Ġsun set
ĠCol or
ĠÐ» ÑĥÑĩ
ĠSp ace
Ġmodern a
clus ion
yn thesis
Ġresum e
Ġprec ise
Ġdescript ive
Ġrecommend ed
Ġmax imize
ĠÑģÐ» ÐµÐ´
Ġ196 0
ĠpolÃŃ tico
ĠTe xt
ĠØ ¨
Ġu pload
Ġhistor ias
Ãª n
Ġcerc a
ĠRem ember
ĠÃºltim os
ĠÐ¢ Ð°Ðº
Ġbroad cast
Ġpen al
Ġwa it
Ġcumpl ir
Ġcoord in
Ġhous ing
é¢ ĺ
ĠEns alada
ester day
Ġrecover y
Ġgrammat ically
Ġgarant izar
Ġdiagnos is
Ã¡ng ulo
ä½¿ çĶ¨
Ð»Ð³ Ð¾ÑĢÐ¸ÑĤÐ¼
Ġlyr ics
avas cript
A m
C H
D A
S F
f an
m ain
s ent
t at
t ain
z an
z ie
å ģ
å Ł
æ ¯
Ġa plica
on ia
Ġs aving
Ġd orm
Ġd arme
Ġp d
or ph
Ġl ie
Ġm ostrar
Ġw olves
os aur
Ġin quir
Ġto ler
Ġh ers
Ġh uge
ac ement
id ing
ol o
ut ional
Ġg ast
Ġg atos
Ġre us
Ġre verse
ĠT ok
ul ated
ĠA hora
ĠC ast
ĠS elf
Ġr ing
ĠE j
ĠE IN
Ð½ Ð¸Ð¼
Ġas pir
ĠB ank
ĠL ine
ĠH ome
ĠF ound
ĠF ET
ĠN ight
Ġch rom
Ġpl ato
Ġper Ã²
Ġj um
Ġdel la
Ġap ort
ien cias
Ġcl ub
Ġac ab
ĠTh omas
Ġgr ado
Ġem br
Ġco at
Ġent h
Ġcol a
ĠEn c
Ġcu Ã¡l
az ul
Ġpos e
Ġnew found
con f
Ġop pon
ĠEst ado
ĠÂ °
Ġwork out
Ġpo und
Ġpod eros
ĠPro duct
Ġdevelop er
cl ud
Ġsm ell
Ġha iku
Ġinf ect
Ġprim arily
Ġident ified
app ing
Ġref lex
Ġcult iv
Ġcontin ued
Ġintern al
Ġstep ped
ÐµÐº ÑģÑĤ
ĠSo ci
Ġsing er
Ġrespons ibility
Ġveg an
li ament
Ġtecn olÃ³g
Ġment ion
Ġproces amiento
ä½ ĵ
Ġocc up
Ġvisual ization
Ġsym b
Ñĳ ÑĤ
Ġopin ions
ĠÑģÐ» Ð¾Ð¶
Ġnormal ization
ĠelectrÃ³n icos
Ġviv ir
ĠespaÃ± ola
Ġsn acks
åľ °
Ġsenc illo
Ġwild life
Ġfit ness
Ġkil omet
Ġstream ing
ĠPract ice
Ġgather ing
éĹ ®
Ġalmacen ar
Ġsint axis
Ġagricult ure
Ġpon er
ÐµÐ½Ð¸ Ñİ
è¡ Į
Ġenh ance
Ġresil ience
ĠCub a
Ġentertain ment
Ġgob ierno
ĠtelÃ© fono
Ġstra ight
ĠÃŃn d
Ġentrepr ene
ĠBraz il
Ġincertid umbre
ĠÐŀÐ´ Ð½Ð°ÐºÐ¾
ĠdÃ³lar es
Ġhers elf
" ;
B u
R es
c m
h ÃŃ
r i
t ical
å ĳ
æ Ķ
Ĥ ï¸ı
es ar
Ġp iel
Ġp asta
at i
Ġl uck
Ġf ra
Ġh omes
am in
ec ir
Ġg ato
ĠA M
ĠW all
ĠC ount
ĠS il
Ġcom ics
Ġal tres
Ġal phabet
ĠE ven
st and
av el
ĠD O
ch aft
ĠB ang
ĠL it
ib a
Ġwh ose
Ġtr ib
ct ic
ĠR E
ĠR ear
Ġne gr
Ġres olution
Ġdes ventajas
Ġpl ans
Ġk tÃ³
ust ain
Ġab er
Ġcont ar
Ġwe igh
Ġcons ole
pr end
ĠÑģ Ð¼
ĠÑģ ÐµÐ±
ĠÐ½ ÐµÐ¹
Ġmod ificar
Ġpos ibilidad
eng er
Ġresp et
Ġgener ations
Ġreal iza
Ġset tle
Ġsign s
Ġvis iÃ³n
Ġmain ly
ĠÑĢ ÐµÑĪ
Ġsub jet
Ġcontr ato
Ġrem aining
Ġconf ianza
uel le
Ġcorre l
Ġmem ories
Ġatt acks
ats by
Ġconnect ions
Ġhy dr
ä» £
Ġsimilar ities
Ġfund ing
Ġbehav iors
wor th
ĠAc cess
ĠbÃ¡s icas
Ġvent ana
Ġpath s
Ġdir ig
ĠÐ¼Ð¾Ð¶ÐµÑĤ Ðµ
Ġblo ques
ĠespecÃŃfic os
Ġur ban
Ġcollabor ate
Ġneur on
ĠChar acter
Ġnumer ical
Ġterr or
Ġmonitor ing
Ġcut ting
Ġnavig ate
Ġfrequ ent
Ġord ers
Ġdemonstr ate
Ġdrink ing
Ġod d
ĠaÃ± adir
ĠØ§ÙĦ Ø
Ġenfr ent
âĢįâĻ Ĥï¸ı
Ġphen omen
Ġoutdo or
Ġwat ched
éĽ ª
Ġries go
ocking bird
Ġexpert ise
ĠAlm uerzo
ĠÐ½ÑĥÐ¶ Ð½Ð¾
Ġshor ter
Ġlaun ched
' (
5 9
7 6
B A
P l
[ ]
c les
d em
n ight
o ch
s ort
Ġ ic
in ch
Ġc z
Ġc able
Ġc row
Ġs ail
Ġp end
or ough
re w
re me
Ġm ouse
it Ã©
Ġf on
Ġw enn
Ġb ubble
Ġh unter
qu arter
im as
Ġun t
Ġun its
Ġqu ote
ĠT aking
Ġr ab
ab il
ĠE qu
ĠP HP
Ġbe i
st e
op en
ĠG es
ĠG atsby
ĠF our
Ġpu es
ang ers
ĠO ff
Ġte j
Ġcre ado
Ãº t
Ġfol der
ĠÐ² Ð°Ñģ
Ġsol a
Ġsol l
ĠÑģ Ñĩ
her n
port s
ĠÐ¾ Ð¿ÑĢÐµÐ´
eg ative
Ġfo x
ÐµÑĢ Ð°ÑĤ
Ġserv ir
Ġmet ab
Ġpres encia
Ġmin imal
ï¼ Ī
Ġthan k
Ġcomput adora
ĠDe v
ĠÑĩ ÐµÐ¼
ĠÐ± Ð»
viron ment
pa ir
ĠÐ· Ð½Ð°Ñĩ
Ġconf idence
Ġposs ibilities
Ġhand ling
Ġbre aking
ĠÃ© poca
br ir
Ġartic les
Ġbro ken
Ġtest s
Ġess ere
Ġcos to
Ġsitu aciones
Ġsing ing
Ġindustr ia
ÃŃcul os
Ġstand ing
Ġcalcul ations
Ġein em
ĠGo vern
ĠSp ain
Ġmajor ity
Ġstrong er
itos is
Ġfel iz
Ġimplement ation
Ġcoc ina
Ġsay ing
Ġphot o
Ġpens amiento
ĠAb out
Ġavoid ing
Ġvot es
Ġhot el
ĠBuddh ist
ÅĽ ci
Ġwid th
ĠReg ular
ĠPart icip
Ġradi aciÃ³n
rel ated
ĠelÃ©ctr ico
Ġemoc ional
ĠMod el
Ġconstant ly
Ġconven ient
Ġdisfrut ar
Ġadvert is
ĠmÃ³ d
Ġremind er
Ġcircu itos
Ġpurs ue
ĠRen ewable
ĠTajik istan
ĠÑģÐ¿Ð¾Ñģ Ð¾Ð±
Ġcuis ine
% .
7 4
B l
N umber
f ree
l n
t les
t xt
t ml
ç Ħ
è ī
Ġa w
on ÃŃa
Ġc ul
Ġs es
Ġp unter
Ġthe or
Ġo ct
al g
it ate
Ġf ro
ic he
Ġde pression
Ġde eper
Ġb ond
ro oms
Ġto car
Ġh es
Ġh orm
id amente
im on
Ġun employ
Ġg ama
ĠA ction
Ġpro d
Ġpro posed
Ġr ural
Ð¸ ÑĢÑĥ
ĠP erm
Ñģ ÑĮ
Ġes encial
st all
Ġas c
ĠM id
ĠM ant
ĠM ars
ĠH o
ĠH ist
Ġcan vas
ĠF un
Ġtr ap
Ġpr ono
Ġ( -
Ð» Ð¸Ð²
Ñĥ Ñħ
Ġk itchen
Ġj oven
Ġdel icios
Ġab und
Ġ3 6
Ġdis min
Ġdif f
ear s
ech uga
Ġform ing
Ġpe ut
ĠK ill
ular es
Ġi h
Ġall ÃŃ
ĠÐº Ð¾Ð»
Ð´ ÐµÑĢÐ¶
ĠAl so
ĠSt ore
Ġover view
Ġutiliz ados
ĠÐ¿ÑĢ Ð¸Ð½
ĠÐ¿ÑĢ Ð¾ÑģÑĤ
ï¼ ī
Ġart ists
ĠÑĤ Ñĭ
arm a
Ġass et
par am
Ġdesign ing
Ġobject ives
Ġmen Ãº
ĠÑĥ ÑģÑĤ
Ġ18 0
Ġoc urr
Ġmill ions
Ġprom edio
Ġevent os
Ġread er
Ġdefin ir
Ð¸Ðº Ð°
Ġconsum ers
ĠÐ¾ÑĤ Ð²ÐµÑĤ
Ġmeas uring
Ġpost s
Ġpel ig
for ce
istr y
Ġfa ith
ĠHT TP
ĠAc adem
man ia
ĠbÃ¡s ico
Ġrelev antes
Ġadap ted
ĠInst ead
col i
Ġpurch ases
è¯ Ń
Ġshar p
Ġfuncion amiento
Ġsem ana
Ġcab o
ĠLo ok
Ġclim Ã¡tico
Ġupd ated
åº Ķ
Ġrock et
Ġtrat ar
Ġrom antic
hold ers
Ġvuel ta
Ġmount ains
Ġadject ive
ĠDef ine
Ġspeak er
ĠPo int
Ġdedic ated
Ġastr onom
Ġnutr ients
ĠTur key
ĠÐ±Ð¾Ð»ÑĮ ÑĪÐµ
Ġfunctional ity
Ġexpans iÃ³n
Ġsuffer ing
Ġrecycl ing
ahr sche
Ġescrit ura
Ġsatell ite
Ġtar jet
å¸® åĬ©
ĠCher ry
8 6
E L
R ow
f its
h ow
p act
s he
ç İ
Ġ 000
Ģ ï¸ı
Ġc aja
Ġs ed
Ġd ans
or re
an j
Ġm yth
Ġm undial
Ġe uro
Ġb in
Ġb er
Ġb ater
Ġn ach
im inal
Ġun cover
ĠT ag
Ġv oy
ĠW enn
ĠS ing
Ġel im
ĠE cu
ay ed
Ġse eds
Ġes os
Ġst re
ĠM Ã©
ib er
op ol
Ġhe aring
ĠR ad
Ġch ann
Ġper f
ell ed
cr ast
ĠU m
Ġ4 4
ĠÐ² Ð°Ð¶
Ġperson aje
Ġev oluciÃ³n
Ġrel ief
Ġproduc ir
ĠY og
ĠLa w
Ġson o
ĠSt ir
ÑĤÑĮ ÑģÑı
Ġmuch a
Ġcal end
Ð¾Ð» Ð¾Ð³
ĠÐ´ Ð²
Ġmost ly
Ġacc used
Ġ7 5
Ġdeb ate
ĠAr m
Ġret ail
Ġsm ile
Ġsub s
Ġfind s
Ġneces arias
ĠÑĥ Ð»
ĠÑį Ð¼
Ġrest o
Ġsignific ado
Ġpresent ed
Ġrespons able
ĠBr ainstorm
Ġext end
ĠUS A
ĠInd ustr
Ġstay ing
Ġprotect ing
Ġreach ing
Ġrefer encia
ĠCons ider
Ġocc as
Ġobt ain
Ġdom Ã³tica
Ġil leg
Ð¾Ð²Ð°Ð½ Ð¸Ñı
Ġwar ning
Ġparticip ate
Ġbot Ã³n
Ġllev a
Ġmotiv ation
Ð¸ÑĩÐµÑģÐº Ð¸Ñħ
Ġtur ning
Ġappear s
çĶ¨ æĪ·
ĠInt elig
ĠMon itor
ÐµÑģÑĤ Ð¸
ugg ing
Ġselect ing
Ġelect ed
Ġmix ed
Ġsustain ability
Ġdesarroll ado
Ġdesarroll adores
Ġma is
Ġecu aciones
Ġdraw ing
Ġlink ed
ĠRem ove
åĩ º
Ġcomplet amente
Ġsched ul
Ġbirth day
Ġning una
ĠCoun cil
Ġasist ente
Ġtard e
Ġsand wich
Ġdestr uction
yt echn
ĠAv oid
âĢįâĻ Ģï¸ı
Ġtutorial es
ĠÐ³Ð¾Ð´ Ð°
Ġrenov able
ĠMont ana
Ġcono ce
ĠLast ly
Ð»ÐµÐ¼ ÐµÐ½ÑĤ
Fr ame
Ġfert iliz
Ġtempl ate
ĠProcess ing
Ġthous ands
ÐµÐºÐ¾ÑĤÐ¾ÑĢ ÑĭÐµ
Ġmagaz ine
ĠTai wan
fan View
ahrsche in
4 00
G et
b es
c lick
n ite
n ecess
q rt
r ich
s es
t w
t est
t op
v iv
w est
Ù Ĥ
é ģ
Ġt ier
Ġt ales
Ġs arc
Ġd il
Ġd Ã³nde
Ġp ull
an al
Ġl le
Ġl ux
Ġm and
Ġm igr
un ya
ion ado
le ft
Ġn ations
am ing
ĠA D
Ġv s
Ġv end
ĠW olf
ĠC ut
ĠS S
ĠS zko
Ġr ide
Ġr ama
Ġcom ando
if orm
ĠP ros
Ġpar ece
Ġon das
av ÃŃa
ĠD utch
ĠM ult
ĠM undial
ĠL uc
ĠL ey
Ġcan al
ĠG ar
ĠF ar
ĠR ol
igh th
Ð» Ð°
ip to
Ġimp ossible
ich uan
Ġap pe
Ġad el
Ġpor tr
Ġgr ass
Ġcons on
Ġ4 00
ĠÐ² Ð¾
ĠÐ² Ð·
Ġco her
Ġent ities
Ġro l
Ð² Ð¾Ð»
Ġrel aj
atur ing
Ġlist s
Ġi T
Ġz w
Ġhow ever
Ġserv ing
Ġaut ent
Ġrequ ieren
ren cy
cl ipse
ĠAr range
Ġpower ed
Ġconsider ation
Ġprof ound
Ġpas ado
Ġoper ation
ĠÑį Ð»ÐµÐ¼ÐµÐ½ÑĤ
Ġgeneral mente
ĠÐ¾Ð± ÑĥÑĩ
Ġidentify ing
Ġrecord ar
ĠÐµ Ñī
Ġdocument os
Ġcard io
Ġlow est
Ġvirtual es
å¤ ©
acks on
Ġnivel es
Ġfar mer
Ġtechnolog ical
Ġclos est
Ġtro zos
Ġcontact o
Ġinstr uments
Ġvac c
Ġvac ation
ĠÐ¿Ð¾Ð´ Ð´ÐµÑĢÐ¶
Ġcomen zÃ³
Ġimm igr
Ġidi om
Ġcolumn s
Ġdies e
ĠtÃ©rmin o
Ġemphas izes
Ġfrequ ency
onal d
Ġwatch ing
Ġstrugg ling
Ġense Ã±ar
ĠIngred ientes
ĠBat tle
Ġterrit or
ĠÐ±ÑĥÐ´ ÐµÑĤ
æĢ §
alle l
uper vised
ĠMah ayana
Ġmuse um
Ġmarg in
Ġcontro vers
Ġexcel ente
Ġprue ba
æŀ ľ
Ġcurs os
Ġexec ute
ĠNapole on
Ġcogn itive
ĠDest iny
Ġgraf eno
ĠUtil ize
Ġscre ens
ĠÃª tre
ĠfÃ³rm ula
Ġforec ast
ĠSzko ÅĤa
C O
D r
E N
O n
R ec
S V
U I
W S
W h
b ing
b its
c ciones
d ed
d rop
e z
f ind
g t
g itlab
n as
p od
r an
r onic
æ º
ç ¡
è Ĭ
Ġt rop
Ġc ras
Ġp ud
it r
it arian
Ġf if
Ġb ord
Ġin equ
un te
ad ero
qu Ã©
im ming
Ġun c
am en
Ġg em
Ġre un
Ġen l
ĠT ower
Ã³ w
ĠC icl
Ġr ivers
Ð¸ ÑĦ
ot es
ĠE t
ĠP ut
ĠP od
ĠP ep
Ð½ Ð¸
um na
Ġbe er
Ġbe ans
Ġst ability
ĠD if
iz ard
ĠL ambda
ĠG aut
ĠG DP
ap as
ill er
Ð» Ðµ
Ñĥ ÑĪ
Ñĥ Ð»ÑĮÑĤ
ĠIn n
Ġpl t
Ġj ard
Ġj son
und os
Ġad equ
Ġno uns
Ġpre cip
ong ol
Ġob ten
Ġro de
ĠV en
Ġmod ule
az u
Ġind o
Ġlist ed
we b
ert es
Ġprogram med
Ġapp oint
Ġval e
Ġserv ers
Ġcor on
Ġtu pl
ĠEs p
ĠPro gr
ĠRe place
Ġadv oc
Ġsub at
Ġdep art
ĠÑĩ ÐµÑĢ
Ġplay s
Ġarr ived
Ġ18 4
ÐµÑģ Ð¿
çļĦ ç
ĠÑį Ðº
Ġdirect a
Ġdirect ory
Ġesc ape
Ġorig inally
Ġintegr aciÃ³n
Ġbi olÃ³g
ÑĦ Ð¾ÑĢÐ¼
lt ima
ĠÃº ltima
Ġfour th
Ġed iciÃ³n
Ġrefer red
ĠOut line
ĠQ uest
Ġgl uc
ĠÑĤÐ°Ðº Ð¸Ðµ
Ġcompos ition
åħ ¶
Å¼ s
Ġaltern atives
Ġdar le
åĪ Ĩ
Ġfilm s
ÑĥÑİ Ñī
acional es
Ġprofessional s
ĠMin ister
åŃ Ĳ
Ġhi jo
Ġprecis a
Ġdescubr imientos
Ġloss es
Ar r
Ġflo at
Ġhon est
Ġradi ation
Ġterr estre
ĠÐ¿Ð¾Ð¼ Ð¾Ñī
Ġrelativ idad
Ġrelativ ely
Ġregard less
Ġkil ogram
ĠEd ison
________ ________
Ġheav ily
ĠgrÃ¡ fica
Ġcot ton
Ġub icaciÃ³n
Ġcompart ir
Ġremov ed
Ġcry pt
Ġann ual
Ġpron unci
Ġconserv ation
Ġ! =
Ġexpos ure
ĠOlym p
Ġrapid ly
amil iar
Ġoppos ite
Ġsue Ã±o
Ġvin agre
Ġscal ability
ĠTod ay
ĠÃ³r bita
Ġacad emic
ĠQuant um
çĻ ½
ĠPhotos hop
ĠAseg Ãºrate
Ġbiod iversity
Ġsecu encia
ĠExerc ise
Ġhund red
Ġfra ud
Ġphenomen on
çĦ ¶
ĠiT unes
' ;
8 1
I s
T V
d imensional
g ather
r un
v or
v ector
å »
æ ¨
é £
é Ļ
Ġ Ä
Ġp il
or estation
an es
Ġl emon
Ġl ingu
Ġm arr
is ch
ed rez
Ġin icio
un ge
ro ts
ro ws
Ġh tml
Ġn ine
am ar
Ġre gression
Ġla ke
Ġcon ver
ĠW H
ĠC ann
ĠS op
Ġfor g
Ġpro min
ab y
ab lish
ÃŃ na
ĠP ed
Ð½ Ð¾Ð¼Ñĥ
um er
st d
Ġyo ga
Ġst ack
ĠD ark
ĠM aj
ĠM aking
ĠM ostrar
ĠM ockingbird
ĠH en
ĠH all
Ġtr ist
ain e
ĠR el
ĠR AM
Ð» Ð°Ð´
Ġch amp
Ġme als
Ġme ets
Ñı Ð¼
Ġser ia
Ġsp ort
se qu
Ġat oms
Ġpre venir
Ġsent imientos
ong le
Ġform ar
Ġform ation
ĠV enez
Ġfr ÃŃo
Ġprov ider
ĠK ail
ĠCh urch
ĠÐ¾ Ñĩ
Ġz ero
Ġany where
Ġcomple ting
Ġtod avÃŃa
Ġins ert
Ġreduc es
Ġpart ner
Ġmin ced
Ġrequ is
go ing
ĠPro f
Ġhealth ier
ock ed
Ġ200 1
Ġadv ers
Ġcam ping
Ġsub mit
Ġche cks
Ġmus h
Ġprof unda
Ġll eno
Ġsum marize
Ġdesign s
Ġprim eros
Ġpass ing
Ġref res
Ġfound ation
Ġoc up
Ð°Ð· ÑĭÐ²
Ġesc uchar
ĠlÃŃ m
Ġcos m
ĠÐ° Ð»Ð³Ð¾ÑĢÐ¸ÑĤÐ¼
Ġdest roy
Ġment or
Ġsimilar es
Ġengine ers
Ġteng an
Ġoutput s
Ġvisual s
Ġstructure d
Ġold est
++ ++
Ġprepar ed
col or
Ġcort ar
ĠÐ¿ÑĢÐ¾ ÑĨ
Ġrecomend aciones
Ġconclus iÃ³n
cep tr
ĠÑĨ ÐµÐ»
ĠJul iet
Ġhar ina
Ġprinci ple
Ġhold s
ĠmÃ¡ quina
Ġdol lar
Ġprevious ly
ĠcientÃŃfic o
Ġincorpor ate
Ġrh yme
Ġpassion ate
Ġincred ibly
å¹ ¶
Ġslic es
ĠÐ±Ð¾Ð»ÑĮ ÑĪ
ä¼ ļ
Ġgeomet ric
Ġsuger encias
Ġluch a
Ġgrocer y
ĠCour t
ĠÐ¾ÑĤÐ½Ð¾ ÑĪ
Ġconvirt iÃ³
Ġanalog y
Ġminer als
Ġrequer ir
Euro pa
Ġapolog ize
Ġcruc ial
ĠTunis ia
ĠGaut ama
' );
2 6
` .
b ine
h ot
j ud
l ib
l ength
m as
m us
s i
s ize
x ico
Ġt on
Ġt ant
Ġt ick
Ġt orn
Ġt ensiÃ³n
Ġc ert
Ġm Ã³n
is en
Ġf ot
Ġde als
Ġe z
Ġin ic
Ġto wer
Ġof fic
Ġh Ã©roe
qu er
ĠA wards
Ġis n
ig ma
ĠC ro
ĠC ould
Ġal qu
ĠP as
Ġex cept
ĠM el
ĠL and
ĠH ey
ĠG l
ĠF el
ĠR ick
ĠR ights
Ġpr est
Ġso uth
ĠN ode
Ġle ver
Ġper ten
Ġj ue
Ñı Ñī
Ġlo ves
Ġac qu
ast ers
ĠÐ¿ Ð¾Ðº
Ġam ar
so up
Ġinter c
Ġrec orr
Ġco oper
Ġro ugh
Ġfe aturing
az ar
Ġup coming
Ġpos itions
Ġdec imal
Ġnum py
Ġ6 5
ĠSt and
Ñİ Ñī
Ġph ones
Ġserv icio
ĠÐ¼ Ð¾Ð·
ĠðŁ ª
Ġcor ner
Ġcomple jo
Ġplan e
Ġdeb t
Ġ200 2
Ġdep artment
Ġclass ified
ĠÐ· Ð°Ð¿
Ġdist ingu
Ġend less
Ġsit es
Ġatt itude
Ġpred ecir
Ġdev iation
ĠPl ant
Ġtrad icional
Ġbi ologÃŃa
åı ĳ
Ġresearch ers
Ġsab or
Ġprote ins
Ġactual mente
ĠOr ange
Ġprob abilidad
Ġsens ors
lec ciÃ³n
Ġans wers
++ )
Ġbreak fast
Ġenjoy able
Ġtransport e
Ġnuest ros
Ġsuggest ed
ĠPre heat
Ġsuccessful ly
Ġview s
Ġpack ages
Ġsay s
Ġlleg a
Ġopin iÃ³n
ĠDo es
ĠDec lar
Ġaspect o
ĠIr fanView
å® ĥ
Ġentren ado
Ġdiscuss ing
Ġbaj a
ĠEr de
Ġperspect iva
Ġ198 0
Ġpad re
Ġseem s
Ġneur ons
rel la
Ġrelacion ados
Ġgalax ia
ĠJo e
ÑģÐ» ÐµÐ´
oles c
Ġrelax ation
Ġajust ar
== ==
Ġub ic
ĠVis ual
Ġtransl ation
ĠNob el
ĠUtiliz a
Ġmindful ness
ĠRome o
Ġfos ter
ĠImag ine
Ġafford able
atisf ied
Ġsociet ies
âķĲ âķĲ
ĠprÃ³ xim
ĠWarsza wie
åķ Ĩ
Ġlleng ua
Ġimmedi ately
ĠRoy al
Ãºt bol
Ġadel ante
- |
3 4
8 7
E lement
I A
I V
L ab
O r
O pen
P er
] (
b ase
b lo
c c
i able
i ance
j idad
l ong
m al
m ica
o j
y p
in ci
Ġc ic
Ġc ord
Ġc ierto
Ġc ÃŃr
Ġs izes
Ġs plit
or ithm
Ġl id
Ġl iv
Ġl ies
Ġl una
Ġm ate
Ġm aÃ±
Ġan c
Ġb ag
Ġb ast
Ġto ld
Ġn it
Ġg ap
Ġre ch
Ġre ales
ĠT uring
ĠA us
Ġv iel
Ġv idas
Ġfor ced
em ble
uc cess
Ġr it
Ġcom edy
tr ess
ĠE ff
ĠP rom
ist ed
Ġon da
Ġex it
Ã© ticos
ĠM uch
ĠB a
ĠB ene
ĠH and
ient emente
Ð» ÐµÐ½
ie za
act ive
ĠO R
Ġte en
Ġte eth
Ġad quir
ual es
ĠTh ink
ĠÐ¿ Ð¾Ð¿
Ġem pty
Ġinter ess
Ġent end
ĠÑģ ÑĥÑīÐµÑģÑĤÐ²
Ġcol le
Ġcol umna
ĠEn tonces
ĠÐ½ Ð°Ð²
ĠY a
Ġinv iting
we ight
ĠAd vent
Ġag ree
ĠDes c
Ġ6 4
ĠAl f
ĠSt ay
ĠÐ¼ ÐµÑģÑĤ
ĠÐ¼ ÐµÐ¶
de v
ĠEx ample
Ġprocess ed
Ġtrans actions
ĠAs soci
Ġdr am
Ġthere fore
Ġ[ ]
ÑĨ ÐµÐ½
cion a
Ġ} ;
Ġaf irm
Ġprof it
ĠÃ ľ
Ġll ena
Ġeffect iveness
Ġarr ive
Ġend angered
Ã¼ n
Ġing les
Ã¤ hr
Ġoper ate
Ġmas c
Ġindividual es
Ġgreat ly
Ġsupport ed
Ġinfl uir
Ġenc arg
Ñĸ Ð²
Ġvers iones
Ġpract ical
() )
ator io
sc reen
ĠÐ¾Ð± ÑĬ
Ġcour ses
Ġoptim izing
Ġdetermin ation
Ġkind s
Ġcir cular
ĠWith out
Ġprob ar
Ġplant a
ĠfÃŃs ico
Ġcoc inar
Ġdu plic
Ġindepend ence
Ġintroduc ing
Ġteor ÃŃas
Ġpain t
Ġreport s
Ġsecure ly
åĬ ¡
Ġcort a
ĠÐĿ Ðµ
Ġcateg or
ĠmatemÃ¡tic os
Ġedit ing
Ġadvent ures
Ġcarr eras
Ġentr adas
Ġesper a
Ġrevolution ized
ä¾ Ľ
Ġqui Ã©n
Ġneur onal
Ġcreativ idad
ĠOb ject
Ġcart a
Ġaj edrez
ĠDef in
ĠÐ²Ñģ Ðµ
Ġpromot ing
Ġfi esta
Th ank
Ġtelev isiÃ³n
Ġalgorit mo
ĠAlex ander
ĠÐ¾Ð½ Ð¸
Ġbruj ita
ĠÐ¿Ð¾Ð½ Ð¸Ð¼
bur g
Ġpict ure
ĠChristian ity
Ġmamm al
ĠPued e
ĠFil m
ĠmÃ¡xim o
ĠCatal unya
ĠFound ation
ĠRear range
Ġunemploy ment
ĠIntelig encia
ĠKail h
ĠÐ¼Ð¾Ð· Ð³
8 00
A ss
I d
R A
c at
d ida
m m
n is
p end
p ack
p urpose
s al
s um
w i
Ł ¥
Ġa hor
Ġs el
Ġs ister
an ja
re ib
Ġl ent
Ġl uc
Ġm ÃŃ
Ġo jos
Ġw ages
os omes
Ġb io
ac ent
ER E
Ġun necess
Ġg it
ĠT urn
ĠA bs
Ã³ cr
Ã³ so
ig uel
Ġv io
Ðµ Ñī
ĠC ort
Ġr um
Ġr ust
um es
um ul
Ġth orough
ag ar
Ġex ces
ÑĢ Ð¾Ð¼
Ġst im
Ġst ocks
av ors
iz able
ĠM ass
ĠH ong
Ġest at
Ġest an
Ġest ilos
ĠN ar
Ġpu re
Ġman os
ep h
ĠÐ¿ Ð¾ÑĢ
ra id
ĠÐ¸ ÑģÐº
ĠIt aly
unt a
Ġent ity
ĠEn tre
ĠÐ½ Ð¾Ð²
ĠÐ½ ÐµÑģÐº
Ġact or
Ġup per
Ġele phant
Ġint ended
Ġlist as
ĠEst oy
ĠEst ablish
Ġfo ught
ĠðŁ ķ
Ġpres enta
Ġdi pl
Ġacc ident
Ġworld wide
ĠPro blem
Ġproduct ive
Ġav ec
ĠRe f
Ġcur so
Ġfl ag
Ġsup plies
com merce
Ġfil Ã³so
Ġass ets
Ġterm in
Ġprot ests
Ġ201 8
Ġeng aged
app y
Ġcommun ic
Ġend s
Ġsit ios
Ġens ures
Ð°ÑĤ Ð¸
ora emon
Ġprint ing
Ġsuper ar
Ã¡tic as
ĠBe at
ĠBe fore
Ġdefin iciÃ³n
ĠAp ples
Ġtom ates
Ġneg ativo
Ġcare ful
ĠSh op
ĠÑı Ðº
Ġachie ving
Ġrobot ics
ĠRes p
Ġhor ror
Ġsens itive
Ġdetect ion
Ġstor ing
Ñĳ Ð½
Ġpermit ir
ĠAut o
Ġexplic it
ĠNe ural
Ġturn s
Ġvia j
ĠÑĦ Ð¾ÑĢÐ¼
Ġtarget ed
Ġcapt iv
ĠÐŁ ÑĢ
Ġcateg ory
Ġfall ing
Ġgrav ity
Ġdeber ÃŃas
Ġapro v
ĠÑįÑĤ Ð¾Ð¼
Ġframe works
Ġ197 0
Ġcient ÃŃfica
Ġho ja
Ð°ÑİÑĤ ÑģÑı
Ġdecre ased
Ġkil Ã³m
ĠBro ok
Ġrepl acing
Ġmechan ism
ĠJapan ese
Ġsav ed
Ġagreg a
åĩ Ĩ
Ġcorrespond ing
Ġcier tos
Ġdens ity
æĿ ¥
Ġdisrup t
ĠPrim ero
Ġpict ures
ĠGit Lab
Ġrob ust
Ġextrem ely
ĠBay esian
Ġgrant ed
ĠFort nite
Ġsche me
Ġwonder ful
Ġmort g
Ġsang re
ĠAle mania
Ġpunct uation
Ġdetr Ã¡s
ĠperÃŃ odo
Ġabord ar
Ġdisad vantages
ĠSqu are
Ġlluv ia
ĠLit tle
ÐµÑĢÐ°ÑĤ ÑĥÑĢ
å» º
" ]
% ,
D o
E r
L T
W e
b age
o tros
s a
t able
z u
z illa
Ġc ere
Ġc ero
Ġp imiento
or ar
Ġl unch
as ant
it em
Ġf Ãºtbol
ic ian
Ġan te
Ġb a
Ġin p
Ġh aga
qu illa
Ġn ice
Ġn odes
ut ure
Ġcon m
ĠC D
ĠC lick
ir v
ĠS it
ĠS oy
ĠS ky
Ġpro port
Ġpro crast
Ġcom ent
ÃŃ do
Ã¡ c
Ġex o
th ur
Ã© ticas
ĠD epend
ĠD irect
ĠD oraemon
iz adas
ĠM en
ĠM iss
ĠB on
ĠL ion
op tion
Ġcomp ost
Ġ( $
Ð» Ð¸Ñı
Ġres oluciÃ³n
Ġk it
Ġj ap
ĠO l
Ġad olesc
ien es
Ġsp r
Ġsp elling
Ġno ch
ass ion
Ñĩ Ð¸ÑģÐ»
Ġam en
lo at
ĠÐ² ÐºÐ»ÑİÑĩ
ik ely
Ð² ÐµÑĢ
Ġev id
ĠV I
ĠV ector
eng o
Ġinv as
Ġinv ention
Ð¼ ÐµÑĤ
uy a
Ġver w
ĠCre ar
Ġcomple jidad
res ent
Ġbo ot
Ġpres ente
Ġpart ÃŃcula
Ġdi eta
Ġmin im
ĠCon gress
Ġpot encial
Ġdr iven
ĠAr r
ĠAr ab
cript ion
Ġactiv a
ros s
Ġprot ecciÃ³n
ĠÐ· Ð½
Ġconf ig
ĠÑĥ Ð´
vert ir
uz z
Ġpersonal ity
ament os
Ġkey board
Ġinte gers
Ġmism os
ĠJohn son
Ġtom orrow
âĢĿ ,
Ġcalcul ated
Ð¾ÑģÑĤ Ð¸
Ð¾ÑģÑĤ Ð°Ð²
Ġexpress ed
Ġreach es
Ġprote ÃŃna
Ġpan els
Ġdivers as
Ġllam ar
å¤ §
Ġprofess or
Ñĳ Ð¼
ĠInst all
è¯ ķ
Ġargument os
åĬ Ľ
ĠStr ateg
Ġofre cen
ĠÐ¿Ð¾ Ñĩ
åĲ İ
Ġappear ance
Ġgrav edad
Ġmusical es
ĠÑħ Ð¾ÑĤ
Ġinteres es
Ġfail ed
Ġvot ing
ĠJap Ã³n
Ġstop ped
ĠSec urity
è® ¡
Ġautomat izaciÃ³n
ĠÐ¿Ð¾Ð¼ Ð¾Ð³
Ġrepl aced
ÐµÑĪ ÑĮ
ĠPract ica
Ġrepet itions
éĹ ´
Ġstir ring
Ġattempt s
Ġenf oc
Ġsurround ed
Ġlabel ed
Ġsynonym s
Ġabr ir
Ð¸ÑĢÐ¾Ð²Ð°Ð½ Ð¸Ñı
ĠBuild ing
Ġcint a
Val ue
ĠcÃ¡l culo
ĠDep artment
Ġmanz ana
âĸĳ âĸĳ
Ġencry ption
Ġtit les
ĠÐ¼ÐµÐ½ Ñı
ĠtÃŃt ulos
ĠCle an
ĠVeg et
ĠmÃ¶ g
ĠDisc uss
ĠWy Å¼s
Ġamist ad
Ġbasket ball
Ġenfermedad es
ĠDig ital
ĠFuego azul
æ¨ ¡
( ).
B e
G O
I M
M ax
T hat
d i
f ord
l ado
m b
w ort
ç ²
è ´
è µ
Ġd ul
Ġp oc
Ġp ygame
Ġl ens
Ġl ados
Ġm ÃŃn
ic ans
Ġan om
Ġw ider
os ing
Ġe ager
Ġb ol
Ġb ere
Ġb ake
us k
Ġn ur
el come
et ime
Ġen ch
Ġen orm
ĠT reat
ĠC a
Ġr all
Ġcom ic
if ts
ĠE th
Ġex hib
Ġus an
Ġst ake
av en
av irus
ĠM ongo
ĠB al
ĠB ased
ĠL ab
ĠH or
ĠH ard
Ġim plies
ĠN umber
ip edia
Ġch ili
Ġme at
Ġj ava
und er
Ġdel ight
ĠO per
Ġcre e
Ġad icionales
Ġlo ans
Ġcont igo
art a
pr im
ech o
Ġstr ive
ĠÐ½ ÐµÑĤ
ĠV ac
Ġmod a
Ġmod e
Ġproduc ing
ĠK han
Ġmed ir
Ġcar p
co in
eg in
Ġher ed
Ġinform al
Ġej ec
Ġresult ed
Ġspec ifically
Ġsign ed
Ġdeb emos
Ġcr i
Ġcr iminal
ĠAr ctic
Ġsub stit
Ġcur ious
Ġche er
Ġget s
Ġmus cle
Ġlead ership
ĠÐ· Ð°Ðº
Ġmen u
eb en
Ġlet ras
Ġpa is
Ð¾Ð± ÑĢÐ°Ð¶
arch y
Ġown ers
Ġpred ic
Ð°Ð² Ð°ÑĤÑĮ
Ġprint s
Ġtest ed
Ġsw allow
Ġfocus ing
Ġdig it
Ġten iendo
Ġdest ino
ĠÐ³ Ð»
li est
ä» Ģ
ĠIm pact
Ġrepresent ative
Ġter ra
Ġoptim al
ĠInd epend
Ġsimilar ity
Ġarg uments
Ġcompar ing
Ġrad ar
Ġactual es
Ġactual idad
row ing
Ġnos otros
ĠestÃ¡n dar
Ġcard inal
Ġcaracter iza
Ġpay ments
Ġnut s
Ġalm ond
ĠPh il
icht ig
Ġaqu est
ĠfÃ¡cil es
Ġpep pers
åĬ ł
Ġsem i
Ð¸ÑĩÐµÑģÐº Ð¸Ðµ
Ġclos ed
Ġlength s
Ġauthor ity
Ġprincipal mente
ĠApr ende
ĠprÃ¡ct icas
ĠComm on
ĠSc ott
ĠrÃ¡p idamente
Ġemerg ed
Ġ202 1
Ġhon or
Ġacord e
Ġcover ed
Ġcolumn as
Ġhost ing
ĠNet her
Ġtrat amiento
ĠCont in
Ġemoc iones
Ġmens ajes
ĠeconÃ³m ica
ĠeconÃ³m ico
Ġgalax ies
cont rol
ĠFl or
Ġcandid ates
ĠÐ·Ð° Ñī
ĠSeg Ãºn
ĠIh nen
Ġquer ies
Ġbarr ier
ÑĢÐ° ÑĦ
Ġgratu ito
Ġinfin itesimals
rog ative
Ġhous es
ĠDem ocr
åŃ¦ ä¹ł
ĠIncre ased
Ġdistint os
Ġbound aries
Ġnutrit ion
ä¿ Ŀ
ĠJos Ã©
Ġvitam ins
Ġmamm als
Ġdemocr acy
Ġmanz anas
ĠmÃ©d ico
Ġconcre to
ĠraÃŃ ces
æĥ ħ
ĠMuse um
Ġaix Ã²
ĠAtl antic
ĠcÃ¡ ps
Ġapert ura
Ġadvanc ements
Ġrefr iger
ĠtÃŃ p
ahrschein lichke
Ġsubat Ã³m
ĠÐ¼ÐµÐ¶ Ð´Ñĥ
ĠkilÃ³m etros
ĠWyÅ¼s za
O ST
c ope
j pg
l at
w all
y pt
â Ĥ¬
ç º
Ġ ÙĬ
Ġa th
Ġa tra
Ġt ent
in ce
Ġs amples
Ġp om
Ġp Ã©r
Ġp imientos
or al
at ar
an zar
Ġl ush
Ġl anz
Ġm und
ic ol
ic ago
Ġan agram
Ġw y
Ġb ags
ed e
ad ium
ur l
im g
im mer
ut ter
Ġg at
Ġg one
Ġg iant
Ġqu ake
Ã³ lic
ĠW ahrscheinlichke
ĠC i
ĠC ost
ĠC old
em por
Ġr ay
if ting
Ġal ign
ÃŃ g
Ã¡ culos
ag ues
Ġpar ec
Ġpar ks
st ream
Ġex cess
iz ations
ch ar
ĠB i
ĠB ake
ĠG ather
ĠF ox
ĠN am
Ġimp rim
Ġk ernel
Ġwor ry
Ġme hr
Ġab bre
Ġgr id
Ġgr amos
Ġ5 5
Ġfol k
Ġpers ever
ik ipedia
olog ies
Ġact s
eng e
eng ers
ĠY o
Ġfun ny
ĠÐ¾ Ð³ÑĢ
ĠÐ¾ ÑĢÐ³
ĠEst ud
Ġapp lying
Ġexper iments
Ġ< !
Ġmay ores
ĠÐ¼ Ð½Ð¾Ð³Ð¾
Ġcor ners
Ġesp in
ĠÐ¿ÑĢ Ð¾Ð±
Ġgro wn
Ġplan o
Ġmin ing
Ġdef ault
ĠAs k
Ġseg undos
ĠCon clusion
Ġvis iting
Ġvis ibility
ĠAr thur
Ġayud ado
Ġadv ances
Ġhuman idad
Ð¾Ð´ Ñĥ
Ġconsider ations
Ġcaus a
com m
ĠFr ancia
Ġpas aj
ĠSe a
Ġreturn ed
Ġtiem pos
Ġcult uras
ĠPor que
Ã¤ r
Ġstat istics
Ġown ership
Ġrev is
Ġmult ip
Ġexp on
Ġsignific ativo
Ġwrit er
Ġexperien cias
atch ing
ĠÐ¾Ð± Ð»Ð°ÑģÑĤ
Ġconsum e
Ġfac il
En ter
Ġrecord ed
Ġrefer ences
Ġpoem a
Ð°Ð´ Ð¸
Ġ/ >
Ġdetect ar
dr iving
Ã¡ct ea
Ġpurch ased
Ġlay out
Ð°Ð¿ ÑĢÐ¸Ð¼ÐµÑĢ
Ġ196 9
ĠPol it
ĠNor thern
Ġra ise
Ġaccording ly
Ġclar ity
Ġtal ent
Ġespac ial
Ex pl
ĠCateg ory
ĠBro wn
Ġgalax y
II I
Ġinspir ation
Ġbreat hing
ĠSup port
Ġconfigur aciÃ³n
Ġthreat s
Ġseek ing
Ġchatbot s
Ġpron to
Ġfix ed
Ġestrateg ias
Ġsolic itud
Ap p
ĠGal ax
ĠÐ¶Ð¸Ð·Ð½ ÑĮ
Ġep is
Ġcritic ism
ĠgrÃ¡fic o
Ġachiev able
Ġnave g
Ġmuj er
Ġbass in
Ġtamb Ã©
æıĲ ä¾Ľ
Ġescritor io
ĠPac ific
Ġpiz za
ĠBol ivia
Ġtunnel ing
çĹ ħ
ĠPos itive
Serv let
Ġconex iÃ³n
Ġenth us
Ġkilomet ers
ĠÑģÐµÐ± Ñı
Ġprono un
Ġinequ ality
ĠmaÃ± ana
3 6
9 8
: </
A ct
E X
P y
P ued
S I
S ort
b u
b in
h og
i Ã±
j ek
k es
l ier
m i
r est
r ific
s m
u aciÃ³n
v iles
x a
Â º
Ġ ort
er land
Ġs oph
Ġd arte
Ġl ider
Ġm outh
it err
Ġe en
Ġin ches
Ġh u
Ġh am
Ġh izo
ac ions
ad en
ĠÐ ¯
Ġun iform
el ly
ec ause
Ġre ject
Ġv ivos
ĠC rist
ĠC osta
ĠS cr
Ġr os
Ġr ose
Ġcom ment
if ies
Ġal though
ce ans
ot ing
ĠP el
ĠP ack
Ð½ Ð¸Ñħ
Ġth read
Ġbe at
Ġes pero
Ġas ter
Ġas ide
Ġex posed
ĠD en
ĠM ens
ĠM eth
ch l
and os
Ġor bit
ĠG ames
ĠF est
ap ple
Ġcomp ra
Ġcomp uestos
Ġso ut
ĠN um
Ñĥ Ñī
ine gar
Ġch uck
Ġch osen
Ġpl ast
Ġpl ante
ĠJ ew
ĠJ ackson
are a
Ġinter rup
Ġ4 2
Ġfol d
Ġpers ist
ĠÑģ Ð¾Ð²
ĠÑģ Ð¾Ð»Ð½
ĠÑģ Ð´ÐµÐ»
Ġcol oca
Ġev oluc
Ġfr ustr
ĠK r
ĠK enn
ĠCh icago
iend e
Ð¼ ÐµÑĢ
fic o
ĠÐ¾ Ðº
ĠAn imal
ism e
Ġcomm e
uy en
ne as
ĠÐ¼ Ð°ÑĤ
ĠÐ´ Ð¾Ð»
Ġtrans istor
Ġdi ed
Ġmin imize
Ġdef orestation
ied ad
Ġart if
ock ey
Ġmon ta
Ġcomput ational
Ġactiv ely
Ġprof ile
ĠÐ½Ð° ÑĪ
Ġdem ostr
Ġanim aciÃ³n
app ed
Ġend ing
Ġref le
ĠPr ime
Ã¤ h
Ġconoc idas
Ġoper ativo
aut iful
20 21
Ġgre w
Ġtrabaj os
Ġdev uelve
Ġunivers ities
ãģ Ħ
ĠBr on
ĠBr idge
ĠÐ³ Ð¾Ð²Ð¾ÑĢ
Ġestr Ã©s
ĠÐ¾Ð± Ñī
Ġbi ological
ĠX X
Ġinflu encia
Ġed ges
Ġreci be
Ġsever e
Ã§ Ãµes
lec ular
Ġport ion
che m
Ġcompos iciÃ³n
Ġsort ing
Ġdese a
Ġquant ity
ä¸Ģ äºĽ
Ġturn ed
"> </
(' /
ä¹ ĭ
Ġinstall ed
ĠIr on
ĠIr land
ÃŃm bol
Ġappear ed
urr ican
Ġenvironmental ly
Ġobserv ed
Ġvector ial
Ġnear ly
Ġdisplay ed
ĠAb ility
Ġhabit ats
Â» .
ĠÑįÑĤ Ð¾Ð³Ð¾
ĠÙ ģ
ĠOb ama
Ġoccur red
Ġpros per
ĠLat in
Ġpic nic
Ġassign ed
Ġimpres iÃ³n
CT Y
Ġastr onaut
Ġrect angle
ĠmÃ³ vil
Ġgan ar
ĠAutom ation
Ġcommit ment
ĠÐ¼Ð½ Ðµ
ĠEg ypt
Ġcint ur
Ġhech os
Ġcompat ible
ĠImpro ved
ĠExper ience
ĠSen ate
Ġweap on
ĠÐ²ÑĢÐµÐ¼ Ñı
Ġconsecu encias
Ġesf uerzo
ĠvÃŃde o
ĠCath olic
ĠNAS A
Ġmetab ol
ĠmÃ³d ulo
èī ²
ĠÑįÐ¼ Ð¾
Ġilleg al
( (
C P
F T
R e
a ud
b acks
f ish
f ield
g s
g al
h m
k u
k oh
m ath
s ter
w ind
x ido
Ð ľ
Ð ŀ
å Ģ
ç «
er ry
es a
Ġd ios
Ġd azu
Ġl ente
Ġm erg
as o
Ġf ine
Ġf iction
Ġw it
Ġb low
Ġb urn
Ġb ike
un ning
Ġh ide
Ġh all
el iness
Ġg le
et erm
Ġre empl
Ġre write
ĠA k
Ġv eter
ĠW ould
ĠW ild
ĠC y
ĠC amb
ir y
ĠS ÃŃ
Ġpro ud
uc ch
Ġr ent
Ġr Ã©
ot ion
Ð½ Ñĸ
um a
Ġex terior
Ġus ted
Ġst able
ĠM ario
ĠM iguel
ĠL ou
oc ation
oc ols
Ġest amos
ĠR os
ĠN ik
Ġpu esto
all as
Ġad j
ĠJ un
ĠJ im
Ġdo ub
Ġcons erve
ĠÐ¸ Ñģ
Ġimport ar
Ġstr ip
Ġform ulario
Ġev olved
Ġprov en
ov es
Ġinv oluc
ÐµÑĤ Ð¾Ð´
ĠAn tes
ĠEst able
ĠDes ert
Ġinform Ã¡tica
Ġexper ts
rit ing
Ġz one
Ġgener ales
Ġreal mente
ĠEx isten
Ġutiliz ing
Ġsec und
Ġins pire
Ġmin ute
Ġbu eno
ĠPro pose
pos iciÃ³n
Ġsal e
Ð°Ðº ÐµÑĤ
Ġcr ack
ä¸ İ
Ġcur va
Ġfl uct
Ġdep ender
Ġmov imientos
Ġaf raid
ex p
Ġll ista
Ġdire cciones
Ġbas ada
Ġcorre o
Ã¼ t
ÑģÑĤÐ² Ð¾
Ġbre ed
Ã¨ me
Ġinvest ors
ont al
Ġelectr ical
Ġevent o
Ġrepres ents
Ġgen ome
ãģ §
ĠBr ing
ĠÐ¾Ð± ÑĢÐ°Ð·
In put
Ġmaj estic
ty pe
Ġkind ness
Ġhapp ens
Ġcompar ar
ÃŃst icos
Ġpel ota
Ġestud ios
Ġpropor ciÃ³n
uck et
Ġsyn d
ĠMan ager
Ġcop ies
Ġflow er
ĠRed uce
ĠÑģÐ» Ð¾Ð²
Ġaffect s
Ġnovel a
ĠIr ish
ĠPol and
Ġmagn itud
ĠmatemÃ¡tic o
Ġconvert ir
è¿ Ľ
Ġcollect ive
Ġemp ath
Ġcarr ied
Ġtell s
Ġhabit aciÃ³n
Ġrevolution ize
Ġflo or
Ġconcentr aciÃ³n
Ġexact ly
Ġtab la
Ġvoc Ãª
ĠelÃ©ctr icos
ĠðŁĳ ¨
Ġmanip ulate
ĠMod ern
Ġemphas is
Ġbackground s
ĠeconÃ³m icas
Ġinterpret aciÃ³n
Ġinspir ing
Ġreflect s
ĠiP ods
Ġguid elines
Ġstrugg le
AN s
Ġwel come
Ġadult s
Ġstorm s
Ġslic ed
ĠMount ain
Ġiz quier
ĠTer ra
Ġmask ed
Ġcuchar ad
Ġabsol ute
ĠMore over
Ġsod a
Ġencry pt
ĠDiv ide
Ġsosten ible
Ġcad ena
Ġft p
connect ed
Ġbusc ando
Ġdepth s
ĠEcon om
ĠteÃ³r ica
ĠComple te
ĠJes Ãºs
Ġreveal ed
Ð¾ÑĢÐ¾ ÑĪ
ĠSym phony
Ġelectron ics
Ġpint ura
Ġshel ter
Ġvist o
Ġincon ven
ĠÐ¿Ð¾Ð· Ð²Ð¾Ð»
ĠBit coin
sent ence
Ġinquir ies
Ġoppon ent
ĠSoci ety
éĹ® é¢ĺ
ĠEcu ador
ĠProgr amm
ĠWH ERE
Ġrequis itos
Ġunnecess ary
ä»Ģ ä¹Ī
Ġabbre vi
) );
8 2
D ame
F A
G ener
L e
N eces
S he
a e
b us
c re
c loud
e ah
i ados
Å ĵ
Ð ł
Ø Ń
ç ©
in et
Ġp ink
Ġp ago
or ous
Ġm itosis
Ġf ans
Ġw izard
Ġb ucle
Ġh ub
ad y
id ents
ER T
Ġn ick
ĠÐ Ľ
il ation
el os
Ġg or
Ġg uer
Ġqu iz
ul ary
ĠA st
Ġv ivo
Ġv apor
ĠC la
ĠS M
ĠS l
ĠS ong
ĠS ony
ĠS uddenly
Ġr are
ab ilidades
Ġ1 000
od a
Ġth in
Ġst ated
Ġst ead
av o
ĠL Ã¡ctea
ib l
ak s
ak ers
ĠF und
Ġsu it
Ġsu erte
Ġso f
Ġpu ertas
rom a
Ġsh ip
Ġsp ring
ard o
ier as
Ġwe aring
ra el
Ġam erican
ens or
ber n
ĠV o
Ġind em
Ġund ers
ĠAn ton
ĠDes arrol
Ġz ana
Ġz ucch
Ġcustom ize
Ġ< =
Ġcal ab
ĠðŁ Ľ
Ġpod en
Ġsec ciÃ³n
Ġmodel ado
ĠÑ ī
ativ amente
ĠÑĤ Ð¾Ð»ÑĮÐºÐ¾
Ġseg ura
Ġsal ad
ĠRe view
ĠÑĢ ÐµÐº
Ġtext s
Ġpub lish
ĠÑĩ Ð¸ÑģÐ»
Ġneces ites
own ed
Ġcaus ar
Ġrem ark
Ġmejor a
lect ual
Ġorgan ize
ĠÐ½Ð° Ñģ
Ġwell being
ĠÐ· Ð´
ze a
ĠPr ior
Ġconoc idos
Ð¾Ð± ÑħÐ¾Ð´
Ġjust icia
Ġfut ur
Ġartificial es
Ġbro ther
Ġdest in
pro cess
Ġdesc ans
ĠIm per
Ġci ut
Ġgust os
ĠEm ploy
Ġprote g
Ġdocument ation
Ġquier as
Ġfu ertes
ĠLe on
Ġsens or
Ġimplement aciÃ³n
ĠÑģÑĤ ÑĢ
Ġdin osaur
ĠRep ort
Ġ199 1
Ġmol t
åĪ ¶
Ġdiscover ing
ĠIns ert
Ġmotiv ate
åĲ Į
ĠØ £
Ġconvert ido
ĠGu ix
ĠÐ´ÑĢÑĥÐ³ Ð¸Ñħ
Ġtables poon
Ġuns upervised
Ġur g
Ġafect a
Ġvot re
Ð¾Ñĩ ÑĮ
Ar ray
Ġmoment os
ĠÐ¿ÐµÑĢ Ð²
ĠPart ido
Ġvuel ve
ĠðŁĳ ©
Ġemphas ize
Ġfoot print
cont ent
Ġmatch ing
Ġcloth es
Ġhyp ot
Ġinfluenc ers
Ġload ing
å· ¥
Ġcircu ito
Ġintens ity
Ġdich o
Ġexecut ive
Ġmad re
Ġimper ative
æķ° åŃ¦
Ġagre ed
Ġdivis ible
Ġimprov ement
Ġobs erve
sign up
Ġmue ve
ĠEas tern
Ġmemor able
Ġrut ina
åģ ļ
Ġsymb ols
Ġelim inar
Ġgluc ose
ĠCann ab
ĠHen ry
Ġexo plan
ĠMongo DB
Ð¾Ð±ÑħÐ¾Ð´ Ð¸Ð¼
( {
) ?
A mer
G o
L O
N LP
c or
f re
f igur
f actor
h ua
j an
l ined
p i
p redict
s pr
t ur
å ī
æ ¸
æ ģ
Ġt ang
Ġs ÃŃmbol
Ġd ust
Ġp is
Ġthe ories
Ġl un
Ġm ale
is er
Ġf otos
ic z
Ġw ise
Ġde i
Ġde ja
Ġin ac
Ġin hab
Ġh orn
us es
us ing
us hing
ad ura
id al
ĠÐ ¥
ĠÐ §
il ant
Ġg ol
Ġre pair
Ġla ughter
ĠT re
est ed
Ġis ol
ĠC ov
ÑĤ Ð°
ter iores
Ġpar allel
Ġex emple
pl ied
ĠD ol
ĠD ies
ĠD ream
ĠB ot
ĠB ird
ĠL arge
op t
Ġwh isk
ĠG er
ĠG ir
ĠF res
ĠF eder
Ġlos e
Ġso b
Ġso ja
ĠN egative
Ġdes con
Ñĥ Ð³
Ġpl ate
Ġk illed
Ġper ros
ide o
Ġab arc
uch en
Ġar ena
Ġ3 7
Ġsp am
Ġsp oken
ach es
ier ce
Ġgr ace
Ġstr ict
Ġnot ation
ĠV ÃŃa
Ġrel ative
ĠUn d
ĠUn ity
ĠK ey
Ġind irect
ub es
ub re
Ð¼ Ñĥ
Ġnum eros
Ġson t
Ġut ilidad
Ġpo et
Ġsim ile
Ġbo iling
Ġsc atter
Ġmat ches
cl ose
Ġsobre viv
Ġdur ch
Ġentre v
af e
ix el
cu ento
ÑĨ Ñĸ
Ġsup posed
truct ured
Ġprof undo
Ġorgan izaciÃ³n
ÐµÐ¼ Ñĥ
Ġmo lecular
Ġexist s
app ro
app uc
ĠFor ce
Ġrecom ienda
Ġdepend ent
Ġpopular ity
Ġpreg n
Ġprint f
Ġdise Ã±ar
ĠPl at
Ġdirect ed
Ġesc ena
Ġshow ed
Ġsignific ance
Ġpap as
Ġrespons abilidad
ãģ Ļ
Ġcomun ic
Ġrepresent ed
Ġinteract uar
ĠÐ²Ñĭ ÑĩÐ¸ÑģÐ»
Ġdetermin ado
Ġveget ales
Ġwarm th
Ġpoll ut
Ġexperiment ar
Ġprec ision
Ġclear ly
istic ated
Ġestab an
Ġspecial ized
Ġwin ning
Ġaltern ativa
ĠRed uc
åĪ «
Ġtravel ing
Ġspeed s
ĠMed iterr
å® ļ
Ġlibr er
åĲ Ī
Ġfeature d
Ġlimit ations
Ġescr ito
Ġarm onÃŃa
Ġsatisf ied
Ġstrength s
Ġefic ientes
Ġhabit antes
Ġimm ense
ĠComm ission
Ġmedic ina
Ġjud ges
vas cular
Ġfrut a
æĸ ĩ
Ġcast le
ĠPot ential
unk tion
Ġbibliotec as
Ġderech o
ÐµÐ½Ð¸ ÐµÐ¼
Ġsimpl er
Ġsurround ing
Ġhol iday
Ġsummar izing
Ġbruj as
Ġreward ing
Ġast ro
ĠHy per
Ġrat io
Ġcamp amento
Ġcro ps
Ġresid ents
Ġnad ie
å½ ĵ
Ġmuj eres
Ġta ught
Ġdificult ades
Ġpuzz le
ĠAnal ysis
éħ Ĵ
Ġbenefic ios
ĠÐ·Ð°Ð´ Ð°Ñĩ
Ġguitar ra
ĠFol low
ĠInform ation
Gr acias
ĠFred dy
Ġdistract ions
Ġplug ins
Ġoverwhel med
Am Ã©rica
Ġchrom osomes
Ġpunter o
Ġstre ets
ĠMÃ© xico
ÐµÑģÐ¿ ÐµÑĩ
ĠProf ess
ĠBene fits
ĠÐ½ÐµÑģÐº Ð¾Ð»ÑĮÐºÐ¾
ĠpÃ©r dida
ĠÐ¾ÑĢÐ³ Ð°Ð½
Ġespin acas
4 6
F S
N ew
S o
h men
p at
r ado
s ec
u erta
z co
z ione
Ã ¬
æ į
ç ®
è ª
é ¦
Ġa trib
Ġt ape
in to
Ġc affe
Ġc iencias
Ġs we
Ġs elling
Ġs qrt
Ġd it
Ġd ut
Ġd ib
Ġp ue
Ġp ump
Ġm aze
is ation
Ġf ich
ic ians
Ġde aling
ad ing
Ġn acional
Ġn orte
ut ely
Ġg er
Ġg ig
Ġg ene
Ġg onna
et her
Ġcon form
Ġcon vent
ul in
ĠA ix
Ã³ digo
ĠC ats
ĠS D
ĠS ent
ÑĤ Ð¸
uc iones
Ġr anging
Ġr uido
Ð° ÑĨÐ¸Ñı
tr as
ci ous
Ġes as
st art
Ġon ions
Ġus ername
ÑĢ Ñı
Ġst one
ch ing
ĠB et
ĠF ederal
Ġsu ff
Ġsu ited
Ġest imate
ĠR a
ĠR ow
ĠR SF
Ġcomp elling
Ð» ÐµÑĤ
ĠN on
ĠN ature
ĠN acional
Ñĥ Ðº
Ñĥ Ð°Ð»ÑĮ
Ġch ess
Ġser ÃŃan
Ġad verb
Ġlo an
ĠJ up
ĠJ orge
ĠÐ² Ð»Ð°ÑģÑĤ
Ġrec uper
Ġro ots
Ġperson es
Ġcu ar
ĠV ery
ÐµÐ½ Ð½Ð¾Ð¹
Ġfr action
ov ers
ub les
Ġdec ades
Ñħ ÑĢÐ°Ð½
ĠLa ura
ĠAl low
Ġexper tos
ish ment
cul as
po ol
ĠÐ¼ Ð¸ÑĢ
ĠðŁ Ļ
Ġmet rics
Ġtu v
Ġbl ues
Ã¡n ico
ph ones
oth ing
Ġart work
ÐµÐ» ÐµÐ¹
Ġpop ulations
Ġdr ied
Ġdr inks
Ġ[ "
Ġdur ant
Ġdur aciÃ³n
Ġshe ets
Ġcur rency
Ġstud io
Ġchar ity
Ġfin s
Ġneces itan
Ġmo ver
Ġmark ed
Ġprot ot
ĠSe lec
Ġcas h
Ġsig las
Ġpersonal idad
ĠÃ© t
ath ers
Ð¾ÑĤ Ð¾Ð²
ÐµÐº Ñģ
bo x
bo ards
Ãł n
Ġemb ark
Ġcorrect o
Ġcolor ful
ertain ly
ĠÐ¾Ð± ÐµÑģÐ¿ÐµÑĩ
ä» ĸ
ĠGr ad
Ġrepresent ing
Ġexc it
ÑĦ ÑĦ
Ġbien estar
ÃŃst ico
ĠRec om
Ġjug u
Ð°Ð¶ Ðµ
Ġir reg
Ġpan el
Ġpriv acidad
Ġverd es
Ġear liest
Ġport able
Ġrep ublic
ĠÑĤÐ°Ðº Ð¸Ñħ
ĠAlg orithm
Ġ199 9
Ġnews paper
ĠTrans fer
Ġmel ody
ĠIr an
Ġclos ely
Ġbring ing
ĠPol ish
Ġlibr erÃŃa
err or
Ġveh ÃŃculo
Ġfig ura
Ġfig ures
Ġmagn et
Ġsubject ive
ĠSal t
Ġgas ol
Ġarm s
Ġdiscuss ion
ĠBar b
str ong
Ġvalid ation
Ġinstit ution
Ġdemand a
ĠdifÃŃcil es
eles cope
Ġdud as
Ġchemical s
ĠÐ¿Ð¾Ð¼ Ð¾ÑĩÑĮ
Ġconv ierte
ĠPrin ce
ĠseÃ± ales
Ġfilos Ã³
Ġfrequ ently
Ġpie zas
Ġfat igue
èĢ Į
Ġenf oca
Ġseleccion ar
Ġmac ro
ĠEg ipto
Ġcond iciÃ³n
Ġutil ize
Ġfib er
ĠEle ctric
Ġdisrup tion
ĠÐ»ÑİÐ´ Ð¸
writ ing
Ġtempor al
ĠmÃ¡g ica
Ġestad ÃŃstica
Ġavent ura
Ġterc era
ogrÃ¡ fica
ĠÐ´Ð°Ð½ Ð½ÑĭÑħ
Ġvulner able
Ġaceler aciÃ³n
Ġcoup le
def ined
Ġcuid ado
Ġpaqu ete
Ġaguj eros
ĠÐ·Ð°Ð² Ð¸Ñģ
Ġcircum st
Ã¼h ren
Ġcotid iana
Ġacompa Ã±
Ġpobre za
Ġmention ed
Ġrab bit
ĠÐ¾Ð¿ÑĢÐµÐ´ ÐµÐ»
Ġautent icaciÃ³n
ĠAssoci ation
Ġprocrast ination
Ġstake holders
Ġsoph isticated
ĠIrland a
ĠRSF SR
" ).
4 1
6 00
B T
C D
C ertainly
P ar
S E
d el
h igh
k k
m ask
p age
r at
s peed
} {
Ð ķ
ç ±
è ½
es y
Ġc ave
Ġc out
Ġs atur
Ġd ense
Ġl ig
Ġl ento
Ġm uff
Ġo ceans
is che
it ance
Ġw ireless
os ion
ro c
Ġof ic
ur ar
el n
Ġla ugh
Ġcon ci
ĠT im
ĠT iene
Ġv iento
ĠW he
ĠC ir
ĠS yn
ĠI DE
Ġpro of
Ġr ub
Ġr ival
ĠE ra
ĠP ay
ĠP and
ĠP ost
ĠP eter
um ing
Ġbe ber
Ġes cribe
ly n
ĠD as
iz an
ĠM ain
ĠL ow
ĠH am
Ġwh is
ĠF act
ĠF ood
Ġtr ick
ĠR ey
Ġcomp ro
Ġwas n
ip her
Ġdes per
act o
Ġch ip
Ġch ronic
Ġper ce
Ġj ak
Ġsp ices
ĠJ eff
ach er
Ġdat es
Ġpre ced
ier an
ier ung
Ġgr ain
Ġgr ains
Ġem it
Ãº an
Ġ5 9
Ġent rar
ĠÑģ Ð¾ÑģÑĤÐ¾
ari amente
Ġdata frame
ĠEn vironment
olog ists
Ġcu bo
ĠÐ½ Ð°Ð¼
Ġincl u
ĠV ent
Ġprogr es
Ġint el
Ġnum Ã©r
Ġinform aciÃ³
Ġenerg Ã©tica
ÐµÑĢ Ð²
Ġcomple ja
Ġsim ult
Ð¿ Ð¾Ð»
Ġset up
Ġresult a
Ġret ro
Ġtext ure
Ġcam in
cu le
Ġfin as
Ġlead ers
lect or
Ġprot ocols
Ġpas te
ĠSe e
Ġbel le
Ã¤ ch
Ġpublic ation
Ġpa ella
Ð¾Ð± Ñī
Qu ieres
Ġfeel s
ĠPl ut
Ġdirect ions
ĠAp ollo
Ġrespons ibilities
Ġsun ny
Ġneg ro
Ġcalcul a
Ġcalcul ating
Ġleg s
ĠIm age
let as
Ġrecogn ized
ĠAt tic
Ġchild hood
Ġexplor aciÃ³n
Ġcontrib uting
Ġbar ra
ĠPre par
Ġcompos er
åħ ¥
Ð¾Ð²Ð°Ð½ Ð¸Ðµ
ĠfÃ¡cil mente
Ġdecid iÃ³
Ġmonth ly
Ġinstall ation
Ð¾Ð»ÑĮÐ· Ð¾Ð²
Ġconflic ts
Ġparagraph s
Ġsn ack
Ġmanage able
Ġformat ting
Â» ,
Ġcuer pos
Ġindic ates
Ġconstruct ed
ÐºÑĥ Ñģ
olÃ³g ico
ĠAustr ia
ĠÐ¸ÑģÐ¿Ð¾Ð»ÑĮÐ· Ð¾Ð²Ð°ÑĤÑĮ
Ġcerc ano
Ġtim ely
ĠStud io
Ġmanip ulation
ĠÑģÐ²Ð¾ Ð¸
Ã³l ica
ĠLat te
Ġconect ar
Ġposit ivo
Ġdeclar ative
Ġrepet itive
Ġcolon ies
Ġcolon ial
Ġdyn asty
Ġverdad ero
ĠcomÃºn mente
ĠMat hemat
ĠIh re
ĠSant a
ĠRob ot
å· ±
ĠEvery one
ĠPa ul
ĠSir ve
Ġroll ing
ĠÐ»ÑİÐ´ ÐµÐ¹
Ġenem igos
éĩ į
Ġimpos ible
Ġsubst ance
Ġhunt ing
Ġtact ics
ĠWork ing
ĠlÃŃqu ido
fol io
ĠProgram ming
ĠraÃŃ z
ĠIS P
ĠZe it
Ġretrie ve
Ġhousehold s
Ġlon eliness
Ġinj ury
Ġindividu o
Ġiniti atives
Ñį ÑĤ
ĠÑģÐ²ÑıÐ· Ð°Ð½
Ġata ques
ĠÑģÐ»ÑĥÑĩ Ð°
ĠCE O
ĠÐ»ÑĥÑĩ ÑĪÐµ
tain ment
Ġreus able
ĠÐºÐ¾Ð» Ð¸Ñĩ
Ġcardio vascular
Ġfif th
ĠVen us
Ġpromin ent
ĠVenez uela
ceptr Ã³n
Ġdollar s
Ġinic iar
Ġbast ante
ĠBrook lyn
Ġejec uciÃ³n
Ġmund ane
Ġartif act
CTY PE
2 8
3 1
3 9
6 8
> <
B uen
C al
C affe
O f
R I
S c
a ire
f ry
g ine
l ink
m t
m ap
s end
u ve
w hat
x es
z ym
º èĥ½
Ã ī
Ï Ģ
å İ
æ ·
ç Į
ç ł
è ±
è ¶
Ġt ender
Ġt onos
on io
Ġs uddenly
Ġd uro
or ado
ar los
an Ã§a
Ġl ing
Ġo g
Ġb is
Ġb iz
Ġh ockey
qu esta
ur ales
Ġg uest
Ð¾ ÑıÑĤ
ĠA WS
Ġv ivid
ĠW in
ĠW al
ĠW ill
ĠC ab
ĠS pe
ĠS ichuan
Ð¸ ÑĪ
ab r
ÃŃ amos
ay o
Ġse ves
ist ers
ag uas
Ġes cuela
Ġpar ad
ess age
Ġst ages
ĠD al
ĠD ial
iz Ã³
ĠM amm
ĠL ive
ĠL ua
ĠH ier
ĠH ear
ĠG mail
ĠF ro
ĠF ord
Ġtr end
ment o
Ġcomp uesto
Ġpr icing
te il
ip pet
Ġle an
Ġimp uls
Ġdes ire
Ġdes cripciÃ³n
ich te
Ġj og
Ġsh r
Ġinc om
ell es
Ġlas ting
Ġap t
Ġad icional
Ñĭ Ñĩ
Ġcl oves
ĠJ u
our ces
Ġgr ade
ific aciones
ens ibilidad
Ġsol ved
Ġcu ent
Ġcu Ã¡les
Ġev apor
ater al
ĠV ader
ov ed
plic ation
ĠAd am
Ġall a
Ġall Ã¡
Ġcar n
ĠÐº Ð°Ð¶Ð´
Ġz o
ĠÐ¼ Ð°ÑģÑģ
Ġver bs
Ġmet as
Ġmet od
res ponse
Ġpod ÃŃa
Ġbl ocks
Ġlarg ely
Ġrequ iring
ï¼ ģ
Ġexpl ains
Ġart istas
ĠÑĤ ÐµÑĢ
ĠPro duc
yth m
crip ting
Ġdr ug
Ġtext os
Ġhuman ity
iem bre
Ġdep ict
ĠÑĩ ÑĥÐ²
Ġneces aria
Ġfil tro
Ġcent ra
ĠÐ· Ð°Ð±
Ġespec ies
Ġespec ie
Ġder ived
ĠFor ces
uev a
Ġimpact ed
Ġcomb ines
Ġlearn s
ĠBe autiful
Ġvers at
be at
Ġten ir
Ġneg ot
sc ore
Ġmar ine
Ġein ige
äº §
ĠUS SR
ĠIs a
Ġbien es
Ġsee ks
ĠRes erve
çĶ µ
Ġmant iene
Ġdocument aciÃ³n
Ġexplor ed
Ġcontrib uted
Ġpoder es
Ġport folio
ĠÑģÐ² Ð¾Ð¹
Ġciud ades
ĠRep resent
enn y
Ġmol tes
Å¼ y
Ġlleg Ã³
Ġsalud ables
Ġllev ado
Es cribe
Ġcompan ions
Ġtransform ada
ĠÐĿ Ð¾
ĠÐĿ Ð°Ð¿ÑĢÐ¸Ð¼ÐµÑĢ
Ġfundament ales
Ġcollect ing
ĠHar per
ĠÐŀ Ð±
Ġill nesses
Ġimm ers
Ġsil ver
Ġsil ence
Ġho jas
æĹ ¥
Ġgrad ually
è® ¾
Ġharm ony
ĠCont rol
ðĿ Ļ
Ġmechan ical
Ġposit iva
Ġimpres ionante
Ġdeclar ed
Ġdyn am
Ġdetall ada
Ġcel est
Ġgather ed
Ġinterf aces
ĠmÃ³ viles
Ġstrugg les
Ġremind ers
Ġcorrespond iente
Ġrh ym
ĠChat bot
ĠAutom ated
ĠÐ¾Ð¿ ÑĭÑĤ
Ġremov ing
Ġcuadr ado
ĠÐ¼Ð½ Ð¾Ð³
ĠdiseÃ± ado
Ġillustr ate
Ġhumor ous
ĠÑģÐ¾Ð± ÑģÑĤÐ²ÐµÐ½
Ġphotos ynthesis
ĠÐ´Ð¾ÑģÑĤ ÑĥÐ¿
Ġrein forcement
ÑĥÐ»Ñı ÑĢ
ĠclÃ¡s ica
Ġmatr iz
Ġindividu os
Ġrestrict ions
Ġrued as
wh ile
Ġmitig ate
Ġdra wn
dig it
ĠfenÃ³m eno
Ġpenal ty
åŁ º
Ġeuro pe
ytechn ic
ĠÐµÑī Ñĳ
ç¡ ®
ĠÄ ĳ
ĠMaj or
ĠÐ¿ÑĢÐ¾ÑĨ ÐµÑģÑģ
Ġcic lo
ĠÐ¿ÑĢÐ¾Ð± Ð»ÐµÐ¼
ĠFest ival
ĠÑģÐ´ÐµÐ» Ð°ÑĤÑĮ
ĠKenn edy
Ġcucharad ita
Ġpollut ants
ĠMediterr ane
Ġexcit ement
% )
A g
I P
M i
S P
W eb
b ow
b ear
b be
f loat
g in
h l
l ers
n al
n atural
n ormal
p ost
r ap
s en
s ection
s cripts
w id
x imate
Ã ´
Ð §
ç ĸ
é ¡
Ġ Å¼e
Ġt ap
Ġt ags
es p
Ġs ul
Ġs ending
Ġs cripts
Ġd y
Ġd ict
Ġp iv
Ġp uc
Ġp ets
Ġp itch
at ically
ar la
ar ry
an ut
Ġm ostr
Ġo vers
as c
it ors
Ġf om
Ġf lying
Ġw is
Ġw ir
Ġb le
Ġb oca
Ġh int
Ġy esterday
im ination
Ġg eg
ĠT u
ĠT ay
Ġv ec
ĠW a
ĠC ult
ir ma
Ġpro pr
em per
Ġr ar
Ġcom ments
tr l
if ier
Ġal umn
ĠP ick
st ack
Ġex port
ÑĢ Ð¾Ð±
ĠM es
ĠM and
ĠM arte
ĠB or
ĠB ern
ĠB ush
end ers
ĠH old
op ter
ĠG ard
ĠF ocus
ain er
Ġsu fr
Ġpr a
ill ion
ĠIn gen
Ġk g
Ġj ung
Ñı ÐµÑĤ
Ġar a
Ġar ise
Ġ3 4
Ġcre encias
Ġcl ients
Ġlo ops
ĠTh ings
ĠÐ¿ Ð¾Ð»ÑĮÐ·Ð¾Ð²
lo j
ional ly
ik ing
ari able
ok es
ord in
ĠÐ½ Ð°Ð±
ĠV an
ÐµÐ½ Ð½ÑĭÐµ
ĠK on
ĠCh alleng
ÐµÑĤ Ð¸
ĠÐº Ð¾Ð³Ð´Ð°
Ġher esy
Ġ19 30
Ġval iosa
Ġz ur
Ġz onas
Ġver ificar
uest as
Ġtem ps
ĠÐ´ ÐµÐ¹ÑģÑĤÐ²
Ġutiliz adas
ys ical
ĠÐ¿ÑĢ Ð¾ÑĤ
Ġins urance
Ġacc idente
Ġincre ÃŃ
Ġknow ing
Ġdeb ut
Ð¾Ð´ Ð°
ung er
Ġfl at
ÑĨ Ðµ
ÑĨ Ð¸Ð¹
Ġet apas
Ġll oc
Ġsum ar
Ġ201 7
ĠÑĥ Ð¼
Ġadd s
Ġtemper aturas
Ġatt ending
Ġoper aciÃ³n
Ġeconom ics
Ġeven ly
Ġemb ar
Ġsw ord
Ġsw imming
ĠBe isp
Ġvers e
Ġvar ÃŃa
ator ial
Ġleg end
Ġpredict ing
ĠÐ» Ð¸Ñĩ
ĠUS B
ĠÐ²Ñĭ Ð¿
Ġcir cul
Ġexpress ions
Ġshort est
ĠEm p
ĠX V
Ġhead s
Ġrecogn izing
Ġsecond s
Ġsens ibilidad
Ġpriv ado
Ġverd ures
Ġcontrib utions
Ġperi ods
Ġmeet ings
Ġsort s
Ġrespond ing
Ġpermit irÃ¡
è¯ ·
Ġexplic aciÃ³n
Ġcab eza
Ġaddress ed
Ġspread s
18 0
urr ing
Ġarchitect ural
Ġelectric idad
ĠPe ace
Ġhabit at
ĠVer b
ĠMin ecraft
load s
Ġband era
Ġesper anza
gress ive
It ems
Ġang les
ĠÐĶ Ð»Ñı
ĠkÃ¶n n
Ð¸ÑĤÐµÐ»ÑĮ Ð½Ð¾
Ġbuen as
Ġfer ment
uts ch
Ġcirc un
ĠaÃ± ade
ĠSeg unda
ĠBus ca
åĽ ŀ
Ġasist entes
Ġemple o
çŃ Ķ
Ġhabl ando
Ġappreci ation
Ġelimin ated
Ġdiscipl ina
Ġprofund idad
Ġnutrit ious
ĠJos eph
Ġrenov ables
Ġadm ir
ÐºÑĤ Ð¸Ð²
emb ly
ĠcrÃŃ tica
Ġpus hed
ĠAÃ± ade
ĠAÃ± adir
Ġimprov ements
Ġcuest iÃ³n
Ġblanc a
Ġsegment ation
agu ay
Ġwing lets
Ġhyper param
Ġalegr ÃŃa
Ġrecip es
Ġnego cio
Ġtendr Ã¡s
Ġvocab ulary
Ġwo ods
æĮ ģ
ĠEnc our
ĠCount y
ĠÑĥÑģÑĤ Ð°Ð½Ð¾Ð²
Ġchann els
Ġprecip itation
Ġforg ot
ĠPed ro
Ġcolle agues
ĠMens chen
Ġremark able
7 1
A P
C appuc
D is
M an
N I
P oint
] );
d os
i Ã¨re
k unt
n old
o i
p ub
t ors
z er
Ä «
ç ķ
è į
Ġ )
Ġ ul
Ġ ÙĦ
Ġa i
Ġa ug
Ġa isl
Ġt k
in it
en so
on cept
Ġs cripting
Ġd ot
he m
he im
he alth
or f
at ge
an ch
is trar
it ivo
it ats
ic ias
Ġw et
Ġw ants
Ġw ins
Ġw ides
Ġe c
Ġe do
Ġb ail
Ġb la
Ġto ast
Ġh ack
us amm
ac le
ur st
Ġn Ã£o
ol id
Ġun int
Ð¾ ÑĦ
Ġcon e
Ġqu eda
ĠT or
ul g
ul ous
Ġv est
ĠW ell
ĠC orn
ĠS ave
ĠI re
Ġpro ve
Ġr ac
Ġr aces
Ġr acial
Ġcom andos
Ð¸ Ð°Ð½
Ġal f
ci ales
ci endo
ate ful
Ġon going
av ery
ĠD arth
ĠM er
ĠB uy
ĠL ower
ĠL ike
ĠH on
oc cer
Ġ2 50
ĠF o
ĠF ree
ap i
Ġsu a
Ġest Ãł
og en
Ġcomp assion
ĠN a
Ġdes en
ug u
ine ar
Ġch ips
Ġk ids
Ġj am
Ġab uelo
Ġar d
Ġsh ining
ĠO x
ĠO tra
Ñĭ Ð±
Ġcl ause
Ġsp oke
Ġdis asters
ĠJ ones
ier tas
ĠTh anks
Ġcont ened
Ġem o
ra ham
Ãº p
Ġ4 6
ĠÐ² Ð»Ð¸Ñı
Ġro ja
Ġro cks
Ġcu yo
Ġcu brir
Ġfr ases
ĠK ong
ail s
ons ter
Ð¼ Ð¸Ð½
Ġcar Ã¡c
ĠÐº ÑĢ
ĠÐº Ð¾Ñģ
ĠÐ¾ ÑģÑĤ
Ġbr ush
Ġbr illi
Ġgener ating
Ġhab e
ĠCom ida
Ð¿ ÐµÑĢÐ°ÑĤÑĥÑĢ
its u
ph en
ĠÑĤ ÐµÐºÑģÑĤ
cl ass
fr ica
ĠRe ino
Ġayud en
Ġprovid ers
Ġinst ancia
ÑĨ Ð°
Ġconsider ing
iss ance
ĠÐ± ÑĢ
cion ar
get s
Ġclass ical
ĠÐ½Ð° ÑĥÑĩ
Ð¾Ð¶ Ð°Ð»
Ġprin ces
ĠAmer icans
Ġmen ores
ĠSe ason
Ġperm ita
vers ed
Ġmem br
Ġbre ve
Ġleng ua
Ġcomb ate
vern adero
Ġoc as
Ġoc urre
Ð¸Ð² Ð°ÑĤÑĮ
ĠAm b
Ġgen es
Ã¶ t
Ġintegr ales
Ġvol unte
Ġmar ca
ĠCol labor
Ġleg acy
Ġline al
Ġfac es
Ġdetermin ing
Ġdisc re
Ġexpress es
ĠX ML
ĠRec ogn
ĠÐ¸Ð· Ð¼ÐµÐ½
Ġâ Ļ
Ġprefer ence
Ġimag ing
Ġir re
Ġear lier
Ġemploy ers
Ġemploy ment
ecut ive
Ġjourn al
å¤ Ł
ÑģÐº Ð¸Ð¹
ĠÑĢÐ°Ð· ÑĢ
Ġdese o
ĠMy SQL
Ġpermit ido
Ġteach ings
Ġfuncion ar
Ġconj ug
ĠpolÃŃ ticos
ĠÃºn icas
the tic
Ġfall s
è¿ ĩ
è¿ ĺ
Ġcit t
Ġmeasure d
Ġreli ability
Ġqual ifications
hel lo
Ġsor prend
Ġpassword s
ĠÑģÐ¾ ÑĨÐ¸Ð°Ð»ÑĮ
å° ı
ĠÐ¿ÑĢÐµÐ´ Ð»
ij ing
Ð¸Ð± Ð¾
Ġdiagn ose
OS IX
ĠSub ject
Ġasegur ar
Ġvect ors
Ġadop t
Ġcier tas
ĠAir port
Ġencontr Ã³
ĠIncre ase
Ġple asant
Ġinvers iÃ³n
Ġsac rific
Ġsusp icious
Ġdead lines
ĠÐ¶Ð¸Ð·Ð½ Ð¸
å¥½ çļĦ
ĠSpr ing
Ġkeyword s
Ġrepe ated
Ġcharg ed
Ġconsci ente
Ġnac imiento
ĠOpt im
Ġbrind ar
çĤ ¹
Ġaccomplish ment
çĽ ®
ĠtÃŃt ulo
Ġdefinit iva
ĠÑĩÐµÐ»Ð¾Ð²ÐµÐº Ð°
Ġpuzz les
Ġnar anja
Ġrued a
çī ©
Ġbacter ia
å¿ ĥ
æĻ ºèĥ½
èĩª å·±
ĠplÃ¡ t
Ġinterval o
ĠGold en
ĠEnter tainment
Ġspin ach
Ġtherap y
ĠRE ST
Ġcrow d
Ġadvertis ement
Ġfro zen
Ġhes itate
ĠHist ory
Ġpelig ros
Ġtarjet a
çİ °
Ġtrop ical
Ġunc ertain
ĠDif fer
Ġvale ur
Ġanc est
ĠCort a
Ġdipl om
Ġcaptiv ating
ĠNether lands
Ġplast ics
ĠCannab is
Ġabarc Ã³
Ġcircumst ances
Ġwides pread
ĠcarÃ¡c ter
3 00
4 7
H T
M T
O b
S oy
U R
V ers
` ,
f ly
g ener
i age
j u
k ens
p as
s ite
y er
æ ´
Ġa we
Ġt Ã¡ct
Ġt azÃ³n
on ut
Ġs ess
Ġs udo
Ġp ond
Ġp Ã¡r
ar ra
Ġl umin
Ġl echuga
Ġm are
Ġm arch
Ġo k
it ious
Ġan cho
Ġw ww
Ġb icicleta
Ġin vertir
Ġin vernadero
un as
un ct
un ately
Ġh ombres
us a
qu ery
ur i
Ġn il
ol i
ol as
ol ars
ut os
ut il
Ġcon fer
Ġcon gest
Ġqu Ã¨
ĠT ut
est ima
ĠA BC
Ġv ital
ĠS or
ĠS leep
Ġpro pos
Ġr ango
tr ack
ÃŃ e
ĠP C
Ġse hr
Ã¡ b
Ð½ ÐµÑĢ
Ð½ ÐµÐ¹
Ñģ Ñĭ
Ġex itos
Ġst ro
Ġst ood
av er
ĠD id
ect os
ĠM aterial
ĠM ongol
ĠB ecause
ud es
ĠL l
ĠH ot
ĠH ob
ĠG raph
ĠF uture
ain ted
Ġhe x
ĠR est
Ġpr zy
Ġso up
Ð» ÐµÐ´
ĠN ach
Ġpu p
Ġch urch
ĠIn cl
Ġpl acer
Ġk id
Ġj ur
ell er
Ġcre d
Ġcre ma
Ġsp ons
se ud
Ġac umul
Ġdis pl
âĢ ĭ
ĠÐ¿ Ð¾ÑĤ
ĠÐ¿ Ð¾ÑģÑĤ
lo ok
Ġinter connected
Ġ4 8
Ġent ra
Ġob j
Ġro z
Ġro asted
Ġcu idad
Ġact ing
ÐµÐ½ Ñĭ
ante quilla
Ġprov oc
ĠK ir
ĠY ear
ld on
Ġinv alu
Ġlist ado
ĠAd v
Ġcar re
Ġcar rots
ÐµÑĤ Ð°
ĠÐ¾ Ð½Ð°
Ġag enda
Ġapp ar
Ġ6 6
Ġbr it
ĠÐ¼ ÐµÑĤÐ¾Ð´
Ġsim ulate
ĠEx c
ĠEx p
Ġprocess or
ĠCom bine
Ġbl end
Ġins ulin
Ġreduc tion
Ġdef eat
Ġknow s
ĠPro ject
Ġpot ente
Ġproduct ividad
Ġav ocado
Ġdeb ugging
Ġdr ama
ĠAr my
erst Ã¼t
Ġcam a
Ġcam ar
Ġfam osa
Ġfl ask
Ġfind ings
Ġrem oto
Ġprof its
Ġorgan izing
ĠÐ½Ð° ÑħÐ¾Ð´
Ð¾ÑĢ ÑĤ
Ġident ific
Ġappro ximate
enc ing
Ġown er
Ð°ÑĤ Ð¸Ð²
Ġconc ret
Ġpodr ia
Ġoc Ã©
ĠShe ldon
Ð°Ð· Ð°ÑĤÑĮ
ah l
Ġprincip iantes
ĠBe ing
ĠÐ° Ð²
ĠÐ½Ðµ Ð¾Ð±ÑħÐ¾Ð´Ð¸Ð¼
Ð¸Ð· Ðº
Ġintegr ation
Ġext ens
Ġkeep s
ĠCol lect
Ġprotect ed
Ġveget arian
ä½ ķ
Ġrecord ing
Ġcho osing
Ġplat os
Ã² ria
Ġaccount ing
Ġworks hop
Ġenjoy ing
Ġsaf ely
Ġgl ad
ĠMan agement
Ġcamb ia
ĠAss ign
Ġadap te
onom ous
ĠCar los
ĠUs er
Ġprepar ado
Ġvia jar
Ġtransform ing
Ġmel ting
Ġdir a
Ġconvert ed
Ġsn ippet
Ġill umin
Ġmys elf
Ġselect ed
Ġweek end
Ġpatr Ã³n
Ġeth nic
Ġindic ar
Ġidi omas
Ġrevolution ary
Ġcombin ing
Ar t
ĠSim ilar
Ġaseg Ãºrate
ĠInc or
ĠAustr alian
Ġeleg ante
ĠPart y
print ln
ĠÐ¼Ð¾Ð³ Ñĥ
Ġinstal aciÃ³n
Ġcerc ana
sp ec
Ġsoluc ionar
Ġdiscr imination
ðĿ ĺ
Ġmist ake
Ġattract ive
Ġalmacen amiento
Ġwond ers
Ġroad s
åĽ ł
ĠRob ots
Ġsurround ings
Ġmad era
Ġantic oncept
Ġtempor ada
Ġtutorial s
ÑģÑĤÑĢ Ð¾
Ġspirit ual
ĠÑĤÐµÐ¼ Ð¿ÐµÑĢÐ°ÑĤÑĥÑĢ
Ġconsci ous
Ġtact ile
ĠHol ly
ĠÐºÐ²Ð°Ð½ÑĤÐ¾Ð² ÑĭÑħ
Ġagre ement
ĠRub ik
Ġsect ions
Ġlect ura
Ġmane jar
æĦ Ł
ĠEcon omic
ç§ į
Ġbrill ante
Ġcompound s
Ġcaball o
ĠGram my
ĠReturn s
ĠÃ³ pt
ĠTok yo
ĠOff ice
Ġlux ury
æº Ĳ
ĠÐ½Ð°Ð² Ñĭ
Ġaprov ech
ĠSit uation
ĠNam ie
iÃ± ones
ĠÐ¸Ñģ ÑģÐ»ÐµÐ´
Ġempath y
ĠÑī Ð¾
Amer ican
spr ing
ĠCov id
Ġcaffe ine
ĠJup iter
ÑĦÑĦ ÐµÐºÑĤ
ĠRecom mend
Ġbelle za
ĠAttic us
ĠÑģÐ»ÑĥÑĩÐ° Ðµ
ĠTay lor
ĠIre land
Ġinvalu able
5 3
7 3
7 8
8 3
9 2
F or
H ab
H az
I O
b at
b ies
e ighth
f aces
f unction
h in
l it
l ock
m ac
m essage
o e
p ol
p ng
r ix
r Ã¤
s uch
s ock
t otal
v ia
w iki
é ¥
é Ĥ
Ġ );
Ġa hÃŃ
Ġt ale
Ġt ienda
er on
Ġs ient
Ġs ÃŃn
Ġp in
at Ã©g
Ġl ots
Ġm l
Ġm ph
al as
Ġf ic
ic les
os to
Ġe pic
ent re
Ġb udd
Ġto kens
Ġh al
Ġh urt
om er
ur g
Ġn as
Ġn one
il ch
im p
ut iliz
am Ã¡
iv ation
Ġg ut
et an
Ġre y
Ġre loj
Ġcon ference
ig an
Ġv iene
ĠW ii
ĠC are
ĠC atch
ĠC ross
ers ensibilidad
Ð¸ ÐµÐ¼
ab s
ot er
ot as
ĠP s
ĠP ict
ĠP oss
Ġ1 20
Ġpar s
Ġpar liament
ess ed
pl ane
ĠD ed
ĠD om
ch anging
ĠB es
ĠB ash
ud son
ĠH und
Ġor b
ĠG ro
Ġtr acks
Ġhe t
Ġhe ating
og ether
Ġpr end
Ġres c
Ġle jos
Ġle vant
Ġimp r
Ġdes apar
Ġch a
Ġch ose
Ġap artment
Ġman if
Ġman ually
Ġsp ac
se en
Ġdis put
Ġat om
Ġwe ights
ff e
ĠÐ¿ Ð°ÐºÐµÑĤ
Ġcons igo
Ġcons ola
ÑģÑĤ ÑĢÑĥ
Ġinter v
ens ing
Ġrec ur
ĠÐ½ ÐµÐºÐ¾ÑĤÐ¾ÑĢÑĭÐµ
ĠV in
ĠV ir
ĠV ict
ĠV iet
ÐµÐ½ Ð°
az ing
Ġproduc er
Ġpos ter
eng a
ĠCh ris
Ġprogr eso
bre ak
iend en
we ise
Ġson r
Ġson idos
Ġag es
Ġag ent
Ġprogram m
ob ic
Ġ6 3
Ġreg istro
Ġpat ience
Ġmet ros
ild ing
Ġhab ÃŃan
Ġtem po
ĠÐ´ Ð¾Ð²
Ġreal ize
ĠEx press
Ġgro ws
Ð¾Ð¼ ÐµÐ½
Ġsc an
Ġthan ks
aph rase
Ġ{ }
Ġsub tle
Ġcur ve
Ġfl ores
Ð¸ÑĤ Ñĥ
Ġmus cular
com pass
mar ks
Ġll ave
Ġterm inar
Ġprot ocol
Ġobject ive
ĠÐ· Ð²
pre ced
ĠÑĥ Ð³
Ġrecom p
Ġref ug
Ġbest e
ĠPr ize
Ġcontin ent
ĠZ en
Ġcomb inar
Ġmot ores
Ġintern a
itar ia
Ġtrabaj an
Ġdev ast
Ġlog ros
Ġenc ima
ĠBe ijing
Ġvers chied
ĠÃ¡ mb
ĠCol umb
word s
Ġrepresent aciÃ³n
Ġdisc our
Ġsab es
ĠÐ¸Ð· Ð¾Ð±ÑĢÐ°Ð¶
Ġrobot ic
Ġfinal mente
ĠPar agraph
Ġsat Ã©l
Ġimag in
ĠBl ock
che ck
Ġpay ing
ĠPre pare
Ġpain ted
Ġmol Ã©
ĠÑĢÐ°Ð· Ð²
â£ ¶
Ġpes cado
onom ic
Ġaltern ate
Ġmaint ained
ĠAut onomous
Ġcort o
Ġcy cl
Ġ196 2
Ġevalu ated
Ġencour aging
Ġencour aged
ĠTe am
Ġphot ography
Ġprofes or
Ġra ised
ĠDr ive
Ġconflic tos
ĠLear n
num s
Cu Ã¡n
ĠÑħ Ð¾ÑĢÐ¾ÑĪ
sel ing
Ġhi ja
ĠSim ple
Ġjud g
lin ing
Ġconsult a
Ð½Ð¾ÑģÑĤÑĮ Ñİ
ĠpÃ¡g inas
Ġcum ple
Ġbeach es
ĠNet works
Ġpresident ial
Ġalbum s
Ġaliment aciÃ³n
ĠÐ¿ÑĢÐµÐ´ ÑģÑĤÐ°Ð²
Ġharm ful
Ġrelacion adas
Ġvirus es
Ġcelebr ate
Ġorient aciÃ³n
Ġinvent ory
Ġfair y
Ġquien es
Ġmut ual
Ġalt ura
Te xt
Ġrh ythm
ĠSup reme
Ġvideoj uego
Ġnutr ientes
Ġseleccion a
Ġgratu ita
Ġejerc icios
Ġterrit ory
ĠDie go
Ġestablish ment
Ġguard ar
Ġexpos iciÃ³n
writ ten
Tr ue
Ġintr icate
ä¿ ¡
ĠPrim era
ĠOf re
Ġextr ater
ĠUp date
Ġbeb idas
Ġfest ival
Ġoutdo ors
Ġgrammat ical
Ġpag ar
ĠMart in
å¦Ĥ æŀľ
Ġpus hing
Ġcoast al
Ġgrocer ies
sub mit
Ġweak nesses
DO CTYPE
Ġsop orte
Ġdesem pe
Ġannoun ce
ĠSn ack
ĠÐ¸Ð¼Ðµ ÐµÑĤ
Ġ## #
Ġspaces hip
Ġnor th
ĠLis zt
Ġcolabor aciÃ³n
cs v
ĠÐ²Ð¸Ð´ Ðµ
ĠparÃ¡m etros
ĠÐ¿ÑĢÐ¾Ð¸Ð·Ð² Ð¾Ð´
Seg Ãºn
asp berry
Ġdorm ir
she ll
ĠIndustr ial
Ġsarc as
ĠÑĩÐµÑĢ ÐµÐ·
ĠQuest ion
Ġdestroy ed
ĠcÃŃr culo
Ġrall ado
ĠcÃ¡ps ulas
Ġdepender Ã¡
ĠUnd erstand
æį ®
ĠWhe ther
ĠÐ¼Ð°ÑģÑģ Ð¸Ð²
ĠIsa ac
Ġalumn os
ĠViet nam
preced ented
. </
1 50
5 5
A B
C S
M ac
U LL
a S
b il
c ars
c ss
f el
f onos
k l
l ad
l ista
m other
p her
u ing
v an
w ing
w urst
z ed
æ ¬
ç ¼
è Ĥ
é ļ
Ġ ib
Ġa u
Ġa leg
en z
Ġc arg
Ġs iente
Ġs udden
Ġd war
or ÃŃa
an ie
Ġm os
Ġm ich
Ġm ide
Ġm ob
it Ã©s
Ġf ats
ic on
Ġan ar
Ġw ine
Ġw are
Ġde fic
Ġe co
Ġto ugh
le ments
Ġh ref
us o
ad dr
ol ar
im eter
Ġun predict
iv als
Ġg uste
ĠT ree
est he
Ġv olv
ĠS as
ĠS end
ĠS ustain
ow ers
ĠI ll
em e
tr ans
ot key
ay ing
iz kunt
ĠM ach
ĠL ic
ĠH udson
Ġcan ales
ĠF ight
ap arte
Ġhe mos
Ġ" Â¿
ĠR ight
og w
Ġcomp te
ĠN one
Ġdes cr
ure a
Ġch ill
ang ular
Ġper ception
Ġcre ando
to od
Ġad min
Ã¡s ico
ĠJ oy
ĠJ ourn
ĠJ untos
ost ream
Ġpre val
ast s
ast ically
Ġgr ateful
ĠÐ¿ Ð°ÑĢ
ÑģÑĤ Ð°
Ġinter rogative
ĠÐ² Ð°ÑĢ
Ġrec uerda
Ġstr aw
Ġnot ice
Ġform ats
Ġhel fen
Ġcu ad
Ġcu ento
Ġpe u
Ġpe ers
Ġev olve
Ġfr ÃŃa
ĠUn o
ĠK ant
ail and
Ġint enta
Ġint uit
ĠAn cient
Ġ19 50
Ġprogram adores
Ġz ure
Ġgener aciÃ³n
Ġaut Ã³n
Ġpat o
Ġpat ents
ĠðŁ «
Ġcor n
ax e
Ġwhen ever
ĠÐ¿ÑĢ Ð¾ÑģÑĤÐ¾
ge b
Ġsc ared
Ġspec ify
Ġexpl ica
Ġsus pect
Ġequ ality
ĠÑĤ Ðµ
Ġtas a
erc a
Ġcr uz
ĠDe utsch
iem po
Ġstud ied
Ġhay an
Ġhist ogram
com fort
Ġsur veys
ĠFr uits
istem a
Ġpas iÃ³n
Ġpass es
ĠÑĥ ÑĢÐ¾Ð²
Ġref ieres
Ġbas ados
Ã¼ ber
Ġgu ar
Ġcontrol led
ĠExpl oring
ĠÑį Ð»ÐµÐºÑĤ
Ġdoc tr
Ġdoc tors
Ġelectr onic
Ġmag ic
Ġfunction ing
rop ol
ÑĢÑĥ Ð·
ĠlÃŃ neas
Ġgen et
Ġpract icing
Ġhard er
Ġless on
Ġext ensive
Ġconsum ed
ĠGr acias
åı Ĭ
Ġrepresent ar
val id
Ġfac ilidad
ĠÐ²Ñĭ Ñģ
ĠÐ²Ñĭ Ð·
Ġren owned
Ġsigu iendo
ĠRew ord
ÑĥÑĩ ÑĪ
Ġwind s
med iate
Ġhor se
for est
ĠIntern acional
Ġconse gu
Ġold er
++ ,
Ġpolit ics
Ġcontrib uir
Ġeg in
Ġport Ã¡til
ĠfÃŃs icas
ĠMe j
ĠMar vel
Ġestab ilidad
ĠÐºÐ¾ÑĤÐ¾ÑĢ Ð°Ñı
åħ ¬
åħ ³
Ġview ers
Ġpermit an
ĠQu iero
Ġteach ers
ĠPer Ãº
Ġcontinu ous
bs p
Ġcheck ing
Ġllev Ã³
ĠDec ide
ĠIns tr
Ġevalu ating
Ġrul er
Ġtro ubles
Ġmagn itude
Ġlimit ado
Ġlimit aciones
Ġpens amientos
Ġserver less
ĠSet ting
Ġdeber Ã¡
ĠGu ard
Ġinteres antes
Ġperspect ivas
Ġdescubr imiento
ĠSc out
Ġdesarroll Ã³
Ġvan illa
åı¯ èĥ½
ĠBo ok
åº ¦
ĠÑģÐ¾ ÑħÑĢÐ°Ð½
Ġexact amente
ĠHum ans
Est a
Ġmyster y
Ġlic enses
Ġbudget ing
ÃŁ en
Ġobst Ã¡culos
Ġreason ing
Ġreason able
Ġfear s
Ġcer dit
Ð½Ð¸Ðº Ð°
ĠComput e
Ġvill agers
Ġasegur arte
Ġord inary
Ġjoin ing
Ġproced ures
Ġproced imiento
Ġ193 9
Ġconcern ed
Ġwr ap
Ġavanz adas
Ġbarr iers
Ã¡nd ose
adem ia
Ġcry stal
Ġfabric aciÃ³n
Ġwel che
Al g
å¾ Ĺ
ĠlÃ³g icas
Ġeat en
Ġsmart phone
Ġtens ion
kt op
Ġetiqu etas
Ġdistint as
ĠLib ert
ĠmÃ¡g ico
Ġfort ale
æŃ ¤
Ġsue Ã±os
Ġauto estima
Ġgall ina
Ġprue bas
ĠÑģÐ¸ÑģÑĤÐµÐ¼ Ñĭ
ĠÃī s
ĠmÃ¶ ch
ĠIS O
ĠWay back
Ġpip eline
Ġfantas y
ĠEnerg y
Ġpreserv ing
ĠHaw king
ĠcompaÃ± ÃŃa
ĠAz ul
ĠAdministr aciones
Ġfascin ating
Ġsan it
ĠenseÃ± anza
ĠhistÃ³r icos
Ã¶r per
Ġblank et
Ì¦Ì¦Ì¦Ì¦Ì¦Ì¦Ì¦Ì¦Ì¦Ì¦Ì¦Ì¦Ì¦Ì¦Ì¦Ì¦ Ì¦Ì¦Ì¦Ì¦Ì¦Ì¦Ì¦Ì¦Ì¦Ì¦Ì¦Ì¦Ì¦Ì¦Ì¦Ì¦
âĸĪâĸĪâķ ĳ
ĠGPU s
Ã©tr ica
Ġvolt aje
ĠÐ¸ÑģÑĤ Ð¾ÑĢ
Ġasc ending
è¯Ń è¨Ģ
Ġappe aling
ĠCicl ista
Ġadequ ate
Ġcoron avirus
Ġtrist eza
Ġchamp iÃ±ones
ĠÐ¾Ñĩ ÐµÐ½ÑĮ
Ġamar illo
ĠBon aparte
Ġdul ce
ĠGalax y
Ġsout hern
Ġfluct u
Ġizquier da
æģ ¯
ĠsÃŃmbol o
ç± »
seud oc
9 5
B I
E S
E m
F old
K U
M s
P lease
c coli
e vent
f Ã¼
g re
g ir
i ago
i ostream
m or
o ons
r Ã©
s u
t i
w o
z es
æ Ĳ
Ġ ST
Ġt ost
Ġt ire
en ch
er av
on ar
Ġs am
Ġd ann
he art
Ġp y
an i
re place
Ġm antequilla
is i
Ġf icciÃ³n
Ġw ichtig
ed ge
Ġof t
us ia
ad s
ad ow
qu Ã¨
Ġn s
ol ade
Ġg es
Ġg od
et era
Ġre pt
Ġre put
ĠT able
ĠA quest
ĠA ND
ĠW il
ĠW riting
ĠC art
ĠC Ã©s
ĠS out
ĠI de
Ġpro hib
Ġr ail
Ġr uta
Ð° ÑĤÐ¾Ñĩ
Ġal umin
ÃŃ z
ĠP en
ĠP OSIX
Ð½ ÐµÑĤ
Ġon t
Ġst ops
iz os
iz aciones
ĠM ur
ĠB ERT
ĠL ux
ĠL abor
ĠH ost
ĠH ello
ver e
ap ers
Ġim mer
ĠR od
Ġcomp uerta
Ġ( +
Ð» ÐµÐ½Ð¸Ñı
ip ped
ĠIn v
Ġper der
Ġj unt
Ġj azz
Ġab ierta
able mente
Ġ3 50
Ġcre o
Ġcre er
Ñĭ Ð¼Ð¸
Ñĭ ÑģÐ»
se lect
Ġno ble
gr y
ĠU l
Ġcont ienen
Ġdo ors
pt ions
pr ime
Ġinter person
Ġrec etas
Ġnot icias
Ġhas ht
ord en
ĠÐ½ ÐµÐ¿
Ġpe g
Ġfe ver
Ġproduc en
Ġproduc ers
Ġfr ag
Ġfr anc
Ġfr ances
Ġpos ic
ĠUn i
ĠK ar
Ġinv is
Ġfun eral
Ð¼ ÐµÐ½ÑĤ
Ġher encia
Ġ6 2
ĠSt ory
Ġz ones
Ġreg al
Ġreg iones
Ġreg ulate
Ġcal ming
Ð°Ð½ Ð´
Ġmet agen
Ġany s
Ġtem pr
Ġpres idente
ph p
ph ants
Ġincre ment
Ġ7 7
ied ra
ras il
Ġav anzar
Ð°Ðº ÑĤÐ¾ÑĢ
Ġdr astically
ĠRe form
Ġtext ura
cu ro
Ġneces ito
Ġrem ained
Ġorgan izar
Ġass ert
Ð¾Ð¶ Ð´
ias m
ĠÐ· ÑĢ
Ġperform s
ĠÑĥ Ð²
Ġcost os
Ġcult urales
Ġaccess ed
ĠPr ess
Ã¤ ng
Ġgu ix
Ġown ed
20 18
Ġautom ating
Ġintern acional
ÑĢÑĥ Ð´
bo oks
Ġlog rÃ³
Ġda iry
Ġtrad ition
Ġpresent an
Ġvers ions
Ġpap ers
ĠÐ° ÐºÑĤÐ¸Ð²
Ġsing ular
Ġteam work
atch es
Ġtom ato
ĠBr uj
Ð¸Ñģ ÑĮ
Ġcomun idades
ä» ¬
Ġdesc argar
ĠIm port
Ð¾ÑģÑĤ ÑĮ
ĠIs rael
Ġdisc overs
Ġhapp ening
Ġregular mente
Ġsee ing
ĠRes olve
ric ul
ĠPar aguay
Ġprefer red
Ġsecond ary
Ġespecial es
Ġcontrib utes
Ġport al
Ġcard inals
Ġmis iÃ³n
Ġdescrib en
Ġcarb oh
Ġrecommend ation
Ġmes mer
Ġrelig ions
Ġsust it
Ð°Ð»ÑĮ Ð½Ð¾
Ġtable t
ĠPer form
Ġdiscover ies
Ġvi able
Ġfuncion an
Ġblue print
Ġevalu ation
Ġ: )
Ġmotiv aciÃ³n
Ġmel ted
Ġcapt ures
Ġtur key
Ġtro uble
Ġcontain ers
æĺ¯ ä¸Ģ
Ġdiscuss es
Ġdiscuss ed
Ġdisplay s
Ġaument a
Ġauthor ities
Ġconduc ted
Ġprior ity
sh ine
Ġraz ones
cep ciÃ³n
air s
ĠSc ot
Ex isten
Ex ception
Ġdivid ing
Ġflo ods
Ġtre asure
Ġgrad u
yr ight
å° ±
ĠÐ¸ÑģÐ¿Ð¾Ð»ÑĮÐ· Ð¾Ð²Ð°Ð½
Ġhar vest
ĠÐļ Ð°Ðº
Ġliter atura
Ġvoc al
Ġstream line
Ġtrust ed
ĠCor por
ĠCr isis
Ġviol ent
Ġqued e
iction ary
Ġextern o
Ġorient ada
å¥ ¶
Ġdedic aciÃ³n
ĠForm ulate
ĠÑĤÑĢ Ð°Ð´Ð¸
Ġattract ions
Ġsurv ival
æ³ ¡
Ġja ula
ĠCoun try
Ġnoc turn
ÑĢÐ° Ñī
AT O
ĠÐ¼Ð½ Ð¾Ð¶
æĢ Ŀ
Ġsolic itudes
ĠÑģÐ¾Ð·Ð´ Ð°Ð½Ð¸Ñı
Ġsummar ization
ĠQue en
Ġrank ing
ĠÑĩÐµÐ»Ð¾Ð² ÐµÑĩ
ĠPal ace
Ġatr Ã¡s
ĠÐ³Ð¾Ð´ Ñĥ
Ġlimp ia
estr uct
Ġhighlight s
nam on
Ġrepe at
ĠJe an
irt ual
Ġterc er
Ġperman ent
Ġpair s
Ġaward ed
æł ĩ
Ġpsych ological
Ġhob by
ĠMess i
Ġvie le
ĠSk ills
ĠHaw ai
ĠTele gram
Ġregistr os
Ġpaqu etes
Ġbols a
ĠplÃ¡ stico
Ġattrib utes
ĠÐºÐ¾Ð¶ Ð¸
Ġsupervis ado
æ± Ĥ
Ġjed och
ĠEsc ena
Ġsad ness
Ġimpress ive
Ġchil eno
ĠÃŃnd ices
ĠktÃ³ re
Ġzw ischen
Dr ag
ĠEt apa
Ġindo or
ĠÐ¿Ð¾Ð¼Ð¾Ñī ÑĮÑİ
Ġinterc amb
Ġdistingu ish
Ġcere bro
irv ana
Ġanom al
ĠWahrscheinlichke its
Ġcintur Ã³n
Ġadj acent
Ġsecund arios
Ġinac cur
Ġinhab it
èª ŀ
Ġversat ile
ĠBeisp iel
Ġcircun st
Cappuc ino
) (
0 1
4 4
5 6
C C
C R
D Ã³nde
F irst
G u
H i
I ch
M ed
N S
P ython
S h
U r
[ $
] :
a Ã§Ã£o
d in
d ist
d epend
f a
g roup
h aps
l io
m ade
n ership
s in
y cz
y Mac
Ð ¢
Ø ³
å §
ç ¢
ç Ł¥
è ģ
é ¸
Ġ _
ħ æĭ
Ġt ight
Ġt ack
in en
in te
in form
es es
Ġc aut
Ġc erve
Ġc err
Ġd ess
Ġp ace
at zen
Ġthe ft
re c
Ġl uchar
Ġm ito
is iones
Ġf la
ic ts
Ġw Ã¼r
Ġb ars
Ġb onds
Ġb aby
un id
un ks
le ar
Ġh ielo
Ġh ttp
Ġh avia
ac os
im en
Ġun ter
Ġun idades
el as
Ġg ained
Ġla g
ĠT ro
ĠT ol
ĠA G
ĠA ge
ig s
ĠW ond
ĠC arr
ĠC BS
ĠS V
ĠS ign
ĠS CP
Ġpro mo
ÑĤ ÑĢ
Ġr id
Ġr aw
Ġr iff
tr onom
ab lo
ab led
ot ed
ÃŃ rit
ĠE U
ant z
ag le
st s
st ell
Ġex cl
ess o
av ed
ĠD iss
ĠM ind
ĠM ath
ĠM agn
ĠB CE
ud ad
ĠH ill
Ġcan s
ĠG umb
ĠF ill
ĠF lo
ĠF uer
Ġtr iste
Ġest ados
ĠR ank
ĠR aspberry
og er
ill uns
ie g
ie ve
ie val
Ġres olve
ip o
ĠIn fin
Ġpl ain
Ñı Ð¼Ð¸
Ġar ras
Ġsh ore
Ġsh ipping
Ġ3 3
Ġser Ã¡n
Ġad hes
Ġcl ock
se e
ier ÃŃa
âĢ ľ
ast re
Ġcont ents
ĠÐ¿ Ð¾ÑĤÑĢ
art ers
ĠÐ² ÐºÑĥÑģ
Ġco zy
ok olade
ĠÐ½ ÐµÐ´
Ġpe el
Ðº Ð¾Ð¼
Ġrel ation
ÐµÐ½ Ð½ÑĭÑħ
Ġprov in
eng u
ĠUn iÃ³n
Ġmed itaciÃ³n
Ġinv ierno
Ġop press
Ġher bs
ĠEst Ã¡
Ġag ency
Ġprogram ador
rit o
Ġut ilit
Ã©n t
Ġvari ation
Ġvari ations
Ġpo ule
Ġreg ional
Ġreg ister
Ġcal le
Ġcal ificaciÃ³n
Ġmet a
", "
ĠÐ´ Ð¾Ð¿
ĠÐ´ Ð°Ð¶Ðµ
Ġutiliz arse
ys ics
ĠÐ¿ÑĢ Ðµ
Ġins ects
Ġplan es
Ġtrans iciÃ³n
Ġtrans action
Ġpres erve
Ġpart ida
Ġbus y
Ġdef e
Ġexpl o
Ġsal v
Ġsal ary
Ġav iÃ³n
Ġdeb ug
Ġvis ually
__ (
fr ac
Ġdur able
ĠRe verse
Ġcaus as
Ġdifer ents
Ġfact ory
Ġprim arios
ĠÑĥ ÑģÐ»
Ġcost a
Ġref lection
Ġposs ibility
ĠTr ack
uz u
Ġant onym
Ġant igu
Ġgu ÃŃa
Ġtrav els
ann ed
Ġtrabaj ando
Ãł s
Ġexperien cing
ress ion
ãģ ®
Ġvol umen
Ġmar co
Ġmar zo
ä» »
ĠSch l
Ġbi ases
Ġoptim ized
ĠInd yMac
ĠCan on
Ġâ Ŀ
Ġobt iene
ĠPar aphrase
Ġnetwork ing
ĠQ ual
ĠBl ender
ĠÑģÑĤ ÑĢÑĥ
Ġrespect ive
ĠmÃºs icos
ĠMar ie
Ġintroduc ciÃ³n
Ġdescript ions
åħ ·
Ġsym met
Ġ199 8
Ġciudad anos
Ġtor ment
Ġaqu esta
Ġ== =
ĠUs a
col n
Ġtravel er
Ġdecir me
Ġ: =
fort unately
Ġdistrib uciÃ³n
Ġmel od
å® Į
ĠØ ¹
Ġsepar ated
ĠLo ad
Ġvac ÃŃo
Ġjo ined
Ġobserv ations
ĠDr ake
Ġarm y
Ġextra Ã±o
Ġconclus ions
Ġemp ire
Ġflex ibilidad
Ġtorch bear
ĠLin coln
Ġimm une
Ġcredit ed
Ġthought ful
ĠApr ender
Ġvot ers
Ġdescubr iÃ³
Ġesper ar
iff usion
ÐºÐ° Ñħ
Ġ198 9
ĠSec ret
Ġvisit ors
Ġmuest ro
æĸ °
ĠðŁĺ Ĭ
Est e
Ġemoc ionante
Ġcentral ized
Ġca ught
An imation
Ġassign ment
Ġult imate
èĢ ĥ
Ġcin namon
ĠServ ices
ĠaÃ± ad
ĠStart ing
Ġdomin io
Ġload er
Ġtele phone
ĠSer ies
Ġanterior mente
Ġdiscipl inas
Ġreact ions
Ġclaim s
Ġhoriz ontal
Ġprobable mente
Ġcomplic ated
ĠArch ive
Ġenem ies
Se lector
ĠDeb es
Ġdemocr atic
ĠVers o
ĠcrÃŃ tico
ĠPued en
Ġavent uras
Ġcomprom iso
Ð°Ð¹ÑĤ ÐµÑģÑĮ
agg io
ÐŁ ÑĢ
Ġhob bies
Ġtherm al
éĿ¢ è¯ķ
ĠÐ¿Ð» Ð°Ð½
Ġcrist ian
Ġyield s
ĠAlpha Fold
Ġweap ons
Ġnarr ative
Ġunl ikely
æµ ģ
Ġingres os
Ġnecesitar Ã¡s
ĠfenÃ³m enos
ÑĥÐ¹ ÑĤÐµ
Ġfulf ill
ĠEvent ually
ĠÑĢÐµ Ð°Ð»Ð¸Ð·
Ġneighbor hood
Ġpound s
Ġalphabet ical
Ġcorrel ations
ĠDev on
Ġconson ants
Ġimmigr ants
Ġpud iera
Ġhundred s
Ġluc es
Er ror
Ð¾ÑģÑĤÐ°Ð² Ð»Ñı
ĠmÃ¶g lich
Ġench ant
koh ol
ç© º
ĠVent ajas
ÑįÑĤ Ð¾Ð¼Ñĥ
ĠÐ²ÑĭÐ¿ Ð¾Ð»Ð½
usamm en
query Selector
ĠDeutsch land
Ġguar ante
Ð°ÑĤÐ¾Ñĩ Ð½Ð¾
ĠGumb all
- >
5 1
B ien
B uzz
F i
H otkey
L U
L es
b st
d ica
f as
h ire
i ac
i od
k ins
o ir
o ok
r us
u jo
u ke
w ick
x id
z za
Ä Ł
Ð ¯
æ »
Ġa esthe
Ġt ed
Ġt ak
er ed
Ġc ine
Ġs le
Ġs aves
Ġs vil
Ġd rough
Ġd ren
Ġd rought
Ġp udo
ar Ã©
an imal
Ġl Ãº
Ġl iger
is y
is os
it ado
it ization
Ġan teriores
Ġw s
ing ly
Ġe ast
Ġb ills
Ġb odies
Ġb ucket
ro us
Ġh ue
qu inas
id ores
Ġn ubes
ol tre
im port
ut as
Ġun w
Ġun precedented
ec iÃ³
Ġg aining
Ġre ef
Ġqu arter
ĠT H
ĠT a
ĠT ost
ĠT imes
ĠT ogether
Ã³ b
ig ke
Ġv inegar
ĠW elcome
ĠC SV
ĠC trl
ĠS ams
ĠS pread
ĠS uccess
ĠI M
ĠI R
ĠI hr
Ġal ine
Ġal arm
Ġal tre
Ġal right
ter as
ĠP act
ĠP ope
ĠP aper
Ġse us
Ġbe e
ag an
Ġus ability
Ġst unning
av ers
av ern
ĠD E
ĠM L
ĠM or
ĠM as
ĠM ort
ĠB all
Ġit al
ĠL ew
ĠH at
ĠH oy
ĠG og
Ġtr illion
ap se
ĠR ab
ĠR ay
ĠR aj
og flow
Ġso ught
ĠN orm
ĠN az
ĠN ative
te br
ip p
ip per
Ġdes cuento
Ñĥ ÑİÑĤ
Ġj ul
Ġab re
Ġar reg
ĠWh ose
Ġcre en
cr oss
Ġno us
ĠJ ake
ĠJ uego
ĠTh erav
Ġgr as
Ġcont empor
ra h
pr ender
Ġinter acciones
Ġinter vention
Ġ4 3
Ġ4 9
Ġco al
Ġent ering
Ġhel lo
olog ist
Ð² Ð¾ÑĢ
Ġrel ies
Ġmod ific
ĠCh rome
Ġout er
Ġint ers
Ð¼ ÐµÑģÑĤ
Ġcar to
crib ir
ĠAn imals
ĠAn imation
Ġshould er
Ġlik es
Ġgener ator
Ġver ano
Ġcor al
ios as
Ġcomple tar
ĠÐ¿ÑĢ Ð¸Ñĩ
Ġplan ned
Ġtrans acciones
Ġsc av
Ġbus can
Ġexpl os
ĠAs ian
ĠÑĤ ÐµÐ±
ĠÑĤ ÐµÑħ
Ġhac es
Ġayud e
ĠcÃ³ m
Ġsub ir
Ġsub tract
Ġfl ights
Ġfl avors
Ġmov erse
iss ors
Ġche aper
Ġmus s
Ġfin es
uro us
Ġsur faces
Ġcent r
Ġmo ist
Ġdet ener
ĠÑĥ Ð·
ĠTr ata
ĠPr ice
ĠPr int
Ġatt ach
Ġcontrol s
arch ivo
Ġpersonal izar
ÑģÑĤÐ² ÑĥÐµÑĤ
ĠZ el
20 17
-------- ----
ger y
Ġjust o
Ġconnect s
Ġfut bol
ĠComp ile
Ð¸Ð² Ð°ÐµÑĤ
Ġsupport ing
Ġartic ul
Ġsignific ativa
Ġread ability
tt y
Ġglo ves
Ñĸ Ð»ÑĮ
ĠBe eth
Ġgen res
Ġpresent ar
Ã¶ g
ator ios
Ġhy drop
ĠBr ief
ĠÐ³ Ðµ
ĠÐ¾Ð± ÑĭÑĩ
In ter
Ġext ension
Ġleg ales
Ġpredict ed
Ġter ren
ĠIs lam
Ġproces ador
ÑĦ ÐµÑĢ
Ġcompar es
Ġland s
ane ously
ĠOut come
ĠPar ÃŃs
by e
Ġprob ably
Ġaprend iendo
Ġear ned
Ġworks heet
Ġfuer zas
ĠÑģÐ² Ð¾Ð±
ĠÑģÑĤ ÑĢÐ°Ð½
ĠSol o
Ġemploy ed
ĠÐĴ Ñĭ
Ġrespect ed
Ġcaracter es
ĠMe z
Ð¾Ð¿ Ð°Ñģ
Ġinvestig ate
Ġmol ts
Ġlleg ado
Ġestar Ã©
Ġperiod ic
Ġshar es
ĠGe org
ĠMed ium
Ġtend rÃ¡
Ġaddress ing
Ð¸ÑĩÐµÑģÐº Ð¸Ð¹
ĠØ ª
Ġsepar ation
ÑĥÐ´ ÑĮ
Ġentren ar
Ġyoung er
Ġobserv ar
ĠOver view
Ġextra er
Ġviv ÃŃa
Ġvalid ate
Ġcambi ado
ĠÐ¸Ð½ ÑĦÐ¾ÑĢÐ¼
Ġreli ance
ĠPres ent
Ġraz a
ĠRev oluciÃ³n
ĠSim ps
ÅĽ Äĩ
Ġbutter fly
æĹ ł
Ġgrad iente
Ġsleep ing
Ġacces ible
Ġvuel o
Ġliter ary
Ġfast est
ĠStud ies
Ġmanip ular
Ġcorr ientes
ĠeconÃ³m icos
Ġconstant emente
ĠÐ²Ñģ Ñĳ
Ġhaber te
ĠComput ers
Ġpic ada
Ġos curo
ĠSw iss
Ġinvent ed
Ġfight ing
Ġcub os
Ġbox es
Ġhip ersensibilidad
åĨ Ļ
Ġalt amente
entral ized
rÃ³ geno
Ġquer emos
Ġapar iencia
Ġsimpl ify
ĠThrough out
Ġwa iting
Ġcatch y
Ġcuadr ada
ĠAgreg ar
Ġphilosoph ical
ĠÑģÐ°Ð¼ Ð¾
Ġencontr ado
Ġprotest ers
Ġsmooth ie
Ġmole cule
Ġadministr ative
Ġneut r
Ġiz an
ĠCap ital
Ġassess ment
Ġdesert s
ĠProt ocol
ĠÃ¡tom o
Ġreproduc ciÃ³n
object s
Ġases in
ttp Servlet
Ġries gos
Ġfis cal
çĤ Ĵ
Ġdivert ida
ĠmÃ¡xim a
Ġreform s
ĠÐ²ÐµÑĢ ÑĤ
Ġhermos o
ĠCommun ication
ĠDoc ument
Ġmezcl ar
ĠÐ¸ÑģÐ¿Ð¾Ð»ÑĮÐ·Ñĥ ÐµÑĤÑģÑı
Ġosc ura
Ġdeport e
æ° Ķ
Ġtransm isiÃ³n
Ġign or
ĠCoc ina
Ġexclus ive
Ġnerv ioso
Ġfuncional idades
Ġata que
Ġrating s
ĠLE D
Ġmister io
è° ¢
plot lib
ĠPrem iere
iÃ©nd ose
Ġwest ern
ĠdinÃ¡m ica
åĵ ģ
Ġentreprene ur
Ġentreprene urs
Ġnegr os
Ġic onic
ĠÑģÑĩ Ð¸ÑĤ
Ġportr ayed
ĠÐ¾Ð±ÑĥÑĩ ÐµÐ½Ð¸Ñı
ĠOlymp ics
ĠFel ipe
ĠÐ¾Ð±ÑĬ ÐµÐºÑĤ
ĠLion el
Ġpredic ciones
ĠÐ´Ð¾Ð» Ð¶
Ġveter in
Ġguer r
åī į
Ġentrev ista
ĠFro do
Ġmetod ologÃŃa
ĠIngen ierÃŃa
Ġjung le
Ġemo ciÃ³n
Ġbrilli ant
ĠÐ±ÑĢ Ð°Ðº
ĠHolly wood
Ġextrater r
ogw arts
ĠCÃ©s ar
Ġsvil up
Ġdrough ts
Ġliger amente
ĠBeeth oven
4 2
5 8
A D
C ould
C ons
J ohn
M S
M in
M on
O h
S im
S ub
Y Z
b b
b ury
d est
d oc
d raw
e en
g n
h u
i ks
i ando
k cal
t ons
t own
v in
y our
y cle
ç ½
Ġa ustr
Ġa wards
Ġt ong
on so
Ġc ow
Ġc ables
Ġs ÅĤ
Ġs empre
Ġs Äħ
Ġd al
Ġd ientes
Ġd ocker
Ġp ies
Ġp ien
Ġp seudoc
or ious
at ario
ar ial
an ÃŃa
re a
Ġm og
Ġm onster
Ġo v
al i
Ġan un
Ġw itch
Ġe cho
Ġb ic
Ġb ate
ed as
Ġto y
qu al
id able
ut able
Ġun seen
am o
am ps
Ġg ym
Ġre utiliz
Ġqu an
Ġqu adr
ĠT our
ĠT odos
ĠT otal
ul te
ĠA ward
ĠA SC
ir ling
ĠS und
em ony
Ð° ÑĶ
Ð¸ Ð°Ð»
Ġal tas
ot ation
ĠE at
ter ÃŃa
ĠP et
ĠP ablo
Ġse at
Ġse ine
Ð½ ÐµÐµ
Ñģ Ð¸Ñħ
Ġpar l
Ġst a
ĠD own
ect o
ĠM aster
ĠM ental
ĠM AC
ĠL ama
ĠH ola
ĠH DI
ĠH ogwarts
ib rar
Ġcan cel
ĠG O
ĠG ob
ĠF ern
Ġtr im
Ġtr ama
ain ts
Ġsu is
Ġlos ing
ĠR ica
ĠR ena
ĠR ye
Ġ( !
Ð» ÐµÐ½Ð¸Ðµ
ĠN ept
ĠN ATO
ie j
te in
Ġres ident
Ġres ized
ore a
ore an
Ġch im
Ġch arts
Ġk ont
ang les
Ġwor se
Ġper quÃ¨
und ing
Ñı Ð´
Ġar co
Ġsh ower
ell i
Ġcre cer
to ken
Ġad s
Ġad iv
Ġdis order
ost ic
ard ous
ĠTh us
Ġgr ay
Ġcont ained
Ġwe it
ĠÐ¿ ÑģÐ¸Ñħ
Ġ5 4
pr ice
pr Ã©s
ĠÐ² Ð¾Ð·Ð´
Ġimport a
Ġrec re
ĠIt alia
Ġco inc
Ġob es
arg est
ĠÑģ Ð¾Ð´
ord e
Ġcu ant
Ġpe anut
ĠV i
ĠV old
ĠV irtual
Ġact ors
Ġsy st
az as
az io
Ġfr agr
ĠK Ã¶rper
ov sk
ĠY ellow
ĠY eah
ous es
Ġcar act
ĠÐº Ð»
con text
Ġag ents
Ġag encies
Ġbr ands
Ġbr ighter
Ġz a
Ġover coming
aus es
Ġreg ards
Ġcal ories
Ð°Ð½ Ð¸Ñĩ
Ð°Ð½ Ð¸Ð¹
Ð°Ð½ Ð¸Ð¸
Ġver bal
Ġmet als
Ġmet ric
Ġhum id
ĠEl on
Ġsim mer
Ġbo ole
Ġutiliz es
ĠÐ¿ÑĢ Ð°ÐºÑĤ
ge bra
Ġpart idos
Ġpart nership
Ġsc ores
Ġsal te
Ġmon t
Ġmon et
Ġmon ument
Ð· Ð°
Ġcr ust
__ _
Ġdur ation
Ġadv ance
ĠÑĢ Ñĥ
ĠÑĢ Ð°Ð´
Ġcam pe
Ġcam eras
Ð¾Ð´ Ð¸ÑĤ
Ġpub l
Ġcur r
Ġconsider ada
com p
Ġcent ers
Ð¾Ð¶ ÐµÑĤ
ĠÐ· ÐµÐ¼
Ġprin ce
Ġident idad
Ġamb itious
Ġcas ual
Ġbel oved
ĠÑĥ Ð¶Ðµ
Ã¤ re
ĠExpl or
Ġoper ador
Ġpred icciÃ³n
Ġrest ore
Ġcomb ina
Ġapplic able
Ð°Ð· Ð²
Ġmill or
Ġread s
ĠBe ach
ĠNo SQL
ĠÐ° Ð´
ĠSo und
ãģ Ĺ
Ġintegr ity
Ġintegr ated
Ġvol ar
ull s
Ġext ensiÃ³n
Ġdesc end
Ġcalcul ation
Ġein f
Ġbi ography
Ġter rem
Ġge ograph
Ġequip ped
cover y
Ġdeep ly
Ġconvers aciones
ĠAnd orra
ĠSum mer
Ġpast el
++ ;
Ġsyn thetic
ĠMe an
Ġorden ar
Ġnorm as
å¤ ĩ
Ġrece iving
Ġprofess ion
Ġcualquier a
ht aking
Ġsl ice
Ġatmos pher
Ġ199 5
ĠCar ib
ĠPer ceptrÃ³n
Ġprepar ing
Ġpurch asing
Ġexerc ising
Ġdecid ir
Ġexplic arme
Ġintelig encias
Äħ c
ĠNe ut
Es pero
Ġ196 4
ĠStr ong
ĠÑĦ Ð¸Ð·
Ġmel anc
Ġclos ing
Ġtur b
Ġtro ops
Ġmagn Ã©ticos
Ġfres cas
Ġsequ ences
Ġsubject s
Ġphot ograph
bl ue
Ġconflic to
Ġsatisf acer
Ġnormal ized
Ġstrength en
Ġban anas
Ġcaf eter
Ġbright ly
Ġigual es
ĠÑįÑĤ Ð¸
ĠÑįÑĤ Ð¾Ð¹
Ġinstit ute
ĠChrist ians
Ġflo oding
Ġisland s
Ġclim ates
ĠÑģÐ¾ Ð¾ÑĤ
200 8
å° Ĩ
ÑĭÐ² Ð°ÑĤÑĮ
Ġrom ano
Ġrelativ amente
Ġaccom mod
Ġcount y
Ġbreat htaking
Ġremember ed
Ġejecut a
Ġofficial s
St ate
Ġproced ure
Ġcub es
Ġcirc les
Ġadop ted
Ġmut u
Ġtour ist
Ġcier ta
ĠðŁ§ ĳ
Ġlaunch ing
Ġcommit ted
å¾ Ī
ĠÑıÐ·Ñĭ ÐºÐµ
ĠÑıÐ²Ð»Ñı ÑİÑĤÑģÑı
writ er
ĠBel g
ĠInvest ig
Ġrod ajas
Ġreconoc imiento
uber gine
Ġedific io
Ġcritic ized
æī Ģ
Ġsubst ant
dis cipl
Ġcarry ing
Ġsod io
Ġachiev ements
imm el
Ġliber ar
bi ologia
ĠFrank lin
ĠRub y
Ġcomputador as
ĠÑĩÐ°ÑģÑĤ Ð¾
Ġax is
ĠÑĢÐ°Ð·Ð»Ð¸Ñĩ Ð½ÑĭÑħ
Ġannoun ced
Ġhem is
bul lying
ĠsÃ³l ida
Ġpac iencia
Ġcaball os
rad ius
vid ed
ĠLu is
Ġtrig ger
Ġacceler ation
ĠÃģ frica
ĠparÃ¡m etro
Ġinfer ior
Ġhag an
ÃŃc ame
Ãªn cia
ĠÐ¢Ð°Ðº Ð¶Ðµ
Ġtej ido
åºĶ çĶ¨
Ġmush rooms
ĠÑĨÐµÐ» Ð¾Ð¼
Ġalqu iler
Ġrecorr er
ĠStand ard
Ġthorough ly
ĠÐ¸ÑģÐº ÑĥÑģ
Ġmortg age
Ġevid encia
ĠStrateg ies
ç² ī
Ġcarp inter
Ġimprim ir
Ġpasaj ero
Ġmerg ed
ãģ§ ãģĻ
ĠSM TP
Ġdescon oc
Ġdynam ics
ĠincreÃŃ ble
Ġaug ment
ĠDiffer ent
ĠCatch er
Ġresc ue
ä¿¡ æģ¯
ĠUnderstand ing
Ġunpredict able
Ġcircunst ancias
Ġsymmet ric
) ):
* :
- ]
C o
D ime
H ist
L ine
O k
S et
T L
b orn
c ub
d or
d ir
e fic
g ie
j ÄĻ
l im
m el
m Ã¡n
n em
r ika
t elling
u um
u ver
u vo
v ec
x y
} ,
Ã ¸
Ù ī
é ª
é Ķ
Ġ ^
Ġa te
Ġa uss
Ġt onal
Ġt iendas
in fl
en za
es z
Ġc if
Ġc ens
Ġp ÃŃ
Ġp ase
Ġp Ãºblica
or as
at r
re q
re aching
Ġl ion
Ġo h
Ġo w
it ados
it iva
Ġf ate
Ġf illing
Ġw ake
Ġb icy
Ġin duc
Ġin appro
un ivers
ro ot
Ġand ere
Ġto x
Ġh ars
Ġh ills
om ena
ad ay
id r
Ġun ic
Ġg itlab
Ġg ifts
Ġre par
Ð¾ Ñİ
Ġcon front
ĠT ax
ĠA ff
ĠW or
ĠW ikipedia
ĠC z
ĠC el
ĠC lar
ĠS Ã©
ĠS af
ĠS peed
Ġpro long
ÑĤ Ñĭ
ers ey
Ð° ÑĨÐ¸Ñİ
tr ies
tr ained
Ġal ike
ot ography
ter e
ĠP I
ĠP on
ĠP ur
ĠP iz
ĠP ath
ĠP Ãºblic
ĠP LL
Ã³n icas
Ġse es
Ð½ ÑĥÑĤ
Ð½ Ð¸ÑĤÐµ
Ġyo uth
Ġex ch
ĠD ise
ĠM ol
ĠM obile
ĠB uch
ĠB egin
ĠB rasil
Ġ- ----
ak t
ĠG ust
ĠF am
ĠF ull
ĠF unction
Ġ" <
Ġest uv
Ġest rella
ĠR NA
Ġpr one
Ġwas h
ĠN i
ie go
io xid
Ñĥ ÑģÑĤ
ich er
ĠIn it
Ġme iosis
ust le
Ġar c
Ġ3 8
Ġap i
Ġcre w
Ġcre an
Ñĭ ÑĪ
Ġsp ect
Ġsp ell
Ġdis k
Ġdis co
ĠJ am
Ġwhat ever
Ġ5 8
pr i
Ġinter fer
Ġinter acciÃ³n
ĠÐ² ÑĸÐ´
Ġfollow ers
Ġro pa
ĠÑģ Ð¸ÑĤÑĥ
Ġhel ic
ord an
ĠV a
ĠV e
ĠV ia
ĠV ari
Ġprov ocar
Ġpos terior
ĠUn ter
ĠUn ido
ĠK n
Ð¼ Ð°
ert aining
fic as
Ġ19 40
ĠDes ventajas
ob y
Ġpol ite
ĠSt ars
put er
Ġgener a
Ġvari et
ĠCre ative
ĠEs cuela
Ð¾Ð» ÐµÑĤ
ĠEl s
Ġesp ÃŃrit
ĠÐ´ ÑĥÐ¼
ĠCom pos
Ġplan ificaciÃ³n
Ġ8 5
Ġ8 00
Ġsc ope
Ġej e
Ġdef ines
Ġresult ar
ren ewable
ĠCon se
Ġ' '
Ġdr ives
Ġayud an
Ġret ire
Ġsm iled
ĠÑĢ ÐµÐ·
Ġcam inar
Ġfam oso
Ġfl ash
ÑĨ Ð¸Ð¿
Ġprop ag
Ġprop ios
ĠId ols
ãĢ Ĭ
ãĢ ĭ
Ġdem ostrar
Ġconf ir
pre t
ones a
Ġx ar
Ġcall es
Ġcall ing
Ã¤ lt
Ð¾Ð½ Ðµ
Ġatt ended
Ġback up
Ġant igua
Ġgu ess
Ġcontin ua
Ġmas as
ĠÑį ÑĦÑĦÐµÐºÑĤ
Ã¨ te
Ã¨ res
Ġmill i
Ġconnect ivity
Ġsuper h
Ġtrabaj adores
ĠComp an
Ð¸Ð½ Ð¸
Ġaplic an
Ġrespons ive
Ġsun shine
ãģ ¦
Ġsug iere
ĠÐ³ ÐµÑĢ
Ġvol unt
Ġvol umes
ĠÐ¾Ð± ÑīÐµÑģÑĤÐ²
Ġmar ks
Ġzu en
Ġbelie ves
Ġoptim istic
ĠÐ²Ñĭ Ð±
Ð½Ð¾ÑģÑĤ ÐµÐ¹
Ġdetermin es
let es
Ġmanag ers
Ġdifficult ies
Ġge f
ÅĤ o
Ġpost ura
Ġwind ing
Ġinflu ences
Ġinflu enci
hor ias
ĠList en
Ġquier en
Ġcapac idades
Ġfa ult
Ġfa ire
Ġ` <
Ġgl uten
ÄĻ d
ÙĦ Ø§
ĠRep Ãºblica
ÑģÐº Ð¾Ð¹
Ġcop ia
Ġpack aging
Ġ199 2
Ġparticip ar
Ġargument o
åĬ Ł
Ġtransform ation
Ġtarget ing
Ġinstall ing
ters chied
Ġencuent re
Ġprevent ing
ĠNor way
Ġvac uno
Ġpress ing
Ġnormal ly
Ġadvent urous
ĠGu ide
Ġcaf etera
ĠÐ´ÑĢÑĥÐ³ Ð¸Ðµ
sh ow
Ġelect ions
Ġfail s
ĠprÃ¡ct icos
Ġ197 1
Com pany
Ġsich er
Ġmedic ations
Ġmedic amentos
Ġsch olars
ĠRo ad
ny ch
Ġestado unid
Ġtalk ed
Ġexact a
ĠÐĺ Ðĺ
Ġadapt arse
Ġsenc illos
ĠPerson al
å¸ ¸
ĠFin land
Ã³l ogo
Ġcer do
Ġcer emony
vil le
ĠLat ina
ÃŃt ulo
Ġexpand ing
ĠÑĤÑĢ ÐµÐ±
Ġ193 6
Ġverdad era
Ġtour ists
Ġscen es
Ġscen arios
Ø§Ø ª
Ø§Ø ¹
ĠHealth care
Ġequilibr ada
ĠIntroduc ciÃ³n
ĠSant iago
äºº å·¥
hal ten
Ġshad ow
ĠOrgan ic
Ġenter ed
ĠGre ece
éĩ ı
ĠNob le
Ġexpans ion
ĠcÃ¡l culos
fit ting
ĠgrÃ¡fic os
Ġwat ers
ĠÑģÐ¾Ð± Ð¾Ð¹
âĢ¦ âĢ¦
ĠConf ig
ĠclÃ¡s ico
Ġalc anz
Ð»ÐµÐºÑĤ ÑĢ
Ġdefinit ely
æĦ ı
Ġunf amiliar
ĠFriend s
Ġglow ing
ĠMerc ury
Ġcrist al
Ġinher itance
Ġparado ja
|| ^
Ġcatal Ãł
Ġnail s
Ġdistr ict
owa Äĩ
Ġbil inear
Ġfinanci eros
Ġdimens ions
Ġmang i
ĠÑĦÑĥÐ½Ðº ÑĨÐ¸Ð¸
NN s
Ġke ine
ĠKnow ledge
ĠÃŃnd ice
ĠSil ver
worth y
Ġdelicios a
ĠAcadem y
Ġastronom ÃŃa
ĠÑĥÐ» ÑĥÑĩÑĪ
Ġcoher ent
Ġvacc ine
èĬ ±
Ġenl aces
gather ers
std io
ĠÐ¾ÑĤÐ½Ð¾ÑĪ ÐµÐ½Ð¸Ñı
Ġjue ga
ĠDeclar ation
Ġafirm aciÃ³n
Ġexplicit ly
Ġmechanism s
ĠTreat y
Ġenthus iasm
Pued o
ĠNum Py
ĠÑģÐ¾Ð»Ð½ ÐµÑĩ
ĠLou is
LO OM
Ġlun ar
ilant ro
ĠIran ian
Ġwhis per
ĠEnvironment al
ĠPrepar aciÃ³n
ĠDial ogflow
è®¾ è®¡
ĠÐºÐ¾Ñģ Ð¼
Ð¾Ð¶Ð°Ð» ÑĥÐ¹
ĠRecogn ition
Ġconjug ate
Ġillumin ated
ĠPict ures
Ġpars ley
Ġsarcas mo
ĠInstr ucciones
Ġinaccur ate
ĠÑģÐ¾Ð´ ÐµÑĢÐ¶
ĠVold em
ĠÑģÐ¾Ð¾ÑĤ Ð²ÐµÑĤ
Ġhars h
6 6
D oc
H ub
R O
T E
[ "
b ec
e xt
e uros
f d
f il
f rom
f irst
g ov
h ar
h av
i at
l ass
l la
l ung
m Ã¤
t m
v y
w end
| --------------------------------
Ã ¢
Ð ĵ
â ¡
ç ¾
Ġ erst
Ġ ____
Ġa ve
Ġa ux
Ġt ast
in n
in idad
in ction
en en
es per
Ġc Ã¡n
Ġc ena
Ġs ut
Ġd im
Ġd ancing
Ġd ictionary
Ġp avo
at re
Ġl in
Ġo un
is ions
it ario
Ġf ond
Ġf rog
ing o
ent i
Ġand eren
Ġto w
ion antes
Ġy es
qu arters
Ġn el
ĠÐ ¤
ut er
ec z
Ġg ate
et c
Ġre cr
Ġre vel
Ġla v
ĠT y
ĠT ort
ĠT erm
ĠA im
ĠA ceite
Ġv ice
Ġv emos
ĠW atch
ĠC ry
ĠC AF
ĠI oT
ÑĤ Ð¾Ð¼
em ade
Ġr ag
Ġr amas
Ð¸ ÑĤÐ¾ÑĢ
tr ain
ĠE so
ci ente
ĠP om
ĠP KU
Ð½ Ð¸Ð³
Ġth esis
st en
st ro
st one
Ġex ceed
Ġus ado
ess en
av al
ĠD j
ĠD at
ĠD yn
ĠD omin
ĠM ill
ĠB ad
ĠB iden
end et
ĠL og
ĠL icht
ĠH al
ĠH em
ĠH erm
ĠH arr
ĠH ope
Ġ- --
ib ilit
Ġor aciÃ³n
ĠF ab
Ġtr ay
Ġsu aves
ĠR ate
ĠR ice
ĠR ising
og rap
Ġcomp il
Ġcomp ens
Ġcomp uesta
Ġso u
io ur
Ġdes k
Ġdes igual
low er
Ġwor st
Ġper ci
ide z
Ġcre es
Ġcre ada
Ġdis pos
Ġno od
ĠJ Ãºp
ier tos
Ġcont amin
ass o
pt ica
Ġam able
ĠÐ² Ð½Ð¸Ð¼
Ġrec o
Ġrec all
unt ing
Ġco lecciÃ³n
Ġent ertaining
Ġhel io
Ð² ÐµÑģÑĤ
Ðº Ð¾Ð¹
Ġact itud
Ġact uar
Ġmod ules
Ġtw ice
ĠUn real
ĠK az
ĠCh ief
Ġout ros
ĠY ongle
Ġi OS
Ġall ies
Ġcar a
Ġcar am
fic os
Ġop on
Ġph ase
Ġwould n
Ġwork er
Ġreg ime
Ġpat ches
Ġpat ties
Ġexam ines
tern oon
Ġesp any
ĠCom un
Ġbl ender
Ġcap aces
Ġlarg a
Ġsc ales
Ġmin erÃŃa
Ġdef end
Ġexpl aining
elf are
Ġart ÃŃculos
ĠÑĤ ÑĢÑĥÐ´
Ġsal idas
Ġsal var
Ġsign o
Ġav ance
Ġpop e
Ġsk illed
Ġcomput e
Ġdur ad
Ġsm oking
ĠÑĢ Ð°Ð²
Ġsub set
Ġsub sequ
ä¸ ļ
Ġfl or
Ġ9 9
ĠÃ Ĺ
Ġsum in
Ġarr ib
Ġarr ested
Ġexist ed
Ġexist ir
Ġperform ances
Ġend urance
Ġlight ning
Ð°Ð¼ ÐµÐ½
enc ed
Ġposs ono
Ġbas ics
Ġcorre cciÃ³n
Ġant ig
Ġant ioxid
me an
me let
ĠZ one
20 19
Ġris es
ĠCl ub
Ġjust a
Ġrev uel
Ġkey s
Ġelectr ones
Ð¾ÑĤ Ñĭ
Ġesc en
Ġinfl uy
Ġenc arga
Ġsignific ativos
Ġmism as
Ġglo be
Ñĸ Ð¹
Ġdefin ing
Ġpap a
Ġred und
do le
ĠBr ian
Ġneg ativos
pro blem
pro vided
ĠÐ¾Ð± ÑĢÐ°ÑĤ
Ġext ended
Ġcour ts
Ð¾Ð· Ð½
åı į
Ġrepresent an
Ġfac ility
Ġge ogrÃ¡fica
ĠÐ¾ÑĤ ÐºÑĢ
Ġvo ices
ĠRes pect
Ġâ ł
Ġfinal e
Ġaprend ido
Ġimag ery
Ġaccount ability
Ġperi odo
Ġmit ad
æľ ¬
ĠRep eat
serv ice
Ġdu kk
Ġorden ada
Ġrece ives
Ġsym phony
Ġcop yright
ĠPh ilos
Ġ199 3
Ġpes os
ĠCar ol
ĠÐ±Ñĭ Ð»
ĠÐ±Ñĭ Ð»Ð¾
Ġtravel ed
eff ic
Ġvent ure
Ġvent aja
Ġintelig entes
Ġpep ino
Ġacr onym
Ġtend rÃŃa
Ġgram Ã¡tica
ĠÃºn icamente
Ġtro bar
Ġfig ur
Ġmagn etic
ÙĬ ÙĨ
Ġcapital ism
Ġadecu adamente
æĪĳ åı¯ä»¥
ĠÐ´ÑĢÑĥÐ³ Ð¸Ð¼Ð¸
ĠEr n
Ġur l
Ġigual dad
Ġchem istry
load er
âķ Ŀ
Ġprecis as
Ġsch n
Ġgrad ient
Ġgrad ual
Ġfarm ers
Ġaccept ance
Ġcast ing
Ġrelacion ado
ĠStud y
sp an
è§ Ĩ
Ġorganism os
ĠPrin cip
Ġdeliver ed
Ġrout er
Ġpromot es
Ġpromot ional
Ġviol ence
Ġdisfrut es
Ġauth ors
Ġorient ado
ĠJo in
Ġste am
Ġcomenzar on
Ġincorpor ating
Ġdemonstr ates
éĢ ļ
Ġorg Ã¡n
åĨ ħ
Ġwood en
Ġspir its
Ġhom eless
Ġentire ly
ĠCoun seling
Ġcomien zan
AR CH
Ġgratu itos
Ġterrit ories
ĠReal izar
Ġbrows ers
ĠgÃ©n eros
Ġscr amb
ĠÑģÐ¾Ð·Ð´ Ð°Ð²Ð°ÑĤÑĮ
Ġutil is
Ġantibiot ic
Ġprotagon ista
Tr ans
Ġaquell as
Ġamaz ed
Ġenh anced
Ġvitam ina
Ġnom in
Ġinitial ly
Ġped ir
Ġmultiplic ar
æĬ Ĭ
Ġmanten imiento
ĠÐ¿Ð¾Ñģ Ð»ÐµÐ´
ĠÐ¿ÑĢÐ¾Ð³ÑĢÐ°Ð¼Ð¼ Ð¸ÑĢÐ¾Ð²Ð°Ð½Ð¸Ñı
Ġcyber bullying
Ġresil ient
Ġsegu imiento
ĠEngine ering
æĥ ³
Ġassum ptions
Ġelectromagn Ã©ticas
ĠteÃ³r ico
ĠBreak fast
ĠdÃ©c ada
Ġtranqu il
ç¨ĭ åºı
Ġdra ws
Ġfuncional idad
ĠCard inal
Ġrepos o
Ġfle w
cd ot
Ġabandon ed
Ġnu eces
ĠNetwork ing
ej emplo
ĠÑĨÐµÐ½ Ð½Ð¾ÑģÑĤÐ¸
ĠÐ±ÐµÐ· Ð¾Ð¿Ð°Ñģ
orph ism
Ġgast ar
ĠÐ½ÐµÐ¹ ÑĢÐ¾Ð½
Ġsettle ment
Ġunt erstÃ¼t
Ġbater ÃŃa
ĠArm strong
Ġtupl a
Ġtupl as
ĠlÃŃm ites
ĠÃľ ber
Ass istant
Ġcoment arios
ĠÐ·Ð°Ñī Ð¸ÑĤ
Ġrevis ar
Ġfacil itar
Ġstead y
Ġunders tood
ĠAnton io
Ġhypot he
Ġdib uj
Ġpue blo
ĠAix Ã²
Ãłn cia
ĠRey nold
Ġcompro bar
Ġsimult aneously
çł ģ
Ġpropr iet
ĠEncour age
Ġcitt Ãł
Ġcuidad os
éĤ £
ĠBes ides
Ġspac ecraft
ĠColumb ia
ĠmolÃ© culas
ĠOfre ce
shell scripts
ĠÑįÐ»ÐµÐºÑĤ ÑĢÐ¾Ð½
Ġfluctu ations
Ġhasht ag
ĠÑĤÑĢÐ°Ð´Ð¸ ÑĨÐ¸Ð¾Ð½
é¸ ¡
ĠMort y
Ġextraterr estre
ĠASC II
ĠMAC D
ĠRena issance
äººå·¥ æĻºèĥ½
ĠJÃºp iter
1 000
4 8
9 1
> `
C ual
D rop
F orm
H ey
H EL
O ver
O ne
S ign
T oken
W rite
Y a
c ions
c atching
d at
d am
f os
f ather
h ist
h ouses
j soup
k eep
n ik
t u
u ita
v iar
y dr
z ia
z ado
z Äħ
} $
Ù İ
æ ĵ
ç ľ
è ©
è ĭ
é ¤
Ġ ik
Ġt ib
in ja
on Ã³m
Ġc ari
Ġc argo
Ġs Ã£o
Ġs esiÃ³n
Ġd av
Ġd ame
Ġd ign
Ġd ongle
he tor
re bbe
Ġl ang
Ġm art
Ġm old
Ġm Ã¼
al ities
Ġf eta
Ġf inger
Ġf Ã¼hren
ic il
Ġe ines
ent emente
Ġb ish
Ġin ference
ro ad
ro wn
ro gen
Ġh ire
ad ament
id ays
ur b
ur ers
Ġn Ã©
Ġn ost
Ġn eck
el i
am erican
ec ido
Ġg li
Ġre use
Ġre versed
Ġen de
Ġla kes
ĠT amb
ĠT ask
ĠT ensor
ĠT emper
ĠA gr
ĠA bre
ĠA uf
Ġv ino
ĠC ina
ĠC ube
ir k
ĠI ce
ĠI MA
Ġr ÃŃo
Ġcom idas
ab ase
ot ic
ter r
ter y
ĠP ak
ĠP ub
Ñģ Ðµ
Ġbe ings
Ġes fera
Ġpar eja
ÑĢ Ðµ
Ġst ark
iz ando
ĠM ot
ĠM ix
ĠM TV
ch ron
end ment
Ġit iner
ĠL iter
ĠL isa
ĠH ind
ib ilidades
Ġor o
Ġor eg
ak i
ĠG uy
ĠF ish
ĠF amiliar
ap ac
ap point
Ġim mediate
Ġsu ite
ĠR h
ĠN ak
Ġimp ar
Ġdes pl
ich o
Ġch est
Ġch ick
Ġch unks
Ġpl ena
Ġme g
Ġdel l
Ġar ts
Ġsh ut
Ġap rop
Ġad her
Ġcl in
ĠJ ersey
gr at
Ġpre para
Ġpor k
Ġcont empl
Ġcons ent
Ġcons ig
Ġam ig
Ġ4 1
ĠÐ² Ð¾Ð»
Ġrec op
Ġco in
Ġstr ips
ok ed
Ġcol ocar
Ġev oke
Ðº Ð¾Ð»ÑĮ
ĠV ideo
pe z
Ġmod ified
az er
eng an
Ġuse State
Ð¾Ð² Ð¾Ð¹
Ġdec entralized
ail ed
Ġmed iciÃ³n
plic ar
Ġfun ciÃ³
Ġund erg
Ġresp eto
ĠAd ams
ert os
ĠÐº Ð°Ñĩ
Ġ19 20
Ġpol ytechnic
ĠÂ ½
Ġval ued
Ġover th
Ġpo ol
Ġmay o
Ġaut umn
Ġpat ata
uest ra
Ġsim plic
Ġsim ulations
ĠÐ´ Ðµ
ĠÐ´ Ð¾ÑĢ
Ġbo il
ĠCom mit
Ġcap as
Ġpart ido
Ġpart idas
ious ly
Ġdi arias
Ġpot s
Ġpot ato
cl atura
Ġdifferent ly
Ġdeb o
Ġpop ulous
Ġmon arch
ĠAr ts
Ġsm oke
af Ã¼r
Ġloc als
Ġcur ricul
Ġcontr ad
ÑĨ Ñĭ
Ġinf ra
Ġconsider an
Ġour selves
Ġ9 5
Ġneces ariamente
Ġer h
Ġfil ters
ven il
Ġass ass
ithm etic
Ġarr iba
Ġexist entes
ĠÐ· Ð°Ð½
ĠÐ· Ð½Ð°
app ear
Ġespec ific
Ġdist ances
Ġve ure
Ġlight weight
Ġrecom iendas
Ġbene ath
Ã¼ ck
ÐµÐ´ Ð¸
ÐµÐ´ ÑĮ
Ġbest imm
Ġcontrol ling
Ġoper ativos
Ġcontin ents
Ġeconom ies
Ð»Ñı Ð´
ody nam
Ġpodr Ã¡
Ġoc ult
Ġmeth ane
Ġtrabaj a
Ð¾Ñģ ÑĮ
Ð¸Ð½ Ð³
Ã¡tic amente
Ġsw ap
Ġvers Ã¡til
Ġpap rika
ĠÐ° Ð±
ĠÃ¡ cido
ĠÃ¡ urea
Ġdon ate
Ġtec lado
ĠBr ight
ĠÐ³ Ð´Ðµ
Ð¸Ñģ Ñģ
Ġintegr ate
Ġmar ry
Ġdesc arg
ĠGr illed
ÑĨÐ¸ ÐµÐ¹
Ġstrateg ic
Ġter ap
Ġcompr ens
Ġexpress ing
ĠEm ail
Ġveget al
Ġcant ante
Ġrefer ring
Ġâ ĺ
Ġâ ľ
ĠClass ification
itor io
cle ar
Ġhor ario
Ġdom ain
Ġcompet e
ĠSum mary
inar ia
ĠUnivers idad
Ġear n
Ġbal Ã³n
Ġport s
Ġmor ales
ĠÑģÑĤ Ð°ÑĤÑĮ
Ġsound track
Ġrespect ively
Ġcoc onut
enn ifer
Ġindepend iente
Ġindepend ently
å¤ ĸ
Ġview ed
Ġdese es
Ġflow s
ĠCar bon
Ġaqu el
ĠPer Ã²
Ġcontinu ar
Ġsqu ares
Ġprepar ation
Ġinnov aciÃ³n
Ġprev iamente
åĬ ¨
Ġanswer ing
Ġevalu aciÃ³n
ĠÐ¿ÑĢÐ¾ ÐµÐºÑĤ
Ġrecomend ar
Ð°ÑģÑĤ ÑĮ
ĠÑĦ Ð°ÐºÑĤÐ¾ÑĢ
Ġtend encias
Ġcab bage
Ġmel odies
Ð¸ÑĩÐµÑģÐº Ð¾Ð¹
åĲ ĥ
ho ot
Ġencuent res
Ġresist ente
ĠSal v
ĠtÃ©cn ico
Ġjo int
fo x
Ġinterpre ted
Ġadecu adas
ĠÐ¿Ð¾Ð´ ÑħÐ¾Ð´
Ġemp ower
Ġcarr ies
Ġverb os
Ġestable c
sh ift
omen clatura
ĠDet ect
ĠÐ¿Ð¾Ð» Ð¸ÑĤ
Ġadjust ments
ĠEspa Ã±
Ġpad ding
Ġtre ated
ĠÐ¿ÐµÑĢ ÐµÐ´
Ġdeath s
Ġgraph ic
Ġled ger
Ġdraw backs
Ġhost ed
èĥ½ å¤Ł
Ġkann st
Ġrequest ed
Ġcod es
Ġcod igo
Ġdial og
Ġconv ol
ÃŁ er
Ġvoc es
Ġregard ed
99 9
ĠMic hel
ĠFirst ly
ç» Ħ
Ġcorr er
Ġrepl acement
ĠPo or
Ġdisfrut ando
Ġexpres iones
Ġorg Ã¡nica
ãĤ ĵ
ĠquÃŃm icos
Ġprem iere
Te X
Ġavanz ado
Ġavanz ados
ĠDin ner
Ġestablish ing
Ġcuadr Ã¡tica
Ġce ase
Ġcoord en
Ġelimin ate
ĠMal ta
ĠÑĪ Ð°Ð³
ĠpÃºblic os
Ġcomer cial
æĿ ¿
Ap ple
Ġrank ed
Ġperd ido
Ġje u
Ä± m
Ġcomplic ado
Ġaim s
Ġreconoc er
ship s
ĠEns ure
Ġnom br
Ġphen omena
Ġvict ory
Ġhech izos
Ġoppos ing
Ġmanten erse
Ġcuchar adas
ĠFe el
Ġbes ides
Ġfilter ing
ĠLim its
ĠÐ´Ð¾ÑģÑĤ Ð°ÑĤÐ¾ÑĩÐ½Ð¾
ĠÐ°Ð½ Ð³
Ð°Ð¹ÑĤ Ð¸
Ġexec ution
ĠÐ²ÐµÑĢ Ð¾ÑıÑĤ
ÅĦ s
Ġcoll apse
Ġcluster ing
æ° ´
Ġaix ÃŃ
ells chaft
part y
ĠÑĸ Ð½
ĠsÃ³l ido
ĠCard inals
Ġencant ado
Ser ver
ĠAltern atively
Ġrig orous
Ġfacilit ate
ç´ ł
ĠSatur day
ĠBan ana
ĠÑģÐ»ÐµÐ´ ÑĥÑİÑī
tat ara
ĠAM D
Ġsettle ments
Ġhydr ated
ä»£ çłģ
Ġsoll te
ĠGovern ment
Ġabund ant
ĠYog ur
Ġschedul ing
Ġterritor io
Ġcontrovers y
pod rÃŃas
Ġpil ot
ĠSop a
Ġprest ig
Ġlever aging
Ġubic ada
Ġadquir ir
ĠAdvent ures
ĠDefin ition
reib en
Ġbio f
ÑĢÐ¾Ð¼ Ðµ
ĠBeat les
Ġinp ainted
Ġconm igo
ĠArr end
ĠFlor ida
çĹħ ä¾ĭ
Ġaster oid
Ġlente jas
ĠAk ademia
ĠEstable cer
Ġcalab ac
Ġsobreviv ir
Ġofic ina
Ġintel lectual
ĠPlut Ã³n
ĠDal ai
Ġimmers ive
ĠMediterrane an
ĠkÃ¶nn te
pub lish
ĠFo ot
Ġcongest ion
ĠIncor por
Hab ÃŃa
Ġrecomp ensa
èĤ ī
izkunt za
ĠFight ing
Ġfortale zas
ĠÐ¼Ð½Ð¾Ð¶ ÐµÑģÑĤÐ²Ð¾
ĠÐ´Ð¾Ð¿ Ð¾Ð»Ð½
ĠGog h
ĠTherav ada
ĠBelg ium
Ġhemis fer
Ġcarpinter ÃŃa
ĠInit ial
Ð¾Ð¶Ð°Ð»ÑĥÐ¹ ÑģÑĤÐ°
Ġhypothe tical
ĠReynold s
Ġoreg ano
( -
0 2
0 7
2 50
7 00
: \
= (
D ie
D epend
H ood
H arry
I l
I oT
K ey
M uch
O D
S O
T ype
T ienes
\ _
] ]
a is
a ug
b ut
b ash
d on
d irect
e an
e ast
f ire
g pg
h h
h aus
h ttp
j avascript
l st
l inder
m eta
m ilch
n an
p able
r ise
r ued
t empl
y d
y an
z one
Å º
Ð ĳ
Ð Ń
å ŀ
è Ļ
é ĺ
Ġ Ã¡n
Ġ ÅĽ
ĸ Ð¸Ð·Ð½
Ġa ur
Ġa wa
Ġt ied
Ġt elling
Ġt iny
in is
in ity
in ada
in stall
Ġc oco
Ġs ights
Ġs occer
Ġd angers
Ġd afÃ¼r
he ast
he ld
Ġp iedra
Ġo at
al ism
al iment
it is
Ġf ant
Ġf oc
Ġf ills
ic en
ic ine
Ġb ug
Ġb ub
Ġb ands
Ġb acon
Ġin medi
un ic
Ġh ilo
ad re
id ed
id imensional
ur ren
ol er
im ilar
Ġun for
el ar
Ġg el
Ġre ign
Ġre cept
Ġqu is
ĠT act
ĠT odo
ĠA ud
Ġv ow
Ġv ag
Ġv enta
ĠW o
ĠW arm
ĠC ra
ĠC enta
ir cle
ĠS ure
ĠS ales
ĠS ah
ĠS atisfied
ĠI T
ĠI ter
Ġfor th
Ġpro active
em ia
Ġr ip
Ð¸ Ñī
Ġel der
ot ar
ot ely
ĠE ar
ĠE uc
ĠE xt
ĠE iff
ĠP ass
Ã³n ico
Ġse al
Ġse as
Ð½ Ð¾Ð²Ð°Ð½
od ed
Ñģ Ð¼
Ñģ Ð¾Ð½
Ġes enciales
st ers
st ant
st op
Ġus os
ÑĢ ÐµÐ»Ñı
th rough
ĠD ist
ĠD ick
ĠD rop
ĠD onald
ĠM it
ĠM os
ĠM ich
ĠM ond
ĠB os
ĠL ie
ĠL ock
ĠL unch
ĠL ady
ĠH it
ĠH amil
ĠH istor
Ġor al
op es
Ġcan c
ĠF a
ĠF acial
Ġtr ail
ap ro
Ġsu jet
Ġhe ated
Ġ" ,"
ĠR A
ĠR ain
Ġcomp ose
Ġwas hing
Ġ( "
ĠN ut
ĠN int
te e
te za
Ġne um
Ġres on
Ġle verage
ial s
Ñĥ Ð»Ð¸
Ġk ill
ust ed
Ġsh all
Ġsh allow
ĠO tro
Ġser ene
ien ces
ien za
Ġsp ray
Ġac onse
Ġac know
Ġac tress
ĠJ a
ĠJ r
ĠJ ud
ĠJ azz
ĠJ ennifer
out s
Ġat ac
Ġpre y
Ġpre tty
ĠTh ird
ra za
Ġ5 2
art en
art ificial
tic amente
Ġro yal
ĠÑģ Ð°Ð¹ÑĤ
ĠÑģ ÑĢÐµÐ´
int on
Ġcol oc
Ġcu es
ĠÐ½ Ð°Ð¹ÑĤÐ¸
Ġact Ãºa
ÐµÐ½ Ð½Ñı
Ġmod ello
Ġfr eno
Ġprov iene
Ġpos ee
eng ibre
ĠK im
ov a
Ġint est
Ġinv ited
ject ive
Ġresp osta
ĠAd vantages
amb r
ĠÐ¾ Ñħ
Ġnum ero
Ġher b
ism os
Ġ19 45
ors hip
Ġinform ative
la im
ĠAl i
ĠSt adium
rit z
cul pt
rol led
Ġpo uve
Ġreg la
Ġcal ific
Ġmet ro
Ġsim ulaciÃ³n
Ġreal izado
de fin
Ġpod em
Ġutiliz z
Ġsec ur
Ġbl ind
Ġlarg as
Ġdi aria
Ġbus cas
Ġresult ante
ĠÑĤ Ð°
ĠCon c
Ġpot encia
cl os
Ġdeb ajo
Ġcr ip
fr ag
Ġret ir
Ġloc ate
Ð¾Ð´ Ðµ
iem pre
Ġinf ection
Ġanal Ã³g
ĠÐ± Ð°Ð·
Ġaf ternoon
Ġer re
Ġlib eral
ĠÐ½Ð° ÑģÑĤ
ÑģÑı ÑĤ
Ġdem ographic
Ð¾ÑĢ Ð¾Ð²
Ġarr ang
Ġsuc ed
ĠÑĥ Ð±
Ġperm et
Ġend l
Ġlight ly
Ġref ine
Ġref used
Ġposs ibly
vers ion
Ġbas il
ĠTr ad
ĠTr ade
ĠTr ump
Ġcorre os
Ã¤ ll
Ġmem e
Ġback end
Ġlim iting
Ġoper ator
Ð¾Ð± ÑĢ
fect o
ĠÃ© ticos
20 23
Qu iÃ©n
Ġmot ivo
br ush
Ġrev oluc
Ġdesarrol la
ann ie
ĠTo ols
Ġcual idades
ĠPl ate
Ġtrad uc
Ð¾Ð»ÑĮ ÑĪ
tt i
Ġdig its
Ġdon n
Ġdon ar
ãģ Į
ãģ Ł
ĠJohn ny
Ð¸Ðº Ðµ
Ð¸Ðº Ñĥ
aw a
Ġneg atively
pro v
Ġmar c
less ly
Ġcompr end
uj e
Ġge ht
ÅĤ by
Ġresearch ing
ĠX YZ
no input
ĠSh ort
ÃŃst a
ĠRec ycl
Ġrecord ings
ĠÐ¸Ð· Ð´
Ġbat alla
ĠCons erv
ĠÐµ Ñĳ
omb ra
Ġâ Ĩ
Ġâ Ľ
** .
ĠPar liament
Ġconvers ational
for ward
ĠLe v
ĠTw itch
ĠCo ffee
Ġmind s
uck y
Ġear ning
æľ Ģ
æľ Ľ
Ġgl ac
Ġmis chie
Ġmass a
Ġmess aging
ĠÐºÐ¾ÑĤÐ¾ÑĢ Ð¾Ðµ
ĠPh ill
Ġsl aves
anz as
Ġrisk y
ĠCar ter
Ġaqu ella
Ġreport ing
Ġperiod os
Ġagr up
ĠAut h
Ġvent ured
ĠAg ile
Ġcort as
ĠIns ide
rup t
Ġperfect a
Ġbig ger
ĠTe il
å® ŀ
ĠÑįÑĤÐ¾ ÑĤ
Ġrele ases
ÐµÑĩ Ð½Ð¾
Ġrul ed
Ġmagn ets
Ġentren ada
Ġceb a
Ġconvert irse
ĠAPI s
ä»¥ ä¸ĭ
Ġadecu ados
æĪĳ çļĦ
Ġefic acia
ĠÐ¸Ð½ ÑĤ
ĠÐ¸Ð½ ÑģÑĤÑĢÑĥ
Ġqual itative
ĠÐ¡ Ð¿
Ġlif etime
Ġteas poons
Ġindic ating
Ġacid ic
Ġho ffe
ĠMay or
Ġaliment o
ĠOb t
ĠÐ¿ÑĢÐµÐ´ Ð¿Ð¾Ð»
Est oy
Ġtab aco
Ġdeliver ing
Ġcool ing
Ġca er
Ġcitiz en
ĠEd ward
ĠBro ad
Ġcount less
ĠÃºltim as
Ġspeak ers
Ġcer teza
Ġreflect ed
Ġsex y
Ġsho ot
ĠRevolution ary
Ġpie za
Ġimpres ora
Ġos as
Ġderiv ada
Ġacerc Ã³
Ġinclus ion
Ġsix th
Ġincorpor ated
Ġofficial ly
Ġanthrop ologists
éĢ Ĥ
éĢ ī
Ġpun ishment
Ġhip ot
Ġajust es
ĠÐ½Ð°Ð¿ ÑĢÐ¸Ð¼ÐµÑĢ
Ġmencion ar
Ġones elf
Ġconfigur ar
ĠVis it
ĠVis ita
Con f
Ġemple ados
Ġadult os
Ġann ually
Ġelimin ating
Ġtransfer red
ĠOrgan ize
ĠOrgan ization
Ġroll er
ĠÑĥÑĩ Ð¸ÑĤ
ĠÑıÐ·Ñĭ Ðº
Ġexecut able
Ã©ro es
ĠÐ¸Ð³ÑĢ Ð¾Ðº
Ġnames pace
ĠInstruct ion
Ġthr ive
Ġdor ada
Ġdor ados
ĠArch itect
ĠmÃ¡g icas
Ġdistinct ive
Ġmiemb ro
Ġextrem adamente
Ġcro wn
Ġenfo ques
Ġbeb Ã©
Ġasign ar
ĠMad ison
ĠCur ry
Ġscal able
cur rent
ĠÐºÐ²Ð°Ð½ÑĤÐ¾Ð² ÑĭÐµ
ser ver
ĠMo z
ĠÐ°Ð½ Ð°Ð»Ð¸Ð·
æİ Ĵ
Ġpreocup aciones
Ġhier arch
Ġgrie go
Ġgrie ga
Ġfantas ÃŃa
ĠDa isy
ĠÐ¿ÑĢÐ¸Ð² ÐµÑģÑĤÐ¸
Ġclas ificaciÃ³n
ĠJes us
æĪĸ èĢħ
Ġaguj ero
ĠâĪ ļ
å± ķ
erme iden
Ġsir ve
Ġlegisl ation
Ġatract iva
ĠhÃ¡ b
ĠLis bon
Ġreplic ate
ĠScient ist
Ġcoordin ates
Ġaspir ated
Ġembr ace
clud ed
Ġsubjet ivo
Ġfon ction
opol y
Ġsubs id
ĠAD N
ĠFar aday
ÑĥÐ»ÑĮÑĤ Ð°ÑĤ
ĠbiolÃ³g icos
Ġoffic er
ĠMuch as
ĠÐ¼ÐµÑģÑĤ Ð¾
ĠShop ping
ĠAuto Hotkey
åĩĨ å¤ĩ
ĠDepend ing
æ¨¡ æĿ¿
èµ ·
ĠmÃŃn imo
Ġray os
ĠÐ¾Ð³ÑĢ Ð°Ð½Ð¸Ñĩ
Ġort ografÃŃa
ĠÐ¾Ðº ÑĢÑĥÐ¶
Ġdemostr ado
ĠÙģ ÙĬ
Ġmetabol ism
exp ensive
Ġinconven ience
Åĵ uf
ĠÑĢÐµÐº Ð¾Ð¼ÐµÐ½
ĠImper io
Ġhorn ear
Ġpoet ry
Ġpregn ant
ĠReduc ed
Ġlibrer ÃŃas
ĠBet ween
ĠHam let
ĠRobot ics
Ġzo om
äº§ çĶŁ
çĶµ åŃĲ
ĠÐ¿Ð¾Ð»ÑĮÐ·Ð¾Ð² Ð°ÑĤ
Ġunint ended
ugu ay
Ġard illas
Ġmembr ane
ĠÑĢÐ°Ð·ÑĢ Ð°Ð±Ð¾ÑĤ
Ġmare as
Ġstro ke
ĠSimilar ly
Ġdevast ating
ĠÐ²Ð°ÑĢ Ð¸
Ġinterperson al
Ġinhabit ants
Ġreef s
ĠLew is
Ġterren o
ovsk ite
Ġcafeter ÃŃa
ĠðŁ§ĳ âĢįðŁ
éª Į
ĠConse jo
ĠCompan ies
Ġestadounid ense
ĠcÃ¡n cer
Ġâł Ģ
hetor ical
Ġinfra estruct
odynam ics
Ġconvol utional
Ġhemisfer io
ĠÃ¡n imo
ĠEiff el
ĠHamil ton
ĠNint endo
Ġpouve z
' ?
' ).
3 8
: /
? ".
A re
B ut
D on
H C
N T
P re
P rim
S um
a er
b anz
c us
c ze
d im
d ico
d ichte
g ame
h n
l ay
l ambda
m ind
m ode
n etes
p he
r v
r illa
s ch
t alk
v ous
w as
y les
z A
z ca
§ a
Ð Ĺ
å ¢
å ĸ
é ĸ
é ĥ½
Ġ Å
Ġ ere
Ġ Ã¡ngulo
Ł ³
Ġt Ã³
Ġt oss
en ze
er b
es ÃŃa
on i
Ġc ilantro
Ġs co
Ġs Ã¨
Ġd ip
Ġd ando
Ġp ir
Ġp estic
Ġl ock
Ġl Ã¤
Ġm ock
al tar
Ġf ell
Ġf Ã³s
Ġf alsa
Ġf oto
Ġan arch
Ġan ger
Ġe clipse
Ġb od
Ġb its
Ġb err
un icip
ro le
Ġto que
Ġto oth
Ġto ward
Ġof ertas
le m
le ta
Ġh ang
us et
Ġy ard
Ġn ativos
Ġn omenclatura
ut ation
ut hor
el ic
el ada
Ġg ats
Ġg ently
Ġg inger
Ġre acciÃ³n
Ġre ban
Ġen for
Ġen compass
Ġcon eg
Ġqu erÃŃa
ĠT al
ĠT ent
ĠT ip
ĠT ats
ĠT alk
Ġv ain
Ġv ive
ĠW i
ĠC in
ĠC eb
em as
em bre
Ġr ica
Ġr ays
tr um
ter ed
ĠP es
ĠP il
ĠP ast
ate ur
od ity
um as
Ġbe ef
ag os
Ġpar aguas
Ġpar rilla
st ed
Ġst em
Ã© t
Ã© is
ĠD aten
ĠM aps
ĠM ilit
ĠB oy
ĠB ody
ĠB icicleta
end res
ort ed
ĠL ibr
ĠH axe
ĠH immel
Ġor ch
Ġwh ale
Ġcan vi
oc he
ĠG Ã¼
ĠG ANs
ĠG MT
ĠF ore
ĠF itz
ĠF antas
ĠR isk
og Ã©n
Ð» Ð°Ñģ
ie k
Ġres erve
Ġle v
ine apple
ich en
ĠIn f
up t
Ġpl ural
Ġme ille
Ġj engibre
Ġdel iber
Ġte va
Ġlas er
idad e
cr on
Ġdis m
Ġdis par
ach t
ces ador
ĠTh r
Ġgr os
Ġgr oss
Ġgr illed
Ġem isiones
ra fo
Ġcons igu
ĠÐ¸ Ð´Ðµ
ĠÐ² Ð¼ÐµÑģÑĤ
ber o
ik es
Ġco vers
Ġro oms
ĠÑģ Ð¸Ð»
ĠÑģ Ð¸Ð»ÑĮ
Ġstr anger
Ġnot ing
Ġnot aciÃ³n
Ġhas h
Ġcol leg
ĠV ision
pe are
Ġfe ud
Ġint im
plic ations
Ġlist o
ĠAn tar
Ġ19 18
Ġinform e
Ġbr Ã³
Ġpol os
ĠSt an
ĠÂ £
Ġut op
Ġgener ates
ÐµÑĢ ÑĥÑģ
Ġwork loads
Ġpo tr
ne o
ne xt
ne hmen
Ġpat io
Ġmet er
Ġcor ros
ios os
ĠEl la
Ġpod cast
Ġins pect
Ġins ulation
Ġtrans ist
Ġmodel ing
ident al
Ġcap s
Ġdi Ã³
Ġdi agram
ï¼ Ľ
ĠHe ad
Ġequ iv
Ġequ itable
Ġart es
ĠPro por
Ġdevelop ments
mo unt
Ġav es
Ġvis ita
Ġcomput aciÃ³n
ĠDe lete
ĠAr med
Ġayud arme
Ġadv ancing
pres iÃ³n
Ġloc ales
Ġsin c
Ð¾Ð´ Ñĭ
ix a
Ġcur ioso
Ġfl ach
Ġconsider ados
Ġmus cles
Ġfact ories
Ġass ume
Ġcoun cil
Ġplay a
Ġterm inado
Ð°Ð» Ð¸Ð¼
Ġtyp ing
Ġconf usion
lev a
lev ant
ram os
Ġdist ancias
ĠÑĥ Ð¿ÑĢÐ°Ð²
Ġder echa
Ġappro ved
enc il
Ġbas an
Ġbas adas
Ġaccess ing
akes peare
Ġoper ates
Ð¾Ð± ÑĢÐ°Ð·
ĠZ ero
Ġautom Ã³
Ġbuild s
Ġapplic ant
Ġgood bye
ann o
Ġprom oc
Ġesc apar
Ġsignific ativamente
Ġinvolv ement
Ġgovern ance
Ġglo b
Ñĸ ÑĢ
ĠNo un
be an
ĠÃ¡ l
els on
In troduc
ĠGr av
ĠCol Ã³n
Ġbi ased
åı ĸ
Ġrepresent ations
ĠSp ot
Ġgrand mother
Ġren ew
Ġren amed
Ġfinan ces
Ġarg ue
ĠÐ¾ÑĤ Ð²
Ð¸Ð¹ ÑģÐº
Ġsab e
Ġocc urring
Ġnecess arily
Ġden om
Ġconvers ion
Ġvisual es
ĠLe ad
Ã§ ar
Ġplant ing
Ġport af
Ġexperiment o
Ġrespect ful
ĠfÃŃs icos
Ġmis und
Ġindepend ientemente
ĠAdd ress
Ġmal ware
å¤ Ħ
Ġrelev ante
ĠSte ve
Ġcop per
Ġmol to
Ġheart s
Ġ25 5
Ġcontinu ously
col umn
Ġtravel ers
ÐµÑģÑĤÐ² ÐµÐ½
ÐµÐ³ Ð´Ð°
Ġbot tle
Ġintelig ente
Ġmiss ions
posit ory
ä¹ Ł
ĠÐĿ Ð°
å® ¢
ÃŃm etro
ĠÐŁ Ð¾
the ta
Ġresist encias
âĸĪ âķ
ĠtÃ©cn icos
ĠAnaly tics
Ġinterpre tar
Ġu vas
Ġextre mo
Un ivers
ĠMin or
Ġuns ure
Ġwhe el
âķ ļ
Ġlif es
ĠcuÃ¡n to
Ġcombin ations
Ġadjust ing
Ġtre mend
Ġpet iciÃ³n
ĠTom atoes
Ġrain fall
Ġrain bow
Ġfarm s
Ġregul aciones
èĥ½ åĬĽ
Ġfrut os
fl ies
ĠOb serv
Ġinstal ado
ĠCont ent
Ġtail or
ĠStud ios
Ġpros pect
Ġcart es
ĠEver est
Ġaj uste
ĠÐĲ ÑĦ
ĠÐ¾Ñģ Ð¾Ð±
Ġabsor ption
âĸĪâĸĪ âĸĪâĸĪ
ç» Ļ
Ġcelebr ated
ĠÑģÐ²Ð¾ ÐµÐ¹
Ġinspir aciÃ³n
Ġpromot ions
Ġconsequ ence
Ġfresh ly
Ġheav ier
Ġ-- >
ĠJo an
Ġexpand ed
Ġsho e
ĠÑģÐ¿ Ð¸Ñģ
St ation
Ġrect a
å¼ ı
iko a
Ġfamiliar es
Ġprem io
Ġsentir se
Ġrelax ed
Ġhom emade
ĠIntroduc ing
ĠÐ½Ð°Ð¿ Ð¸Ñģ
åĽ ½
ÑĥÐ¶ Ð´
ĠVal encia
Ġnucle us
Ġfabric ante
ĠPlay ers
Ġhabl antes
å¾ ®
ĠAlex a
Ð°ÑĤÐµÐ»ÑĮ Ð½Ð¾
ĠEle phant
Ġabr il
Ġmicro control
Ġdor ado
Ġenem y
ĠHy p
vol ume
uber netes
Ġcorpor al
Ġcorpor ations
Ġrespir atory
Ġillustr ates
Ġbul let
ĠCur rent
Ġcuchar ada
Ġcharg ing
ĠmÃ©d ica
æ² ¡
çĽ ¸
Ġconcre te
Ġdivert ido
Ġrecycl ed
Im ag
Ġassum es
Ġcoll aps
Ġdesem bre
Ġelectromagn Ã©tica
Ġosc uridad
ĠMuse o
Ġinj ured
Ġtransm ission
ĠdÃ©c adas
Ġmur iÃ³
Ð°ÑĢÑĤ Ð½ÐµÑĢ
Ġsom os
Ġconsecu encia
Ġadvanc ement
Ġtag line
ĠNav ig
Ġcircum ference
Ã³p ico
Ð¾ÑĢÐ¾ Ð½Ñĭ
æ± Ł
Ġsole ados
Ġhop ing
Ġmang a
Ġzum o
Ġcurios ity
Ġcurios idad
Ġciviliz ation
Ġexhaust ed
ĠÑģÐ»ÐµÐ´ ÑĥÐµÑĤ
Ġupload ed
clud ing
æĶ ¯
ĠÑģÐ¼ ÑĭÑģÐ»
Ġsubjet iva
ĠMid na
ĠAcadem ia
ĠRad io
Ġfertiliz ers
éģ ĵ
Ġvinagre ta
Ġmush room
ĠlÃŃm ite
Ġtick ets
Ġperten ece
Ġrough ly
åķĨ åĬ¡
Ġrit mo
Ġdram atic
Ġmasc ota
ĠÐ¼Ð¾Ð·Ð³ Ð°
Ġestan terÃŃa
ĠfilÃ³so fos
Ġcompost ing
Ġverw enden
è´ ¨
Ġdigit ales
ĠDemocr atic
Ġath lete
Ġepis ode
bu ilding
Ġmonta Ã±a
ĠBring ing
ĠÐ¾Ð±ÑĢÐ°Ð· Ð¾Ð¼
Ġsynd rome
è¿Ľ è¡Į
Neces ito
Ġnick name
Ġzana horias
ĠðŁĳ© âĢįðŁ
Ġconvent ional
Ġperce ived
Ġprogres iones
è± ¡
ĠMamm al
health y
Ġprinces a
ĠÐ½Ð°Ð²Ñĭ ÐºÐ¸
mac d
Ġware house
Ġpeu vent
ĠÐ²ÑĭÑģ Ð¾Ðº
su ited
Ġreput ation
ĠÐ·ÑĢ ÐµÐ½Ð¸Ñı
ĠCorpor ation
ĠÑĩÐµÐ»Ð¾Ð²ÐµÑĩ ÐµÑģÐº
ĠHawai i
ĠwÃ¼r de
ĠDiss atisfied
ĠInfin itesimals
ĠÑĥÑģÐ» Ð¾Ð²
ĠSchl uber
ĠSams ung
Ġhydrop ower
Ġobes ity
Ġatmospher ic
ĠCarib bean
ĠPÃºblic as
ĠespÃŃrit u
ĠVoldem ort
Ġnood les
åŀ ĭ
ĠSah ara
ĠhÃ¡b itos
çĶµåŃĲ åķĨåĬ¡
banz os
ĠLibr ary
ÐµÑĢÑĥÑģ Ð°Ð»Ð¸Ð¼
! ")
# #
) /
0 9
7 2
? )
? ,
A ll
B as
B utton
C hat
D ef
F al
L M
P C
P L
P ort
P ues
P OST
R NA
S an
W ho
a ws
b and
b ell
c ity
c ara
d ec
d ers
d ings
d uk
e ed
f urt
h um
h oria
h uman
i ak
i ada
l argest
m ate
n t
r ender
r ias
s pe
t al
t age
u era
u eto
x is
y ou
¿ âł
Ð £
â ¢
ç ¤
ç ³
è Į
Ġ ers
Ġa kt
Ġa roma
Ġt ie
Ġt ones
Ġt apa
Ġt elescope
in th
en ame
on ker
Ġc akes
Ġc ope
Ġc Ã©l
Ġd x
Ġp ec
Ġp est
at ers
at ÃŃa
at oria
Ġl act
Ġl ime
Ġm g
Ġm im
Ġm erm
Ġm iel
Ġm ai
Ġo las
Ġo melet
al pha
is co
Ġf ir
Ġf its
Ġf etch
ic us
ic ill
Ġde le
Ġde lete
Ġde grad
Ġb Ãº
Ġb amb
ed om
Ġto ile
Ġh ues
Ġh urrican
ac io
Ġn an
Ġn az
Ġn ose
Ġn aciÃ³
ol is
ol io
ol la
ut her
Ġun us
iv ore
Ġg i
Ġcon qu
ĠT ras
ĠT ex
ĠA ble
Ġv es
Ġv Ã¡l
ĠW alk
ĠW itch
ĠS ix
ĠS istema
Ġfor os
Ġpro c
Ġr ated
Ġr ational
Ġr ique
Ġr acing
ab el
Ġal iv
Ġal leg
Ġel ig
ĠE c
ĠE ine
ĠP R
ĠP ic
ĠP ear
Ġse ating
Ñģ ÐµÑĢÐ²
Ġth under
Ġbe ein
Ġes emp
Ġst uff
av era
ĠD an
iz ers
ĠM is
ĠM ona
ĠM ike
ch as
ch ild
ĠThe ory
end r
ĠL en
ĠL ake
ĠH urrican
ĠG el
ain a
ct ica
ive au
Ġhe cha
Ġ" .
ill ar
ĠN T
ĠN eces
ĠN ivel
ie le
ue ba
Ġch iste
Ġper p
Ġper iÃ³
Ġper imeter
und en
Ġab y
Ġab ol
Ġab ajo
Ñı Ñģ
Ñı Ñħ
Ġar en
Ġar med
Ġsh ot
Ġinc oming
Ġsp ots
Ġdis appoint
Ġdis appear
ĠJ en
gr aph
ach uset
out ube
Ġpre he
Ġpor cent
Ġcont am
ĠÐ¿ ÑĥÑĤ
aj ar
Ġ5 7
art es
Ġam ino
pr ise
ĠÐ² ÐµÐ»
ĠÑģ Ð¿ÑĢ
Ġstr ike
int a
ĠEn t
ĠEn ts
Ġpe as
ĠV all
Ġrel ate
Ġsy ll
Ġtw ist
ond itional
Ġpos tres
Ġpos ibilidades
xt ures
ĠAd a
Ġcar rot
ĠÐ¾ ÑĨÐµÐ½
ĠAn n
Ġ19 17
echn ology
ful ness
Ġinform Ã¡ticos
Ġbr avery
ĠAl ways
ĠSt able
Ġz en
rol og
Ġover night
Ġenerg etic
Ġcal isten
Ð°Ð½ Ð½Ñı
ĠÐ¼ Ð°Ñģ
Ġpat ates
Ġtu ber
ĠEs s
Ð¾Ð» Ðº
ĠÐ¿ÑĢ Ð¾Ð´Ñĥ
Ġbl ess
Ġtrans it
Ã¡n tica
Ġsc aling
Ġmin eral
Ġ7 2
ĠAs im
ĠÑĤ ÐµÐ»
Ġseg ur
Ġproblem es
ĠCon oc
Ġav ant
Ġdifferent iate
Ġdeb ilidades
line ar
Ġcr Ã©
ink ing
ĠÑĢ Ð¸Ñģ
ĠÑĢ ÐµÐ³
ÑĪ Ð¸ÑĢ
af ia
Ġsin cron
Ð³ ÑĥÐ»Ñı
Ð³ Ð»ÑıÐ´
Ð¾Ð´ Ð¸ÑĤÑĮ
Ġcur ved
Ġalgun s
Ġfl ora
Ġfl amen
Ġinst ances
Ġcontr atar
iss en
Ġhist Ã²ria
Ġfin ales
Ġneces it
Ġer osion
Ġmejor as
get table
Ġanim ations
Ġdesign ers
Ġdesign ated
Ð°Ð» Ð¾
ĠFr uit
ĠFr iday
Ġarr end
Ġconf iable
Ġident ification
ĠÑĥ Ñģ
ĠÑĥ ÑģÐ¿
Ġend point
Ġrecom an
Ġaccess ibility
omet er
omet ry
omet ric
Ġobjet iva
Ġlim er
Ġsig a
Ġsig los
Ġbre eds
Qu iero
Ġris pet
Ġsci ences
ah a
Ġni Ã±as
Ġsuccess es
ĠComp et
ĠPl us
ĠPl onker
Ġconst antes
rop ro
Ġda Ã±os
Ġevery where
Ġbro ke
Ġsw an
Ġsw ift
Ġdefin ida
ĠWe ek
Ġsitu ada
ĠAp pro
ĠIdent idad
ãģ ¾
ãģ Ĩ
(" #
Ġbeh ar
ĠÐ³ ÑĢ
ĠÐ³ Ð¾ÑĢ
ĠÐ³ ÑĢÐ°ÑĦ
Ġmar av
Ġmar ip
In tern
ĠSch okolade
ele ment
ele ments
ĠCol oca
åı ª
Ġgran ola
Ġoptim izar
ĠInd ones
Ġdetermin ada
ĠÐ¾ÑĤ Ñģ
ÃŃn tesis
Ġgust en
ĠX S
ĠX IX
ĠSh akespeare
ĠRec ord
Ġpost ure
Ġhead ers
ows ki
Ġâ Ĥ¬
Ġfinal izar
Ġden im
Ġvisual izar
Ġvisual izaciÃ³n
Ġdocument o
Ġcompon ente
Ġcompet ing
Ġir ony
ĠCo ver
Ġans iedad
Ġinn oc
ĠUnivers o
Ġum bre
Ġbreak down
ĠÐĴ Ð¾ÑĤ
ĠÐºÐ°Ðº Ð¸Ðµ
Ġsuggest ing
Ġcoc ciÃ³n
Ġbar ista
ĠMe asure
Ġgar banzos
Ġpack ed
Ġ199 7
Ġmol ido
Ġsust ancias
Ġaltern ativas
Ġampl io
Ġampl iar
ĠCar n
ĠÐ±Ñĭ Ð»Ð¸
Ġsqu ared
ĠOpen AI
Ġdescub re
Ġdescub ierto
ÐµÑģÑĤÐ² Ð°
Ġvent as
Ġaffect ing
ĠDis p
ĠÐ¶ Ð¸Ð²
Ġcompan ion
Ġ196 8
ĠDevelop ing
ä¹ Ĳ
ä¹ Ļ
Ġcapt uring
aps ulation
Ġdeterm ina
Ġconsist ently
åĲ Ĺ
Ġtur ÃŃsticos
can vas
Ġdas h
Ġfres co
Ġfres ca
Ġfundament os
Ġobserv ation
Ġobserv aciÃ³n
dro gen
bl ock
Ġput ting
num bers
ĠVer de
Ġorganiz aciones
Ġhi jos
Ġelect ro
Ġ197 6
Ġcebol las
Ġweek ly
ĠÐ¿Ð¾Ð» ÐµÐ·
Ġhid ro
Ġmetaph ors
Ġdivid ir
Ġball oon
Ġmic rÃ³
Ġmic ropro
Ġmuest re
è® ®
Ġhistor ic
ips es
Ġblog s
ÑĭÐ² Ð°ÐµÑĤ
Ġtab oo
Ġhold ing
Ġharm on
ĠÐļ ÑĢÐ¾Ð¼Ðµ
ĠmÃ¡ quinas
ĠStud ents
è§ Ħ
Ġaccom pan
Ġca ution
produc t
ĠDef ence
Ġobst ante
ĠCor rect
Ð»Ñİ Ð´
Ġcelebr ity
ĠÑģÐ²Ð¾ Ñİ
ĠÑģÐ²Ð¾ Ð¸Ñħ
Ġgalax ias
Ð¸Ð± ÐµÑĢ
Ð½Ð¸Ðº Ð¸
cont in
Ġextract ing
Ġcomport amientos
ĠSw ed
ĠSw ift
ĠForm ula
Ġhaz ardous
ĠGod zilla
St art
Ġphilos opher
ĠÑĤÑĢ Ð¸Ð°Ð½
Ã¨n cies
Ġrect angular
ufact uring
æ³ ¨
Ġorigin ated
åĨ į
Ġgan ado
ĠIh rem
Ġapar ece
Ġdomin ante
Ġdiscrimin ante
Ġiter ative
Ġauthent ic
Ġcompart en
Ġfem in
ĠVal ue
Ġmac d
ĠDav inci
ĠÑĢÐ°Ñģ ÑģÐº
Ġce iling
ĠÐ±ÑĥÐ´ ÑĥÑĤ
hal b
ĠSuper vised
RE ND
Ġintens idad
Ġscr atch
Ġsummar izes
Ġincent iv
ĠQue ens
è¡ ¨
Ġclaim ed
Ġconsid Ã©r
ĠÐ¿Ð¾Ð½ ÑıÑĤ
Ġpick ing
Ġpurs uit
Ġabsorb ed
Ġbound ary
Ġaim ed
ÑģÑĤÑĢ Ð¾Ð¹
Ġmarg inal
Ġcompat ibility
Ġhighlight ing
ÐĿ Ðļ
Ġbul bs
Ġgard ens
Ġcharg es
ĠÐ¿ÑĢÐ¾Ð³ÑĢÐ°Ð¼Ð¼ Ñĭ
ĠHol y
ĠÑģÐµÑĢ ÑĨ
ĠExper iment
ĠÐ°Ð½ Ð°Ð»
Ġaccomplish ments
Ð¡ Ð¿
Ġescrit ores
ÑĨÐ¸Ð¾Ð½ Ð°Ð»ÑĮ
Ġneigh b
Ġsop ort
Ġdeploy ment
SC s
Ġsatell ites
Ġminer ales
è¾ ĵ
Ġcuid ar
ĠÐ½Ð°Ñĩ Ð°ÑĤÑĮ
Ġetern al
Ġrepos itorio
Ġanticip ate
Ġatract ivo
ĠGen etic
ĠAR REND
ĠÐºÐ¾Ð½ÑĤ ÑĢ
Ġnego cios
Ac count
Ġconvey ing
ĠÐ¼Ð¾Ð´ ÐµÐ»Ð¸
ĠÐ¿ÑĢÐ¾Ð¸Ð·Ð² ÐµÐ´
ĠSatur n
ĠBan anas
æ¯ Ķ
Ġtoler ancia
Ġjum ped
stand ing
ĠÐ±Ð» Ð°Ð³
ĠRegular ly
Ġcalend ar
ĠLuc as
Ġvacc ines
Ġimmigr ation
itarian ism
åħ¶ ä»ĸ
vor ak
Ġconver ting
ĠSop ar
ĠAlf onso
Ġahor rar
å»º è®®
ĠCa esar
Ġpersever ance
ĠÐ¾Ð±Ð»Ð°ÑģÑĤ Ð¸
Ġnaveg ador
ĠðŁĳ¨ âĢįðŁ
ĠÐ¿Ð¾Ð·Ð²Ð¾Ð» ÑıÐµÑĤ
Ġamerican o
Ġtang ible
ĠÐ²ÑĭÑĩÐ¸ÑģÐ» ÐµÐ½Ð¸Ñı
ĠRow ling
Ġtuv ieron
ĠSelec ciona
Ġjugu etes
Ġirreg ular
Ġgasol ine
ĠÐ·Ð°Ð²Ð¸Ñģ Ð¸ÑĤ
Ġincom ple
wid th
Ġfom entar
Ġgeg en
åĽŀ çŃĶ
ĠplÃ¡t ano
ðĿĺ Ģ
Ġaprovech ar
ĠÃ¡mb ito
ĠSustain able
ropol itan
ĠSout hern
Ġfranc Ã©s
Ġfrances a
Ġinvis ible
ĠScot land
å¥¶ ç²ī
èªŀ è¨Ģ
Ġdefe ated
Ġted ious
ĠIR S
ĠÑĥÐ· Ð½
ĠZel da
ĠSimps on
ç½ ĳ
Ġquadr atic
Ġgeograph ical
Ġturb ines
Ġsubstant ial
Ġbicy cle
Ġunic orn
pri ately
Ġmangi ato
ĠDj ango
Ġdesigual dad
Ġdukk ha
Ġpropriet ary
ÐºÐ¾Ð»ÑĮ ÐºÑĥ
Ġcurricul um
ĠSalv ador
ĸÐ¸Ð·Ð½ ÑĮ
Ġneum Ã¡ticos
ĠRecycl ing
ĠdiÃ³ xido
Ġlifes pan
ueto oth
ĠbÃº ho
Ġrique za
achuset ts
Ġcalisten ia
ĠÑĤÑĢÐ¸Ð°Ð½ Ð³ÑĥÐ»Ñı
) {
6 2
B M
B y
C hor
D ON
F low
G n
I F
Q uer
R equ
S oft
T R
U s
U no
a o
b el
c ano
d x
d et
d ul
d og
e au
g reg
g reen
g han
h is
h id
h ref
i Ã©
m ens
m aze
p ages
r andom
s ystem
t imes
u ak
u ous
u osa
w icks
x ia
y ard
z ÄĻ
« ãģ
Ê °
å Ļ
æ ¶
ç ¿
Ġ Î
Ġ ile
Ġa ubergine
Ġt es
Ġt art
Ġt ired
Ġt iger
Ġt sp
en y
er to
on Ã©s
on ium
Ġc raw
Ġc icl
Ġs pl
Ġs ans
Ġs way
Ġs ends
he tti
re act
Ġl em
Ġl ighter
Ġm unicip
al mente
it als
Ġf ame
Ġan ci
Ġan ten
Ġan che
Ġw ed
Ġw arr
Ġb ath
Ġb ugs
ed ores
Ġin qu
Ġh ast
us ername
ac ular
ad ata
qu el
id ers
ur ning
ol l
ol utely
im ales
Ġun less
ec ciones
Ġg a
Ġg aze
Ġg eben
et ed
et zt
Ġcon cl
ul ates
est ro
est ra
ĠA th
ĠA ument
ig t
Ġv era
Ġv erm
Ġv ender
Ġv enc
Ġv aya
ĠW ear
ĠC er
ĠC ob
ir able
ĠS em
ĠS low
ĠS ep
ĠS ens
ĠS hip
Ġpro l
Ġpro ceed
Ġpro du
em en
uc he
Ġr ic
Ġr hetorical
ab l
ab ÅĤ
Ġal ma
Ġal tos
Ġel l
ĠE res
ci e
ĠP ip
ĠP az
ĠP yth
ĠP iano
Ġse ats
od idad
um ps
Ġbe ast
ag ua
ag iar
ag hetti
Ġes qu
st an
st ore
Ã© st
pl at
pl ib
ĠD ia
ĠD art
ĠD inar
ĠD raw
ĠD iffusion
ĠD vorak
ĠM ari
ĠM ys
ĠThe od
and y
ĠB od
ĠB ase
ĠL em
ĠL ate
ĠL ies
ĠL leg
ĠH D
ĠH err
Ġor quest
op son
ĠG and
ĠG arc
ĠG UI
ĠF FT
Ġ" $
Ġ" ,
Ġest Ã©s
Ġest ÃŃm
ĠR am
ĠR ot
ĠR iding
ĠR usia
Ġpr ide
ĠN elson
te en
Ġres olving
ue z
ue ve
Ġle af
Ġdes in
Ġch ir
Ġch ap
Ġch ina
Ġch ains
oul ing
Ġper pet
Ġj ump
ust ers
Ġab ort
ĠO cc
Ġap enas
ener y
Ġcre ativo
Ġser en
ical ism
Ġcl usters
Ġsp at
Ġsp an
Ġsp raw
Ġsp here
ach o
out put
ast ro
Ġwe iter
ass ie
Ġdo y
Ġdo ble
ĠÐ¿ Ð¾Ð¶Ð°Ð»ÑĥÐ¹ÑģÑĤÐ°
ific ada
Ġinter discipl
ĠÐ² Ð¾Ñģ
ĠÐ² Ð¸Ð½
Ġpers u
Ġsol amente
Ġco ugh
ĠÑģ Ð¸Ð½
Ġstr iving
Ġnot ed
Ġgo bern
Ġcol orm
Ġcu i
Ġcu esta
ĠÐ½ ÐµÑģ
ĠÐ½ Ð¸Ñħ
Ġev al
Ġev ac
ĠV itam
Ġfe br
Ġprov ision
ĠK oro
ĠCh amp
ĠCh ili
Ġout lines
Ð¾Ð² Ð°ÑĢ
Ġinv ite
we i
ĠAd apt
ĠÐº Ð½Ð¸Ð³
ĠAn y
ĠEst imate
Ġcomm a
Ġ6 00
la w
uy Ã³
ĠAl ab
ĠÂ ±
Ġexper to
Ġwork flow
Ġwork force
Ġreg ulation
Ġreg ret
Ġreg alo
Ġcal entar
ĠÐ¼ Ð¾Ð½
ĠÐ¼ Ð¸ÑģÑģ
Ġexam en
Ġver ify
ĠðŁ Ĺ
Ġmet adata
Ġhum mus
ick ed
ĠEs pany
Ġhab rÃŃa
Ġsim il
Ġtem ple
ĠGener ally
ĠEx tract
Ġutiliz ation
Ġutiliz aciÃ³n
ĠÐ¿ÑĢ Ð¾Ð´
Ġplan ificar
Ð¾Ð¼ Ð¸Ð½
ph ins
ph rase
Ġacc um
Ġ7 1
Ġexpl ores
Ġexpl ained
ĠPro per
cl ipses
Ġsal mon
ÐµÐ» ÐµÐ½Ð½Ð¾Ð¹
Ġ' __
Ġsk etch
Ġ[ '
Ġcr imes
__ ':
ĠDe ath
ĠÑĢ ÐµÑĩ
af ood
Ġ{ "
Ġfam osas
ix en
min ute
cu ent
Ġcur ry
Ġimpro vis
Ġalgun es
Ġfl ame
Ġmy st
iss ive
Ġ9 00
Ġdifer enci
anc a
Ġsur ge
Ġcent re
Ġlib res
Ġdem ands
ex ist
ĠÃ ¤
Ġwhere ver
Ġll um
Ġdesign er
ĠFr ame
ĠÐ· Ð°Ð³
Ġprin cess
Ġprim avera
Ġstory telling
Ġident ificaciÃ³n
Ġmen jar
ĠSe ek
Ġsuc esiÃ³n
cho ols
Ġcost ly
Ġ18 10
Ġend ocr
Ġnatural ly
Ġappro val
ĠTr ain
ĠTr abaj
ĠNew s
ĠPr iv
Ã¤ che
Ð¾Ð½ Ð¾Ð¼
Ġatt ached
Ġpublic aciones
Ġlim itar
ÑģÑĤÐ² Ð¸Ðµ
ĠÃ© st
aut Ã©
Ġtrav elling
Ġautom atic
ĠCl ase
ĠShe ets
Ġfut uras
Ġsoci o
Ġni Ã±a
Ġprom ise
Ð¾ÑĤ Ð°
Ð¾ÑĤ Ñı
Ġlog rado
Ġexp ir
Ġtrad itions
Ġinfl ation
Ġcle ver
Ġbro ccoli
Ġgovern or
Ġglo bo
Ġvir al
iver pool
Ġsun rise
Ġcharacter istic
ãģ ¨
Ð¸Ðº Ð¾Ð²
Ġintegr ar
Ġconsum ing
ele br
Ġdesc entral
ĠGo ing
Ġleg ible
Ã¡l ogo
åı Ĥ
ĠSp end
Ġoptim ism
Ġoptim izaciÃ³n
Ð°Ñģ Ð¸Ð±Ð¾
Ġhapp ily
Ġge ography
Ġmusic ian
Ġregular ization
Ġland ing
Ġabs ence
Ġhead er
ĠÐ¸Ð· Ð²ÐµÑģÑĤ
Ġpal ind
Ġbat tles
Ġprote ge
Ġestud ia
Ġencontrar on
Ġden omin
Ġefect ivas
Ð¾Ðº Ð°
Ġaprend e
Ġpropor cional
for estation
Ġimag ination
Ġaccount able
Ġingred ient
Ġfa una
Ġcontrib uciones
Ġcard board
ĠÑģÑĤ Ð¾ÑĢÐ¾Ð½Ñĭ
æľ º
Ġdetect ing
Ġrep ente
serv let
Ġcoc ida
Ġllam adas
Ð°Ð¹ Ð´
Ġestruct ur
ĠSte phen
Ġol vid
åħ ¨
Ġ199 4
Ġ199 6
Ġflow ing
Ġparticip ating
Ġmethod ology
ĠPer u
Ġrecurs ively
Ġinnov ador
è¯ Ĩ
Ġprev ents
Ġconj unction
ĠAf ghan
Ġdeg li
Ġ196 3
Ð¸Ð» Ð°
ĠÐ¿ÑĢÐ¾ Ð¸Ñģ
---------------- -|
Ġdistrib ute
Ġmel hor
umb res
Ġencuent ro
ĠInt el
Ġedit ar
oming o
Ġswitch ing
Ġviv iendas
ĠÑħ Ð¾Ñĩ
Ġorganiz ational
Ġtal ento
Ġsil ent
åŃ Ĺ
Ġraz as
Ġ197 7
Ġslow er
ĠÐ¿Ð¾Ð» Ð¾Ð¶
ĠÑĨ Ð²ÐµÑĤ
Ġband eja
16 8
Ġ198 4
ĠRuss ell
Ġappl ies
Ġrain forest
å° ģ
print f
fl ix
ĠSm all
ĠWeb site
25 5
ĠÐĺ ÐµÑĢÑĥÑģÐ°Ð»Ð¸Ð¼
ĠÐºÐ¾Ð½ ÑĦ
Ġhar Ã¡
Ġlic ensing
ĠÐ¿Ð¾Ð¼ Ð¾Ð¶ÐµÑĤ
ĠÐļ Ð¾Ð½
Ġdam aged
å¸ ĥ
ĠMark et
ĠFin ch
ĠMus k
________ ____
ĠCr ack
ĠHer z
ĠÐ²Ñģ ÐµÐ³Ð¾
umin aciÃ³n
Ġinvent or
Ġprompt s
Ġdemonstr ated
aim ito
éĹ ¨
Ġadop ciÃ³n
Ġadop tion
Ġhom ologÃŃa
Ġgan Ã³
ĠIh ren
ĠÐ½Ð°Ð¿ ÑĢÐ°Ð²
Ġtele f
Ġsell s
Ġinfin ite
Ġded os
cry pt
Ġ192 4
ĠPlay Station
Ġround s
--- |
Ġscr aping
ĠÑģÐ¾Ð·Ð´ Ð°Ð½
ĠÑĥÑĩ ÐµÐ½
Ġincent ive
ĠEle ments
Ġexecut ed
Ġple asure
Ġexplan atory
åĮ ĸ
ĠGre cia
ĠAre a
ĠInvest ing
Ġdor adas
Ġrot aciÃ³n
Ġingenier os
ĠUr uguay
Ġrat Ã³n
ĠGal ile
ĠGit Hub
Ġextr anj
Ġadm ire
Ġlimp ieza
Ġescal ar
Ġinterview s
Ġmultiplic aciÃ³n
abe i
Ġrespir aciÃ³n
Ġsubst ances
Ġbul b
ĠMad onna
å½ Ĵ
Ġdej ado
ĠÑģÐº Ð¾ÑĢ
Ġbelong ing
Ġgeomet rÃŃa
Ġconstit ution
Ġsosten ibles
Ġfis c
Ġft plib
Ġwealth y
Ġnov ia
ĠFrank furt
Ġdificult ad
Ġsect ors
Ġalc ance
Ġhermos a
Ġtamb Ã©m
ĠFire fox
Ġtranspar ente
Ġnar row
ĠMess enger
ÐºÑĢ ÐµÑĤ
Ġiniti ative
Ad d
Data Frame
ĠCop y
å¼Ģ åıĳ
ĠÐ¸Ð¼Ðµ ÑİÑĤ
ĠhistÃ³r ico
Ġtir as
Ġom n
Ġcombust ible
âĸĪâĸĪâķ Ĺ
Pr int
è° ĥ
199 3
Ġambiental i
ĠvÃŃde os
Ġdimens iones
Ġgrat itude
âĢįðŁĳ §
Ġdisp uesto
Ġconcert s
Ġciviliz ations
Ġinfr ing
ĠScient ists
ĠMem orial
Ġcorrup tion
Ġclub s
Ġinfect ions
ä½ĵ éªĮ
Ġsoll ten
Ġtheor em
ĠÐ¿ÑĢÐ¸Ð½ ÑĨÐ¸Ð¿
Ġocurr ir
ĠÐ²Ð°Ð¶ Ð½Ð¾
Ġschedul ed
ĠMult i
Ġcontrovers ial
Ġjard ÃŃn
Ġindo ors
Ġappoint ment
ĠÑįÐº ÑģÐ¿
é£ Ł
Ġmarr ied
Ġtick et
ĠDesc artes
Ġsel va
ĠMass achusetts
ĠNar uto
Ġjap onesa
Ġcheer ful
Ġrefriger ator
ĠsubatÃ³m icas
Ġanagram s
ĠCi udad
Ġexcess ive
ĠMeth od
ĠJew ish
Ġencrypt ed
Ġabbrevi ation
Ġzucch ini
Ġzucch inis
Ġpublish ing
ĠÐ¾ÑĢÐ³Ð°Ð½ Ð¸Ð·Ð¼
é¦ ĸ
Ġatrib utos
Ġsuff icient
Ġprotot ype
Ġmuff in
ĠPand as
ĠISP s
Ġling Ã¼
ĠHear t
Ġrhym ing
Ð§ ÑĤÐ¾
Ġwis dom
Ġlegend ary
Ġspreads heet
Ġhyperparam eter
Ġforgot ten
çķ Į
Ġalf ab
ĠIncl uye
Ġdispl acement
ĠÐ°Ð² ÑĤÐ¾ÑĢ
Ġfic tic
ĠVir gin
ĠBlock chain
â£¶ â£¶
Ġcycl ing
Ġcuad ro
Ġintuit iva
ĠÑĤÐµ Ð¾ÑĢ
Ġsanit izer
mor zar
Ġmetagen omic
Ġtack le
ĠÐ¿Ð¾ÑĤÑĢ ÐµÐ±
ĠTost adas
ĠÑĤÐµÐ± Ðµ
Ġasesin ato
Ġaustr al
Ġtong ue
ĠGob ierno
Ġsyst Ã¨me
ĠpÃŃ x
Ġinappro priate
ĠÑĢÐµÐ· ÑĥÐ»ÑĮÑĤÐ°ÑĤ
åĬŁ èĥ½
mÃ¤ ÃŁ
Ġsut ras
Ġcuidados amente
ydr ates
é¤ Ĳ
Ġcalabac ÃŃn
Ġunfor gettable
frag ma
Ġdonn Ã©es
ĠSchluber wicks
Ġporcent aje
Ġflamen co
ĠPlonker ritz
åĻ ¨
ĠPyth ag
Ġorquest as
ĠGarc ÃŃa
! !
( $
) -
0 4
5 7
9 4
B er
B an
F ile
F echa
G E
H o
L A
L et
L ow
N ot
N um
O K
P G
P S
P os
P ath
S p
S te
T X
T ok
b Ã³n
c ut
c out
h os
h ops
k it
k ind
l on
l ia
l ocation
m ol
n s
n ode
n ologÃŃa
p it
p ow
p ush
r u
s ized
s ky
t el
t ta
t weet
t emp
v ious
y y
z w
z ug
å Ŀ
ç ĥ
è Ī
è ĳ
é Ĩ
é Ł³
ľ èī²
Ġa terr
Ġt il
Ġt am
Ġt iss
er ce
er weise
Ġc ajas
Ġc ipher
Ġs ap
Ġs ick
Ġs angu
Ġs culpt
Ġd ime
Ġd ose
Ġp one
Ġp aus
Ġp anc
Ġp ilar
Ġp inch
at om
at ta
ar is
re mos
Ġl ift
Ġl ambda
Ġm ul
Ġm ud
Ġm ug
al ign
as i
as ures
it ore
it imate
Ġf ier
Ġw ur
Ġw elfare
Ġde ine
Ġde pos
Ġb und
Ġb ra
Ġin just
ion amiento
Ġof erta
le as
le tt
Ġh art
Ġh Ã©roes
us hed
Ġy east
ac ies
ur able
Ġn urs
Ġn ull
Ġun ir
el ve
el ta
am aciÃ³n
am Ã©rica
ec onomic
Ġg un
Ġg az
Ġg iro
Ġen forcement
Ġcon quer
Ġqu el
ĠT oy
ĠT ues
ĠT rees
Ã³ c
ig eno
Ġv os
Ġv om
ĠC ow
ĠC Ã¡
ĠC all
ĠC AM
ĠC Ã³digo
ir as
ĠS ay
ĠS ud
ĠS Ã³cr
ĠS HEL
Ġfor b
uc ks
ers h
Ġr ib
Ġr ings
if ik
ĠE agle
ay as
ĠP M
ĠP ened
Ġse is
Ġse am
Ã¡ culo
od io
ist ar
Ġpar ecen
Ġon Drag
Ġas i
Ġas ks
Ġas int
Ġyo ut
Ġus amos
Ġst ations
Ġst icks
ĠD ir
ĠD onde
ĠD FA
ect ar
ĠM D
ĠM end
ĠM ade
ch r
ch t
ĠB ing
ĠB ac
ĠB ab
ĠB ach
ĠB read
ud er
ĠL ith
ĠL ung
ĠL iving
ĠL iverpool
ĠH ad
ĠH ig
ĠH acer
ĠH omer
Ġ- ----------------
Ġuna uthor
ĠG y
ĠF igma
Ġhe y
ĠR ing
ĠR oma
Ġcomp ras
Ġpr z
Ġwas her
Ġso ap
Ġso Ã±
ill ance
per form
Ġ( )
ĠN O
Ġne u
Ġres ize
Ġres istant
Ġimp ost
Ġpu Ã²
ug hed
Ġch ances
ĠIn fl
ĠIn oltre
Ġk o
Ġwor ries
Ġper haps
Ġj un
Ġj ew
Ġab ar
Ġab og
Ġab ra
Ġab ans
Ñı Ð²Ð»Ñı
Ġar bit
Ġar ithmetic
Ġsh ades
Ġsh ips
Ġsh irt
Ġinc ons
ĠO S
ĠO UT
ĠO OP
Ġap io
Ġcre ators
Ġad ul
00 1
ve illance
Ġac ost
Ġno bles
ĠJ on
ĠJ ur
ĠJ ob
ĠJ avascript
Ġpre cious
ĠTh ose
Ġpor ciÃ³n
Ġcont ener
ass isted
ff en
ĠÐ¿ Ð¾Ð³
ĠÐ¿ Ð°Ð¼
aj Äħ
Ġcons pir
Ġcons olid
Ġcons ecutive
Ġfol g
ĠÐ¸ Ð´
ĠÐ² Ð¿
ĠÐ² Ð¾Ð¹
ik en
Ġco ach
Ġent us
Ġent ang
Ġform an
Ġperson nel
ĠEn tw
ĠÐ½ ÐµÐ·
ĠÐ½ ÐµÐºÐ¾ÑĤÐ¾ÑĢ
Ġev it
Ġup beat
Ġfr ames
Ġprov echo
Ġpos iciones
ĠK om
Ġind eed
Ð¾Ð² ÑĭÑħ
ons um
Ġmed ieval
bre aking
Ġint ake
we ek
amb urg
ĠLa TeX
ĠÐº ÑĥÐ»ÑĮÑĤ
Ġnum Ã©rica
Ġop posed
Ġ6 8
Ġbr uja
Ġut ens
Ġut ility
Ġz ap
Ġph on
Ġph arm
Ġcal ent
Ġcal do
Ð°Ð½ Ñĩ
ĠÐ¼ Ð¾
ĠÐ¼ ÐµÑĢ
ĠÐ¼ Ñĸ
ĠÐ¼ Ð°Ð³
Ġpat as
Ġver bo
Ġver ifica
ĠCre aciÃ³n
Ġmet e
ick i
ĠEs morzar
Ġcomple tion
res h
res ult
Ġreal izaciÃ³n
de velop
ĠÐ¿ÑĢ Ð¸Ð¼
Ġplan cha
Ġsc ans
Ġdi ets
Ġbus h
ta Ã±a
Ġmat plotlib
Ġseg uido
Ġseg uros
Ð¾Ð³ Ð»Ð°Ñģ
Ġsal to
Ġsal iÃ³
Ġmon key
Ġ[ [
ĠAr roz
ĠRe in
ĠRe qu
pres a
ÑĪ Ð¸Ñħ
Ð¸Ñı Ñħ
Ġpub blic
ä¸ ¤
Ġalgun o
Ġha ur
hed ral
ues a
Ġactiv o
Ġche ap
ican o
Ġ9 6
Ġrem otely
Ġfil ming
Ġ$ $
ĠÃ į
Ġdet ecciÃ³n
Ġdet alle
Ġsum m
Ð°Ð» ÑģÑı
Ġarr anged
ĠÐ· Ð°Ñģ
ĠÐ· Ð°ÑĢ
istem as
Ġprim eras
Ġprim aria
Ġsuc c
Ġtop ografÃŃa
Ġespec ificar
Ġperm isos
Ġder ro
Ġcommun ism
Ġ18 30
Ġ18 25
Ġaccess ories
ĠTr i
ĠTr iple
Ã¼ s
ÐµÐ´ Ð¸Ð½
Ġoff ensive
Ġmem o
Ð¾Ð½ Ð¾Ð²
omet own
Ġant iv
Ð»Ð¸ Ð½
Ġpublic aciÃ³n
Ġdepend en
vent h
Ġhand writing
20 20
20 10
20 16
20 13
Ġorder ed
ger ald
Ġgre y
Ġrest a
ath on
Ġris p
Ġelectr ons
ĠTo uch
Ġmult ivers
Ġprom et
Ġmil ions
Ġsupport ive
Ġtrad iciÃ³n
Ġpregunt arme
Ġemb ed
Ġorig ins
Ġess ence
Ġgen Ã©tica
Ġvers o
El s
Ġrespons ibly
ãģ ¯
ãģ ĭ
Ġred is
Ġred uz
other mal
Ġvar ÃŃan
Ġten ÃŃan
ĠÐ³ ÐµÐ½
ĠÐ³ Ð¾ÑĤÐ¾Ð²
ee per
Ġphys ically
Ġnight s
ä» İ
ĠGr ay
ÐµÐ½Ð¸Ñı Ð¼Ð¸
Ġbi ology
ĠSp ider
ĠCal ienta
Ġinteract ing
Ġdisc ut
Ġci Ã¨ncia
Ġbase ball
Ġge ographic
Ġarg s
ĠEm ily
Ġresearch er
Ġsab ÃŃa
Ġsab emos
ĠSh ould
Ġveget ari
En d
Ġfre ely
Ġabs ur
Ġhead ing
Ġhead quarters
Ġlit ter
row th
Ġâ ļ
ĠLe vel
ĠLe ague
Ġcompet encia
Ġcompet itor
Ġsens ores
Ġfas c
istr os
Ġpriv ile
Ġmind set
aly pt
Ġbehav iour
Ġmit j
ograph ics
Ġcard ÃŃ
ĠÑģÐ² ÐµÑĤ
Ġrep ly
Ġsuggest ion
Ð¸ÑĢ Ð¾Ð²
ĠPre para
ĠÑĤÐ°Ðº Ð¾Ð¹
Ġnorm a
Ġnut ric
pir ated
Ġrelig iones
ĠAss embly
Ġcop ias
ĠPh ysical
Ġsl ope
Ð°Ð»ÑĮ Ð½ÑĭÐµ
ĠQu ick
Ġteach es
Ġ25 6
Ġprepar aciÃ³n
Ġvi ure
ĠDo e
Ġassoci ation
ĠDis ney
Ġcy linder
Ġ196 1
Ġ196 5
Ġ196 6
hr t
Ð¸Ð» Ð¾
ĠMed ical
ĠMed itation
Ġsem illas
Ġencour agement
Ġcab e
Ġtransform ers
ĠÐĿ ÐµÐºÐ¾ÑĤÐ¾ÑĢÑĭÐµ
Ġcapt ured
Ġaddress es
Ġgram s
Ð¸ÑĩÐµÑģÐº Ð°Ñı
Ð¸ÑĩÐµÑģÐº Ð¾Ðµ
å® ¶
å® ¹
ĠÐ¿Ð¾ ÑįÑĤÐ¾Ð¼Ñĥ
12 3
ĠTechn ical
Ġtur tle
Ġgal assie
ho ods
ÐµÐ½ÑĤ Ð¸ÑĦ
Ġtreat s
Ġox ÃŃmetro
ĠespecÃŃfic amente
Ġclean er
ĠAb raham
ä»¥ åıĬ
ĠBar ro
Ġdeber Ã¡s
ĠMon et
Ġviv ienda
Ġill ness
sh aped
ash ion
Ġwhe at
Ġhi per
Ġ197 2
Ġ197 4
Ġprecis os
Ġeth ics
ĠSc ene
Ġinstit utes
Ġdemand ing
Ġsch on
Ġma ÃŃz
ĠSim on
Ġjud icial
Ġacid s
tas ks
ĠChrist opher
Ġdivid es
Ġconcentr ations
Ġball s
Ġmoment um
Ġgraph s
Ġcreativ as
Ġgir a
Ġtra it
Ġsenc illas
Ġcerc anos
ÑĥÑĢ Ñģ
Ġdies es
æķ Ī
ĠÐ¾Ñģ Ð½Ð¾Ð²Ð°Ð½
ĠChe m
Ġbuen os
Ġspeak s
ĠdÃ© pend
ĠÐ²Ñģ ÐµÑħ
Ġfi xtures
Ġpic ados
gu i
Ġnational ity
ĠAng ular
Ġposit ively
Ġantib acter
ss en
Ġprompt ed
Ġexpres ar
ĠSov i
Ġbroad er
Ġcub ed
Ġpob res
Ġdesaf iante
Ġorg ans
ÐµÐ¶ Ð´
Ġdomin ant
Ġdiscrimin ant
Ġtall est
ĠSocial ist
Ġgam ma
Ġtransl ate
verse as
Ġhol idays
Al ice
Ġenfr entar
Ġsmart phones
Ġdestr uir
ĠÑıÐ·Ñĭ ÐºÐ°
å¹ ³
ĠÐ¸Ð³ÑĢ Ñĭ
éľĢ æ±Ĥ
ĠÐ¸Ð½ÑĤÐµÑĢ Ð½ÐµÑĤ
é¢ ľèī²
Ġequival ente
åĮ ħæĭ
Ġatr aves
Ġdecor ations
ĠÐ¾Ð´ Ð¸Ð½
Ġrot ation
Ġingenier o
ĠPlan et
éĩ Į
ĠmÃºlt iple
Ġnom Ã©s
ĠDeb ido
ÐµÑħ Ð°Ð½
Ġcorpor ation
ĠUtiliz ing
Ġmultiplic ation
Ġcream y
Ð»Ð¾ Ñħ
Ġdia fragma
ĠCur ie
Ġbelong s
ĠlÃŃqu idos
ĠImpro ve
æ² »
ĠÑģÐµÑĢ Ð²
Cre a
Ġnov io
æĭ ©
çĲĨ è§£
Ġmatr ices
ĠPop ular
ĠPop ulation
ĠDoc tor
Ġtranspar ent
Ġlon ely
Ġacad Ã©m
ĠEnerg ÃŃa
ĠAtl Ã©tico
ä½ľ ä¸º
ĠÐºÐ¾Ð¼Ð¿ÑĮÑİÑĤÐµÑĢ Ð¾Ð²
Ġthous and
Ġdiam antes
è¾ ¹
Ġdigest ion
sign al
este em
Ġmue ven
ĠÐ¿Ð¾Ð»ÑĥÑĩ Ð¸ÑĤÑĮ
Ġdro ve
Ġbols as
å± ±
Ġinterval os
Ġesf uer
ĠNav y
ĠlÃŃder es
Ġsurg iÃ³
Ġstret ch
Ġpref ieres
Ġdirector io
Ġalloc ation
Ġoverwhel ming
Ġwilling ness
Col or
last ing
Ġwal ks
Ġdispers iÃ³n
Ġvocab ulario
Ġfulf illing
âĢįðŁĳ ¦
Ġregr es
Ġgast os
Ġjum ping
Ġoccup ation
Ġstraight forward
Bu ena
avel ength
ĠktÃ³ ry
ĠÐ½ÐµÐ¹ ÑĢÐ¾Ñģ
Ġneuron ales
Ġpelig ro
Ġtarjet as
ĠGar lic
Ġterritor ios
Ġrode a
Ġlingu aggio
Ġcooper ation
ĠprÃ³xim o
yp es
Ġrech arge
ĠAdvent ure
Ġingles a
Ġlent amente
Ġstim ulate
ĠResp ons
Ġmortg ages
Ġproport ional
Ġadolesc ente
ĠVac c
ĠÐ¾Ð³ÑĢ Ð¾Ð¼
ĠÐ¼Ð°ÑĤ ÐµÑĢ
åĢ ĭ
ĠNik ola
ĠJim my
Ġabbrevi ations
ĠÐ·Ð´ Ð¾ÑĢÐ¾Ð²
ĠPrior itize
Ġfutur istic
Ġciut ad
Ġfotos ÃŃntesis
Ġscatter ed
ĠProfess or
Ġlaugh ing
ĠÑģÐ¾ÑģÑĤÐ¾ ÑıÐ½
ĠMathemat ica
Ġparad ig
Ġnegot i
ĠRepresent atives
Ġcompanions hip
Ġcelest ial
é¡ ¹
heim er
ĠÐ²Ð»Ð¸Ñı Ð½
Ġocas iones
Ġuncertain ty
Ob ject
ĠpÃ¡r rafo
ĠExp and
ĠPoss ono
Ġmanif est
ç¼ ĸ
ĠÐ¸ÑģÑĤÐ¾ÑĢ Ð¸Ð¸
Ġtempr ano
ĠWond erland
engu in
Ġoppress ive
ç©º éĹ´
Ġguarante e
Ġdren ador
Ġcarto on
ĠÐ¿ÑĢÐ¸Ñĩ Ð¸Ð½
Ġscav enger
Ġsvilup po
ĠSund ay
ĠFern ando
ĠÐ·ÐµÐ¼ Ð»ÐµÑĤ
Ġterrem otos
ĠNeut ral
nem onic
ĠCz ech
Ġsuperh Ã©roe
Ġoun ces
ograp her
ĠmÃ¼ ssen
ĠHind u
ĠÐ°Ð½Ð³ Ð»
\_ |
éĢī æĭ©
ĠsÃ¨ ries
ĠMilit ary
ĠFitz gerald
ĠÐ²Ð¼ÐµÑģÑĤ Ðµ
Ġintim id
Ġcorros iÃ³n
ĠÐ¾ÑĤÐ² ÐµÑĩ
Ġperp etr
ĠÐ¿ÑĢÐ¾Ð´Ñĥ ÐºÑĤ
ĠIndones ia
ĠAlab ama
Ġsangu ÃŃ
ĠTues day
ĠSÃ³cr ates
ĠSHEL DON
åĮħæĭ ¬
# ,
' ],
. ]
1 20
5 4
7 14
9 7
> </
C uales
D as
E lements
F ol
I S
L ife
M od
N a
P M
R ect
S A
S ome
S ystem
U X
W hen
a it
a ux
c ateg
c ito
d s
d ep
d illuns
f old
f unktion
i jas
i Äĩ
i ÃŁ
i ya
j en
j ado
k h
k an
k ien
l are
l ocal
m ot
m ost
m ass
m eg
m ates
m ana
p apers
t ambiÃ©n
t uce
u is
u ida
v et
w ear
} .
Ø µ
ç ģ
è ħ
Ġ ÏĢ
Ġa o
Ġt ube
Ġt bsp
er ie
Ġs z
Ġd ada
Ġd ile
Ġd ub
Ġd icha
Ġd ni
Ġp m
at z
Ġl ending
Ġm ild
Ġm alla
Ġm amÃ¡
al an
al and
al da
is ure
is se
it ary
it ativas
Ġf ing
Ġf og
Ġf aint
ic er
Ġan ime
Ġw ire
Ġw ander
Ġde in
os so
Ġe ars
Ġe fica
Ġe uros
ent amente
Ġb ir
Ġb ones
Ġb ump
ro f
ro ute
ro ck
Ġto ts
ion ada
ion ario
Ġh able
Ġh Ãº
Ġh ike
Ġh oles
Ġh ometown
om os
ac c
ad ec
qu i
qu ear
id or
id ges
il ly
ol are
Ġun ion
Ġun ch
Ġun ity
am po
ec imiento
iv ores
et tes
Ġre cess
Ġla ughed
ĠT s
ĠT an
ĠT ot
ĠT ik
est one
ĠA venue
Ġis ot
Ġv ess
Ġv iendo
Ġv amos
ĠW inter
ĠW ireless
ĠC os
ĠC ad
ĠC ant
ĠC od
ĠC any
ĠC elebr
ir it
ĠS ass
ĠS yr
ĠS iempre
ow o
ĠI BM
Ġfor n
Ġfor ums
ÑĤ Ð²
Ġr icos
Ġr Ã©c
Ġr anges
Ð° Ñī
Ġal oj
Ġel o
ĠE ight
ĠE SP
ĠP elÃ©
ĠP ixel
Ġse ed
Ð½ ÐµÐ²
th en
th odo
Ġst adium
pl ant
ĠD istr
ĠD uck
iz ona
ĠM u
ĠM erge
ĠThe ob
ĠB C
ĠB ud
ĠB ros
ĠB arr
ĠB aker
ĠB ulg
end ar
ĠL ot
ĠL oc
ĠH ung
ĠH orn
ĠH ospital
ib o
oc t
ĠG a
ĠF le
ĠF ield
ĠF lex
ĠWhat s
ĠR ap
ĠR une
Ġpara ules
ĠN ag
ĠN ie
ĠN ich
ĠN orte
te x
ue ga
Ġimp ed
Ġdes pe
Ġdes ires
act a
act iv
Ñĥ ÑĤÑĮ
Ġk a
Ġk al
Ġk ur
Ġper jud
Ġper cepciÃ³n
Ġj iu
ust on
ide os
Ġsh ine
Ġsh aped
Ġinc ident
ĠO ption
ĠO tros
Ġap reci
Ġman ages
ien cies
Ġsp o
ual idad
Ġdis agre
gr id
gr ade
ost en
ĠU I
Ġpre t
ĠTh anos
Ġgr ill
Ġem pir
Ġem ission
Ãº e
Ġrec uer
Ġent ers
Ġro of
ĠÑģ ÑĥÐ¼
Ġnot a
Ġgo ogle
Ġform ations
ord ers
ĠEn h
ĠV ST
ĠV erg
ĠV EX
Ġsy rup
Ġfr ost
Ġfr ito
atur k
ĠK e
ĠK orea
ĠK ubernetes
ov ol
Ġind ef
ĠY esterday
Ð¾Ð² Ð°
Ġdec ides
we is
Ð¼ Ð¾ÑĢ
Ġcar ac
ĠLa unch
ĠAn na
ĠAn illo
ian os
ĠAl t
ĠSt ation
Ġz orra
Ġcustom ization
Ġfo is
Ġenerg ÃŃas
Ġpo eta
Ġreg istrar
Ġcal ma
ts ch
ĠÐ¼ Ð°ÑĪ
ĠÐ¼ ÐµÑħÐ°Ð½
Ġneed ing
Ġhum edad
ĠEl imin
Ġsim ular
ĠÐ´ Ð¸Ñģ
Ġpod ÃŃan
Ġtrans itions
Ġcap ita
Ġcap ability
Ġ7 4
Ġbu f
ade qu
Ġspec trum
ĠÑĤ Ð²
ĠÑĤ Ð¾Ð²Ð°ÑĢ
ĠPro p
Ġpot rebbe
cl ar
cl ase
cept ions
Ġvis cos
Ġmon eda
Ġcr isp
ĠDe be
ĠRe ality
pres ent
Ġtext ures
Ġhuman as
Ð¸Ñı ÑĤ
Ġfam osos
Ġsub m
Ġsub script
ä¸ »
Ġinst ability
Ġcontr as
ÑĨ Ñĥ
ĠÑĩ Ð¸Ñģ
Ġprop iet
ĠÐ± ÐµÐ»
Ġfin anc
Ġlong itudes
Ġsur veillance
ĠÐ½Ð° Ð¸Ð±
Ġfact orial
Ġmo Å¼
Ġmo Å¼e
Ġplay as
Ð¾Ð¶ Ðµ
Ġprot ons
ĠFr anz
Ġopt ional
iment o
Ġident ical
ĠSe qu
Ġsuc ede
Ġespec ifica
Ġdist ancing
Ġperm ission
Ġ18 00
ĠTr ust
ĠTr aining
ĠTr uth
oss a
Ġdepend ence
orn os
Ġcontin Ãºa
ins i
ĠÃ© ste
ĠÃ© clipse
Ġpred ator
Ġpred eterm
20 14
jo in
Ġgre eting
Ġmag o
Ġprint ed
ann ers
ĠComp on
19 81
Ġexp end
Ġshow case
ek o
ĠAm ster
urs day
Ġminut o
Ñĸ Ð·
Ġpresent ing
ĠNo ise
ĠÐ° ÑĢ
ym orphism
Ġdon uts
(" %
Ã¶ ren
Ġ11 0
Ġtom ando
pro ject
pro of
ĠÐ¾Ð± Ð»Ð°Ð´
Ġanaly zed
In g
ele ctric
äº ¤
head er
let ter
Ġge h
Ġge othermal
Ġarg ued
Ð°ÑĢ Ð´
Ġchalleng ed
Ġland marks
Ġpost ing
Ġpal ette
Ġactual izada
ĠÐµ Ð»ÐµÐºÑĤÑĢ
Ġstrong ly
med io
Ġestud iante
Ġrecogn izable
Ġobt aining
Ġobt ained
ĠOr anges
ĠAt aturk
Ġprob abilidades
Ġcompet itors
Ġaccount Number
ĠQ uer
Ġfel low
cent ury
Ġ16 0
Ġ17 89
Ġcontrib ution
Ġworks hops
Ġmor ir
ĠBl uetooth
Ġexperiment os
ÙĦ Ùī
ĠÐºÐ°Ðº Ð¾Ð¹
Ġcoc in
Ġcamb ian
Ġclear ing
Ġintroduc es
Ġmal a
Ġcompos itions
pir ing
Ġcrit ically
Ġrelev ance
Ġol la
åħ ´
Ġview ing
Ġbegin ner
Ġmax im
æĺ ĵ
Ġestar Ã¡
Ġquant ities
Ġcontinu Ã³
col es
Ġbot tles
Ġprev ia
Ġfuncion e
uan ia
Ġvia ja
ĠData Frame
Ġrecomend aciÃ³n
Ġsem anal
ĠStr ength
Ð¸ÑĩÐµÑģÐº Ð¾Ð³Ð¾
ho ff
Ġsepar ar
Ġrul ing
Ġfall acy
Ġlower case
Ð¿ÑĢ Ð¸Ð½
Ġtri Ã¡ngulo
Ġox igeno
Ġpens ando
Ġpens adores
Ġdiscuss ions
Ġnear est
Ġdisplay ing
tom as
Ġprogress ion
Ġmeasure ments
Ġale mÃ¡n
ĠÐŀ Ð½Ð¸
Ġviv iendo
Ð¸ÑģÑĤ ÑĢ
Ġvalid aciÃ³n
Ġclar os
ĠÐ´ÑĢÑĥÐ³ Ð¾Ð¹
ĠÐ´ÑĢÑĥÐ³ Ð¸Ð¼
ĠÑħ Ð¾Ð»
Ġcredit s
Ġinteres a
Ġuns tructured
Ġ197 3
Ġnav al
Ġdream ed
Ġ198 3
Ġ198 7
Ar g
ĠSim pl
Ġalong side
ÑıÑĤ ÑģÑı
Ġemerg ing
Ġseem ingly
Ġball oons
Ġmic ros
è® ©
Ġcum in
200 1
Ġmach en
Ġtrat ando
ĠÐ¸ÑģÐ¿Ð¾Ð»ÑĮÐ· ÑĥÐµÑĤ
Ġterr ible
ĠÐĺ Ð·
Ġdecre ases
Ġtab l
ĠCont ainer
Ġliter acy
Ġconv ince
Ġrelacion ada
Ġdies er
iter ation
Ġmanip ulating
board ing
ĠÐĶ Ð¶
ĠÐĲ ÑĢ
ĠÐ¾Ñģ Ð²
Ð¸ÑĤÐµÐ»ÑĮ Ð½Ð¾Ð¹
ĠChe ese
ç» ĥ
itz ada
ĠCor ona
Ġinterpret ation
Ġpromot ion
hol der
ĠÑģÐ¿ Ðµ
Ġservid ores
åĩ ł
Ġfat iga
Ġcel da
Ġattempt ing
Ġtour ism
Ġequilibr ium
Ġiter ations
ĠÐ½Ð°Ð¿ Ð¸ÑĤ
Ġmencion ados
Ġavanz ada
Ġsmo other
ĠBat ido
ĠÐ¾Ð¿ Ð¸Ñģ
ogram a
Ġcircu it
Ġ195 8
Ġ195 9
ĠArg ument
Ġparam eter
Ġ192 2
Ġenfr iar
ĠMal ays
Ġsufic ientemente
ĠdiseÃ± ador
Ġdens idad
Ġreb els
ĠÐŃÑĤÐ¾ ÑĤ
ĠÑıÐ·Ñĭ ÐºÐ¾Ð²
æĹ¶ éĹ´
ĠKeep ing
Ch ange
ĠGre ase
Ġaccompl ished
ĠCap it
ä¿ ®
Ġsett led
ĠPat r
æķ° ç»Ħ
Ġcompl aint
Ġcompl aints
ĠHigh er
Ġcontro la
Ġrespir ation
ÐºÑĤ ÑĥÑĢ
ä¸º æĤ¨
mes h
ĠcrÃŃ ticas
ĠDep ression
Ùĥ ÙĨ
ĠÑģÐº Ð°Ð·Ð°ÑĤÑĮ
Ġabsol utely
Ġnac ido
ĠMa o
ĠOpt ions
ðĿĹ ®
ĠÐ¾ÑģÐ½Ð¾Ð² Ðµ
ĠÑģÐµÑĢ Ð²ÐµÑĢ
agg i
ĠImag ina
erap ia
Ġcuest iones
ĠCam era
Ġblanc os
Ġdrop ped
Ġevolution ary
Ġmatr ix
Ġunf old
ĠtelÃ© fonos
Ġrender ing
ĠMerc ur
Ġsociet al
ĠSecond ly
ĠBill board
Ġbark ing
ĠBas ic
ĠBas il
å¼Ģ æºĲ
ĠDu ke
Ġnerv ous
â£¿â£¿â£¿â£¿ â£¿â£¿â£¿â£¿
Ġpac iente
Ġalegr a
ĠÐ²Ð¾Ð·Ð¼Ð¾Ð¶ Ð½Ð¾ÑģÑĤÑĮ
ĠÐĹ ÐµÐ¼
ĠPers ian
ĠÐ¸Ð·ÑĥÑĩ ÐµÐ½Ð¸Ñı
áº ¿
Ġstret ches
Ġchair s
ĠÐºÐ¾Ð½ÑĤ ÐµÐºÑģÑĤ
Ġmoder ate
Ġcontract s
ĠAtt end
ĠÐ¸ÑģÑĤ Ð¾Ñĩ
ĠEj emplo
conf ig
Ġpoderos o
ĠÑĢÐµÑĪ ÐµÐ½Ð¸Ñı
Ġcorrel ation
ĠGes ch
ĠÐ¿ÑĢÐ¸Ð½ Ð¸Ð¼
Ġmyth ical
Ġbater ÃŃas
ĠSing le
Ġextend iÃ³
Ġfertiliz er
Ġdil ig
Ġmigr ation
ĠÑįÐ»ÐµÐ¼ÐµÐ½ÑĤ Ð¾Ð²
Ġcras hing
Ġbord ers
ĠPep si
Ġdepart ments
Ġ184 2
Ġkilogram s
Ġmarr iage
Ġrefres hing
Ġfot ografÃŃa
Ġacqu ire
Ġacqu ired
==== ====
Ã¤hr end
Ġduplic ate
Ġpaint ings
Ġinp aint
Ġproport ion
Ġjap onÃ©s
Ġadolesc entes
ĠÐ²ÐºÐ»ÑİÑĩ Ð°Ñı
Ġverw endet
ĠVeget able
Ġpoc os
Ġenorm e
Ġexhib it
ĠLab el
ĠÐ³Ð» Ð°Ð²
ĠÐ³Ð» ÑĥÐ±
ĠIndepend ence
Ġath letes
Ġmultip lying
Expl ain
Ġuniform e
ĠBron sted
Ġdoub t
bus iness
ibl ia
Ġzana horia
Ġdestin ations
process ing
ĠFres co
ĠFeder ation
ÑĥÐ³ Ð¾Ð»ÑĮ
ĠPlat form
Ġastro biologia
ç® Ĺ
Ġswe ep
Ġfich ero
Ġger ne
Ġcuar to
Ġretro aliment
Ġevapor ation
Ġpiv ot
Ġbla u
Ġcontened or
èĩªå·± çļĦ
ĠMaterial s
Ġjur is
Ġbrit Ã¡nico
Ġcamar ones
sock fd
ĠsÃŃn tomas
ĠPs ych
ĠDed ica
ĠsatÃ©l ite
ĠÑĢÐ°Ð·Ð² Ð¸ÑĤ
Ġjudg ement
ĠLibert y
Ġharvest ing
Ġintercamb io
Ġcerve za
Ġdess ert
avers o
Ã¶g lichke
ĠMean while
ĠVe h
ĠCompos er
ĠÐºÐ¾ÑģÐ¼ Ð¾Ñģ
Ġrag az
Ġarrib ar
ĠCarol ina
ĠPrincip ia
Ġscramb led
ĠÑįÐ»ÐµÐºÑĤÑĢÐ¾Ð½ Ð½Ð¾Ð¹
ĠTensor Flow
ĠPak istan
ĠÐ´Ð¾ÑĢ Ð¾Ð³
Ġbiof ouling
ĠCenta uri
ĠMich igan
ĠMond ay
ĠÐ²Ð°ÑĢÐ¸ Ð°Ð½ÑĤ
mind ed
Ġpestic ides
Ġmock up
Ġgros or
Ġcolleg es
ĠbrÃ³ coli
Ġpromoc ionar
å¤Ħ çĲĨ
Ġtremend ous
San itization
Ġunus ual
ĠAble ton
Ġmarip osa
Ġmicropro cesador
Ð¡Ð¿ Ð°ÑģÐ¸Ð±Ð¾
Requ est
ĠSlow ly
ĠÑģÐ¸Ð½ ÑĤ
Ġendocr ino
ĠAfghan istan
Ġfisc ales
ĠPened Ã¨s
Ġunauthor ized
ĠsoÃ± ando
ĠEntw ick
ĠhÃº med
ĠCany on
ĠÑĩÐ¸Ñģ ÐµÐ»
ĠAmster dam
! ,
" ),
) ]
. ).
9 6
B us
D ear
D iff
E vent
G reat
J a
L I
L OR
M B
M ar
P art
S ec
T T
T est
U ser
V erse
] ))
a way
a aS
b egin
c up
d ict
f i
f on
g ica
h appy
i ÄĻ
k r
k ele
l u
l amic
m le
m ay
m ies
m elo
n ym
o os
p al
p op
p ann
p unk
r ied
r idge
s w
s ect
s ell
s yn
u os
u idos
v ig
x ls
y k
z ial
¡ ãĤ
Ã ¥
Å Ł
Ø ¬
á ¹
å ĭ
æ ®
ç ·
è ĥ
é ķ
Ġ ________________
Ġt ern
Ġt acos
Ġc es
Ġs ne
Ġs osp
Ġs ulf
Ġd uch
Ġd unge
Ġp it
Ġp ill
Ġp ide
Ġp esta
Ġp enny
Ġp encil
or ig
at tr
at ges
ar ro
an im
Ġm ica
Ġm az
Ġm Ãł
Ġm Ã³g
Ġm aps
Ġm RNA
al ecer
it ivos
it ivas
it Ã¤t
Ġw ound
Ġw avelength
Ġde z
Ġde ar
Ġde duc
Ġe k
Ġe col
ent h
Ġb eso
Ġb roma
Ġin ert
Ġto wers
le o
le z
Ġh ic
Ġh un
Ġh aven
ad al
qu en
ur ÃŃa
ur ones
Ġn Ã¡
ĠÐ ¦
ol os
ol ester
Ġun healthy
el aciÃ³n
am or
Ġg ew
et ah
Ġre ces
Ġre ino
Ġre lying
Ġre pository
Ġen light
Ġen clos
Ð¾ Ñħ
Ð¾ ÑĪ
Ð¾ ÑıÑī
ĠT O
ĠT iger
ĠT orre
est in
est ock
ĠA C
ĠA er
ig es
Ġv eng
Ġv ols
Ġv asta
ĠW ide
ĠC V
ĠC ore
ĠC ON
ĠC raft
ĠC Ã³mo
ĠC DO
ĠC asa
ĠS at
ĠS ar
ĠS ad
ĠS ab
ĠS uch
ĠS omet
ĠS weet
ĠI H
Ġfor Ã§a
em mle
Ġr im
Ġr ug
Ð¸ Ð½Ñĭ
tr usted
ab eth
if ted
Ġal chem
ot on
ot erapia
ÃŃ vel
ÃŃ cios
ĠE lement
ay os
ĠP it
ĠP ra
ĠP ase
ĠP aco
ĠP OST
Ġse afood
Ã¡ t
Ð½ Ñİ
um ann
um ping
Ġbe itr
Ġes co
Ġes for
Ġas ust
Ġas seg
av y
av ier
pl ing
ĠD aily
ĠD raft
ĠD onda
ĠD omingo
ĠM A
ĠM om
ĠM ap
ĠM all
ĠM ail
ĠM aur
ch hoff
ĠB ak
ĠB ols
ud i
ĠL U
ĠL or
ĠL emon
ĠH as
ĠH ans
Ġ- --------
ib e
Ġor n
ver tebr
ĠG B
ĠG ently
ĠG onna
ĠF er
ĠF all
ĠF ather
ĠF alls
ĠF unktion
Ġtr it
Ġtr am
Ġtr icks
Ġtr uita
Ġsu o
Ġhe d
Ġhe ights
Ġ" )
Ġ" -
Ġ" \
Ġest ate
Ġest ima
ĠR on
ĠR yan
ill ation
ĠN ULL
Ġle isure
Ġimp red
Ġdes l
Ġdes pert
ug o
ug in
Ġch oking
Ġch ords
Ġch erry
ĠIn clude
Ġpl aus
Ġpl aca
Ġk an
low n
rom in
Ġwor n
Ġj ack
Ġj okes
und i
und ry
Ġab dom
Ġ3 75
Ġinc lo
Ġte oria
Ġap as
Ġap unt
Ġcre ator
Ġcl ues
Ġlo bo
Ġlo ving
Ġsp oon
Ġac adem
Ġdis comfort
ĠJ ose
gr und
ach en
ĠU pon
Ġdat i
ard ing
our g
Ġgr ated
Ġgr aves
Ġcont ing
ass istant
Ġem ulate
Ġ5 6
Ġsent imiento
lo b
lo v
ens chaft
Ġrec ycle
ĠIt em
unt u
Ġco bre
Ġco verage
Ġco efic
Ġent era
Ġent ero
Ġent eros
Ġstr atÃ©g
Ġcol our
ĠÐ½ ÐµÐ¼
ĠÐ½ Ð¾Ñģ
ĠÐ½ Ð¸Ðº
ater ra
Ðº Ð¸Ñħ
ĠV el
Ġfe es
Ġtw inkle
Ġfr iction
Ġprov oca
Ġele phants
ĠK ind
ĠK aff
ov o
ub r
ĠCh i
ĠCh an
ĠCh ocolate
Ġout ras
erg y
plic aciÃ³n
ert i
ĠLa emmle
ÐµÑĤ ÑĢ
ĠÐº Ð°ÑĢÑĤ
ĠAn Ã¡lisis
Ġop ens
eg ro
ĠEst onia
ian as
Ġinform azioni
ĠAl an
ish able
Ġz n
Ġover head
Ġvari aciones
Ġserv ido
Ġaut ore
Ġaut ob
ne j
ĠEl l
Ġpod ido
ĠCom par
ĠÐ¿ÑĢ Ð¾Ð¿
Ġplan a
Ġplan xa
Ġweb pages
Ġ8 8
ĠÑ Ķ
Ġlarg os
Ġpart ial
oth s
Ġdi ario
ode grad
ĠAs ide
ĠPro jek
Ġmat raz
Ġhac ÃŃa
Ġhac erme
cept s
Ġsk ies
Ġdr ones
Ġdr astic
Ġdr ugs
Ġcr on
Ġide als
ĠDe ja
ĠAr men
ĠRe ach
ĠRe vis
Ġret urning
ĠÑĢ ÐµÐ»
af a
ĠcÃ³ mod
Ð³ Ð¾Ð²Ð¾ÑĢ
Ð¾Ð´ Ð°ÑĢ
ix er
ä¸ ī
Ġdep icts
iÃ³ tico
Ġsup plement
ĠÑĩ ÐµÐ³Ð¾
Ġactiv ation
Ð¸ÑĤ Ð°ÑĤ
Ġneces ite
Ġ} )
Ġcaus al
Ġfil as
mar as
ven ciÃ³n
ex plo
Ġll una
Ð¾Ð¶ Ð¸ÑĤÑĮ
Ð¾ÑĢ Ð°
iment os
Ġarr ival
ĠÐ· Ð°Ð¼
Ġamb ition
ĠSe ver
Ġpass engers
Ġcas c
den es
Ġdist Ãłncia
ĠÑĥ Ð¿
ĠFor est
Ġlight bul
Ġappro ached
arr ia
Ã©r cito
Ã¼ gen
ÐµÐ´ Ð»Ð¸Ð²
Ã¤ uf
Ġatt itudes
Ġback ed
Ġgu ides
Ġpublic ly
Ġeas tern
Ð°ÑĤ ÑĢ
Ð°ÑĤ ÐµÐ¼
ĠZ ar
Ġwebs ocket
ĠCl uster
Ġintern o
Ġrev ol
ann a
ann t
Ġsuper ficial
Ġdise Ã±os
ah len
19 74
Ġlog ra
Ġda Ã±o
Ġda unting
Ġexp ed
Ġesc ult
Ġshow ers
Ġenc end
Ġenc abe
Ġsignific ativas
Ġ12 5
ĠBe er
Ġgen u
=" #
Ġwrit ers
Ġpresent aciÃ³n
Ġcos ines
Ġvers us
ĠAp ply
Ġrespons abilidades
ãģ ª
Ġiss ued
Ġvar ies
Ġdest re
ator ias
ĠBr uja
Ġ15 00
Ġcalcul ates
Ġcalcul adora
ĠGr und
ĠCol l
Ġleg ado
entr icidad
Ġstruct ural
åı Ĺ
ĠCal cular
Ġfac ilities
Ġexc entricidad
light s
ĠÐ¾ÑĤ Ð»Ð¸Ñĩ
Ġcompar ative
Ġregular es
En t
mat rix
trib ution
ĠÐ¸Ð· Ð»
Ġbeg un
ĠCons id
Ġreci Ã©n
ĠÐµ Ðµ
Ġaud iences
Ġmodern o
ĠPar que
Ġefect ivo
ĠOr ient
Ġquier a
Ġimag ine
ĠLe er
ĠIntern ship
Ġvirt ud
ĠAnd rew
Ġir r
Ġfa it
Ġfa uc
Ġsyn thesis
ĠÑģÑĤ ÐµÐ¿
Ġexperiment ado
ĠSol ve
Ġemploy er
Ġfree ing
ĠÐĴ Ñģ
ĠMan uel
Ġ\ \
Ġbar ro
Ġ14 0
Ġorden amiento
Ġorden adores
Ġcompos ite
man uel
Ð°Ð¹ Ð½
Ġol v
ÑģÐº Ð¸Ñħ
åħ ĥ
Ġalm onds
Ġsl ide
Ġsl ides
Ġmol te
Ġmol de
ĠÑĢÐ°Ð· Ð¼
ĠÑĢÐ°Ð· Ð½ÑĭÑħ
Ġdese os
Ġadap tar
Ġproporcion o
æĺ İ
Ġvalor ar
Ġparticip antes
Ġveloc idades
ĠRed dit
åĪ Ĺ
Ġvi atge
Ġdescub ren
ĠWar craft
ĠDo ing
Ġsalud o
Ġpaper work
zy st
Ġcort adas
ĠÐ¶ ÐµÐ»
Ġpolic ÃŃa
Ġperfect o
Ġtransform ar
Ġtransform ed
Ġmel t
Ġcapt urar
Ġspread ing
Ġconsist ing
Ġconsist ency
ĠPol lo
can ic
urr ence
Ġsequ ÃŃa
Ġsequ ential
Ġtreat y
Ġtri angles
Ġgas tronom
Ġcontext s
Ġcontext os
tom on
Ġmeasure ment
ĠMon ey
ĠÐŀ Ð½
AI ON
Ġimm utable
Ġprior it
ĠÐ¸Ð½ Ð´
ĠVer teil
ĠÑħ Ð¸Ð¼
Ġinteres ado
Ġsil enci
âłĢâłĢ âłĢ
ĠÑįÑĤ Ð¸Ñħ
Ġcollabor ative
Ġ197 5
Ġmix ing
Ġdescubr ieron
Ġhid rat
Ġmetaph ysics
Ġadjust able
Ġ> >
ĠAct iv
ĠAct ualmente
ĠChrist mas
Ġclim ax
ÐºÑĥ ÑĢ
ĠBo ots
Ġgraph ical
Ġmulti plied
ĠHel p
ĠÑģÐ¾ Ð¾Ð±Ñī
Ġregul aciÃ³n
Ġregul atory
200 7
otec nologÃŃa
ĠNet flix
Ãª m
Ġrom ance
Ġcast illo
Ġterr ain
ĠÐºÐ¾Ð½ ÐºÑĢÐµÑĤ
Ġadapt ation
Ġmyster ies
Ġtab las
ĠSystem s
It em
ĠRem ote
Ġmens aj
Ġdies em
ĠPrin ci
ĠMark down
Ġemphas izing
Ġcelebr ation
ĠdÃ© j
ĠdÃ© fin
ĠCr uz
Ġqued an
å¯ ¼
ä½ł çļĦ
Ġconect a
Ġconect ado
ĠSub stit
Ġste al
Ġrepet ir
ĠRepublic an
ĠInter pret
Ġju icy
ĠPresident ial
Ġastr Ã³n
Ġorg ul
å¼ ķ
etr ÃŃa
Ġprem ier
Ġhip Ã³
ĠMat ter
Ġlograr lo
Ġhom ogÃ©n
Ġinfluenc er
Ġconfigur ation
ĠAutom atically
Ġgratu itas
Ġremov al
AT E
Ġtard a
Ġ195 6
Ġtransl ated
ĠPa ulo
Ġemple ado
ĠEg gs
ĠTur k
Ãºr ese
Ġbed e
ĠÑģÐ°Ð¼ ÑĭÑħ
Ġreb ell
Ġdiscipl ine
Ġinstrument al
Ġslic ing
ĠÐ¸Ð³ÑĢ Ðµ
Ġautonom y
ĠIncre asing
Ġprofund izar
åĮ º
Ġpick ed
ĠMount ains
Ġapoy ar
Ġadministr ation
Ġreward ed
ĠLib re
Ġestad ÃŃsticas
Ġcriter ios
OR T
Ġreconoc idos
Ġpul s
Ġsusp ended
Ġdead line
Ġescal as
ett i
Ġimpos ed
agr ad
agr ada
Ġcompat ibles
Ġresid ency
Ġhighlight ed
frame work
Ġrespir ar
Ġexcel entes
Ġgrab aciÃ³n
Ġfest ivals
Ġdej Ã³
ĠÑģÐ¸ÑģÑĤÐµÐ¼ Ð°
ĠFlas h
Ġbrind a
ĠBlue print
ĠÐ¿ÑĢÐ°Ð² Ð¸Ð»ÑĮ
ĠEngine er
Ġdiagnos es
du ino
ĠMex ican
æİ ¨
Ġcad enas
ĠURL s
ĠConf eder
He alth
Ġhier archy
Ġshell s
Ġpsych ology
organ ize
ĠCommun ity
Ġwish es
æıĲ é«ĺ
ĠÃ³r denes
Ġsen ators
Ġmente e
ĠFre edom
ĠComple x
Ġtranqu ilo
Ġoblig aciones
Ġbomb illa
ĠPhotos ynthesis
Ð°ÑİÑī Ð¸Ñħ
çī ¹
Ġmur der
Ġbacter ial
ĠChild ren
Ġescuch a
Ġdigest ive
ĠÙĪ Ø§ÙĦ
Ġdro ps
ĠLeg end
ĠBol t
Ġelev ation
ĠÐºÐ¾ÑĢ ÑĢÐµÐ»Ñı
Ġloud ly
Ġattrib uted
Ġanticip ation
ĠÐ´ÐµÐ» Ð°ÑĤÑĮ
Ġcombust ion
Ġcombust iÃ³n
Ġgeom Ã©trica
Ġboy c
ĠPredict ive
Ġdisad vant
ĠPrem io
Ġhorizon te
Ð¿ÑĢÐ°Ð² ÐµÐ´Ð»Ð¸Ð²
Cont ent
ĠAqu esta
ĠMil k
ĠMil ky
Ġacompa Ã±ar
ÐĶ Ð°
Ġtherap ist
Ãªn cias
Ġbroadcast s
ĠTok io
ĠEj ecut
Ġreflex iÃ³n
ĠMant ener
ĠMant Ã©n
ĠHo uston
Ġdismin uir
Ġvoy age
ĠSing ap
Ġchann el
ĠYog a
ĠÑĥÐ» ÑĭÐ±
Ġoccas ionally
Ġtier nas
Ġrol led
Wh y
Ġcras h
Ġpronunci ation
ĠOlymp ia
çĦ¶ åĲİ
gather er
Ġlingu istic
Ġexcept ional
ĠÐ¿Ð¾Ðº Ð°
Ġcord Ã³n
Ġteen agers
ĠÐ¿Ð¾Ð¿ ÑĥÐ»ÑıÑĢ
ĠAbs tract
Ġexces iva
Ġupper case
ĠfilÃ³so fo
ĠSky fall
ĠMen u
ĠOl ive
Ġamen aza
Ġconfig ure
Ġbere its
Ġcri aturas
Ġsubstit ute
ĠÐ·Ð°Ðº Ð»ÑİÑĩ
ĠContin ental
Ġexpon ential
Expl ÃŃcame
Ġenthus i
ĠPel ar
ĠDen mark
ĠJun iors
Ġinvoluc r
Ġsynd icalism
ĠÑģÐ»Ð¾Ð² Ð°
Ġsof istic
ĠÑĩÐ¸ÑģÐ» Ð¾
Ġexoplan ets
Ġisol ated
opt ional
ĠProfess ional
Ġpump kin
ĠAlgorithm s
Ġgasol ina
ĠÐ¾Ð¿ÑĢÐµÐ´ÐµÐ» ÑĳÐ½
Ġconci encia
ĠÐºÐ¾Ð»Ð¸Ñĩ ÐµÑģÑĤÐ²Ð¾
Ġartifact s
Sc ape
æ· ±
è¶ ³
Ġcuent as
ĠÑĩÑĥÐ² ÑģÑĤÐ²
ĠÐ·Ð°Ð± ÑĭÐ²
Ġcelest es
Ġpra ise
ĠChalleng e
Ġjam Ã³n
Ġsorprend ente
ĠÐ¿ÑĢÐµÐ´Ð» Ð°Ð³
Ġsess ions
ĠHob bes
Ġhex adec
ĠKir chhoff
ĠAdv anced
Ġconcret as
ĠocÃ© ano
Ġrecur so
ĠVict or
Ġsonr isa
ĠÑħÐ¾ÑĢÐ¾ÑĪ Ð¾
Ġhistogram as
Ġgenet ics
valid ation
ĠLux emb
ĠÑĥÐ² Ð°Ð¶
Ġcarboh ydrates
Gu ard
å§ ĭ
ĠTol kien
ĠAG I
Ġexcl am
ĠDevon port
Ġarreg lo
Ġgras as
ĠcÃ³m odo
ĠMez cla
Sub mit
Ġboole an
ĠInvestig aciÃ³n
ĠPiz za
Ġretire ment
Ġgef Ã¤hr
ĠConfig ura
ĠPhilos opher
ĠnÃ© cess
Ġdespl az
ĠCommit tee
ĠEspaÃ± ola
Depend e
Much as
ĠTact ics
Ġelder ly
Ġcrip tomon
ĠAuth ent
ĠObt ener
ĠArchitect ure
Ġinfraestruct ura
Ġreban ada
ĠTats uya
ĠAntar ctica
Ġportaf olio
Ġmisund erstand
æ²¡ æľī
Ġomelet te
ĠNT FS
Ġlimer ick
Ġrispet to
Ġinnoc ent
Ġumbre lla
Ġaccompan ied
Ġanten na
Ġpersu ade
Ġexpir ation
Low ry
Ġwur de
ĠÐ¿ÑĢÐ¸Ð¼ ÐµÐ½
ĠÃį nd
Ġefica z
ĠTik Tok
Ġaloj amiento
ĠTheob romin
ĠRune Scape
Ġpesta Ã±a
olester ol
Ġbeitr agen
explo itation
* (
* .
. '
. *
. ?
: ",
D eb
F izz
G HT
H ttpServlet
I ON
L C
M uy
O ut
P o
R ef
S m
T F
U E
U m
V o
W as
` :
a Ã±os
b ac
b ung
c ircle
d ie
g y
g le
h Äģ
i am
i ure
i ja
k b
l an
l az
l ador
l aterra
m p
m ano
n ico
n uts
n odes
o ples
p es
p ay
p ings
p arts
q l
s aving
s rv
u ated
u ario
u pload
w ith
w ine
w alk
z us
z ero
z ioni
} )
¤ Ĵ
¥ ¿
Å į
Æ °
Ø ®
Ø ²
æ ¡
æ ¹
æ ¤Ĵ
ç ¬
è ¥¿
Ġ ig
Ġ ido
ĥ ãĤĵ
Ĭ å¤©
Į æľĽ
Ġa un
Ġt in
Ġt orno
in ion
in come
en ment
en use
en abled
on ce
Ġc ater
Ġc ores
Ġs ung
Ġs ocket
Ġs ombra
Ġd imin
Ġd ÃŃg
Ġp ing
Ġp ena
Ġp ista
Ġp ipe
at amente
ar ched
Ġthe ater
Ġthe ta
re move
Ġl ur
Ġl oro
Ġm nemonic
Ġo t
al ar
al tra
as m
is antes
it u
it ical
it zen
it ativa
Ġf et
Ġf ake
Ġf als
ic ular
ic letas
Ġan unci
Ġan atom
Ġw en
Ġw ife
Ġde leg
Ġde ux
os es
ing e
ing le
Ġe dition
Ġb Ã©
Ġb out
Ġb atch
Ġb ajas
Ġin aug
Ġto ut
Ġto me
Ġh in
Ġh arÃŃa
om men
ac i
ac ity
ac ji
ad ic
ad ed
qu et
id urÃŃa
ur ation
Ġn ap
Ġn ause
Ġn aming
ĠÐ ĸÐ¸Ð·Ð½ÑĮ
il aciÃ³n
im eters
ut et
el ry
el ho
ec a
ec o
Ġg in
Ġg im
Ġg anas
et ical
Ġre arr
Ġla id
Ġla wn
Ð¾ ÑĤÐ¾
Ð¾ Ð¸ÑĤ
Ġqu ar
ĠT erc
ĠT oma
ĠT ips
ĠT elescope
ul er
est i
est y
ĠA ust
Ġv ig
Ġv Ãł
ĠW ie
ĠC F
ĠC it
ĠC ent
ĠC rit
ĠC orte
ĠS F
ĠS her
ĠS ET
Ġfor um
Ġpro fic
Ġpro jek
em ale
uc hed
Ġr ato
Ġr ima
Ġr iddle
Ð¸ Ð½Ð¾
Ð¸ ÑĨ
tr acciÃ³n
ab ilit
if iers
ÃŃ ptica
ci ence
ĠP A
ĠP ig
ĠP ie
ĠP uss
ĠP SCs
ate a
Ġse ize
Ġse arched
Ð½ Ð¸Ð¹
Ð½ Ð¸Ð±
Ġth row
Ġth umb
ag ger
Ġpar es
Ġpar ch
st atus
Ġex cer
ess er
Ġst ato
Ġst eep
Ã© u
ĠD C
ĠD NI
iz ione
ĠM J
ĠM ong
ĠM atch
ĠM elo
ĠM Ã¶glichke
ĠB M
ĠB ibli
ort al
ĠL yn
ĠL apt
ĠL ocal
ĠL uther
Ġ- =
op ia
Ġcan e
oc om
ĠG or
ĠG aud
ĠF u
ĠF ont
Ġtr ab
Ġtr ips
Ġest Ã³m
ĠR ech
ĠR ings
ĠR andom
ĠR onal
ĠR etr
ĠR CS
Ġcomp one
Ġpr Ã©
Ġpr ze
ies e
ĠN uest
ĠN BC
ie b
ie u
Ġres et
Ġres uelve
ip os
Ġle j
Ġdes co
Ġdes crip
Ġdes prÃ©s
act ic
ug gets
Ġch er
Ġch olesterol
Ġk in
Ġk eras
Ġk illing
ang ha
Ġper g
Ġper t
Ġper ovskite
Ġj aj
Ġdel g
Ġab use
Ñı Ð²
Ñı Ð²Ð»
Ġsh ines
Ġsh ifting
Ġ3 65
ĠO ber
ĠO wn
Ġser p
cr imin
ite z
ite ke
se vol
Ġac lar
Ġdis tra
Ġdis abilities
ĠJ ordan
Ġdat ing
Ġdat etime
ard ed
ier re
ier nos
ĠTh under
ĠTh ursday
ep s
Ġem an
aj os
ks on
ans k
Ġam ics
Ġam ph
Ġinter r
Ġ4 7
ther net
ĠÐ² Ð¸Ð½Ð°
ĠmÃ¡s cara
Ġrec ono
ple x
Ġco ax
Ġco lect
Ġent idad
Ġstr and
Ġnot ifications
Ġpe oples
vel t
Ðº Ð¸Ð¹
ÐµÐ½ Ð½ÑĭÐ¹
ĠHow ard
Ġfr y
Ġpos es
ĠUn s
ĠUn iti
ĠUn terschied
ĠK a
ĠK an
ĠK ent
ĠK ate
ĠK elly
ĠCh icken
ĠY ang
Ġinv itados
Ġlist ener
ĠAd ele
fic tion
Ġnum s
Ġag ed
Ġag gressive
Ġcomm odity
Ġ6 1
Ġbr as
Ġpol yg
uy endo
ĠAl bum
ĠSt yle
ish es
Ġval enci
Ġfo ol
Ġlik eli
Ġgener ative
Ġover fitting
Ġpo inter
Ġpo esÃŃa
Ġpat ch
Ġcor p
ĠWho le
res istant
Ġreal istas
ĠEx am
ĠÐ¿ÑĢ ÑıÐ¼
Ġbl ades
Ġplan Ã¨te
Ġtrans f
Ġpres ents
Ġimportant s
Ġ8 6
Ġsc ar
Ġdi agon
Ġbus es
Ġdef ens
ambi ar
ĠÑĤ ÐµÐº
ĠPro duk
Ġmat ters
mo oth
ĠCon stant
Ġsal ch
Ġav anza
Ġdeb ates
Ġmon opson
Ġcr uel
Ġcr unch
ĠDe forestation
ĠAr ray
ĠÑĢ Ð¾Ð¼
ĠÑĢ Ð¾Ñģ
ern ess
ix on
ä¸ ĸ
Ġcur se
Ġimpro ves
Ġconsider able
Ð¸ÑĤ ÐµÑģÑĮ
ĠÐ± Ð¾Ð³
Ġche f
Ġaf e
com ed
Ġfil ename
hip s
Ġdem onio
ex pl
ĠÃ ļ
Ġsum erg
Ð°Ð» Ñĭ
Ð°Ð» Ð¸ÑģÑĤ
ĠFr ost
Ð¾ÑĢ Ð¾Ð½
iment al
Ġquest o
uel to
uel va
Ġtop pings
uev es
uev os
Ġ18 49
Ġref und
Ġappro priately
eb ook
vers ation
Ã©r ation
Ã©r coles
ĠTr inidad
ÃŃs ica
ness ing
Ġconoc emos
Ġatt ent
Ġgu it
Ġgu bern
Ġgu isantes
Ġlim bal
Ġens emble
Ġdepend encia
Ġpa wn
Ġcontin ente
ins on
Ġpersonal ization
me al
Ġhand written
Ġbre wer
ĠÃ© ticas
ĠÃ© gal
Ð»Ñı ÐµÑĤ
ĠZ uf
ĠZ usammen
Ġdie z
ats on
Ġorder ing
work ing
ĠCl inton
br al
Ġsuper natural
Ġmult im
Ġprom ised
ĠPl astic
ÑĢÑĥ Ð¿
19 89
19 77
19 61
ood le
Ð¾Ñģ Ð¾ÑĦ
Ġtrad ucciÃ³n
Ġtrad icionales
Ġgame play
ĠAm bas
ĠAm endment
Ġ12 3
Ġtest o
Ġtest imon
Ñĸ Ñĩ
Ġrequire ment
ĠBe hav
ĠÐ° ÑĢÐ³
be iten
Ġpract ic
Ġveg ano
Ġneg lect
Ġphys i
Ġphys ic
pro fit
Ġmar cas
In t
Ġext ent
Ġext inction
Ġdesc ending
ĠYork ers
ĠCol umn
Ġleg itimate
äº ĭ
ĠÐ» Ð¾Ð³
Ġincluy a
Ã¡l aga
Ġrepresent atives
Ġgran os
Ġtecn iche
ĠIs lamic
Ġment re
Ġment ors
light ly
Ġge hen
Ġarg ent
Ġstay ed
Ġsigu en
ĠX OR
ĠSh r
Ġrad ical
ÑĥÑĩ ÐµÐ½Ð¸Ðµ
Ġdiv ine
Ġland mark
Ġaud iencia
Ġâ ī
Ġmodern as
Ġden ied
ĠOr der
Ġvisual izations
Ġdom est
Ġjug o
Ġexplor ando
Ġconse jo
Ġespecial ista
Ġsens ible
Ð°Ð¶ Ð½Ð¾
ĠTw ain
++ .
Ġeg ite
Ġtask ed
ĠÑģÑĤ Ð°Ð»
ĠÑģÑĤ Ð¾ÑĢÐ¾Ð½
Ġtransport ed
Ġdin ing
Ġexperiment a
ĠSol utions
lich t
Ġrespect ivamente
ĠMan ufacturing
Ġcaracter ÃŃstica
Ġmis iones
Ġcoc ido
Ġmass es
ĠAc count
ĠMe in
Ġdark er
ĠMar ÃŃa
Ð¾Ð¿ Ð»
Ġcompos ers
Ġinvestig ation
Ġview er
Ġcop iar
erson al
ĠÑĢÐ°Ð· ÑĥÐ¼
Ġdese ada
ĠInst ant
Ð°Ð»ÑĮ Ð½Ð¾Ð¹
ĠCar l
ours era
Ġwar um
Ġwar mer
Ġquant itative
ĠUs ers
Ġcontinu ing
Ġexpect ing
Ġdesp ido
è¯ ´
ops is
ĠDo uble
Ġmiss ed
Ġcy cles
ĠDec ree
ĠStr ess
ĠTrans port
aps hot
ĠÃºn icos
ÃŃm ica
åĲ ĳ
Ġ& &
Ġrele asing
çĶ¨ äºİ
ĠLo op
Ġvac uum
Ġarchitect ures
oph one
Ġra ising
ĠDr iver
Ġarm or
Ġlabor ales
Ġlabor atory
Ġlat ino
ĠelectrÃ³n icas
Ġput s
ĠBar ack
ĠÐ¿Ð¾Ð´ ÑĢÐ¾Ð±
ĠÐŀ Ð½Ð°
not ation
Ġbaj ar
Ġhabit ual
Ġconduc ting
Ġclar ify
amp oco
Ġsil ly
Ġsil icon
Ġur b
Ġqual sevol
Ġdispon ibilidad
Ġblock ed
ĠÐ¡ Ð¾Ð»Ð½
ĠÐ¸ÑģÐ¿ ÑĭÑĤ
Ġprecis o
Ġprecis ely
ĠComm and
iff s
Ġsor row
ĠSec ure
ÑıÑĤ ÐµÐ»ÑĮ
Ġemerg encia
Ġmir ar
ĠÐ¿ÐµÑĢ ÑģÐ¾Ð½
Ġcover ing
Ġeleg ido
Ġpet als
ĠBo x
ĠBo ard
Ġestim ates
Ġrain y
Ġradi oterapia
Ġaccept able
å° į
å° ĳ
fl uss
Ġstar red
Ġautomat izar
Ġenv ÃŃo
Ġground s
Ġcand y
Ġadapt ations
frut a
resp ons
Ġdial ect
Ġemoc ionado
ÑĤÐµÑĢ Ð½
å¸ Ĥ
å¸ ĮæľĽ
ç» Ń
ĠseÃ± or
itz erland
Ġtrust worthy
alls v
Ġobst acle
ĠGet ting
Ġimplic aciones
Ġpromot ed
ä¸į åĲĮ
Ġcourage ous
Ġqued Ã³
Ġdiagn ostic
ĠComput ing
Th anks
Ġassign ments
Ġejecut able
Ġste alth
Ġste amed
ĠRepublic ano
Ġcel ular
Ġproced imientos
ĠÐ¸Ð¼ ÐµÑĤÑĮ
ãĤ ĭ
ãĤ Ĵ
ĠquÃŃm icas
Ġattempt ed
Ġagricult ura
Ġtort uga
á» Ļ
ĠBre taÃ±a
Ġiter aciÃ³n
ĠSant os
Ġbarr io
Ġsold ier
Ġnutr ient
ĠSer ver
Ġalco h
Ġsymbol izing
ĠVal ley
Ġrecib en
ĠPa ÃŃs
ĠÑĢÐ°Ñģ Ð¿
Ġwel comed
ĠgÃ©n Ã©r
Ġdiab lo
äºº ç±»
Ġhol low
ĠPlay ing
ĠSuper held
Ġcumpl a
RE E
Ġmanufact urers
Ġambient ales
Ġreb el
Ġdich os
ĠDem Ã³cr
ĠUN E
Ä± l
PU L
ĠÐ¿Ð¾Ð½ ÑıÑĤÑĮ
Ġautor idades
Ġmicro organ
ÐµÐ»Ñı Ð¼
ĠÐ¾Ð´ Ð½Ð¾Ð¹
Ã©l Ã©
Ġestad io
ĠUr ban
ÙĪ ÙĦ
Ġsusp ense
Ġmuse ums
Ġimper io
ĠProt est
ÐµÑģÑģ Ð¸Ð¼
Ġlimp iar
æķ° æį®
Ġvict orious
Ġhech ic
Ġcorpor ate
æŃ ¥
ĠSpr ich
ĠJust in
Ġcono zco
ainst ream
Ġlandsc apes
Ġfirm ly
ĠOpt imize
ĠStat i
Ġbes ch
ĠTransform er
Ġliber aciÃ³n
ĠAnt wort
ĠclÃ¡s icos
ogrÃ¡ fico
è¿Ļ äºĽ
ÐĴ Ð¾ÑĤ
æł ·
Cl ose
organ ic
Ġlect ure
Ġmane jo
Ġtranspar ency
ĠÐ¾ÑĤÐ½Ð¾ Ñģ
Ġsen ior
itÃł ria
ĠHab ÃŃa
Ġclas ificar
Ġdiam onds
ĠcÃ¡ maras
[...]
