{"<s>":0,"</s>":1,"<pad>":2,"<unk>":3,"<USER>":4,"<ASSISTANT>":5,"<SYSTEM>":6,"!":7,"\"":8,"#":9,"$":10,"%":11,"&":12,"'":13,"(":14,")":15,"*":16,"+":17,",":18,"-":19,".":20,"/":21,"0":22,"1":23,"2":24,"3":25,"4":26,"5":27,"6":28,"7":29,"8":30,"9":31,":":32,";":33,"<":34,"=":35,">":36,"?":37,"@":38,"A":39,"B":40,"C":41,"D":42,"E":43,"F":44,"G":45,"H":46,"I":47,"J":48,"K":49,"L":50,"M":51,"N":52,"O":53,"P":54,"Q":55,"R":56,"S":57,"T":58,"U":59,"V":60,"W":61,"X":62,"Y":63,"Z":64,"[":65,"\\":66,"]":67,"^":68,"_":69,"`":70,"a":71,"b":72,"c":73,"d":74,"e":75,"f":76,"g":77,"h":78,"i":79,"j":80,"k":81,"l":82,"m":83,"n":84,"o":85,"p":86,"q":87,"r":88,"s":89,"t":90,"u":91,"v":92,"w":93,"x":94,"y":95,"z":96,"{":97,"|":98,"}":99,"~":100,"¡":101,"¢":102,"£":103,"¤":104,"¥":105,"¦":106,"§":107,"¨":108,"©":109,"ª":110,"«":111,"¬":112,"®":113,"¯":114,"°":115,"±":116,"²":117,"³":118,"´":119,"µ":120,"¶":121,"·":122,"¸":123,"¹":124,"º":125,"»":126,"¼":127,"½":128,"¾":129,"¿":130,"À":131,"Á":132,"Â":133,"Ã":134,"Ä":135,"Å":136,"Æ":137,"Ç":138,"È":139,"É":140,"Ê":141,"Ë":142,"Ì":143,"Í":144,"Î":145,"Ï":146,"Ð":147,"Ñ":148,"Ò":149,"Ó":150,"Ô":151,"Õ":152,"Ö":153,"×":154,"Ø":155,"Ù":156,"Ú":157,"Û":158,"Ü":159,"Ý":160,"Þ":161,"ß":162,"à":163,"á":164,"â":165,"ã":166,"ä":167,"å":168,"æ":169,"ç":170,"è":171,"é":172,"ê":173,"ë":174,"ì":175,"í":176,"î":177,"ï":178,"ð":179,"ñ":180,"ò":181,"ó":182,"ô":183,"õ":184,"ö":185,"÷":186,"ø":187,"ù":188,"ú":189,"û":190,"ü":191,"ý":192,"þ":193,"ÿ":194,"Ā":195,"ā":196,"Ă":197,"ă":198,"Ą":199,"ą":200,"Ć":201,"ć":202,"Ĉ":203,"ĉ":204,"Ċ":205,"ċ":206,"Č":207,"č":208,"Ď":209,"ď":210,"Đ":211,"đ":212,"Ē":213,"ē":214,"Ĕ":215,"ĕ":216,"Ė":217,"ė":218,"Ę":219,"ę":220,"Ě":221,"ě":222,"Ĝ":223,"ĝ":224,"Ğ":225,"ğ":226,"Ġ":227,"ġ":228,"Ģ":229,"ģ":230,"Ĥ":231,"ĥ":232,"Ħ":233,"ħ":234,"Ĩ":235,"ĩ":236,"Ī":237,"ī":238,"Ĭ":239,"ĭ":240,"Į":241,"į":242,"İ":243,"ı":244,"Ĳ":245,"ĳ":246,"Ĵ":247,"ĵ":248,"Ķ":249,"ķ":250,"ĸ":251,"Ĺ":252,"ĺ":253,"Ļ":254,"ļ":255,"Ľ":256,"ľ":257,"Ŀ":258,"ŀ":259,"Ł":260,"ł":261,"Ń":262,"Ġt":263,"he":264,"Ġa":265,"in":266,"er":267,"Ġs":268,"Ġthe":269,"on":270,"re":271,"Ġw":272,"ed":273,"en":274,"Ġc":275,"at":276,"or":277,"an":278,"Ġb":279,"Ġf":280,"Ġo":281,"is":282,"it":283,"ing":284,"es":285,"ar":286,"Ġh":287,"Ġto":288,"Ġp":289,"Ġin":290,"nd":291,"ou":292,"as":293,"al":294,"Ġm":295,"Ġof":296,"Ġd":297,"ic":298,"Ġand":299,"le":300,"Ġ.":301,"om":302,"il":303,"Ġth":304,"id":305,"ion":306,"ent":307,"Ġbe":308,"Ġl":309,"Ġn":310,"ĠT":311,"Ġre":312,"Ġhe":313,"st":314,"ve":315,"ĠS":316,"ay":317,"ot":318,"ol":319,"ut":320,"Ġg":321,"Ġon":322,"ĠA":323,"ad":324,"ĠM":325,"am":326,"ac":327,"Ġe":328,"ĠC":329,"ow":330,"ly":331,"ur":332,"im":333,"Ġfor":334,"ter":335,"ig":336,"ir":337,"Ġwas":338,"el":339,"ĠI":340,"ver":341,"et":342,"Ġst":343,"Ġthat":344,"ro":345,"ĠB":346,"Ġis":347,"us":348,"'s":349,"Ġwh":350,"\"\"":351,"ec":352,"âĢ":353,"ith":354,"ĠThe":355,"ill":356,"Ġwith":357,"ĠH":358,"ld":359,"Ġsa":360,"Ġat":361,"ĠP":362,"ri":363,"Ġ'":364,"Ġit":365,"Ġas":366,"un":367,"ce":368,"ation":369,"Ġan":370,"Ġsaid":371,"her":372,"Ġal":373,"ers":374,"Ġhis":375,"os":376,"ear":377,"Ġy":378,"Ġha":379,"ra":380,"ch":381,"ĠW":382,"and":383,"ĠD":384,"ul":385,"est":386,"igh":387,"th":388,"op":389,"ĠL":390,"ag":391,"em":392,"rom":393,"ĠF":394,"ĠR":395,"ke":396,"ts":397,"Ġ2":398,"Ġcon":399,"Ġ1":400,"if":401,"ore":402,"ĠN":403,"pp":404,"Ġhave":405,"Ġfrom":406,"Ġr":407,"âĢĻ":408,"ĠE":409,"Ġhas":410,"Ġby":411,"Ġare":412,"ĠG":413,"our":414,"Ġsh":415,"ain":416,"Ġher":417,"ew":418,"Ġcom":419,"ted":420,"od":421,"ĠJ":422,"Ġch":423,"Ġv":424,"res":425,"Ġ\"\"":426,"ate":427,"00":428,"ould":429,"Ġde":430,"Ġle":431,"ct":432,"Ġwe":433,"end":434,"ĠO":435,"Ġsu":436,"ast":437,"Ġnot":438,"ess":439,"Ġse":440,"all":441,"ight":442,"ack":443,"Ġex":444,"gh":445,"ust":446,"up":447,"Ġj":448,"ity":449,"ment":450,"ab":451,"Ġpro":452,"ĠU":453,"Ġwho":454,"Ġaf":455,"art":456,"Ġsp":457,"ist":458,"ive":459,"ard":460,"Ġhad":461,"se":462,"Ġwhe":463,"ĠâĢ":464,"ak":465,"ice":466,"oc":467,"Ġ-":468,"ere":469,"ome":470,"Ġshe":471,"um":472,"rou":473,"ies":474,"oun":475,"red":476,"ud":477,"Ġpl":478,"iv":479,"ort":480,"ok":481,"Ġab":482,"Ġthey":483,"Ġbeen":484,"Ġafter":485,"Ġk":486,"out":487,"Ġwere":488,"ge":489,"qu":490,"Ġtheir":491,"ich":492,"ĠK":493,"ost":494,"Ġgo":495,"Ġwor":496,"ell":497,"Ġor":498,"Ġbut":499,"Ġwill":500,"ide":501,"ant":502,"ry":503,"Ġoff":504,"Ġthis":505,"Ġout":506,"Ġcl":507,"ial":508,"ie":509,"Ġyear":510,"ap":511,"ber":512,"ong":513,"own":514,"ine":515,"ia":516,"day":517,"ĠâĢĺ":518,"one":519,"Ġup":520,"ep":521,"ff":522,"cc":523,"Ġdo":524,"Ġag":525,"ous":526,"ren":527,"Ġad":528,"ans":529,"ays":530,"ord":531,"Ġun":532,"ime":533,"ĠSt":534,"Ġ20":535,"Ġwhich":536,"und":537,"Ġne":538,"mer":539,"Ġ(":540,"Ġint":541,"ary":542,"Ġcan":543,"ĠHe":544,"ect":545,"ub":546,"ĠCh":547,"ther":548,"ict":549,"ated":550,"old":551,"ame":552,"Ġone":553,"ace":554,"age":555,"Ġus":556,"wo":557,"ĠIn":558,"Ġwhen":559,"ail":560,"ally":561,"Ġall":562,"Ġabout":563,"Ġpe":564,"Ġres":565,"Ġrep":566,"Ġman":567,"so":568,"ue":569,"Ġwould":570,"Ġmore":571,"ake":572,"ure":573,"Ġinc":574,"ence":575,"ions":576,"ile":577,"ople":578,"Ġover":579,"Ġme":580,"Ġhim":581,"ip":582,"'t":583,"ond":584,".'":585,"oll":586,"ound":587,"Ġcomp":588,"ild":589,"Ġyou":590,"ian":591,"av":592,"very":593,"ident":594,"Ġcont":595,"Ġ201":596,"Ġalso":597,"Ġdis":598,"Ġar":599,"per":600,"og":601,"ose":602,"ass":603,"Ġpeople":604,"ook":605,"ite":606,"ru":607,"ind":608,"Ġim":609,"Ġso":610,"ire":611,"ign":612,"ks":613,"Ġpr":614,",\"\"":615,"Ġbec":616,"ress":617,"Ġsc":618,"ree":619,"man":620,"ĠTh":621,"Ġpol":622,"ne":623,"Ġtwo":624,"ib":625,"Ġacc":626,"aus":627,"ish":628,"other":629,"ike":630,"ĠIt":631,"ount":632,"Ġev":633,"Ġthan":634,"ick":635,"oy":636,"hed":637,"Ġatt":638,"Ġapp":639,"Ġrec":640,"Ġper":641,"ĠV":642,"Ġnew":643,"are":644,"ĠMr":645,"Ġfir":646,"Ġ--":647,"Ġinto":648,"ft":649,"ough":650,"Ġen":651,"rit":652,"Ġte":653,"The":654,"Ġthem":655,"ved":656,"Ġjust":657,"act":658,"Ġ3":659,"uc":660,"Ġtime":661,"reat":662,"iss":663,"Ġkn":664,"ife":665,"ors":666,"ations":667,"Ġpart":668,"Ġcould":669,"Ġother":670,"amp":671,"ade":672,"Ġtold":673,"Ġwork":674,",\"":675,"ĠY":676,"Ġits":677,"ark":678,"Ġyears":679,"Ġlast":680,"Ġthere":681,"ang":682,"pl":683,"ob":684,"ance":685,"ning":686,"ied":687,"Ġfirst":688,"ach":689,".\"\"":690,"aw":691,"ood":692,"iz":693,"Ġtr":694,"ath":695,"ting":696,"ove":697,"ily":698,"Ġbl":699,"ase":700,"Ġfam":701,"able":702,"ĠBut":703,"land":704,"Ġro":705,"ens":706,"Ġ19":707,"anc":708,"fore":709,"round":710,"Ġsome":711,"ause":712,"Ġfl":713,"Ġlike":714,"Ġmy":715,"Ġback":716,"Ġqu":717,"ool":718,"ek":719,"orm":720,"Ġagain":721,"ical":722,"pt":723,"Ġpre":724,"Ġinv":725,"Ġany":726,"ged":727,"Ġwhat":728,"Ġget":729,"ater":730,"Ġbeing":731,"ons":732,"Ġno":733,"Ġshow":734,"ned":735,"Ġmon":736,"Ġplay":737,"Ġnow":738,"we":739,"Ġdown":740,"ates":741,"Ġ.\"":742,"ious":743,"ĠAl":744,"Ġcar":745,"Ġbefore":746,"Ġcr":747,"ition":748,"000":749,"ink":750,"Ġinter":751,"ult":752,"Ġsec":753,"ĠUn":754,"Ġoffic":755,",'":756,"under":757,"Ġdec":758,"Ġtra":759,"ory":760,"uring":761,"Ġact":762,"Ġsay":763,"vel":764,"Ġhome":765,"lic":766,"ĠNew":767,"enc":768,"Ġdes":769,"ings":770,"lud":771,"Ġ4":772,"Ġchild":773,"Ġsays":774,"Ġser":775,"ĠShe":776,"oin":777,"ters":778,"Ġam":779,"over":780,"ton":781,"ĠAn":782,"au":783,"Ġfound":784,"year":785,"Ġadd":786,"rough":787,"ash":788,"Ġbr":789,"Ġdid":790,"Ġif":791,"ited":792,"Ġunder":793,"Ġpolice":794,"wn":795,"ĠÂ":796,"Ġcall":797,"Ġwhere":798,"ince":799,"ents":800,"Ġbecause":801,"Ġph":802,"Ġinclud":803,"Ġfe":804,"als":805,"ured":806,"Ġrem":807,"ving":808,"ather":809,"Ġonly":810,"Ġ200":811,"iver":812,"air":813,"Ġthree":814,"aking":815,"Ġcomm":816,"ier":817,"illion":818,"Ġmonth":819,"Ġwom":820,"ock":821,"Ġcent":822,"ational":823,"ĠÂ£":824,"Ġfamily":825,"ss":826,"Ġra":827,"Ġbel":828,"Ġhel":829,"Ġcount":830,"Ġmade":831,"ĠLe":832,"fer":833,"oot":834,"NN":835,"Ġhow":836,"Ġlook":837,"Ġchar":838,"Ġimp":839,"son":840,"Ġ5":841,"Ġsur":842,"der":843,"Ġbet":844,"riend":845,"Ġgr":846,"Ġwhile":847,"Ġweek":848,"Ġexp":849,"ating":850,"Ġagainst":851,"aim":852,"oss":853,"rib":854,"led":855,"ĠAnd":856,"ph":857,"Ġour":858,"Ġduring":859,"te":860,"ĠMar":861,"Ġhelp":862,"ise":863,"Ġkill":864,"chool":865,"ourt":866,"ublic":867,"Ġ.\",\"":868,"elf":869,"ty":870,"Ġmost":871,"Ġthen":872,"ouse":873,"Ġlead":874,"..":875,"Ġac":876,"Ġear":877,"ĠFr":878,"ful":879,"ities":880,"Ġaw":881,"Ġins":882,"hes":883,"Ġclaim":884,"resident":885,"ember":886,"Ġmin":887,"Ġrepor":888,"ĠSc":889,"Ġdef":890,"ital":891,"Ġthrough":892,"hen":893,"Ġday":894,".âĢĻ":895,"We":896,"uch":897,"ov":898,"ix":899,".\"":900,"ĠAf":901,"ger":902,"hn":903,"Ġcons":904,"Ġsupp":905,"irl":906,"augh":907,"Ġfin":908,"ĠSp":909,"atch":910,"Ġlife":911,"orn":912,"Ġleft":913,"ven":914,"ased":915,"Ġworld":916,"lect":917,"les":918,"ording":919,"Ġeven":920,"ug":921,"ork":922,"ues":923,"urn":924,"Ġevery":925,"Ġrel":926,"It":927,"Ġtri":928,"ared":929,"owing":930,"Ġaround":931,"Ġmake":932,"Ġke":933,"roup":934,"ope":935,"Ġ6":936,"tle":937,"Ġvery":938,"ĠEn":939,"Ġneed":940,"med":941,"Ġem":942,"nment":943,"alk":944,"Ġfour":945,"Ġret":946,"ĠAr":947,"ah":948,"Ġstar":949,"ric":950,"get":951,"Ġbelie":952,"oth":953,"form":954,"Ġreg":955,"Ġteam":956,"meric":957,"ĠBrit":958,"ĠWh":959,"Ġass":960,"Ġbu":961,"ected":962,"xt":963,"Ġtake":964,"Ġend":965,"gan":966,"ull":967,"Ġown":968,"Ġknow":969,"ures":970,"Ġsee":971,"Ġhead":972,"Ġdon":973,"Ġshould":974,"ody":975,"sh":976,"iel":977,"ĠBr":978,"Ġchildren":979,"Ġmany":980,"Ġmil":981,"iew":982,"erson":983,"ement":984,"Ġwar":985,"ered":986,"Ġstud":987,"ists":988,"ual":989,"Ġgover":990,"Ġplan":991,"ave":992,"Ġind":993,"ives":994,"Ġ$":995,"Ġdeath":996,"Ġschool":997,"Ġlong":998,"Ġmay":999,"ble":1000,"outh":1001,"Ġsince":1002,"Ġway":1003,"ama":1004,"uss":1005,"Ġset":1006,"uth":1007,"Ġthink":1008,"Ġsm":1009,"ced":1010,"osp":1011,"ward":1012,"Ġwell":1013,"Ġstill":1014,"Ġgroup":1015,"Ġgoing":1016,"aren":1017,"ĠAmeric":1018,"Ġgu":1019,"Ġattack":1020,"Ġinvest":1021,"imes":1022,"Ġwin":1023,"ney":1024,"Ġresp":1025,"Ġhigh":1026,"Ġfriend":1027,"Ġthose":1028,"Ġnear":1029,"ale":1030,"alth":1031,"hing":1032,"ason":1033,"ron":1034,"ister":1035,"Ġlaw":1036,"Ġco":1037,"Ġofficial":1038,"Ġhand":1039,"ling":1040,"Ġfoll":1041,"Ġmed":1042,"ED":1043,"Ġhapp":1044,"ised":1045,"ST":1046,"Ġter":1047,"Ġthough":1048,"az":1049,"ene":1050,"Ġconf":1051,"ank":1052,"ĠThey":1053,"gg":1054,"ĠSh":1055,"any":1056,"ĠRe":1057,"Ġtak":1058,"Ġvide":1059,"ner":1060,"Ġpict":1061,"ĠWe":1062,"Ġcap":1063,"ck":1064,"ames":1065,"ible":1066,"Ġcountry":1067,"its":1068,"ments":1069,"ĠJo":1070,"ween":1071,"Ġyour":1072,"Ġmar":1073,"Ġincluding":1074,"ange":1075,"ĠâĢĵ":1076,"ves":1077,"tern":1078,"Ġop":1079,"ĠEST":1080,"ll":1081,"Ġ10":1082,"Ġdisc":1083,"Ġbo":1084,"Ġmother":1085,"gr":1086,"ĠPol":1087,"ĠUnited":1088,"tain":1089,"Ġformer":1090,"ms":1091,"ross":1092,"Ġsuch":1093,"Ġgovernment":1094,"ina":1095,"Ġmuch":1096,"ower":1097,"Ġright":1098,"Ġbetween":1099,"cer":1100,"Ġput":1101,"Ġpass":1102,"ley":1103,"Ġused":1104,"ĠEng":1105,"Ġ7":1106,"ret":1107,"io":1108,"ĠOb":1109,"Ġcol":1110,"ants":1111,"ady":1112,"Ġleg":1113,"Ġsent":1114,"olog":1115,"Ġnight":1116,"ury":1117,"Ġrun":1118,"ular":1119,"Ġdif":1120,"ute":1121,"Ġpublic":1122,"ral":1123,"Ġwant":1124,"Ġtook":1125,"orth":1126,"Ġsign":1127,"Ġche":1128,"ened":1129,"Ġsl":1130,"Ġprot":1131,"ness":1132,"Ġsecond":1133,"Ġaccording":1134,"Ġent":1135,"ott":1136,"ins":1137,"Ġvideo":1138,"Ġ2013":1139,"br":1140,"ision":1141,"oung":1142,"Ġwomen":1143,"Ġinvestig":1144,"ĠCl":1145,"ster":1146,"Ġnum":1147,"Ġmem":1148,"ĠIs":1149,"Ġcourt":1150,"Ġnext":1151,"lear":1152,"bers":1153,"rest":1154,"ets":1155,"Ġcond":1156,"uthor":1157,"Ġlater":1158,"ever":1159,"ecut":1160,"Ġask":1161,"ote":1162,"Ġext":1163,"Ġwr":1164,"ĠAs":1165,"ison":1166,"Ġcalled":1167,"Ġsy":1168,"app":1169,"ĠCNN":1170,"Ġperson":1171,"ĠMon":1172,"Ġalle":1173,"Ġloc":1174,"ham":1175,"ospital":1176,"urs":1177,"Ġstr":1178,"bs":1179,"self":1180,"line":1181,"Ġgirl":1182,"ax":1183,"ines":1184,"Ġdri":1185,"ondon":1186,"oney":1187,"ics":1188,"Ġstat":1189,"ights":1190,"Ġvict":1191,"Ġdays":1192,"ĠChr":1193,"ative":1194,"side":1195,"ĠMc":1196,"ages":1197,"Ġphot":1198,"mit":1199,"ĠAt":1200,"Ġvis":1201,"Ġcare":1202,"Ġfive":1203,"ĠQ":1204,"Ġadded":1205,"Ġpost":1206,"Ġnever":1207,"ĠZ":1208,"Ġgood":1209,"ĠLondon":1210,"eral":1211,"Ġcontr":1212,"ĠObama":1213,"Ġbeh":1214,"Ġair":1215,"By":1216,"hip":1217,"Ġmonths":1218,"Ġfil":1219,"rem":1220,"used":1221,"ĠPr":1222,"Ġsame":1223,"ivers":1224,"Ġseen":1225,"Ġinj":1226,"Ġreported":1227,"Ġanother":1228,"Ġreport":1229,"ices":1230,"ex":1231,"ple":1232,"min":1233,"Ġcome":1234,"Ġcontin":1235,"Ġexper":1236,"ually":1237,"Ġbus":1238,"Ġbig":1239,"iam":1240,"Ġaway":1241,"iving":1242,"ĠCom":1243,"Ġmen":1244,"ony":1245,"ours":1246,"Ġeff":1247,"Ġthese":1248,"Ġmillion":1249,"Ġrele":1250,"vers":1251,"ĠSy":1252,"Ġ8":1253,"Ġtaken":1254,"Ġmiss":1255,"Ġcame":1256,"Ġ2012":1257,"atur":1258,"Ġfind":1259,"Ġcase":1260,"ĠCar":1261,"pr":1262,"Ġtoday":1263,"osed":1264,"ility":1265,"ired":1266,"omet":1267,"Ġtry":1268,"Ġpoin":1269,"Ġboth":1270,"Ġcre":1271,"Ġyoung":1272,"ĠDe":1273,"Ġdep":1274,"iday":1275,"Ġdoes":1276,"Ġ.,\"":1277,"vice":1278,"ient":1279,"Ġstate":1280,"alf":1281,"Ġann":1282,"Ġcamp":1283,"Th":1284,"IS":1285,"duc":1286,"Ġsix":1287,"Ġ9":1288,"con":1289,"ĠBl":1290,"ĠFor":1291,"Ġcur":1292,"irect":1293,"ĠThis":1294,"Ġgot":1295,"aj":1296,"nes":1297,"ague":1298,"Ġplace":1299,"ands":1300,"Ġbre":1301,"Ġprov":1302,"Ġspe":1303,"ency":1304,"Ġmilit":1305,"by":1306,"Ġspec":1307,"ific":1308,"Ġwent":1309,"Ġtrans":1310,"ges":1311,"Ġsex":1312,"Ġkilled":1313,"ield":1314,"amer":1315,"Ġ12":1316,"ĠWor":1317,"ived":1318,"ys":1319,"ĠOn":1320,"ĠPolice":1321,"Ġtop":1322,"usp":1323,"ĠYork":1324,"hel":1325,"Ġdied":1326,"okes":1327,"Ġsub":1328,"Ġrest":1329,"Ġwife":1330,"Ġprev":1331,"aughter":1332,"rug":1333,"Ġdet":1334,"ces":1335,"Ġdr":1336,"Ġremain":1337,"Ġfather":1338,"ĠDav":1339,"els":1340,"'re":1341,"Ġsupport":1342,"ik":1343,"Ġiss":1344,"ried":1345,"uct":1346,"Ġlit":1347,"Ġarrest":1348,"Ġexpl":1349,"ober":1350,"Ġgreat":1351,"ched":1352,"Ġuse":1353,"Ġreal":1354,"oved":1355,"Ġfoot":1356,"ĠEngland":1357,"Ġrece":1358,"Ġnews":1359,"Ġreally":1360,"Ġrecent":1361,"iet":1362,"urity":1363,"Ġfac":1364,"ten":1365,"ele":1366,"Ġtoo":1367,"ĠJohn":1368,"Ġfar":1369,"earch":1370,"to":1371,"Ġpay":1372,"Ġref":1373,"Ġhouse":1374,"Ġsever":1375,"Ġsusp":1376,"ĠSouth":1377,"Ġaff":1378,"Ġpresident":1379,"Ġtest":1380,"Ġbest":1381,"unday":1382,"ird":1383,"rent":1384,"Ġwoman":1385,"Ġauthor":1386,"Ġsk":1387,"Ġmanag":1388,"ball":1389,"Ġhealth":1390,"ĠWorld":1391,"ane":1392,"orts":1393,"ĠBar":1394,"Ġgl":1395,"Ġson":1396,"aff":1397,"Ġmur":1398,"ĠEur":1399,"com":1400,"Ġsw":1401,"Ġpar":1402,"iol":1403,"AT":1404,"ĠSunday":1405,"ĠAust":1406,"riv":1407,"til":1408,"Ġkeep":1409,"Ġsomet":1410,"Ġcou":1411,"Ġdem":1412,"Ġinf":1413,"ĠRep":1414,"artment":1415,"Ġposs":1416,"idence":1417,"ism":1418,"Ġintern":1419,"Ġnumber":1420,"Ġmod":1421,"Ġdirect":1422,"Ġmet":1423,"Ġbody":1424,"Ġfew":1425,"iness":1426,"Ġmoney":1427,"Ġinst":1428,"Ġdidn":1429,"'.":1430,"Ġbuild":1431,"Ġopp":1432,"Ġsim":1433,"ished":1434,"resent":1435,"Ġrecord":1436,"CNN":1437,"Ġspokes":1438,"ided":1439,"Ġlar":1440,"Ġ11":1441,"Ġgen":1442,"thing":1443,"Ġjob":1444,"Ġseason":1445,"ann":1446,"ued":1447,"view":1448,"Ġboy":1449,"Ġ18":1450,"urned":1451,"ended":1452,"Ġshot":1453,"enn":1454,"ĠPresident":1455,"Ġstop":1456,"Ġdel":1457,"Ġhospital":1458,"Ġcommun":1459,"Ġsit":1460,"ering":1461,"Ġgame":1462,"Ġsuff":1463,"Ġwithout":1464,"ending":1465,"ĠChrist":1466,"ense":1467,"Ġhit":1468,"Ġappear":1469,"Ġdesc":1470,"Ġhum":1471,"ĠMay":1472,"ĠBe":1473,"Ġ15":1474,"Ġstart":1475,"pped":1476,"Ġdiffer":1477,"Ġreve":1478,"ĠHar":1479,"Ġtimes":1480,"Ġsoc":1481,"Ġtrain":1482,"ĠMiss":1483,"Ġago":1484,"istr":1485,"ention":1486,"ĠBritish":1487,"ways":1488,"Ġthought":1489,"uck":1490,"ĠMin":1491,"Ġpast":1492,"Ġdead":1493,"ĠRuss":1494,"Ġface":1495,"Ġpat":1496,"ately":1497,"Ġve":1498,"ĠOne":1499,"Ġparen":1500,"Ġhaving":1501,"Ġcompany":1502,"Ġsaying":1503,"inal":1504,"Ġuntil":1505,"ĠCity":1506,"iven":1507,"Ġdrug":1508,"ĠNorth":1509,"ĠWest":1510,"Ġold":1511,"Ġside":1512,"anted":1513,"Ġmurder":1514,"Ġhere":1515,"iversity":1516,"ats":1517,"Ġpop":1518,"ĠHow":1519,"utes":1520,"Ġinvol":1521,"Ġfollowing":1522,"Ġcity":1523,"ially":1524,"Ġproble":1525,"Ġwon":1526,"Ġclub":1527,"be":1528,"att":1529,"Ġpolit":1530,"Ġeach":1531,"Ġdaughter":1532,"Ġlot":1533,"stem":1534,"ĠHer":1535,"Ġprom":1536,"ized":1537,"Ġopen":1538,"Ġmembers":1539,"Ġbro":1540,"owed":1541,"eks":1542,"Ġofficials":1543,"Ġvictim":1544,"Ġmove":1545,"overed":1546,"Ġlet":1547,"ror":1548,"aun":1549,"ising":1550,"Ġviol":1551,"Ġfeel":1552,"'m":1553,"ĠSec":1554,"Ġsaf":1555,"eal":1556,"ĠMonday":1557,"ĠUK":1558,"aign":1559,"ones":1560,"ief":1561,"Ġquest":1562,"ior":1563,"Ġpos":1564,"ution":1565,"ĠInd":1566,"Ġasked":1567,"Ġalleged":1568,"gy":1569,"ĠCol":1570,"ailed":1571,"Ġknown":1572,"Ġstand":1573,"Ġstatement":1574,"velop":1575,"roll":1576,"for":1577,"ience":1578,"port":1579,"ĠCo":1580,"aid":1581,"ards":1582,"lier":1583,"Ġmilitary":1584,"PD":1585,"Ġacross":1586,"amed":1587,"ying":1588,"ĠCon":1589,"co":1590,"Ġtravel":1591,"He":1592,"aul":1593,"ĠHis":1594,"ogra":1595,"af":1596,"),":1597,"right":1598,"ĠEurope":1599,"Ġ30":1600,"Ġcomple":1601,"Ġfight":1602,"ĠWill":1603,"Ġclear":1604,"ĠAm":1605,"aturday":1606,"ĠFriday":1607,"Ġoper":1608,"Ġelect":1609,"ĠWed":1610,"reet":1611,"esp":1612,"ĠDavid":1613,"Ġstru":1614,"Ġcost":1615,"Ġmeet":1616,"atic":1617,"Ġweeks":1618,"ploy":1619,"cl":1620,"ries":1621,"Ġbelieve":1622,"ĠJan":1623,"Ġ0":1624,"ĠThere":1625,"ĠAustral":1626,"Ġhours":1627,"ified":1628,"Ġmid":1629,"Ġtell":1630,"Ġav":1631,"Ġsystem":1632,"ĠSaturday":1633,"uesday":1634,"Ġcaus":1635,"Ġreveal":1636,"ĠTuesday":1637,"ĠFl":1638,"ready":1639,"ows":1640,"ĠSe":1641,"Ġlittle":1642,"Ġfire":1643,"oor":1644,"Ġarea":1645,"nesday":1646,"ped":1647,"ĠWednesday":1648,"Ġart":1649,"ĠPro":1650,"use":1651,"ects":1652,"rain":1653,"Ġfact":1654,"ajor":1655,"ront":1656,"Ġmark":1657,"Ġhard":1658,"ĠGer":1659,"ĠThat":1660,"Ġalong":1661,"Ġbecome":1662,"pe":1663,"Ġest":1664,"ĠAd":1665,"ĠAfric":1666,"Ġworking":1667,"Ġgiven":1668,"Ġconv":1669,"Ġbehind":1670,"ĠAb":1671,"ĠAmerican":1672,"une":1673,"Ġcampaign":1674,"ection":1675,"cess":1676,"iting":1677,"Ġadv":1678,"Ġappro":1679,"lin":1680,"Ġob":1681,"gram":1682,"Ġprison":1683,"'ve":1684,"Ġdescrib":1685,"Ġpower":1686,"Ġstri":1687,"Ġhalf":1688,"Ġ16":1689,"Ġorder":1690,"Ġcoun":1691,"erv":1692,"Ġsomething":1693,"Ġclose":1694,"rew":1695,"Ġinform":1696,"Ġthreat":1697,"ional":1698,"Ġrequ":1699,"ran":1700,"Ġalready":1701,"Ġcurrent":1702,"ĠGe":1703,"Ġfriends":1704,"cent":1705,"head":1706,"Ġlocal":1707,"Ġincre":1708,"Ġdeal":1709,"ĠPh":1710,"Ġdevelop":1711,"Ġincident":1712,"ians":1713,"ĠSyri":1714,"Ġlost":1715,"Ġoutside":1716,"Ġlove":1717,"ators":1718,"ored":1719,"Ġtaking":1720,"reen":1721,"Ġhist":1722,"Ġevent":1723,"atter":1724,"Ġed":1725,"ĠPe":1726,"oke":1727,"Ġalways":1728,"oon":1729,"Ġdog":1730,"Ġparents":1731,"Ġcouple":1732,"ests":1733,"Ġpictured":1734,"Ġprof":1735,"ester":1736,"Ġannoun":1737,",âĢĻ":1738,"Ġable":1739,"Ġbusiness":1740,"Ġwhether":1741,"ATED":1742,"ĠUPD":1743,"ĠUPDATED":1744,"Ġstarted":1745,"Ġap":1746,"band":1747,"Ġjoin":1748,"aring":1749,"ĠCup":1750,"Ġsn":1751,"Ġwalk":1752,"Ġ13":1753,"Ġconcer":1754,"Ġcele":1755,"ington":1756,"ept":1757,"ĠAfter":1758,"eb":1759,"BL":1760,"Ġearly":1761,"less":1762,"Ġsing":1763,"most":1764,"50":1765,"Ġwater":1766,"Ġmaking":1767,"Ġ|":1768,"ĠWhen":1769,"uary":1770,"Ġmight":1771,"Ġsecurity":1772,"Ġseveral":1773,"Ġcrit":1774,"ĠMs":1775,"ĠStates":1776,"iously":1777,"ĠLeague":1778,"Ġpress":1779,"ISH":1780,"UBL":1781,"akes":1782,"ursday":1783,"Ġmor":1784,"ISHED":1785,"Ġcer":1786,"UBLISHED":1787,"ĠThursday":1788,"Ġgun":1789,"udge":1790,"Ġconsid":1791,"Ġtreat":1792,"ael":1793,"eng":1794,"Ġris":1795,"conom":1796,"ĠDec":1797,"Ġprogram":1798,"Ġmess":1799,"Ġsaw":1800,"Ġmust":1801,"ĠDep":1802,"ĠHouse":1803,"ĠPUBLISHED":1804,"Ġever":1805,"Ġleast":1806,"Ġusing":1807,"ĠMich":1808,"Ġsum":1809,"This":1810,"Ġmajor":1811,"ĠJu":1812,"Ġless":1813,"Ġspokesman":1814,"here":1815,"ases":1816,"Ġmom":1817,"Ġhold":1818,"Ġ199":1819,"Ġseem":1820,"Ġclaims":1821,"Ġsmall":1822,"ming":1823,"Ġdesign":1824,"Ġclaimed":1825,"ccess":1826,"ĠAll":1827,"ars":1828,"ĠCr":1829,"Ġcut":1830,"Ġfore":1831,"enal":1832,"ĠCourt":1833,"ai":1834,"my":1835,"Ġfood":1836,"ained":1837,"Ġsugg":1838,"echn":1839,"Ġdifferent":1840,"ĠCent":1841,"Ġbetter":1842,"hers":1843,"Ġ14":1844,"hester":1845,"Ġshows":1846,"Ġhot":1847,"Ġbook":1848,"Ġdra":1849,"Ġreleased":1850,"Ġlaun":1851,"Ġgive":1852,"Ġheart":1853,"ject":1854,"Ġtalk":1855,"Ġamong":1856,"Ġminutes":1857,"way":1858,"ales":1859,"Ġ17":1860,"book":1861,"Ġfur":1862,"Ġevidence":1863,"Ġrul":1864,"ĠJanuary":1865,"Ġview":1866,"Ġparty":1867,"Ġmain":1868,"ev":1869,"fic":1870,"Ġtrying":1871,"ium":1872,"ĠEd":1873,"ĠGu":1874,"let":1875,"Ġwanted":1876,"Ġpartic":1877,"BC":1878,"acy":1879,"emp":1880,"Ġchange":1881,"Ġdeb":1882,"Ġthings":1883,"ĠMail":1884,"Ġey":1885,"ush":1886,"ee":1887,"ize":1888,"ĠUniversity":1889,"go":1890,"million":1891,"miss":1892,"Ġheard":1893,"Ġroom":1894,"Ġdist":1895,"Ġearlier":1896,"ĠScroll":1897,"Ġmedia":1898,"reed":1899,"Ġhimself":1900,"urch":1901,"cept":1902,"ĠTr":1903,"Ġshort":1904,"Ġemer":1905,"usband":1906,"Ġred":1907,"Ġtre":1908,"Ġvisit":1909,"ech":1910,"Ġ2011":1911,"ressed":1912,"Ġfull":1913,"Ġfront":1914,"Ġeconom":1915,"Ġsold":1916,"Ġbegan":1917,"ĠMrs":1918,"Ġorgan":1919,"ically":1920,"Ġwrote":1921,"ford":1922,"ĠBritain":1923,"Ġarrested":1924,"Ġadmit":1925,"ology":1926,"Ġel":1927,"ĠTw":1928,"ler":1929,"of":1930,"Ġauthorities":1931,"Ġlive":1932,"Ġfinal":1933,"Ġofficers":1934,"Ġbecame":1935,"gest":1936,"Ġtar":1937,"Ġchang":1938,"Ġtoget":1939,"Ġtogether":1940,"Ġwatch":1941,"Ġstay":1942,"Ġsuccess":1943,"Ġinformation":1944,"Ġcust":1945,"ator":1946,"cil":1947,"alif":1948,"ances":1949,"esterday":1950,"Ġfree":1951,"erry":1952,"ille":1953,"ĠOff":1954,"Ġcelebr":1955,"orr":1956,"ĠDecember":1957,"Ġcommit":1958,"Ġrevealed":1959,"Ġarri":1960,"ĠWilliam":1961,"the":1962,"uge":1963,"Ġpain":1964,"Ġdecision":1965,"Ġheld":1966,"Ġpros":1967,"allen":1968,"ĠAug":1969,"Ġlevel":1970,"ĠMarch":1971,"Ġstaff":1972,"Ġhusband":1973,"aily":1974,"Ġlooking":1975,"Ġreturn":1976,"gin":1977,"lish":1978,"ĠNational":1979,"ĠGeor":1980,"ĠOct":1981,"bed":1982,"itter":1983,"ern":1984,"Ġthird":1985,"Ġgoal":1986,"ops":1987,"Ġocc":1988,"Ġsite":1989,"Ġland":1990,"esc":1991,"Ġshoot":1992,"Ġplayers":1993,"ories":1994,"Ġlikely":1995,"Ġground":1996,"Ġonce":1997,"Ġtechn":1998,"rop":1999,"Ġcompet":2000,"Ġothers":2001,"Ġimport":2002,"ĠSept":2003,"Ġclass":2004,"ĠWar":2005,"ape":2006,"aly":2007,"ĠGerman":2008,"ĠAugust":2009,"eared":2010,"ream":2011,"hern":2012,"Ġseven":2013,"ĠOctober":2014,"Ġpoint":2015,"room":2016,"Ġcontrol":2017,"Ġmorning":2018,"Ġcour":2019,"Ġwa":2020,"ĠDr":2021,"Ġblack":2022,"ences":2023,"Ġdue":2024,"Ġfeat":2025,"Ġenough":2026,"Ġform":2027,"Ġ25":2028,"Ġexpected":2029,"Ġtax":2030,"Ġproper":2031,"Ġinvestigation":2032,"ring":2033,"ĠFace":2034,"elt":2035,"Ġwhy":2036,"Ġfootball":2037,"ef":2038,"aving":2039,"anchester":2040,"mber":2041,"ĠPar":2042,"Ġlarge":2043,"istan":2044,"aut":2045,"aster":2046,"Ġwrit":2047,"ĠSer":2048,"ĠSeptember":2049,"den":2050,"stit":2051,"Ġhuman":2052,"Ġsocial":2053,"Ġban":2054,"ĠHowever":2055,"ĠGr":2056,"Ġproduc":2057,"ĠNove":2058,"Ġlives":2059,"ey":2060,"Ġident":2061,"Ġden":2062,"Ġaccused":2063,"ĠFacebook":2064,"Ġbar":2065,"ĠState":2066,"Ġfell":2067,"Ġread":2068,"aced":2069,"ably":2070,"Ġinterview":2071,"Ġtried":2072,"Ġinternational":2073,"ches":2074,"Ġ21":2075,"Ġwear":2076,"Ġalmost":2077,"ocr":2078,"Ġhom":2079,"uture":2080,"ds":2081,"ĠSm":2082,"Ġdam":2083,"Ġeas":2084,"Ġleaders":2085,"Ġball":2086,"ĠIf":2087,"Ġfun":2088,"ĠMichael":2089,"Ġservice":2090,"ĠNovember":2091,"Ġtown":2092,"Ġname":2093,"ĠDem":2094,"ĠOr":2095,"Ġbur":2096,"ĠMan":2097,"Ġdesp":2098,"Ġgetting":2099,"mp":2100,"ox":2101,"ails":2102,"Ġtarget":2103,"ĠRom":2104,"Ġbreak":2105,"Ġcomes":2106,"igr":2107,"though":2108,"Ġspent":2109,"ĠManchester":2110,"Ġcharges":2111,"Ġrelations":2112,"Ġexecut":2113,"wards":2114,"ĠIntern":2115,"left":2116,"Ġfurther":2117,"work":2118,"sea":2119,"ĠYou":2120,"Ġhope":2121,"Ġpolic":2122,"ana":2123,"Ġequ":2124,"Ġinside":2125,"yle":2126,"Ġkid":2127,"pril":2128,"Ġbab":2129,"ĠJune":2130,"ĠChina":2131,"ump":2132,"Ġhappened":2133,"idge":2134,"omb":2135,"ĠJust":2136,"Ġdoing":2137,"ti":2138,"Ġdone":2139,"ĠCount":2140,"Ġtrial":2141,"ivil":2142,"ograph":2143,"Ġple":2144,"Ġroad":2145,"Ġlate":2146,"ĠApril":2147,"ourn":2148,"dle":2149,"Ġgrand":2150,"Ġsuggest":2151,"Ġanim":2152,"Ġconfir":2153,"itions":2154,"ico":2155,"ĠSw":2156,"Ġeng":2157,"Ġphone":2158,"Ġfund":2159,"oci":2160,"Ġoffice":2161,"Ġleave":2162,"ĠAcc":2163,"âĢĻ.":2164,"Ġaction":2165,"str":2166,"Ġcharged":2167,"ĠMart":2168,"Ġide":2169,"ighb":2170,"There":2171,"Ġfuture":2172,"Ġpriv":2173,"Ġnational":2174,"Ġstudents":2175,"Ġonline":2176,"ety":2177,"Ġyesterday":2178,"Ġgave":2179,"Ġline":2180,"Ġdoct":2181,"Ġcountries":2182,"Ġhop":2183,"ead":2184,"ĠJames":2185,"Ġspecial":2186,"Ġoften":2187,"Ġblood":2188,"Ġcommunity":2189,"Ġdescribed":2190,"Ġeight":2191,"raq":2192,"raz":2193,"Ġinvolved":2194,"ald":2195,"itness":2196,"stand":2197,"ĠKore":2198,"ots":2199,"ĠAss":2200,"Ġterror":2201,"ĠNo":2202,"ilar":2203,"Ġstrong":2204,"ĠUS":2205,"retary":2206,"Ġreceived":2207,"ns":2208,"Ġwind":2209,"lex":2210,"ung":2211,"ĠDepartment":2212,"ĠEx":2213,"mon":2214,"aper":2215,"ective":2216,"Ġquestion":2217,"ĠSo":2218,"Ġpolitical":2219,"Ġdou":2220,"Ġcolle":2221,"ĠEl":2222,"ĠChar":2223,"me":2224,"Ġhost":2225,"Ġmatch":2226,"Ġpub":2227,"Ġbrother":2228,"Ġdespite":2229,"Ġsqu":2230,"par":2231,"irth":2232,"Ġactiv":2233,"lam":2234,"Ġ24":2235,"Ġbring":2236,"ĠIraq":2237,"Ġbelieved":2238,"Ġ2010":2239,"Ġplayed":2240,"Ġpossible":2241,"Ġage":2242,"Ġyet":2243,"Ġcamer":2244,"Ġled":2245,"ides":2246,"Ġofficer":2247,"ĠRepublic":2248,"Ġbuilding":2249,"Ġlo":2250,"Ġimportant":2251,"Ġtw":2252,"Ġfilm":2253,"itive":2254,"Ġrisk":2255,"Ġthing":2256,"Ġemploy":2257,"inc":2258,"Ġwebs":2259,"Ġleader":2260,"ought":2261,"vices":2262,"gu":2263,"Ġfig":2264,"ĠAir":2265,"Ġrights":2266,"Ġ50":2267,"Ġprocess":2268,"Ġfans":2269,"Ġpot":2270,"friend":2271,"Ġrespons":2272,"Ġmus":2273,"que":2274,"aur":2275,"ients":2276,"rench":2277,"30":2278,"ĠJuly":2279,"uted":2280,"Ġscene":2281,"Ġadmitted":2282,"anger":2283,"ĠRoy":2284,"aps":2285,"ocked":2286,"Ġteen":2287,"uff":2288,"icted":2289,"Ġnet":2290,"ĠMe":2291,"ĠMinister":2292,"gency":2293,"ening":2294,"ata":2295,"ĠGo":2296,"ocu":2297,"Ġsomeone":2298,"Ġimm":2299,"reme":2300,"Ġdirector":2301,"Ġnation":2302,"eck":2303,"ging":2304,"Ġcomment":2305,"Ġhar":2306,"sel":2307,"Ġcover":2308,"Ġlegal":2309,"Ġchief":2310,"They":2311,"Ġfamil":2312,"Ġhistory":2313,"Ġdi":2314,"Ġanything":2315,"ination":2316,"Ġ22":2317,"ortun":2318,"Ġsure":2319,"Ġdoesn":2320,"ashington":2321,"order":2322,"ĠEm":2323,"Ġcompl":2324,"Ġ2014":2325,"Ġinterest":2326,"Ġshowed":2327,"ĠRo":2328,"Ġprod":2329,"ĠTwitter":2330,"Ġwithin":2331,"ĠUk":2332,"Ġlight":2333,"Ġcapt":2334,"',":2335,"Ġsol":2336,"ĠWhite":2337,"off":2338,"Ġthr":2339,"Ġfall":2340,"ĠFeb":2341,"Ġliving":2342,"ĠLab":2343,"Ġsuper":2344,"ampions":2345,"attle":2346,"iber":2347,"Ġbirth":2348,"ĠGl":2349,"ades":2350,"ached":2351,"ĠPark":2352,"irc":2353,"Ġmiles":2354,"Ġhig":2355,"ĠTV":2356,"agn":2357,"Ġill":2358,"Ġneighb":2359,"ĠAng":2360,"Ġappeared":2361,"ĠSyria":2362,"hic":2363,"ipp":2364,"Ġnearly":2365,"ask":2366,"Ġlist":2367,"not":2368,"20":2369,"iding":2370,"Ġforward":2371,"ĠEar":2372,"ictured":2373,"Ġplaying":2374,"Ġkind":2375,"ficult":2376,"Ġmass":2377,"Ġlow":2378,"Ġsour":2379,"ousands":2380,"ruary":2381,"rought":2382,"Ġmanager":2383,"Ġbed":2384,"Ġfr":2385,"ĠCamer":2386,"Ġquick":2387,"Ġsummer":2388,"Ġstory":2389,"ĠPaul":2390,"Ġcaused":2391,"Ġpresent":2392,"ensive":2393,"Ġ100":2394,"Ġcarry":2395,"ĠNews":2396,"cted":2397,"Ġahead":2398,"Ġcivil":2399,"ĠFebruary":2400,"Ġturn":2401,"Ġsearch":2402,"ĠMex":2403,"ĠCan":2404,"osing":2405,"Ġ40":2406,"Ġannounced":2407,"ults":2408,"ĠAmerica":2409,"Ġvot":2410,"Ġlim":2411,"ĠPal":2412,"Ġlear":2413,"Ġplans":2414,"na":2415,"Ġspot":2416,"aliforn":2417,"Ġmot":2418,"Ġpick":2419,"Ġstep":2420,"ounds":2421,"Ġprosecut":2422,"time":2423,"orney":2424,"Ġbill":2425,"Ġrole":2426,"Ġinclude":2427,"Ġrelationship":2428,"ĠCounty":2429,"Ġinsp":2430,"Ġbaby":2431,"Ġbad":2432,"ĠDan":2433,"Ġdifficult":2434,"Ġwrong":2435,"Ġtraining":2436,"ĠFrench":2437,"Ġexc":2438,"Ġbene":2439,"ruct":2440,"Ġcor":2441,"Ġhor":2442,"ĠSte":2443,"Ġfav":2444,"aded":2445,"Ġseries":2446,"ole":2447,"Ġturned":2448,"Ġcondition":2449,"ality":2450,"Ġprop":2451,"Ġmean":2452,"Ġcomplete":2453,"ĠSam":2454,"unt":2455,"ession":2456,"pool":2457,"yl":2458,"Ġwasn":2459,"Ġhuge":2460,"ĠCaliforn":2461,"Ġsen":2462,"Ġpres":2463,"Ġcontinue":2464,"Ġvehic":2465,"Ġforced":2466,"enced":2467,"Ġguil":2468,"ĠAccording":2469,"oring":2470,"Ġsoon":2471,"Ġmoment":2472,"ĠSen":2473,"ulation":2474,"Ġchallen":2475,"Ġpair":2476,"Ġgra":2477,"Ġreports":2478,"aught":2479,"Ġproblem":2480,"ĠMo":2481,"ĠPl":2482,"Ġcoming":2483,"Ġweap":2484,"Ġsimilar":2485,"Ġur":2486,"Ġbeat":2487,"iety":2488,"ĠAustralia":2489,"gress":2490,"Ġri":2491,"ĠChel":2492,"Ġgirls":2493,"Ġlat":2494,"ĠHam":2495,"Ġcontrib":2496,"lection":2497,"medi":2498,"ĠDaily":2499,"Ġsurv":2500,"Ġdocu":2501,"weet":2502,"If":2503,"uel":2504,"Ġfear":2505,"Ġorig":2506,"Ġty":2507,"Ġcourse":2508,"You":2509,"joy":2510,"Ġ.\",\"(":2511,"ĠSome":2512,"itch":2513,"Ġworked":2514,"ference":2515,"ential":2516,"ĠRich":2517,"Ġsafety":2518,"Ġtour":2519,"Ġenc":2520,"Ġvictims":2521,"Ġtot":2522,"ĠJack":2523,"Ġwebsite":2524,"ĠIran":2525,"ature":2526,"isted":2527,"Ġrepl":2528,"ĠWashington":2529,"Ġnothing":2530,"Ġjudge":2531,"umb":2532,"Ġwhose":2533,"Ġdeter":2534,"Ġboard":2535,"ĠCalifornia":2536,"Ġmakes":2537,"Ġviolence":2538,"Ġkilling":2539,"ĠFrance":2540,"Ġer":2541,"Ġflight":2542,"Ġdecided":2543,"ault":2544,"uries":2545,"cast":2546,"ederal":2547,"Ġwhite":2548,"ĠNe":2549,"Ġposted":2550,"She":2551,"uation":2552,"ĠâĢĶ":2553,"Ġ198":2554,"ministr":2555,"Ġcrime":2556,"'d":2557,"Ġcoll":2558,"ĠMil":2559,"Ġallegedly":2560,"field":2561,"Ġ23":2562,"Ġshop":2563,"Ġstudy":2564,"iers":2565,"int":2566,"Ġspace":2567,"Wh":2568,"ĠMor":2569,"Ġresult":2570,"Ġproblems":2571,"In":2572,"Ġguilty":2573,"ĠAfrica":2574,"Ġimpro":2575,"Ġissue":2576,"Ġrecently":2577,"Ġhol":2578,"ĠMcC":2579,"atives":2580,"Ġ2009":2581,"Ġpaid":2582,"Ġinit":2583,"Ġval":2584,"Ġremains":2585,"selves":2586,"Ġbrought":2587,"ida":2588,"lo":2589,"ĠEuropean":2590,"Ġesc":2591,"elling":2592,"Ġlatest":2593,"Ġi":2594,"Ġgener":2595,"Ġsuffered":2596,"mission":2597,"Ġtro":2598,"Ġ...":2599,"ĠEast":2600,"sw":2601,"Ġenjoy":2602,"uction":2603,"Ġmember":2604,"Ġstrik":2605,"Ġcustom":2606,"ij":2607,"ĠMark":2608,"Ġstrugg":2609,"Ġpicture":2610,"Ġimmedi":2611,"ournal":2612,"avy":2613,"Ġtit":2614,"arr":2615,"Ġlif":2616,"ender":2617,"ibility":2618,"Ġdest":2619,"ett":2620,"Ġserious":2621,"Ġcertain":2622,"Ġgames":2623,"Ġforces":2624,"iverpool":2625,"Ġrad":2626,"ĠRussia":2627,"lished":2628,"ĠWith":2629,"Ġcases":2630,"ĠWhile":2631,"lying":2632,"ery":2633,"Ġmeans":2634,"pictured":2635,"Ġmissing":2636,"aged":2637,"read":2638,"ara":2639,"aces":2640,"ĠRober":2641,"ither":2642,"Ġsexual":2643,"Ġdiscovered":2644,"Ġmarket":2645,"wood":2646,"Ġdisapp":2647,"Ġhands":2648,"ĠSmith":2649,"Ġcle":2650,"Ġexpect":2651,"Ġpopular":2652,"yn":2653,"ĠMP":2654,"'ll":2655,"lim":2656,"Ġweekend":2657,"Ġmeeting":2658,"Ġbit":2659,"ĠMus":2660,"ĠCameron":2661,"iec":2662,"Ġaccount":2663,"Ġrepresent":2664,"ashed":2665,"Ġaccident":2666,"ĠIslam":2667,"Ġfamilies":2668,"Ġteac":2669,"Ġplayer":2670,"Ġrunning":2671,"ĠAlex":2672,"sp":2673,"Ġcareer":2674,"rael":2675,"ĠMed":2676,"Ġtele":2677,"Ġstudent":2678,"ĠMad":2679,"Ġparticular":2680,"Ġmoved":2681,"ivid":2682,"Ġfailed":2683,"acked":2684,"Ġknew":2685,"Ġtreatment":2686,"ĠChelsea":2687,"ĠBen":2688,"ĠThom":2689,"**":2690,"mas":2691,"sc":2692,"Ġtal":2693,"reg":2694,"ĠMid":2695,"raft":2696,"uk":2697,"uty":2698,"ĠHol":2699,"Ġchance":2700,"wh":2701,"Ġaut":2702,"undred":2703,"Ġlooked":2704,"Ġnine":2705,"Ġcurrently":2706,").":2707,"ma":2708,"isc":2709,"ĠKing":2710,"ĠGeorge":2711,"ĠPrem":2712,"ĠLast":2713,"ĠSch":2714,"Ġrespond":2715,"ĠLiverpool":2716,"key":2717,"Ġaccess":2718,"ĠWhat":2719,"ease":2720,"Ġpri":2721,"Ġthousands":2722,"Ġbased":2723,"Ġcho":2724,"Ġresident":2725,"Ġplane":2726,"Ġcreat":2727,"Ġforce":2728,"Ġmeas":2729,"ption":2730,"Ġbenef":2731,"bol":2732,"ilt":2733,"apan":2734,"Ġsafe":2735,"10":2736,"Ġprob":2737,"ips":2738,"ĠPat":2739,"ĠHigh":2740,"Ġvol":2741,"Ġcancer":2742,"Ġmedical":2743,"Ġhotel":2744,"tee":2745,"ert":2746,"Ġcal":2747,"Ġareas":2748,"ined":2749,"ĠIsrael":2750,"ĠAngel":2751,"ps":2752,"ĠFlor":2753,"ĠInternational":2754,"kn":2755,"Ġcrim":2756,"ĠRoyal":2757,"ĠDemocr":2758,"ray":2759,"Ġmov":2760,"eth":2761,"....":2762,"Ġneeded":2763,"Ġpoints":2764,"Ġfem":2765,"Ġcross":2766,"ĠSup":2767,"ners":2768,"ently":2769,"ager":2770,"Ġanyone":2771,"Ġcrash":2772,"Ġ26":2773,"Ġarrived":2774,"Ġcritic":2775,"Ġwants":2776,"Ġfoc":2777,"Ġdiv":2778,"ains":2779,"Ġeverything":2780,"Ġ2008":2781,"Ġmessage":2782,"ino":2783,"lymp":2784,"Ġtrad":2785,"ĠPhil":2786,"imate":2787,"Ġgroups":2788,"Ġcause":2789,"ĠQue":2790,"bo":2791,"Ġfelt":2792,"Ġrock":2793,"aker":2794,"Ġconn":2795,"Ġcomments":2796,"Ġ197":2797,"Ġprep":2798,"ona":2799,"Ġnamed":2800,"ĠJapan":2801,"Ġattemp":2802,"Ġpercent":2803,"ĠPremier":2804,"asing":2805,"Ġimage":2806,"But":2807,"ises":2808,"Ġele":2809,"ailable":2810,"Ġindust":2811,"like":2812,"ĠWil":2813,"Ġhelped":2814,"fully":2815,"verage":2816,"Ġimages":2817,"Ġpersonal":2818,"ĠChristmas":2819,"Ġidea":2820,"iant":2821,"Ġattacks":2822,"ĠBlack":2823,"ĠOlymp":2824,"Ġperform":2825,"itional":2826,"Ġfail":2827,"ĠBo":2828,"iod":2829,"ills":2830,"Ġeduc":2831,"uce":2832,"ĠRob":2833,"Ġexperience":2834,"Ġhon":2835,"Ġreb":2836,"Ġlawy":2837,"Ġdeep":2838,"ping":2839,"Ġcirc":2840,"ĠCor":2841,"Ġstore":2842,"Ġ27":2843,"ĠSecretary":2844,"ĠLabour":2845,"ese":2846,"Ġlab":2847,"Ġlaws":2848,"ĠFlorida":2849,"uit":2850,"ĠMartin":2851,"Ġvir":2852,"arent":2853,"Ġdro":2854,"ston":2855,"ĠNow":2856,"Ġleaving":2857,".'\"":2858,"Ġcand":2859,"ĠMal":2860,"Ġpun":2861,"Ġrather":2862,"Ġcomput":2863,"Ġthemselves":2864,"ĠScott":2865,"EO":2866,"oid":2867,"Ġwitness":2868,"ĠCoun":2869,"Ġneeds":2870,"Ġsingle":2871,"Ġconfirmed":2872,"Ġimmigr":2873,"Ġste":2874,"ĠCong":2875,"Ġhappy":2876,"ĠAfgh":2877,"overnment":2878,"Ġshooting":2879,"Ġrace":2880,"Ġdev":2881,"Ġunderstand":2882,"...":2883,"Ġproperty":2884,"yan":2885,"Ġagency":2886,"Ġphoto":2887,"ĠTra":2888,"Ġmodel":2889,"irst":2890,"ĠLib":2891,"ĠRes":2892,"Ġneg":2893,"Ġinjuries":2894,"Ġallowed":2895,"Ġservices":2896,"Ġmarried":2897,"Ġsenior":2898,"ding":2899,"hood":2900,"Ġbillion":2901,"hire":2902,"ival":2903,"Ġresearch":2904,"ya":2905,"ĠApp":2906,"Ġvill":2907,"Ġworth":2908,"Ġactually":2909,"Ġkey":2910,"Ġindivid":2911,"Ġlink":2912,"Ġstreet":2913,"upt":2914,"Ġeye":2915,"ĠTwo":2916,"ĠFer":2917,"Ġvictory":2918,"ĠRussian":2919,"Ġdanger":2920,"riage":2921,"Ġens":2922,"Ġtrack":2923,"Ġcamera":2924,"Ġperiod":2925,"ergy":2926,"ĠBBC":2927,"Ġlonger":2928,"Ġinjured":2929,"Ġavailable":2930,"razil":2931,"ze":2932,"eds":2933,"Ġworkers":2934,"ĠSan":2935,"iron":2936,"Ġhowever":2937,"Ġloss":2938,"Ġfat":2939,"ental":2940,"Ġpract":2941,"Ġposition":2942,"On":2943,"Ġself":2944,"ĠHospital":2945,"mar":2946,"Ġdress":2947,"Ġbegin":2948,"oura":2949,"ander":2950,"Ġmusic":2951,"ĠSchool":2952,"ĠIS":2953,"ogle":2954,"Ġkept":2955,"body":2956,"Ġsat":2957,"Ġdiscuss":2958,"Ġprofess":2959,"Ġhearing":2960,"ĠSim":2961,"ization":2962,"ken":2963,"Ġbank":2964,"Ġfield":2965,"Ġran":2966,"Ġround":2967,"Ġbiggest":2968,"ĠAfghan":2969,"Ġz":2970,"Ġpark":2971,"Ġstation":2972,"ĠStreet":2973,"Ġinfl":2974,"Ġpictures":2975,"Ġwat":2976,"Ġregion":2977,"Ġrelease":2978,"Ġdraw":2979,"ky":2980,"Ġborn":2981,"Ġreason":2982,"Ġreturned":2983,"ĠAmericans":2984,"Ġprotect":2985,"back":2986,"Ġmag":2987,"Ġgone":2988,"Ġcarried":2989,"Ġdrink":2990,"Ġwarned":2991,"Ġabuse":2992,"ĠBrown":2993,"Ġprevent":2994,"Ġquickly":2995,"ĠSu":2996,"ogn":2997,"Ġsun":2998,"Ġfederal":2999,"Ġanti":3000,"Ġcrow":3001,"Ġlooks":3002,"Ġpatients":3003,"ellig":3004,"Ġmatter":3005,"ĠArs":3006,"Ġalleg":3007,"Ġdrugs":3008,"Ġleading":3009,"Ġprivate":3010,"Ġsle":3011,"Ġrac":3012,"ĠPrime":3013,"Ġvote":3014,"chers":3015,"berg":3016,"Ġtakes":3017,"Ġseek":3018,"Ġfamous":3019,"ĠBrazil":3020,"Ġperfor":3021,"ashion":3022,"Ġsituation":3023,"rey":3024,"orter":3025,"itor":3026,"Ġreach":3027,"Ġsepar":3028,"Ġdisp":3029,"ĠWilliams":3030,"Ġpage":3031,"ĠChris":3032,"Ġbul":3033,"Ġabs":3034,"Ġweapons":3035,"SA":3036,"Ġsister":3037,"Ġ28":3038,"Ġcharac":3039,"ĠEnglish":3040,"undreds":3041,"Ġcomplain":3042,"oo":3043,"ministration":3044,"owers":3045,"Ġansw":3046,"Ġhair":3047,"Ġattorney":3048,"Ġcalls":3049,"Ġcapital":3050,"Ġdriver":3051,"ift":3052,"engers":3053,"acted":3054,"Ġbox":3055,"Ġphotos":3056,"Ġinjury":3057,"Ġopportun":3058,"hest":3059,"alled":3060,"Ġprovide":3061,"ĠCouncil":3062,"Ġbeaut":3063,"Ġgoals":3064,"Ġpolicy":3065,"Ġeveryone":3066,"Ġphotograph":3067,"epend":3068,"play":3069,"Ġaverage":3070,"omin":3071,"Ġallow":3072,"Ġtotal":3073,"Ġmult":3074,"Ġdata":3075,"ĠBer":3076,"Ġissues":3077,"Ġpressure":3078,"Ġbroad":3079,"Ġ29":3080,"ĠGen":3081,"Ġdoctors":3082,"Ġdoub":3083,"ugh":3084,"ĠVict":3085,"uclear":3086,"Ġcentre":3087,"Ġcreated":3088,"Ġglob":3089,"Ġexecutive":3090,"tr":3091,"rovers":3092,"Ġcaught":3093,"oul":3094,"ĠGermany":3095,"Ġ60":3096,"inese":3097,"ĠPrince":3098,"Ġdemand":3099,"Ġconvicted":3100,"oming":3101,"Ġchair":3102,"Ġdisease":3103,"Ġcouldn":3104,"Ġassist":3105,"ĠGoogle":3106,"When":3107,"Ġvar":3108,"urt":3109,"Ġquar":3110,"ĠScot":3111,"shire":3112,"Ġbehav":3113,"vision":3114,"ĠDay":3115,"Ġcannot":3116,"Ġcharge":3117,"Ġcrew":3118,"Ġcult":3119,"Ġbattle":3120,"11":3121,"cel":3122,"gent":3123,"ny":3124,"Ġbomb":3125,"Ġoil":3126,"ĠBro":3127,"Ġentire":3128,"Ġbas":3129,"de":3130,"orthern":3131,"Ġabove":3132,"ider":3133,"eat":3134,"onse":3135,"Ġ196":3136,"Ġtrip":3137,"Ġspeak":3138,"ĠRichard":3139,"Ġjail":3140,"Ġincluded":3141,"Ġcontinued":3142,"Ġfeet":3143,"Ġisn":3144,"Ġlaunch":3145,"Ġstorm":3146,"ĠAfrican":3147,"Ġrob":3148,"ificant":3149,"Ġten":3150,"Ġmob":3151,"Ġlaunched":3152,"aud":3153,"Ġpenal":3154,"Ġrefer":3155,"Ġfirm":3156,"ushed":3157,"Ġflood":3158,"Ġoppos":3159,"orted":3160,"ĠBel":3161,"Ġoffer":3162,"ĠTur":3163,"oving":3164,"Ġaud":3165,"onstr":3166,"Ġboss":3167,"ĠTom":3168,"Ġunc":3169,"Ġphys":3170,"Ġsurpr":3171,"icide":3172,"ural":3173,"ĠLou":3174,"Ġwhole":3175,"action":3176,"Ġpoll":3177,"Ġamb":3178,"Ġtem":3179,"ĠAustralian":3180,"ĠAssoci":3181,"Ġesp":3182,"Ġpil":3183,"Ġnorm":3184,"ĠPer":3185,"Ġfinanc":3186,"Ġport":3187,"Ġmarriage":3188,"Ġextra":3189,"Ġtechnology":3190,"roy":3191,"Ġalthough":3192,"ĠKen":3193,"Ġsurger":3194,"Ġherself":3195,"amb":3196,"Ġstates":3197,"Ġpassed":3198,"Ġperforman":3199,"Ġstra":3200,"Ġconst":3201,"ĠMexico":3202,"fect":3203,"Ġcred":3204,"riff":3205,"Ġhear":3206,"ĠMore":3207,"Ġminister":3208,"Ġbuy":3209,"Ġfighting":3210,"Ġpublished":3211,"han":3212,"het":3213,"oper":3214,"500":3215,"Ġnorth":3216,"ĠEv":3217,"Ġtitle":3218,"gn":3219,"ĠTe":3220,"Ġrout":3221,"Ġsurve":3222,"Ġletter":3223,"Ġresponse":3224,"Ġcheck":3225,"rid":3226,"Ġmat":3227,"Ġconference":3228,"ĠHealth":3229,"Ġpreviously":3230,"Ġwearing":3231,"oms":3232,"Ġprevious":3233,"Ġeconomic":3234,"Ġimmediately":3235,"ode":3236,"Ġscient":3237,"oint":3238,"Ġbelieves":3239,"pro":3240,"Ġpiec":3241,"iff":3242,"ĠNot":3243,"Ġcompan":3244,"Ġpred":3245,"ĠLu":3246,"Ġcriminal":3247,"ĠBy":3248,"ĠChampions":3249,"down":3250,"ris":3251,"Ġnuclear":3252,"ĠSir":3253,"cement":3254,"Ġconditions":3255,"Ġdogs":3256,"Ġusers":3257,"Ġresults":3258,"Ġsentence":3259,"ply":3260,"Ġtable":3261,"Ġdoor":3262,"cher":3263,"oph":3264,"ify":3265,"Ġweight":3266,"ĠVal":3267,"Ġbuilt":3268,"Ġdetails":3269,"ĠKorea":3270,"Ġfemale":3271,"ID":3272,"Ġcat":3273,"ĠJe":3274,"ĠX":3275,"Ġsal":3276,"ĠQu":3277,"Ġdenied":3278,"Ġcandid":3279,"40":3280,"gal":3281,"onald":3282,"chie":3283,"Ġshare":3284,"Ġresc":3285,"Ġcreate":3286,"Ġquestions":3287,"My":3288,"Ġnon":3289,"Ġrange":3290,"Ġworks":3291,"Ġaddress":3292,"ĠCongress":3293,"Ġcru":3294,"Ġtouch":3295,"ĠTo":3296,"ĠPart":3297,"Ġcomb":3298,"Ġdriving":3299,"Ġtrou":3300,"ĠTex":3301,"Ġpassengers":3302,"Ġborder":3303,"ĠChinese":3304,"Ġscored":3305,"lands":3306,"ends":3307,"Ġforeign":3308,"Ġcommon":3309,"Ġcontributed":3310,"Ġtru":3311,"ĠMur":3312,"Ġjournal":3313,"ability":3314,"Ġsouth":3315,"Ġelection":3316,"ĠCenter":3317,"urb":3318,"ĠDo":3319,"emy":3320,"Ġappeal":3321,"Ġrare":3322,"Ġassault":3323,"Ġowner":3324,"Ġcell":3325,"eated":3326,"Ġvers":3327,"Ġren":3328,"Ġgas":3329,"ecess":3330,"ĠFar":3331,"Ġquite":3332,"raine":3333,"Ġemb":3334,"ĠArsenal":3335,"pm":3336,"yc":3337,"Ġallegations":3338,"men":3339,"oman":3340,"Ġcoach":3341,"ĠComm":3342,"empt":3343,"Ġexam":3344,"icket":3345,"Ġapparent":3346,"Ġfloor":3347,"iled":3348,"Ġstage":3349,"istic":3350,"ample":3351,"ĠAnother":3352,"Ġraised":3353,"Ġconsider":3354,"Ġhomes":3355,"ĠScotland":3356,"bur":3357,"estern":3358,"Ġgiving":3359,"Ġcontrovers":3360,"Ġgrow":3361,"ecially":3362,"Ġcars":3363,"ĠGovernment":3364,"Ġspending":3365,"Ġcris":3366,"Ġinstead":3367,"ĠTexas":3368,"Ġcard":3369,"Ġconsum":3370,"Ġended":3371,"Ġspoke":3372,"Ġwords":3373,"Ġagreed":3374,"ishing":3375,"ada":3376,"Ġsource":3377,"overy":3378,"Ġsurgery":3379,"ees":3380,"rab":3381,"ĠBur":3382,"ĠFore":3383,"akistan":3384,"Ġdamage":3385,"Ġtroops":3386,"Ġmind":3387,"Ġrev":3388,"Ġfollowed":3389,"Ġextreme":3390,"Ġdemonstr":3391,"hol":3392,"Ġcash":3393,"Ġstre":3394,"airs":3395,"come":3396,"orks":3397,"Ġpartner":3398,"ĠLee":3399,"Ġrestaur":3400,"based":3401,"sy":3402,"Ġgold":3403,"cep":3404,"Ġattention":3405,"Ġrecogn":3406,"elligence":3407,"inks":3408,"ĠTod":3409,"Ġweather":3410,"ĠSpe":3411,"Ġhappen":3412,"espite":3413,"ĠMuslim":3414,"ho":3415,"Ġmis":3416,"ĠAct":3417,"Ġeither":3418,"aves":3419,"ĠOffic":3420,"15":3421,"bre":3422,"ĠHall":3423,"Ġjoined":3424,"Ġespecially":3425,"ires":3426,"enger":3427,"anda":3428,"iction":3429,"Ġpeace":3430,"Ġaim":3431,"Ġimpact":3432,"Ġchem":3433,"Ġenter":3434,"Ġpotential":3435,"olution":3436,"Ġ2007":3437,"Ġwinning":3438,"Ġsignificant":3439,"Ġconsidered":3440,"Ġbag":3441,"Ġmill":3442,"ado":3443,"ĠPort":3444,"rief":3445,"Ġgoes":3446,"Ġrate":3447,"ude":3448,"ĠCarol":3449,"Ġdeliver":3450,"Ġprobably":3451,"night":3452,"Ġbod":3453,"Ġver":3454,"Ġbrain":3455,"Ġfit":3456,"Ġreview":3457,"ĠPakistan":3458,"Ġevents":3459,"ĠISIS":3460,"Ġpoor":3461,"ica":3462,"Ġlived":3463,"Ġparts":3464,"gypt":3465,"Ġindustry":3466,"ule":3467,"Ġbid":3468,"ĠCamp":3469,"Ġaccom":3470,"ancy":3471,"Ġspeech":3472,"Ġnewsp":3473,"ograp":3474,"Ġencoura":3475,"Ġvan":3476,"Ġsuit":3477,"Ġregular":3478,"set":3479,"ĠAuthor":3480,"ĠRod":3481,"ĠOther":3482,"Ġille":3483,"Ġshown":3484,"Ġstopped":3485,"Ġsil":3486,"Ġseems":3487,"che":3488,"erc":3489,"Ġamount":3490,"Ġcontract":3491,"Ġtowards":3492,"Ġclos":3493,"ibly":3494,"Ġjobs":3495,"Ġprice":3496,"Ġincrease":3497,"Ġkids":3498,"ĠDaniel":3499,"ĠiP":3500,"ique":3501,"iger":3502,"ĠUkraine":3503,"inary":3504,"Ġwide":3505,"vest":3506,"Ġfra":3507,"ĠEgypt":3508,"Ġexperts":3509,"Ġgeneral":3510,"Ġvehicle":3511,"Ġhundreds":3512,"ension":3513,"ĠClin":3514,"ca":3515,"mark":3516,"Ġpregn":3517,"Ġoccur":3518,"Ġanimal":3519,"ini":3520,"olf":3521,"Ġjud":3522,"Ġaftern":3523,"Ġtraff":3524,"Ġremember":3525,"Ġcoast":3526,"Ġchallenge":3527,"bor":3528,"Ġpet":3529,"ament":3530,"Ġcontact":3531,"Ġresidents":3532,"Ġeffort":3533,"Ġdiagn":3534,"Ġfast":3535,"Ġloved":3536,"ounts":3537,"Ġtreated":3538,"Ġnetwork":3539,"ground":3540,"ĠMy":3541,"Ġproject":3542,"Ġwouldn":3543,"Ġholiday":3544,"Ġhour":3545,"Ġsurf":3546,"Ġfigures":3547,"Ġcompanies":3548,"Ġafternoon":3549,"ae":3550,"viron":3551,"ĠDef":3552,"ĠPeter":3553,"Ġ31":3554,"Ġestim":3555,"ĠOffice":3556,"astic":3557,"ĠUnion":3558,"Ġgrowing":3559,"ĠFranc":3560,"Ġschools":3561,"ĠIndia":3562,"Ġattr":3563,"Ġreportedly":3564,"istrict":3565,"Ġcrowd":3566,"Ġachie":3567,"earchers":3568,"Ġshowing":3569,"Ġcaptain":3570,"ĠJackson":3571,"orry":3572,"Ġpul":3573,"ĠMany":3574,"ĠKe":3575,"Ġcomputer":3576,"rif":3577,"Ġunf":3578,"Ġscore":3579,"Ġrules":3580,"ĠAfghanistan":3581,"Ġfinancial":3582,"Ġcrisis":3583,"Ġtweet":3584,"Ġmist":3585,"ĠBay":3586,"ĠKim":3587,"Ġchanged":3588,"ĠLord":3589,"Ġ&":3590,"inger":3591,"Ġdecl":3592,"ĠQueen":3593,"urning":3594,"Ġalone":3595,"ĠJones":3596,"Ġoffered":3597,"Ġaged":3598,"Ġstruck":3599,"ĠThomas":3600,"Ġreform":3601,"Ġfinally":3602,"Ġindic":3603,"Ġsnow":3604,"ki":3605,"ĠDespite":3606,"Ġintro":3607,"Ġsurround":3608,"Ġrefused":3609,"Ġemerged":3610,"Ġfocus":3611,"Ġhous":3612,"Ġoperation":3613,"Ġbase":3614,"Ġinqu":3615,"Ġmater":3616,"Ġdin":3617,"Ġitem":3618,"Ġwarning":3619,"Ġissued":3620,"isl":3621,"rian":3622,"Ġkick":3623,"Ġefforts":3624,"craft":3625,"Ġtrib":3626,"Ġobs":3627,"ĠSur":3628,"ĠAndrew":3629,"Ġsell":3630,"Ġgang":3631,"Ġopening":3632,"oes":3633,"Ġfashion":3634,"vert":3635,"ĠOp":3636,"TV":3637,"Ġsport":3638,"outhern":3639,"Ġsimply":3640,"Ġcharacter":3641,"Ġpan":3642,"ĠMic":3643,"ĠCons":3644,"sex":3645,"Ġbrand":3646,"Ġfaces":3647,"Ġchanges":3648,"ĠJustice":3649,"while":3650,"Ġtemper":3651,"ĠMill":3652,"istry":3653,"Ġbroke":3654,"ĠSal":3655,"Ġshock":3656,"Ġadding":3657,"duced":3658,"Ġsuggested":3659,"ĠAngeles":3660,"aed":3661,"liam":3662,"atory":3663,"asons":3664,"Ġep":3665,"ĠLos":3666,"Ġsentenced":3667,"Ġsym":3668,"Ġappears":3669,"Ġtelevision":3670,"bl":3671,"Ġcit":3672,"ĠChe":3673,"Ġdrive":3674,"ĠFirst":3675,"ĠOl":3676,"ounded":3677,"Ġemergency":3678,"fort":3679,"ilities":3680,"illed":3681,"Ġcalling":3682,"ĠSyrian":3683,"Ġpenalty":3684,"hib":3685,"iles":3686,"ĠCam":3687,"Ġterms":3688,"Ġfellow":3689,"Ġtwice":3690,"iation":3691,"well":3692,"Ġstab":3693,"Ġhistor":3694,"liament":3695,"Ġwond":3696,"ĠRed":3697,"Ġenergy":3698,"ĠSecurity":3699,"Ġeventually":3700,"vironment":3701,"lant":3702,"ĠMary":3703,"ĠCap":3704,"Ġadministration":3705,"Ġsuffering":3706,"Ġmiddle":3707,"Ġcouncil":3708,"ĠLouis":3709,"ram":3710,"Ġpack":3711,"ande":3712,"ĠHarry":3713,"HS":3714,"Ġairl":3715,"Ġnearby":3716,"oria":3717,"ĠCle":3718,"ĠWales":3719,"ĠInst":3720,"Ġsecret":3721,"Ġhigher":3722,"Ġeducation":3723,"orters":3724,"ression":3725,"Ġrequest":3726,"Ġeconomy":3727,"Ġparticularly":3728,"Ġperformance":3729,"Ġsong":3730,"alls":3731,"Ġjailed":3732,"Ġtrust":3733,"ĠAnn":3734,"Ġeyes":3735,"nder":3736,"ĠWood":3737,"Ġcosts":3738,"Ġavoid":3739,"ares":3740,"gen":3741,"ĠTimes":3742,"adium":3743,"Ġindepend":3744,"Ġmoving":3745,"Ġlik":3746,"add":3747,"ĠDon":3748,"Ġremoved":3749,"Ġimprove":3750,"Ġglobal":3751,"As":3752,"Ġice":3753,"Ġlack":3754,"ĠNor":3755,"Ġcustomers":3756,"Ġwed":3757,"Ġbought":3758,"ĠMatt":3759,"Ġattend":3760,"Ġensure":3761,"Ġsize":3762,"Ġ2006":3763,"Ġopened":3764,"Ġtelling":3765,"Ġsquad":3766,"Ġsens":3767,"Ġattempt":3768,"Ġdefend":3769,"Ġconcerns":3770,"Ġidentified":3771,"Ġinflu":3772,"12":3773,"Ġpret":3774,"ĠSpain":3775,"Ġswim":3776,"Ġstriker":3777,"Ġlawyer":3778,"gl":3779,"Ġperfect":3780,"Ġminute":3781,"Ġdisplay":3782,"Ġfourth":3783,"Ġspeed":3784,"Ġopportunity":3785,"ĠClinton":3786,"Ġpo":3787,"rap":3788,"Ġsea":3789,"Ġemot":3790,"otten":3791,"That":3792,"nor":3793,"Ġpers":3794,"Ġsave":3795,"ĠItaly":3796,"Ġcenter":3797,"Ġordered":3798,"Ġdesigned":3799,"ĠRepublican":3800,"mates":3801,"unk":3802,"Ġexample":3803,"Ġspread":3804,"Ġclean":3805,"Ġquarter":3806,"Ġbodies":3807,"gic":3808,"rel":3809,"aked":3810,"Ġactions":3811,"Ġdeaths":3812,"Ġbra":3813,"ils":3814,"ĠBill":3815,"Ġisland":3816,"Ġrise":3817,"ials":3818,"Ġrape":3819,"Ġseeing":3820,"lined":3821,"Ġstreets":3822,"itz":3823,"ighters":3824,"ĠIndian":3825,"ĠEarth":3826,"light":3827,"Ġaward":3828,"ĠReal":3829,"ersey":3830,"Ġdocument":3831,"Ġsleep":3832,"Ġarm":3833,"Ġship":3834,"Ġelse":3835,"Ġmillions":3836,"Ġopt":3837,"utin":3838,"imb":3839,"elly":3840,"Ġspend":3841,"atural":3842,"ĠRomney":3843,"And":3844,"Ġhero":3845,"iful":3846,"Ġattacked":3847,"Ġnumbers":3848,"Ġsoldiers":3849,"Ġteacher":3850,"iling":3851,"ading":3852,"Ġdream":3853,"ĠDuring":3854,"Ġrepeated":3855,"Ġexperi":3856,"Ġresponsible":3857,"sych":3858,"vent":3859,"ĠGreen":3860,"ĠJos":3861,"Ġvo":3862,"Ġ90":3863,"Ġbal":3864,"Ġfre":3865,"Ġdark":3866,"usion":3867,"Ġdefeat":3868,"Ġprotest":3869,"Ġspir":3870,"Ġcharity":3871,"Ġmanaged":3872,"Ġhy":3873,"Ġexact":3874,"Ġriv":3875,"Ġonto":3876,"ĠGold":3877,"Ġchamp":3878,"Ġworst":3879,"Ġord":3880,"Ġteams":3881,"Ġanimals":3882,"ipped":3883,"Ġmagaz":3884,"isters":3885,"Ġarch":3886,"Ġcentral":3887,"ĠCrown":3888,"ero":3889,"Ġmach":3890,"Ġaccept":3891,"Ġmission":3892,"ĠJohnson":3893,"Ġlevels":3894,"Ġoriginal":3895,"irt":3896,"ĠJon":3897,"Ġjury":3898,"Ġplanned":3899,"bola":3900,"Ġmobile":3901,"dney":3902,"Ġunable":3903,"Ġappearance":3904,"Ġhighest":3905,"ĠRobert":3906,"ĠIslamic":3907,"Ġdate":3908,"Ġscreen":3909,"Ġaccep":3910,"Ġevening":3911,"Ġsuspect":3912,"Ġfavour":3913,"ĠHolly":3914,"Ġdangerous":3915,"val":3916,"ani":3917,"ites":3918,"akers":3919,"Ġapolog":3920,"ĠMadrid":3921,"ĠNHS":3922,"Ġdoz":3923,"Ġmessages":3924,"Ġvillage":3925,"Ġsales":3926,"ĠMel":3927,"Ġmeant":3928,"Ġserved":3929,"ĠArmy":3930,"Ġboys":3931,"Ġpur":3932,"aches":3933,"ĠEbola":3934,"Ġwritten":3935,"ĠApple":3936,"iple":3937,"ucky":3938,"Ġopposition":3939,"Ġnewspaper":3940,"icks":3941,"ĠLaw":3942,"Ġconc":3943,"Ġchurch":3944,"Ġeffect":3945,"Ġengine":3946,"inson":3947,"Ġrelig":3948,"Ġaircraft":3949,"Ġpopulation":3950,"Ġproducts":3951,"Ġimmigration":3952,"Ġitself":3953,"Ġlargest":3954,"Ġcerem":3955,"arian":3956,"ĠAtlant":3957,"Ġful":3958,"omen":3959,"olute":3960,"Ġcollect":3961,"za":3962,"Ġreached":3963,"Ġheavy":3964,"ĠArab":3965,"ĠIre":3966,"ĠGreat":3967,"Ġintelligence":3968,"Ġsched":3969,"Ġsevere":3970,"ĠFA":3971,"ĠStud":3972,"ĠSydney":3973,"Online":3974,"Ġstraight":3975,"Ġund":3976,"Ġsense":3977,"ari":3978,"ĠDis":3979,"hold":3980,"Ġfair":3981,"ĠMer":3982,"Ġbecoming":3983,"Ġcitiz":3984,"gers":3985,"Ġfle":3986,"ago":3987,"ĠOf":3988,"ĠFormer":3989,"Ġinternet":3990,"ĠIreland":3991,"cial":3992,"rying":3993,"Ġpositive":3994,"haps":3995,"Ġpaper":3996,"Ġsuicide":3997,"umped":3998,"Ġsigned":3999,"Ġwel":4000,"Ġinn":4001,"ĠGod":4002,"Ġ2005":4003,"cohol":4004,"Ġcompetition":4005,"Ġlinked":4006,"gree":4007,"ildren":4008,"Ġincludes":4009,"ĠSenate":4010,"?'":4011,"Ġbott":4012,"Ġlosing":4013,"ĠKn":4014,"Ġagre":4015,"Ġgets":4016,"Ġrain":4017,"Ġhelping":4018,"Ġspecific":4019,"Ġhopes":4020,"Ġpulled":4021,"por":4022,"ceed":4023,"ĠWal":4024,"ĠJudge":4025,"Ġdecades":4026,"ĠReporter":4027,"ania":4028,"ams":4029,"Ġclosed":4030,"Ġconserv":4031,"Ġwalking":4032,"Ġwait":4033,"Ġwild":4034,"Ġready":4035,"Ġstyle":4036,"illa":4037,"ĠNet":4038,"Ġshared":4039,"ĠInter":4040,"Ġ45":4041,"Ġestab":4042,"ĠToday":4043,"Ġfine":4044,"oud":4045,"ĠDun":4046,"aging":4047,"Ġ32":4048,"Ġblock":4049,"Ġdefense":4050,"Ġbroken":4051,"St":4052,"stitute":4053,"Ġtalks":4054,"bit":4055,"raw":4056,"ighter":4057,"ction":4058,"Ġassoci":4059,"Ġgirlfriend":4060,"ears":4061,"Ġincreasing":4062,"stitution":4063,"Ġthroughout":4064,"Ġskin":4065,"Ġapartment":4066,"Ġfan":4067,"ĠSand":4068,"Ġarg":4069,"Ġasking":4070,"Ġolder":4071,"Ġcounter":4072,"ĠCharl":4073,"asc":4074,"ĠSn":4075,"Ġgay":4076,"Ġang":4077,"ĠGood":4078,"Ġterm":4079,"ĠCommission":4080,"Ġprior":4081,"can":4082,"ties":4083,"ĠSar":4084,"ĠBal":4085,"usive":4086,"ĠJul":4087,"elled":4088,"Ġopin":4089,"Ġwaiting":4090,"ĠSuper":4091,"woman":4092,"ĠRos":4093,"Ġspl":4094,"Ġsports":4095,"ector":4096,"ampton":4097,"Ġgrad":4098,"Ġreporters":4099,"Ġphotograp":4100,"Ġrecords":4101,"Ġmovie":4102,"ĠWat":4103,"Ġleague":4104,"bert":4105,"Ġincred":4106,"Ġmodern":4107,"Ġconcerned":4108,"Ġfired":4109,"ĠAri":4110,"Ġplaced":4111,"Ġenfor":4112,"Ġlegisl":4113,"jects":4114,"ena":4115,"Ġbud":4116,"Ġbeg":4117,"Ġroll":4118,"Ġ35":4119,"Ġflag":4120,"Ġraise":4121,"Ġbenefits":4122,"lor":4123,"Ġplanning":4124,"Ġfigure":4125,"Ġmount":4126,"Ġlower":4127,"Ġnecess":4128,"ĠSince":4129,"ĠThese":4130,"ĠGar":4131,"Ġsuspended":4132,"Ġaid":4133,"itt":4134,"Ġcompared":4135,"iate":4136,"rang":4137,"isions":4138,"Ġmajority":4139,"Ġruled":4140,"Ġparticip":4141,"Ġsend":4142,"Ġlose":4143,"ĠLa":4144,"Ġtrue":4145,"Ġtyp":4146,"iced":4147,"aining":4148,"Ġcollection":4149,"Ġtalking":4150,"Ġcaptured":4151,"ĠStep":4152,"Ġcontinues":4153,"ĠPeople":4154,"200":4155,"wide":4156,"ements":4157,"aine":4158,"Ġcentury":4159,"angu":4160,"ĠArgent":4161,"ĠService":4162,"ĠMean":4163,"What":4164,"jected":4165,"rim":4166,"ĠMet":4167,"âĢĿ":4168,"ĠDet":4169,"ĠMailOnline":4170,"Ġfeatures":4171,"fl":4172,"arm":4173,"thony":4174,"Ġ70":4175,"Ġexplos":4176,"Ġstarting":4177,"ĠParis":4178,"Ġcompletely":4179,"bury":4180,"upp":4181,"ĠVir":4182,"Ġmotor":4183,"Ġdocuments":4184,"Ġdevast":4185,"oned":4186,"Ġdig":4187,"Ġshut":4188,"arden":4189,"Ġ36":4190,"Ġairport":4191,"ĠSoc":4192,"Ġeat":4193,"ube":4194,"Ġcommunic":4195,"Ġstanding":4196,"Ġsem":4197,"Ġlay":4198,"ĠFrank":4199,"Ġinsur":4200,"Ġregime":4201,"ĠBarack":4202,"Ġdetermin":4203,"ĠOlympic":4204,"Ġdropped":4205,"Ġitems":4206,"house":4207,"oz":4208,"Ġcarrying":4209,"ĠMiddle":4210,"NA":4211,"Ġband":4212,"Ġowners":4213,"Ġincreased":4214,"Ch":4215,"ha":4216,"ala":4217,"ĠNick":4218,"Ġexist":4219,"Ġjump":4220,"Ġreceive":4221,"Ġfeeling":4222,"useum":4223,"Ġholding":4224,"Ġsuccessful":4225,"ĠKorean":4226,"Ġmassive":4227,"Ġillegal":4228,"Ġfreed":4229,"ĠSun":4230,"rie":4231,"andal":4232,"ĠChurch":4233,"ological":4234,"ĠAtt":4235,"Ġchairman":4236,"hab":4237,"resh":4238,"ĠAlthough":4239,"Ġinsisted":4240,"month":4241,"IDEO":4242,"ĠFrancis":4243,"19":4244,"uman":4245,"ĠVIDEO":4246,"Ġteenager":4247,"ĠMeanwhile":4248,"ux":4249,"Ġways":4250,"ĠWatch":4251,"ĠOld":4252,"ĠâĢľ":4253,"ella":4254,"Ġputting":4255,"Ġveter":4256,"ĠCharles":4257,"Ġneighbor":4258,"kins":4259,"erve":4260,"Ġsale":4261,"ĠAsh":4262,"unch":4263,"roud":4264,"Ġminor":4265,"Ġstars":4266,"Ġprovided":4267,"Ġfootage":4268,"Ġmaintain":4269,"going":4270,"ein":4271,"mond":4272,"uf":4273,"win":4274,"arily":4275,"cean":4276,"Ġflat":4277,"Ġdebate":4278,"Ġcommitted":4279,"ĠParty":4280,"Ġchampion":4281,"met":4282,"Ġdom":4283,"ĠHill":4284,"Ġath":4285,"sequ":4286,"Ġplaces":4287,"ĠShar":4288,"annel":4289,"Ġversion":4290,"\",\"":4291,"Ġbrief":4292,"Ġpsych":4293,"pping":4294,"âĢĻ,":4295,"ĠUnder":4296,"ĠItal":4297,"Ġsigns":4298,"Ġvisited":4299,"Ġfiled":4300,"Ġtransfer":4301,"Ġwhom":4302,"ĠJim":4303,"ĠAnthony":4304,"Ġeffective":4305,"Ġdepartment":4306,"Ġindividual":4307,"hered":4308,"ĠEU":4309,"Ġargu":4310,"Ġblue":4311,"Ġsupporters":4312,"Ġnormal":4313,"Ġprogress":4314,"Ġrespect":4315,"Ġinvestigators":4316,"Ġdoctor":4317,"Ġdouble":4318,"Ġcollege":4319,"ruction":4320,"Ġfest":4321,"term":4322,"Ġalcohol":4323,"uled":4324,"angers":4325,"ielder":4326,"Ġfacing":4327,"Ġpresidential":4328,"ĠGeorg":4329,"Ġprofessional":4330,"Ġcorn":4331,"ador":4332,"iring":4333,"Ġaffected":4334,"Ġclearly":4335,"Ġseemed":4336,"ĠAssociation":4337,"25":4338,"bridge":4339,"Ġwatching":4340,"Ġpull":4341,"asts":4342,"ĠMac":4343,"ĠMag":4344,"ĠInvest":4345,"Ġprices":4346,"Ġdecade":4347,"ĠProf":4348,"Ġoccas":4349,".,":4350,"ban":4351,"ym":4352,"Ġult":4353,"iser":4354,"ĠHel":4355,"ĠHug":4356,"Ġattended":4357,"Ġjustice":4358,"Ġaware":4359,"Ġsociety":4360,"Ġinitially":4361,"Ġtough":4362,"Ġnatural":4363,"Ġgiant":4364,"ĠRec":4365,"Ġenvironment":4366,"Ġregard":4367,"Ġknows":4368,"Ġeasy":4369,"FA":4370,"Ġcovered":4371,"Ġdrop":4372,"ela":4373,"Ġvac":4374,"ĠOh":4375,"Ġcommittee":4376,"Ġorigin":4377,"ĠGeneral":4378,"Ġwedding":4379,"Ġsick":4380,"Ġsmart":4381,"ĠSpeaking":4382,"Ġmagazine":4383,"cy":4384,"Ġinvestigating":4385,"100":4386,"ont":4387,"ĠPac":4388,"ĠDen":4389,"Ġarmed":4390,"Ġsitting":4391,"Ġdevelopment":4392,"Ġcustody":4393,"castle":4394,"fielder":4395,"ville":4396,"Ġbreat":4397,"Ġfix":4398,"esters":4399,"Ġreasons":4400,"ĠSil":4401,"ĠDar":4402,"ĠKate":4403,"mittee":4404,"Ġscientists":4405,"pson":4406,"ĠPress":4407,"ustr":4408,"ĠVe":4409,"Ġ33":4410,"Ġmyself":4411,"Ġresponsibility":4412,"ĠSteve":4413,"ĠMorgan":4414,"Ġchemical":4415,"yond":4416,"ĠSant":4417,"imately":4418,"Ġword":4419,"Ġbelow":4420,"Ġ80":4421,"Ġapparently":4422,"45":4423,"mate":4424,"atures":4425,"ĠJersey":4426,"iance":4427,"Ġdoubt":4428,"cks":4429,"mail":4430,"uing":4431,"ĠOver":4432,"ission":4433,"Ġactor":4434,"ĠColle":4435,"Ġstrike":4436,"Ġanswer":4437,"Ġestimated":4438,"eed":4439,"ican":4440,"ĠEven":4441,"Ġspark":4442,"udd":4443,"Ġslow":4444,"Ġalongside":4445,"Ġtraffic":4446,"For":4447,"born":4448,"Ġcop":4449,"alys":4450,"Ġmale":4451,"ented":4452,"ĠBoth":4453,"Ġamaz":4454,"iest":4455,"pan":4456,"ĠIr":4457,"emb":4458,"Ġrow":4459,"Ġtests":4460,"Ġartic":4461,"Ġsinger":4462,"had":4463,"life":4464,"Ġsouthern":4465,"anks":4466,"Ġprim":4467,"Ġspotted":4468,"ĠMos":4469,"Ġthinking":4470,"Ġfollow":4471,"ĠJoe":4472,"Ġwindow":4473,"Ġrestaurant":4474,"Ġwonder":4475,"Ġceremony":4476,"chen":4477,"eder":4478,"Ġhurt":4479,"omm":4480,"ĠTal":4481,"igan":4482,"ĠIm":4483,"ĠTheir":4484,"ĠKar":4485,"Ġconduct":4486,"Ġcausing":4487,"Ġbirthday":4488,"rol":4489,"Ġpounds":4490,"Ġhelic":4491,"aped":4492,"Ġuniversity":4493,"ĠNewcastle":4494,"Ġprogramme":4495,"Ġproduct":4496,"Ġhelicop":4497,"inn":4498,"Ġtourn":4499,"outs":4500,"Ġeating":4501,"Ġshel":4502,"Ġkit":4503,"Ġuns":4504,"Ġusually":4505,"Ġclaiming":4506,"ship":4507,"Ġpromot":4508,"Ġlearn":4509,"oe":4510,"Ġgreen":4511,"using":4512,"estic":4513,"Ġexpressed":4514,"apped":4515,"Ġbehavi":4516,"Ġcold":4517,"Ġstun":4518,"ounger":4519,"Ġsometimes":4520,"Ġapproach":4521,"Ġbanned":4522,"Ġbudget":4523,"Ġwid":4524,"Ġdie":4525,"Ġones":4526,"ads":4527,"rage":4528,"ĠWall":4529,"Ġpray":4530,"Ġradio":4531,"Ġpilot":4532,"EW":4533,"Ġnames":4534,"imum":4535,"ĠPost":4536,"Ġarms":4537,"ĠYear":4538,"Ġlocation":4539,"Ġpropos":4540,"Ġbeautiful":4541,"rick":4542,"aries":4543,"ĠBre":4544,"Ġant":4545,"ĠRyan":4546,"Ġ2004":4547,"Ġdefin":4548,"Ġstrate":4549,"arks":4550,"ota":4551,"Ġmedic":4552,"Ġexpert":4553,"Ġdestroy":4554,"Ġpretty":4555,"Ġcatch":4556,"ĠPre":4557,"Ġdeveloped":4558,"ĠCorn":4559,"ĠThen":4560,"athan":4561,"Ġwinner":4562,"ĠCommittee":4563,"Ġexplained":4564,"Ġabsolute":4565,"aeda":4566,"ĠVirgin":4567,"ĠItalian":4568,"inho":4569,"Ġpicked":4570,"Ġpractice":4571,"18":4572,"?\"\"":4573,"ait":4574,"nel":4575,"ĠGroup":4576,"Ġsoft":4577,"encing":4578,"Ġemployees":4579,"Ġescape":4580,"Ġbath":4581,"ĠTer":4582,"Ġrates":4583,"ĠKat":4584,"phone":4585,"othing":4586,"Ġglass":4587,"Ġmidfielder":4588,"ĠPalace":4589,"ashes":4590,"Ġbeach":4591,"Ġneck":4592,"ume":4593,"Ġresign":4594,"ĠIsland":4595,"Ġannual":4596,"Ġillness":4597,"Ġfavor":4598,"14":4599,"ĠHoll":4600,"Ġdevice":4601,"16":4602,"ka":4603,"Ġpool":4604,"keep":4605,"essed":4606,"oston":4607,"Ġclin":4608,"aret":4609,"Ġthreatened":4610,"iqu":4611,"ĠFam":4612,"ĠRad":4613,"ĠRog":4614,"Ġwalked":4615,"Ġvisitors":4616,"Ġcertainly":4617,"board":4618,"ĠVictoria":4619,"aith":4620,"Ġsan":4621,"Ġalive":4622,"ĠRiver":4623,"Ġchampions":4624,"reng":4625,"Ġremained":4626,"Ġvirus":4627,"Ġmultiple":4628,"itude":4629,"ĠBig":4630,"ulated":4631,"ipl":4632,"ĠVan":4633,"gedy":4634,"Ġharm":4635,"known":4636,"ĠHollywood":4637,"Ġign":4638,"Ġsad":4639,"ĠTony":4640,"ĠCast":4641,"ĠDie":4642,"ĠGre":4643,"resp":4644,"encies":4645,"Ġhighly":4646,"Ġruns":4647,"ĠZeal":4648,"Ġviolent":4649,"Ġattempted":4650,"cing":4651,"row":4652,"eless":4653,"ĠBir":4654,"ĠDel":4655,"ĠDown":4656,"Ġclot":4657,"Ġdismiss":4658,"Ġroy":4659,"Ġpatient":4660,"Ġfraud":4661,"Ġic":4662,"Ġyounger":4663,"ourney":4664,"Ġscen":4665,"anging":4666,"Ġcommission":4667,"Ġrequired":4668,"Ġshortly":4669,"ĠBrook":4670,"Ġcast":4671,"Ġcab":4672,"Ġflying":4673,"Ġow":4674,"illing":4675,"ifth":4676,"Ġsuspected":4677,"anny":4678,"Ġpleaded":4679,"Ġchoice":4680,"Ġculture":4681,"hew":4682,"onn":4683,"Ġhun":4684,"Ġvehicles":4685,"Ġbeginning":4686,"ĠInvestig":4687,"Ġpath":4688,"Ġpurch":4689,"ĠDi":4690,"Ġcomfort":4691,"ĠStar":4692,"Ġdelay":4693,"Ġpowerful":4694,"ĠAuthorities":4695,"Ġdiagnosed":4696,"ĠZealand":4697,"ius":4698,"ĠMass":4699,"acts":4700,"ĠCost":4701,"ellow":4702,"Ġadm":4703,"Ġfinding":4704,"Ġleadership":4705,"Ġrescue":4706,"Ġextremely":4707,"Ġpregnant":4708,"Ġfully":4709,"rect":4710,"ĠTim":4711,"Ġgives":4712,"ĠBoston":4713,"ĠHen":4714,"Ġsuspic":4715,"Ġhealthy":4716,"Ġdivor":4717,"Ġcircum":4718,"Ġfal":4719,"Ġlangu":4720,"ĠLew":4721,"Ġability":4722,"ĠChief":4723,"Ġappl":4724,"ĠWeb":4725,"Ġpolitic":4726,"orrow":4727,"Ġactivity":4728,"ĠRepublicans":4729,"Ġpiece":4730,"Ġcontroversial":4731,"kin":4732,"orial":4733,"ĠPutin":4734,"ĠDu":4735,"ipment":4736,"Ġimag":4737,"Ġestate":4738,"........":4739,"':":4740,"kes":4741,"Ġwest":4742,"Ġfly":4743,"Ġmix":4744,"ĠKh":4745,"Ġresearchers":4746,"ĠBrad":4747,"Ġsites":4748,"ĠChristian":4749,"igg":4750,"ĠBow":4751,"Ġanaly":4752,"ĠWin":4753,"ously":4754,"Ġparties":4755,"Ġ2003":4756,"ĠSpan":4757,"Ġspokeswoman":4758,"empor":4759,"Ġtargeted":4760,"uals":4761,"ĠLiber":4762,"Ġexch":4763,"Ġthank":4764,"Ġ34":4765,"Ġ37":4766,"Ġfaced":4767,"Ġartist":4768,"ĠGrand":4769,"13":4770,"ware":4771,"icit":4772,"ĠBeck":4773,"Ġrecomm":4774,"ĠMcD":4775,"Ġdram":4776,"17":4777,"cious":4778,"law":4779,"Ġfuel":4780,"isation":4781,"Ġconvers":4782,"Ġrecovery":4783,"Ġquality":4784,"Ġdeclined":4785,"Ġconfident":4786,"Ġseparate":4787,"ĠCollege":4788,"zz":4789,"ĠCur":4790,"Ġstands":4791,"ĠBoy":4792,"ĠNorthern":4793,"Ġblog":4794,"ointed":4795,"Ġunderst":4796,"Ġprotests":4797,"ĠCoast":4798,"Ġequipment":4799,"ĠMPs":4800,"Ġbeyond":4801,"riate":4802,"oken":4803,"Ġknife":4804,"Ġactress":4805,"Ġhoping":4806,"Ġachieve":4807,"ĠConserv":4808,"iner":4809,"Ġmental":4810,"ĠLuc":4811,"Ġexerc":4812,"antly":4813,"Ġadvert":4814,"Ġunderw":4815,"gus":4816,"Ġpup":4817,"Ġheav":4818,"ĠGames":4819,"ovic":4820,"Ġconcern":4821,"ĠWilson":4822,"ĠScottish":4823,"Ġagreement":4824,"ĠOhio":4825,"lyn":4826,"ĠHot":4827,"Ġmissed":4828,"Ġtraditional":4829,"Ġvarious":4830,"ĠGeorgia":4831,"Ġbehaviour":4832,"Ġcool":4833,"ĠBank":4834,"ĠJess":4835,"ledge":4836,"Ġoperations":4837,"Ġviews":4838,"ĠMoham":4839,"ĠForeign":4840,"IA":4841,"ĠMost":4842,"ĠBush":4843,"ĠFox":4844,"Ġupon":4845,"ĠForce":4846,"Ġsubject":4847,"Ġdebt":4848,"Ġlearned":4849,"Ġwatched":4850,"Ġoccurred":4851,"Ġtournament":4852,"ĠTory":4853,"Ġvia":4854,"Ġadop":4855,"Ġorganization":4856,"Ġprepared":4857,"Ġsurvey":4858,"!'":4859,"Ġfresh":4860,"lder":4861,"ĠPri":4862,"Ġproced":4863,"ĠKent":4864,"Ġworker":4865,"Ġassaul":4866,"Ġobv":4867,"Ġterrorist":4868,"Ġfears":4869,"CA":4870,"entially":4871,"unte":4872,"Ġrid":4873,"ĠChic":4874,"ancing":4875,"Ġbelong":4876,"Ġcomplex":4877,"ĠCentral":4878,"Ġseeking":4879,"Ġcitizens":4880,"iny":4881,"Ġsending":4882,"aylor":4883,"ĠMike":4884,"ĠII":4885,"ĠYoung":4886,".âĢĻ\"":4887,"Ġcounts":4888,"Ġvoters":4889,"ga":4890,"Ġtom":4891,"Ġspect":4892,"Ġrecovered":4893,"Ġaddition":4894,"break":4895,"Ġvoice":4896,"ER":4897,"ĠPenn":4898,"ĠJer":4899,"Ġperhaps":4900,"Ġguard":4901,"Ġseconds":4902,"Ġsources":4903,"ĠJeff":4904,"Ġdomestic":4905,"mine":4906,"ĠMa":4907,"ĠOs":4908,"Ġscandal":4909,"Ġapplic":4910,"Ġactive":4911,"Ġhanded":4912,"Ġconfl":4913,"bour":4914,"Ġdoll":4915,"utch":4916,"ĠFin":4917,"Ġjourney":4918,"Ġflu":4919,"Ġtweeted":4920,"An":4921,"anded":4922,"ocks":4923,"ictions":4924,"ruit":4925,"Ġamid":4926,"Ġthreats":4927,"Ġdaily":4928,"oma":4929,"Ġseat":4930,"Ġguy":4931,"Ġbuildings":4932,"Ġlawsuit":4933,"ĠFergus":4934,"Ġphysical":4935,"Ġroyal":4936,"Ġproud":4937,"asted":4938,"alition":4939,"lement":4940,"Ġeth":4941,"ula":4942,"ulate":4943,"agues":4944,"Ġrule":4945,"acking":4946,"oked":4947,"ordan":4948,"Ġfinished":4949,"Ġreality":4950,"Ġfarm":4951,"Ġrequire":4952,"ĠTrans":4953,"ĠProfess":4954,"ĠSpanish":4955,"itation":4956,"Ġmort":4957,"ĠTre":4958,"olt":4959,"ĠEll":4960,"ewhere":4961,"Ġscr":4962,"rible":4963,"ĠInternet":4964,"uption":4965,"celona":4966,"ĠMichel":4967,"look":4968,"Ġselling":4969,"ĠMorr":4970,"Ġfort":4971,"Ġstreng":4972,"Ġupset":4973,"Ġrecover":4974,"ensions":4975,"Ġcrimes":4976,"Ġfeed":4977,"aughters":4978,"ĠCarl":4979,"ĠDev":4980,"Ġamazing":4981,"Ġconflict":4982,"aire":4983,"Ġaren":4984,"Ġwealth":4985,"Ġagent":4986,"Ġmeasures":4987,"Ġbenefit":4988,"eing":4989,"Ġcities":4990,"omatic":4991,"ĠHaw":4992,"apt":4993,"Ġunlike":4994,"Ġserve":4995,"Ġmovement":4996,"ĠGuard":4997,"ĠRoad":4998,"Ġprosecutors":4999,"Ġbottom":5000,"At":5001,"Ġtack":5002,"ĠWell":5003,"ĠKelly":5004,"Ġboat":5005,"Ġpassenger":5006,"Ġentered":5007,"Ġelections":5008,"Ġapart":5009,"ength":5010,"run":5011,"Ġwood":5012,"Ġmans":5013,"ĠWestern":5014,"Ġunit":5015,"Ġprem":5016,"ĠArt":5017,"Ġprotesters":5018,"Ġboyfriend":5019,"Ġruling":5020,"Ġfuneral":5021,"Ġsteps":5022,"Ġmeaning":5023,"Ġdramatic":5024,"vention":5025,"Ġbi":5026,"illy":5027,"ols":5028,"ĠWalk":5029,"Ġcomed":5030,"Ġseriously":5031,"Ġrap":5032,"ĠClub":5033,"bell":5034,"pet":5035,"stances":5036,"utions":5037,"Ġtrade":5038,"Ġwarm":5039,"ĠProt":5040,"Ġnegot":5041,"Ġcandidate":5042,"Ġupd":5043,"Ġtragedy":5044,"apping":5045,"Ġvalue":5046,"Ġmeasure":5047,"Ġaudience":5048,"Ġgrowth":5049,"Ġrepeatedly":5050,"Ġpurp":5051,"Ġscheduled":5052,"bon":5053,"pir":5054,"erved":5055,"ĠCath":5056,"ushing":5057,"Ġnote":5058,"Ġearth":5059,"Ġspeaking":5060,"Ġinspired":5061,"ĠTurkey":5062,"ĠEvans":5063,"Ġmaterial":5064,"Ġbail":5065,"Ġring":5066,"Ġaccounts":5067,"Ġflights":5068,"Ġ42":5069,"ĠSports":5070,"Ġrelative":5071,"Ġplanet":5072,"Ġcritical":5073,"Ġtrend":5074,"Ġloan":5075,"ĠCanada":5076,"ĠCarolina":5077,"Ġexactly":5078,"ĠChicago":5079,"secut":5080,"Ġbird":5081,"olen":5082,"Ġeast":5083,"ĠNA":5084,"Ġsecretary":5085,"ĠQaeda":5086,"Ġproduction":5087,"ĠDemocratic":5088,"Ġfailure":5089,"Americ":5090,"ĠMand":5091,"Ġyouth":5092,"ĠThree":5093,"oves":5094,"Ġcuts":5095,"Ġenforcement":5096,"ufact":5097,"do":5098,"rig":5099,"rist":5100,"zona":5101,"ĠAc":5102,"ĠMour":5103,"rier":5104,"Ġanc":5105,"Ġcommer":5106,"Ġpartners":5107,"Ġdefence":5108,"Ġlegs":5109,"Ġaffair":5110,"Ġrecorded":5111,"Ġvolunte":5112,"ĠFerguson":5113,"dom":5114,"Ġlic":5115,"Ġtext":5116,"uche":5117,"Ġconfidence":5118,"Ġmeth":5119,"Ġstandards":5120,"Ġkidn":5121,"Ġclothes":5122,"amin":5123,"rial":5124,"Ġconnection":5125,"ĠLibya":5126,"ĠDiego":5127,"itals":5128,"ĠBob":5129,"ĠLong":5130,"agh":5131,"ĠEver":5132,"Ġprime":5133,"anced":5134,"ĠBarcelona":5135,"ĠAirport":5136,"west":5137,"Ġswe":5138,"Ġbatt":5139,"Ġfighters":5140,"elle":5141,"oking":5142,"Ġadvice":5143,"Ġdifference":5144,"Ġtruck":5145,"dden":5146,"where":5147,"Ġdaughters":5148,"ĠFord":5149,"ĠRam":5150,"Ġsimple":5151,"ĠHarris":5152,"vis":5153,"ĠNations":5154,"Ġunus":5155,"Ġscoring":5156,"Ġcameras":5157,"ĠiPh":5158,"Ġmachine":5159,"Ġbatter":5160,"itan":5161,"Ġserving":5162,"andez":5163,"Ġdetermined":5164,"fit":5165,"Ġcart":5166,"ĠSl":5167,"ĠFrom":5168,"ctions":5169,"Ġsudden":5170,"Ġrelatives":5171,"Ġpaying":5172,"ĠConn":5173,"ĠProsecut":5174,"gar":5175,"Ġlog":5176,"iana":5177,"Ġdesper":5178,"Ġ.,\"(":5179,"Ġdeadly":5180,"ĠCole":5181,"Ġfifth":5182,"ĠCru":5183,"ighted":5184,"ources":5185,"ĠJenn":5186,"ĠOut":5187,"Ġsecure":5188,"Ġremove":5189,"ĠAbd":5190,"Ġlimit":5191,"Ġtype":5192,"ĠDemocrats":5193,"ĠSupreme":5194,"Ġcredit":5195,"Ġinquir":5196,"uchess":5197,"uana":5198,"Ġtoward":5199,"Ġstuff":5200,"ĠHome":5201,"rific":5202,"ĠDam":5203,"Ġplant":5204,"Ġsche":5205,"Ġ48":5206,"Ġteachers":5207,"Ġsurface":5208,"All":5209,"Ġble":5210,"oured":5211,"oles":5212,"ĠPet":5213,"Ġdevices":5214,"Ġprove":5215,"aks":5216,"ĠKev":5217,"Ġadditional":5218,"Ġelectric":5219,"Ġbedroom":5220,"ijuana":5221,"BI":5222,"Our":5223,"Ġnorthern":5224,"ĠMem":5225,"acing":5226,"rip":5227,"ĠWel":5228,"ĠLau":5229,"sey":5230,"Ġworse":5231,"icking":5232,"ptoms":5233,"Ġemail":5234,"ĠSarah":5235,"Ġfalse":5236,"37":5237,"Pe":5238,"Ġir":5239,"ĠCEO":5240,"Ġstret":5241,"ĠKong":5242,"Ġthanks":5243,"izing":5244,"Ġobtain":5245,"Ġdeclared":5246,"ĠStephen":5247,"uated":5248,"Ġsound":5249,"Ġfish":5250,"iment":5251,"ĠFour":5252,"Ġimpl":5253,"ĠAndy":5254,"Ġsupposed":5255,"Ġresponded":5256,"Ġdinner":5257,"Al":5258,"hatt":5259,"pre":5260,"Ġfaith":5261,"Ġhal":5262,"Ġpurs":5263,"Ġstood":5264,"Ġstories":5265,"ecause":5266,"Ġjet":5267,".\"\"\"":5268,"ification":5269,"Ġafford":5270,"Ġdebut":5271,"Ġcelebrate":5272,"ĠArizona":5273,"Ġsides":5274,"ĠTy":5275,"ĠAgency":5276,"agan":5277,"Ġworried":5278,"Ġwilling":5279,"Ġreligious":5280,"iar":5281,"inals":5282,"Ġpitch":5283,"enty":5284,"Ġnations":5285,"oted":5286,"ĠAv":5287,"Ġhaven":5288,"ocal":5289,"Ġbackground":5290,"Ġimpress":5291,"Ġdefender":5292,"Ġdetect":5293,"ployment":5294,"Ġmoments":5295,"ĠEarlier":5296,"know":5297,"Ġsplit":5298,"Ġsort":5299,"Ġbow":5300,"Ġdipl":5301,"ĠTaylor":5302,"ette":5303,"Ġstress":5304,"ĠJam":5305,"Ġwheel":5306,"itely":5307,"Ġrelated":5308,"appy":5309,"Ġstatus":5310,"Ġpromp":5311,"Ġproduced":5312,"ĠIsraeli":5313,"ĠJapanese":5314,"Ġtrouble":5315,"ĠOpen":5316,"Ġspirit":5317,"Ġlanguage":5318,"Every":5319,"mother":5320,"no":5321,"works":5322,"Ġcorr":5323,"ĠSom":5324,"Ġgarden":5325,"Ġprotection":5326,"Ġmemory":5327,"Ġmanagement":5328,"Ġkeeping":5329,"60":5330,"Ġwall":5331,"Ġdiet":5332,"Ġlands":5333,"stein":5334,"ulf":5335,"Ġrising":5336,"ĠGra":5337,"Ġarmy":5338,"ennis":5339,"ĠMiller":5340,"22":5341,"billion":5342,"ader":5343,"urd":5344,"eman":5345,"Ġhasn":5346,"ections":5347,"Ġgovernor":5348,"Ġconfirm":5349,"Ġshopping":5350,"Ġdrinking":5351,"Ġmatches":5352,"ĠHughes":5353,"35":5354,"makers":5355,"Ġbull":5356,"icated":5357,"olic":5358,"ĠLit":5359,"Ġboost":5360,"Ġurged":5361,"Ġfatal":5362,"Ġarticle":5363,"dd":5364,"idel":5365,"Ġoffers":5366,"Ġadult":5367,"Ġmanufact":5368,"ĠCambridge":5369,"Ġfrequ":5370,"Ġnecessary":5371,"bel":5372,"Ġwounded":5373,"Ġcy":5374,"Ġmention":5375,"ĠDistrict":5376,"onym":5377,"ĠMexican":5378,"Ġintroduced":5379,"Ġtemperatures":5380,"Ġangry":5381,"Ġathlet":5382,"Ġhelicopter":5383,"Ġabsolutely":5384,"ĠMourinho":5385,"DA":5386,"Ġcook":5387,"Ġpra":5388,"uses":5389,"ĠJordan":5390,"Ġagree":5391,"ĠStr":5392,"Ġuses":5393,"Ġfinish":5394,"Ġdirectly":5395,"Ġindividuals":5396,"ĠMurray":5397,"gra":5398,"rell":5399,"Ġhosp":5400,"Ġweak":5401,"ĠThose":5402,"Ġmonit":5403,"Ġbright":5404,"Ġacknow":5405,"Ġwinter":5406,"Ġchest":5407,"Ġgreater":5408,"ĠBefore":5409,"Ġrooms":5410,"Ġfeature":5411,"Ġquestioned":5412,"Ġstruggling":5413,"Ġbeauty":5414,"80":5415,"ua":5416,"reck":5417,"lets":5418,"ola":5419,"aden":5420,"ĠMir":5421,"oses":5422,"ĠFoot":5423,"ores":5424,"ĠNiger":5425,"Ġreduce":5426,"Ġcriticism":5427,"ios":5428,"incess":5429,"Ġtow":5430,"aled":5431,"ĠTor":5432,"ĠSky":5433,"ayne":5434,"Ġgat":5435,"Ġwithd":5436,"ĠDuchess":5437,"Ġshocked":5438,"quare":5439,"Ġallowing":5440,"These":5441,"Ġcrashed":5442,"mingham":5443,"Ġdamaged":5444,"Ġepis":5445,"pay":5446,"erm":5447,"Ġnice":5448,"aming":5449,"Ġdisaster":5450,"ĠAli":5451,"Ġinvolve":5452,"Ġtells":5453,"Ġstabbed":5454,"Ġfreedom":5455,"Ġcorner":5456,"ĠProfessor":5457,"OR":5458,"Ġgather":5459,"ĠUN":5460,"luded":5461,"Ġheads":5462,"ĠReg":5463,"Ġsuggests":5464,"Ġrebels":5465,"Ġton":5466,"Ġbom":5467,"ilton":5468,"ĠAg":5469,"Ġdecide":5470,"azi":5471,"Ġassistant":5472,"No":5473,"Ġreven":5474,"ĠSus":5475,"ĠSaud":5476,"ĠEr":5477,"Ġexhib":5478,"ĠStadium":5479,"active":5480,"Ġreceiving":5481,"ĠBeach":5482,"Ġcompleted":5483,"Ġcolleagues":5484,"cow":5485,"ko":5486,"Ã©":5487,"Ġwore":5488,"isa":5489,"Ġbear":5490,"Ġlines":5491,"Ġlux":5492,"ĠHod":5493,"ĠHere":5494,"Ġoffering":5495,"Ġadults":5496,"ĠChannel":5497,"iley":5498,"Ġ2015":5499,"Ġassess":5500,"Ġtransport":5501,"Ġindependent":5502,"ĠBirmingham":5503,"IV":5504,"father":5505,"mosp":5506,"va":5507,"Ġduty":5508,"Ġnurs":5509,"tery":5510,"ĠFoll":5511,"Ġweigh":5512,"alling":5513,"Ġplot":5514,"Ġintended":5515,"Ġ300":5516,"Ġ500":5517,"ĠMedical":5518,"Ġcomplaint":5519,"Ġbroadcast":5520,"Ġairline":5521,"ĠKevin":5522,"hattan":5523,"iat":5524,"town":5525,"erous":5526,"Ġnarr":5527,"ĠTen":5528,"ĠCard":5529,"ĠColl":5530,"illance":5531,"ĠHamp":5532,"Ġsaved":5533,"ĠEvery":5534,"ĠUs":5535,"Ġscience":5536,"phy":5537,"ĠRead":5538,"Ġvideos":5539,"Ġcauses":5540,"ĠManhattan":5541,"Ġattempts":5542,"Ġroute":5543,"Ġhistoric":5544,"Ġinsurance":5545,"PR":5546,"gas":5547,"iated":5548,"Ġmum":5549,"utation":5550,"owell":5551,"ĠBest":5552,"ĠHong":5553,"Ġanger":5554,"Ġnoted":5555,"Ġ38":5556,"hens":5557,"Ġcondem":5558,"Ġbringing":5559,"Ġpresence":5560,"Ġemotional":5561,"ĠAtlanta":5562,"Le":5563,"Ġlength":5564,"Ġnature":5565,"quar":5566,"owned":5567,"ĠChildren":5568,"Ġdepart":5569,"Ġpresented":5570,"Ġsurvived":5571,"ĠAlexander":5572,"Ġinfluence":5573,"ottenham":5574,"ĠFamily":5575,"more":5576,"ĠBus":5577,"istor":5578,"Ġaband":5579,"ĠInc":5580,"Ġbrut":5581,"Ġsubst":5582,"ĠMinistry":5583,"Ġinvolving":5584,"Ġpolitics":5585,"Ġstruct":5586,"Ġdeveloping":5587,"burg":5588,"een":5589,"Ġmouth":5590,"ĠTest":5591,"ĠFI":5592,"ĠFeder":5593,"ĠOx":5594,"Ġresul":5595,"iband":5596,"aching":5597,"ĠMarc":5598,"Ġaffect":5599,"Ġsystems":5600,"Ġproduce":5601,"Ġsymptoms":5602,"Ġfavourite":5603,"rant":5604,"Ġess":5605,"Ġwake":5606,"ids":5607,"aint":5608,"ickets":5609,"Ġtruth":5610,"Ġreturning":5611,"Ġbigger":5612,"Ġsky":5613,"ĠTrust":5614,"Ġbeaten":5615,"ĠMiliband":5616,"Ġphotographs":5617,"Ġinnoc":5618,"Ġicon":5619,"So":5620,"Tube":5621,"ulations":5622,"Ġrub":5623,"Ġexcept":5624,"Ġkne":5625,"Ġuser":5626,"Ġsurge":5627,"ova":5628,"Ġsetting":5629,"ronic":5630,"Ġcreating":5631,"ĠSimon":5632,"Ġcircumstances":5633,"dict":5634,"Ġdating":5635,"Ġstolen":5636,"ĠDNA":5637,"ĠLat":5638,"emen":5639,"ĠFound":5640,"Ġqualif":5641,"Ġcoff":5642,"Ġclubs":5643,"IP":5644,"hi":5645,"Ġreaction":5646,"Ġ2000":5647,"antage":5648,"Ġunve":5649,"Ġsole":5650,"Ġ2001":5651,"Ġ2002":5652,"Ġmayor":5653,"ĠCrime":5654,"Ġfeatured":5655,"strong":5656,"Ġfalling":5657,"Ġentertain":5658,"Ġgathered":5659,"ON":5660,"foot":5661,"mod":5662,"Ġast":5663,"Ġsear":5664,"immer":5665,"ĠIv":5666,"ĠInstitute":5667,"Ġeffects":5668,"Ġfacility":5669,"Ġwriting":5670,"Ġeastern":5671,"ĠYouTube":5672,"Ġpolicies":5673,"ĠDefense":5674,"ĠArgentina":5675,"Ġcyc":5676,"Ġdressed":5677,"apers":5678,"ĠMaria":5679,"Ġregister":5680,"Ġmodels":5681,"Ġrobber":5682,"ĠiPhone":5683,"OP":5684,"boy":5685,"Ġfro":5686,"Ġpush":5687,"Ġelder":5688,"ĠFBI":5689,"acks":5690,"Ġexcl":5691,"ĠStone":5692,"ĠChap":5693,"Ġoppon":5694,"afi":5695,"Ġprofessor":5696,"Ġwidely":5697,"ĠLewis":5698,"ien":5699,"oom":5700,"Ġded":5701,"ĠBor":5702,"ĠDou":5703,"arez":5704,"Ġfled":5705,"ĠMcG":5706,"coming":5707,"Ġdesigner":5708,"Ġlanded":5709,"file":5710,"la":5711,"lig":5712,"Ġlying":5713,"ĠCal":5714,"ulner":5715,"Ġsust":5716,"Ġcontest":5717,"Ġdecisions":5718,"Ġacting":5719,"Ġexpensive":5720,"Ġlimited":5721,"ĠResearch":5722,"Ġticket":5723,"Ġtempor":5724,"anch":5725,"Ġburn":5726,"ĠFire":5727,"Ġoverse":5728,"assy":5729,"Ġ195":5730,"ĠSheriff":5731,"Ġremind":5732,"Ġretired":5733,"Ġinstit":5734,"Ġsuffer":5735,"Ġpunish":5736,"Ġsurrounding":5737,"ĠVirginia":5738,"Ġunusual":5739,"bing":5740,"ĠSa":5741,"Ġeur":5742,"eland":5743,"ĠBu":5744,"rah":5745,"agram":5746,"iban":5747,"Ġblamed":5748,"Ġphones":5749,"ugg":5750,"Ġknowledge":5751,"Ġparent":5752,"ĠHern":5753,"Ġtribute":5754,"Ġdestroyed":5755,"just":5756,"ni":5757,"Ġcas":5758,"Ġlucky":5759,"ĠBa":5760,"estyle":5761,"ables":5762,"Ġclash":5763,"Ġprinc":5764,"Ġheaded":5765,"Ġmaybe":5766,"ĠExper":5767,"Ġhorse":5768,"Ġrocket":5769,"ĠCampbell":5770,"Ġregularly":5771,"Ġlikes":5772,"One":5773,"Ġsought":5774,"ĠWind":5775,"Ġaggress":5776,"Ġunique":5777,"ĠYorks":5778,"Ġquiet":5779,"Ġreading":5780,"oner":5781,"ĠDub":5782,"ĠEric":5783,"uster":5784,"Ġ2016":5785,"Ġguests":5786,"Ġcommunities":5787,"ĠSteven":5788,"Ġsurprise":5789,"rec":5790,"Ġstone":5791,"ĠDes":5792,"ifer":5793,"ĠJose":5794,"Ġclimate":5795,"Ġagencies":5796,"Ġarrang":5797,"ĠÂ»":5798,"Ġsuppl":5799,"ologist":5800,"Ġparliament":5801,"ĠCentre":5802,"Ġenjoyed":5803,"ĠRoberts":5804,"Ġlawyers":5805,"EA":5806,"hour":5807,"ias":5808,"ked":5809,"Ġhat":5810,"icient":5811,"lected":5812,"Ġnom":5813,"Ġvess":5814,"atever":5815,"ivity":5816,"Ġcontain":5817,"Ġhappening":5818,"Ġcontroll":5819,"Ġdeputy":5820,"Ġsexually":5821,"Ġskills":5822,"Ġdemocr":5823,"Ġshots":5824,"ĠAbu":5825,"Ġriver":5826,"ĠOlympics":5827,"Ġrival":5828,"Ġopinion":5829,"Ġoriginally":5830,"Ġsparked":5831,"ĠSaudi":5832,"half":5833,"wall":5834,"Ġnut":5835,"Ġatmosp":5836,"ĠPerry":5837,"Ġaltern":5838,"Ġunion":5839,"Ġconduc":5840,"Ġburied":5841,"Ġcorpor":5842,"Ġpieces":5843,"ĠHenry":5844,"People":5845,"ĠHernandez":5846,"NEW":5847,"tar":5848,"Ġoption":5849,"leg":5850,"ĠTottenham":5851,"Ġgrew":5852,"etic":5853,"Ġstock":5854,"ĠRonald":5855,"Ġmarijuana":5856,"mitted":5857,"Ġpossibility":5858,"ĠRooney":5859,"ĠPlay":5860,"Ġcollaps":5861,"Ġperformed":5862,"Ġbehavior":5863,"Ġestablish":5864,"ĠMichelle":5865,"New":5866,"cri":5867,"mes":5868,"Ġtast":5869,"Ġwish":5870,"Ġsteal":5871,"ĠHuman":5872,"Ġanalys":5873,"Ġalb":5874,"ĠRay":5875,"ĠNavy":5876,"Ġ46":5877,"ĠBridge":5878,"Ġhappens":5879,"Ġextrem":5880,"ĠParliament":5881,"Ġfunding":5882,"Ġdisappear":5883,"Ġunderstood":5884,"ĠYorkshire":5885,"Ġauction":5886,"era":5887,"Ġdomin":5888,"ĠBurn":5889,"estin":5890,"Ġincredible":5891,"bro":5892,"Ġtree":5893,"Ġsorry":5894,"Ġham":5895,"Ġder":5896,"ĠTerry":5897,"ĠSix":5898,"ĠFort":5899,"Ġrushed":5900,"ĠGa":5901,"Ġpled":5902,"Ġinvestigate":5903,"ĠOnly":5904,"Ġeasily":5905,"Ġgrab":5906,"Ġcommercial":5907,"ba":5908,"orado":5909,"Ġbeating":5910,"irts":5911,"ĠBry":5912,"ĠGary":5913,"Ġphotographer":5914,"ĠTaliban":5915,"Ġanalyst":5916,"dy":5917,"fire":5918,"Ġfake":5919,"ĠCab":5920,"Ġshape":5921,"eph":5922,"ĠStaff":5923,"Ġincome":5924,"Ġdisorder":5925,"ĠAlan":5926,"Ġterrit":5927,"Ġextr":5928,"Ġapprop":5929,"Ġholds":5930,"Ġjournalist":5931,"Ġut":5932,"ining":5933,"Ġcards":5934,"Ġbond":5935,"Ġpen":5936,"ĠLo":5937,"agger":5938,"ĠJew":5939,"Ġ43":5940,"Ġ49":5941,"Ġproviding":5942,"Ġadvoc":5943,"Ġinitial":5944,"Ġkitchen":5945,"ĠCosta":5946,"Ġunlikely":5947,"oard":5948,"arch":5949,"Ġagents":5950,"ossible":5951,"Ġconsult":5952,"Ġsettle":5953,"Ġexplain":5954,"Ġgeneration":5955,"ĠChampionship":5956,"keeper":5957,"Ġscheme":5958,"rep":5959,"ita":5960,"Ġporn":5961,"ĠKerry":5962,"elli":5963,"weight":5964,"Ġkiller":5965,"ĠAttorney":5966,"FL":5967,"Ġtight":5968,"Ġtiny":5969,"Ġdad":5970,"Ġplays":5971,"ovel":5972,"Ġdriven":5973,"Ġactivities":5974,"Ġfrustr":5975,"Ġreplaced":5976,"Ġdetermine":5977,"Ġsurveillance":5978,"Ġverdict":5979,"Ġdozens":5980,"Ġlegislation":5981,"ĠHotel":5982,"24":5983,"part":5984,"Ġliber":5985,"ĠMount":5986,"Ġvice":5987,"Ġoverall":5988,"Ġevac":5989,"Ġvisiting":5990,"minute":5991,"Ġfindings":5992,"Ġannouncement":5993,"Ġfailing":5994,"Ġdivorce":5995,"Af":5996,"BS":5997,"war":5998,"inet":5999,"Ġsight":6000,"tered":6001,"Ġoutbreak":6002,"Ġmyster":6003,"Ġ47":6004,"Ġremark":6005,"ĠLeon":6006,"Ġbusinesses":6007,"Ġexperienced":6008,"Ġneighborhood":6009,"ĠFIFA":6010,"dog":6011,"long":6012,"rich":6013,"Ġsons":6014,"Ġmax":6015,"Ġdistrict":6016,"state":6017,"Ġgar":6018,"ĠLar":6019,"ĠLanc":6020,"Ġplastic":6021,"Ġcann":6022,"enses":6023,"Ġadds":6024,"ĠSouthampton":6025,"ĠAllen":6026,"Ġbooks":6027,"Ġ1980":6028,"Ġincreasingly":6029,"oni":6030,"asters":6031,"ĠMess":6032,"Ġforg":6033,"ĠLas":6034,"Ġtrig":6035,"aza":6036,"Ġlocated":6037,"Ġeditor":6038,"Ġpainting":6039,"Ġequal":6040,"ĠMalays":6041,"ĠMatthew":6042,"mph":6043,"astern":6044,"acher":6045,"ĠBra":6046,"osis":6047,"ĠNic":6048,"Ġride":6049,"aken":6050,"Ġacqu":6051,"Ġretail":6052,"Ġslam":6053,"Ġfilms":6054,"ĠDavis":6055,"ĠColumb":6056,"Ġ08":6057,"Ġprisoners":6058,"Ġstayed":6059,"Ġhouses":6060,"Ġsemi":6061,"Ġinquiry":6062,"How":6063,"Ġfought":6064,"Ġlights":6065,"ĠSaf":6066,"Ġegg":6067,"ĠCD":6068,"ĠGirl":6069,"Ġvulner":6070,"ordon":6071,"ipe":6072,"reek":6073,"Ġ55":6074,"Ġtransp":6075,"ĠAmong":6076,"Ġadvantage":6077,"ĠSwan":6078,"Ġstruggle":6079,"ĠBelg":6080,"Ġroutine":6081,"ĠInstagram":6082,"Ġhospitals":6083,"Ġturning":6084,"inct":6085,"Ġbin":6086,"Ġbot":6087,"ĠCub":6088,"eme":6089,"ĠRights":6090,"Ġchances":6091,"Ġleaves":6092,"Ġaccus":6093,"Ġ41":6094,"Ġ44":6095,"Ġfeels":6096,"Ġfilmed":6097,"Ġlarger":6098,"standing":6099,"Ġbrothers":6100,"Ġstruggled":6101,"Ġcomplaints":6102,"Ġaccepted":6103,"Ġscenes":6104,"Ġacknowled":6105,"Ġhur":6106,"ĠBrian":6107,"ching":6108,"Ġchain":6109,"ryst":6110,"Ġrail":6111,"Ġtransform":6112,"ĠAbout":6113,"Ġdrawn":6114,"Ġwelcome":6115,"ĠNASA":6116,"Ġatmosphere":6117,"Ġconducted":6118,"person":6119,"Ġtherap":6120,"olk":6121,"ĠBru":6122,"agers":6123,"ĠRock":6124,"iform":6125,"ĠEs":6126,"Ġblame":6127,"ĠLeeds":6128,"ĠWhy":6129,"Ġdrivers":6130,"Ġsquare":6131,"Ġactivists":6132,"Ġneighbour":6133,"Ġwaters":6134,"Ġprimary":6135,"Ġtend":6136,"isher":6137,"Ġpushed":6138,"Ġmagn":6139,"omes":6140,"sters":6141,"Ġyellow":6142,"ĠLife":6143,"Ġscale":6144,"ĠAlso":6145,"Ġcoalition":6146,"Ġ75":6147,"Ġsigning":6148,"ĠBlair":6149,"Ġpossession":6150,"Ġhumans":6151,"Ġmurdered":6152,"Ġcivilians":6153,"Ġproposed":6154,"scar":6155,"Ġcandidates":6156,"rified":6157,"Ġargued":6158,"Ġtum":6159,"vey":6160,"agement":6161,"Ġcontent":6162,"obs":6163,"ĠMont":6164,"Ġgreatest":6165,"Ġorganiz":6166,"Ġthrown":6167,"Ġswimming":6168,"CC":6169,"put":6170,"Ġtied":6171,"itarian":6172,"Ġpit":6173,"ĠMat":6174,"ĠJen":6175,"ĠUp":6176,"Ġallows":6177,"Ġpermission":6178,"ĠLeices":6179,"Ġkeen":6180,"Ġ65":6181,"ĠAdam":6182,"Ġtalked":6183,"Ġfunds":6184,"Ġcorrect":6185,"Ġwitnesses":6186,"Ġdefinitely":6187,"Ġalbum":6188,"To":6189,"iot":6190,"zen":6191,"Ġmigr":6192,"Ġgain":6193,"ulance":6194,"Ġseats":6195,"abeth":6196,"Ġdiss":6197,"Ġmedal":6198,"ĠColorado":6199,"Ġidentify":6200,"Ġterrorists":6201,"Ġpotentially":6202,"Ġweapon":6203,"Ġimmediate":6204,"Ġstores":6205,"ĠInstead":6206,"Ġtomorrow":6207,"ĠWalker":6208,"Ġluxury":6209,"'\",\"":6210,"300":6211,"inated":6212,"isf":6213,"icip":6214,"urse":6215,"roat":6216,"ĠLady":6217,"ocol":6218,"Ġroof":6219,"Ġprec":6220,"Ġ09":6221,"ĠPeters":6222,"ĠDuke":6223,"Ġexchange":6224,"ye":6225,"Ġbars":6226,"Ġfant":6227,"idden":6228,"Ġnor":6229,"agon":6230,"Ġrank":6231,"Ġnoticed":6232,"abor":6233,"istics":6234,"Ġkil":6235,"Ġmeat":6236,"Ġ52":6237,"ĠChristie":6238,"Ġprograms":6239,"Ġprosecution":6240,"Ġvirt":6241,"ĠRodgers":6242,"Ġoptions":6243,"Ġdismissed":6244,"Ġowned":6245,"point":6246,"ĠSol":6247,"ĠGP":6248,"Ġdegree":6249,"ĠKir":6250,"Ġclothing":6251,"awn":6252,"Ġinvited":6253,"Ġmilitants":6254,"Ġstandard":6255,"Ġrisks":6256,"Ġtargets":6257,"ĠSwed":6258,"ĠAh":6259,"ĠABC":6260,"ĠCra":6261,"eline":6262,"ece":6263,"ĠLake":6264,"ĠOper":6265,"Ġnotice":6266,"Ġseized":6267,"Ġspring":6268,"Ġspecies":6269,"Ġconviction":6270,"ĠUkrain":6271,"ijing":6272,"Ġcloser":6273,"ĠSnow":6274,"Ġmir":6275,"ĠDirect":6276,"ĠOk":6277,"Ġunem":6278,"Ġuniform":6279,"Ġscre":6280,"Ġ39":6281,"Ġinsist":6282,"Ġworldwide":6283,"ĠArm":6284,"ĠCarter":6285,"Ġchallenges":6286,"ĠMoscow":6287,"ext":6288,"pect":6289,"Ġtall":6290,"ĠMod":6291,"ĠWild":6292,"ĠWright":6293,"Ġspoken":6294,"uez":6295,"Ġ194":6296,"Ġearned":6297,"Ġprovince":6298,"Ġpromised":6299,"Ġstaying":6300,"Ġteenage":6301,"Ġcapture":6302,"ĠCommun":6303,"99":6304,"lers":6305,"rupt":6306,"Ġsession":6307,"eding":6308,"ouri":6309,"Ġdry":6310,"Ġrevel":6311,"ĠBet":6312,"Ġshar":6313,"Ġvast":6314,"umn":6315,"ĠVer":6316,"ĠAsia":6317,"ĠMayor":6318,"Ġapproved":6319,"Ġ1990":6320,"Ġsmaller":6321,"Ġcelebrity":6322,"Ġhoped":6323,"Ġrevolution":6324,"ĠSwansea":6325,"wise":6326,"ench":6327,"ishes":6328,"ache":6329,"ĠHart":6330,"ĠWork":6331,"ĠWomen":6332,"Ġconsequ":6333,"Ġreputation":6334,"Ġhelps":6335,"Ġlegend":6336,"Ġbusy":6337,"ĠSea":6338,"Ġjoint":6339,"ography":6340,"Ġgrandmother":6341,"Ġencoun":6342,"Ġfocused":6343,"ĠJonathan":6344,"Ġpoliticians":6345,"Ġtears":6346,"Ġfallen":6347,"acle":6348,"ĠBid":6349,"Ġsav":6350,"Ġgranted":6351,"Ġexpress":6352,"Ġinsists":6353,"Ġmarks":6354,"Ġwrite":6355,"ĠPrincess":6356,"iversary":6357,"Ġbreaking":6358,"Ġoperating":6359,"Ġincidents":6360,"Ġbanks":6361,"ipping":6362,"Ġlifestyle":6363,"Ġchoose":6364,"Ġ1970":6365,"Ġhonest":6366,"Ġdelivered":6367,"Ġmistake":6368,"ĠJoseph":6369,"Ġwound":6370,"Ġpal":6371,"Ġpension":6372,"Ġreact":6373,"oli":6374,"Ġgall":6375,"ademy":6376,"imal":6377,"pper":6378,"Ġspons":6379,"Ġplat":6380,"Ġresort":6381,"obody":6382,"izz":6383,"Ġremote":6384,"ĠAnderson":6385,"elfare":6386,"Ġtravelling":6387,"Ġfiref":6388,"Ġdistance":6389,"Ġzone":6390,"ĠFootball":6391,"Ġbound":6392,"Ġdance":6393,"Ġlaugh":6394,"star":6395,"ĠAirl":6396,"ĠHull":6397,"ĠJournal":6398,"Ġsees":6399,"icken":6400,"azz":6401,"Ġsuspects":6402,"Ġauthority":6403,"ĠBeijing":6404,"Ġreveals":6405,"ortunately":6406,"Ġvoted":6407,"ĠIranian":6408,"Ġpupils":6409,"ĠLauren":6410,"Ġimpressive":6411,"ĠJamie":6412,"Ġlie":6413,"Ġnose":6414,"etts":6415,"Ġstro":6416,"ĠLaden":6417,"ĠFil":6418,"usted":6419,"Ġinches":6420,"Ġperman":6421,"Ġpublicly":6422,"Ġslight":6423,"Ġremaining":6424,"ĠPhill":6425,"ĠIraqi":6426,"ĠCatholic":6427,"rystal":6428,"egr":6429,"Ġtun":6430,"Ġsweet":6431,"ĠCook":6432,"ros":6433,"ĠHear":6434,"ĠGh":6435,"enders":6436,"Ġarriv":6437,"Ġtragic":6438,"Ġfeared":6439,"Ġinvestment":6440,"ĠMcK":6441,"ĠAbb":6442,"Ġapproval":6443,"Ġprosecutor":6444,"sewhere":6445,"Ġtim":6446,"Ġwreck":6447,"Ġongoing":6448,"Ġstadium":6449,"Ġisol":6450,"usetts":6451,"ateg":6452,"Ġjack":6453,"ĠYet":6454,"izes":6455,"Ġacts":6456,"ĠScient":6457,"Ġstudies":6458,"ĠAmy":6459,"Ġdistrib":6460,"ĠRoman":6461,"Ġnegative":6462,"degree":6463,"ĠKenned":6464,"Ġjournalists":6465,"Ġtrigger":6466,"rison":6467,"wan":6468,"Ġbare":6469,"Ġocean":6470,"iter":6471,"Ġthrew":6472,"ĠTop":6473,"Ġrum":6474,"ĠGOP":6475,"achusetts":6476,"Ġmostly":6477,"Ġeverybody":6478,"Ġnumerous":6479,"anna":6480,"Ġcourts":6481,"arrass":6482,"Ġtroub":6483,"Ġrivals":6484,"Ġproposal":6485,"Ġexercise":6486,"Ġstrength":6487,"ĠHampshire":6488,"ĠGaal":6489,"ker":6490,"Ġsom":6491,"ĠTour":6492,"Ġrejected":6493,"ĠBern":6494,"ĠHor":6495,"ĠLind":6496,"Ġintegr":6497,"assador":6498,"Ġedge":6499,"Ġprofile":6500,"Ġchanging":6501,"Ġprivacy":6502,"Ġbasis":6503,"Ġconservative":6504,"SP":6505,"sec":6506,"uate":6507,"Ġtickets":6508,"Ġsand":6509,"Ġmaster":6510,"Ġdying":6511,"ĠSquare":6512,"rome":6513,"ĠEduc":6514,"ĠKhan":6515,"Ġresources":6516,"Ġcomplic":6517,"izabeth":6518,"ashing":6519,"Ġanniversary":6520,"Ġrestr":6521,"Ġtrained":6522,"Ġemployee":6523,"burgh":6524,"Ġpanel":6525,"Ġdevastated":6526,"Ġwonderful":6527,"ĠMandela":6528,"ĠFoundation":6529,"Â£":6530,"Ġ#":6531,"eren":6532,"ito":6533,"adian":6534,"ĠBuck":6535,"abis":6536,"Ġproved":6537,"icked":6538,"amples":6539,"Ġblow":6540,"Ġearn":6541,"Ġheading":6542,"Ġinfection":6543,"ĠCont":6544,"Ġburgl":6545,"Ġcriticised":6546,"Ġoccasion":6547,"Ġdollars":6548,"Ġnegoti":6549,"Ġmethod":6550,"vania":6551,"ĠCC":6552,"emble":6553,"ĠNas":6554,"istol":6555,"Ġfounder":6556,"Ġbridge":6557,"ĠAndre":6558,"Ġreflect":6559,"Ġmetal":6560,"ĠIndones":6561,"ĠEdward":6562,"Ġlanding":6563,"Ġroads":6564,"Ġeleph":6565,"Ġdrove":6566,"itzer":6567,"ĠRoger":6568,"piracy":6569,"ĠOxford":6570,"IC":6571,"ingly":6572,"Ġtouc":6573,"Ġmuseum":6574,"Ġheat":6575,"ĠAgu":6576,"ĠCat":6577,"osure":6578,"char":6579,"ĠWard":6580,"Ġrat":6581,"Ġrough":6582,"Ġshirt":6583,"ansas":6584,"obby":6585,"Ġsomebody":6586,"Ġprefer":6587,"Ġinterests":6588,"Ġtraum":6589,"Ġraising":6590,"Ġdetail":6591,"Ġrealised":6592,"Ġtestim":6593,"Ġviewers":6594,"Ġhorrific":6595,"Ġsurvive":6596,"Ġreplace":6597,"ĠPhilipp":6598,"Ġpackage":6599,"Ġdozen":6600,"ĠVegas":6601,"Ġepisode":6602,"yr":6603,"Ġstick":6604,"road":6605,"ĠPublic":6606,"cho":6607,"ĠDer":6608,"Ġoffensive":6609,"iev":6610,"ĠZimmer":6611,"iami":6612,"Ġtested":6613,"Ġarrive":6614,"Ġinterested":6615,"ĠPalestin":6616,"Ġawarded":6617,"ĠJosh":6618,"bourne":6619,"ĠConnect":6620,"Ġelderly":6621,"gment":6622,"Ġsection":6623,"Ġwal":6624,"Ġnurse":6625,"ĠRa":6626,"ĠNBC":6627,"Ġjumped":6628,"ordinary":6629,"ĠStill":6630,"away":6631,"ĠSpec":6632,"Ġfriendly":6633,"ĠAmaz":6634,"Ġtaxpay":6635,"Ġeasier":6636,"Ġcoverage":6637,"Ġsymbol":6638,"Ġheavily":6639,"ĠJennifer":6640,"Ġmaximum":6641,"ĠUkrainian":6642,"ĠKennedy":6643,"ĠZimmerman":6644,"nic":6645,"rup":6646,"ĠSher":6647,"uties":6648,"ĠId":6649,"osen":6650,"ounced":6651,"week":6652,"Ġcricket":6653,"Ġsets":6654,"Ġtransl":6655,"Ġrefuge":6656,"Ġaffil":6657,"Ġlearning":6658,"ĠSupp":6659,"Ġbullet":6660,"Ġflooding":6661,"ĠPenns":6662,"ĠLittle":6663,"Ġcoc":6664,"ora":6665,"Ġstom":6666,"Ġstuck":6667,"Ġproceed":6668,"ounted":6669,"Ġoffences":6670,"ĠStev":6671,"Ġcontacted":6672,"Ġraped":6673,"Ġrelax":6674,"Ġcooper":6675,"Ġconsidering":6676,"Ġdrag":6677,"ylvania":6678,"ĠIrish":6679,"Ġstrategy":6680,"Ġbathroom":6681,"Ġsanctions":6682,"ĠMassachusetts":6683,"Ġadmits":6684,"ĠEverton":6685,"ihad":6686,"Ġweren":6687,"ĠSing":6688,"ĠMother":6689,"ĠIan":6690,"ĠBell":6691,"ĠHay":6692,"iano":6693,"Ġquit":6694,"Ġqual":6695,"atherine":6696,"Ġsupply":6697,"aze":6698,"Ġdiscip":6699,"Ġcolour":6700,"Ġinvestigated":6701,"Ġ150":6702,"Ġclosely":6703,"Ġthreatening":6704,"Ġsoldier":6705,"Ġgrounds":6706,"Ġidentity":6707,"ĠOrgan":6708,"Ġhousing":6709,"Ġmountain":6710,"Ġfestival":6711,"Ġvulnerable":6712,"gt":6713,"zing":6714,"Ġwounds":6715,"Ġfilled":6716,"ĠDutch":6717,"ĠGordon":6718,"Ġspell":6719,"Ġrecalled":6720,"ples":6721,"Ġcommand":6722,"ĠWho":6723,"Ġpassing":6724,"Ġmusc":6725,"ĠPatrick":6726,"Ġcalories":6727,"Ġscores":6728,"Ġathletes":6729,"Ġrobbery":6730,"bec":6731,"vin":6732,"Ġhall":6733,"tha":6734,"ĠGun":6735,"Ġshoes":6736,"essions":6737,"inez":6738,"phic":6739,"ĠArch":6740,"Ġdiscovery":6741,"ĠOnce":6742,"ployed":6743,"Ġproperly":6744,"ĠHamilton":6745,"ĠThompson":6746,"Ġcontroversy":6747,"Ġsoftware":6748,"Ġconversation":6749,"Ġcollapsed":6750,"don":6751,"Ġ@":6752,"ingham":6753,"aser":6754,"Ġmic":6755,"Ġlunch":6756,"ĠTown":6757,"otic":6758,"Ġgym":6759,"illiant":6760,"ĠHIV":6761,"Ġflo":6762,"Ġimpossible":6763,"Ġentit":6764,"Ġdetained":6765,"Ġpossibly":6766,"ĠSecond":6767,"Ġlargely":6768,"ĠUSA":6769,"ĠElizabeth":6770,"Ġtalent":6771,"ĠTurk":6772,"Ġunclear":6773,"market":6774,"Ġexclusive":6775,"ĠPennsylvania":6776,"--":6777,"Ġtear":6778,"Ġtask":6779,"arant":6780,"Ġhits":6781,"lee":6782,"ria":6783,"ĠLA":6784,"ĠLike":6785,"Ġconce":6786,"Ġchose":6787,"abe":6788,"Ġprin":6789,"otherap":6790,"Ġremarks":6791,"Ġpersonnel":6792,"Ġletters":6793,"ĠSecret":6794,"Ġsurprised":6795,"Ġaimed":6796,"ĠGreece":6797,"Ġtackle":6798,"Ġancient":6799,"27":6800,"heast":6801,"ali":6802,"Ġment":6803,"adow":6804,"adel":6805,"ĠMiami":6806,"opher":6807,"ĠLove":6808,"ĠJane":6809,"Ġclient":6810,"Ġintention":6811,"Ġcanc":6812,"ĠVilla":6813,"Ġempt":6814,"ĠPoland":6815,"Ġenth":6816,"Ġliter":6817,"Ġtesting":6818,"Ġtestified":6819,"Ġhonor":6820,"Ġdeeply":6821,"Ġlabel":6822,"related":6823,"American":6824,"IN":6825,"fall":6826,"wich":6827,"whel":6828,"Ġtact":6829,"ato":6830,"Ġheight":6831,"otte":6832,"ĠMun":6833,"acre":6834,"ĠCIA":6835,"ĠBack":6836,"Ġanonym":6837,"ĠJr":6838,"ogue":6839,"Ġscream":6840,"Ġmothers":6841,"ĠMissouri":6842,"ĠColomb":6843,"Ġgoalkeeper":6844,"Ġcleared":6845,"Ġcalm":6846,"ĠSociety":6847,"har":6848,"Ġwelfare":6849,"arre":6850,"Ġreduced":6851,"ĠMuseum":6852,"imp":6853,"irates":6854,"rog":6855,"ĠNad":6856,"ĠUt":6857,"eree":6858,"umber":6859,"Ġabused":6860,"eller":6861,"iao":6862,"ĠInt":6863,"Ġnewly":6864,"Ġrose":6865,"Ġconspiracy":6866,"Ġattacking":6867,"Ġtermin":6868,"cont":6869,"Ġcelebrates":6870,"Ġoccup":6871,"asket":6872,"Ġtourists":6873,"Ġarrival":6874,"With":6875,"brit":6876,"mad":6877,"orous":6878,"Ġwhatever":6879,"ĠDanny":6880,"ĠNFL":6881,"Ġunknown":6882,"ĠInsp":6883,"Ġhighl":6884,"Ġpointed":6885,"Ġdirection":6886,"ĠMichigan":6887,"ĠCanadian":6888,"Ġcustomer":6889,"***":6890,"Ġconsumers":6891,"Ġsilver":6892,"Ġveteran":6893,"Ġprincip":6894,"ĠCraig":6895,"RA":6896,"pany":6897,"onna":6898,"Ġcup":6899,"Ġhang":6900,"Ġpowers":6901,"Ġdict":6902,"ĠMot":6903,"ĠCare":6904,"ĠFal":6905,"ĠEach":6906,"ĠGib":6907,"Ġunw":6908,"Ġcompens":6909,"Ġretire":6910,"ologists":6911,"Ġpattern":6912,"Ġcompete":6913,"Ġsolar":6914,"Ġdisappeared":6915,"Ġsatisf":6916,"ĠAssociated":6917,"ĠValley":6918,"ĠClegg":6919,"Ġalternative":6920,"Ġplatform":6921,"brities":6922,"Ġposed":6923,"ĠSter":6924,"acity":6925,"ĠFab":6926,"ĠRel":6927,"Ġrich":6928,"Ġchosen":6929,"abled":6930,"place":6931,"Ġwins":6932,"Ġfollowers":6933,"ĠCooper":6934,"Ġcritics":6935,"ĠMartinez":6936,"Ġbadly":6937,"Ġmoves":6938,"ĠQueens":6939,"Ġcells":6940,"Ġbags":6941,"Ġbalance":6942,"Ġprompted":6943,"Ġaggressive":6944,"ĠLeicester":6945,"ĠAirlines":6946,"ĠEducation":6947,"21":6948,"MA":6949,"lines":6950,"tic":6951,"orious":6952,"ĠBull":6953,"ĠPent":6954,"raid":6955,"Ġrally":6956,"Ġweb":6957,"allas":6958,"Ġreporter":6959,"Ġbuying":6960,"Ġterrible":6961,"Ġpassion":6962,"Ġsuburb":6963,"Ġhousehold":6964,"Ġhitting":6965,"Ġlots":6966,"quarters":6967,"38":6968,"Un":6969,"bu":6970,"def":6971,"Ġwave":6972,"Ġwaves":6973,"Ġcrying":6974,"Ġpill":6975,"Ġdub":6976,"Ġlock":6977,"ĠHu":6978,"ĠHard":6979,"rapped":6980,"Ġcongress":6981,"ĠNAT":6982,"ĠGal":6983,"Ġshift":6984,"Ġchat":6985,"ĠOur":6986,"apse":6987,"Ġknowing":6988,"Ġkillings":6989,"ĠRev":6990,"Ġdiscrim":6991,"Ġ911":6992,"ĠEmma":6993,"Ġ1960":6994,"Ġtruly":6995,"ĠOfficials":6996,"Ġmansion":6997,"Ġtonight":6998,"70":6999,"Ġtor":7000,"Ġtorn":7001,"erted":7002,"ano":7003,"Ġdire":7004,"stri":7005,"ĠMax":7006,"Ġven":7007,"oster":7008,"ĠMars":7009,"Ġconsist":7010,"Ġregional":7011,"Ġguys":7012,"Ġinternal":7013,"afe":7014,"Ġfactory":7015,"Ġjoining":7016,"ĠGlob":7017,"Ġsurviv":7018,"Ġreferred":7019,"ĠPortug":7020,"ĠPacific":7021,"ĠHodg":7022,"Ġappropriate":7023,"Ġcannabis":7024,"ĠCDC":7025,"ĠCCTV":7026,"!\"\"":7027,"26":7028,"pers":7029,"isers":7030,"itary":7031,"Ġpose":7032,"Ġlover":7033,"ĠSov":7034,"adh":7035,"ulous":7036,"ĠFred":7037,"ĠRoll":7038,"ĠGulf":7039,"Ġjew":7040,"ffield":7041,"Ġbacked":7042,"Ġleads":7043,"Ġdefended":7044,"ĠJustin":7045,"Ġcombat":7046,"Ġrestaurants":7047,"Ġaccompl":7048,"ĠWatson":7049,"Ġbegins":7050,"Ġtestimony":7051,"ivery":7052,"Ġtort":7053,"Ġmile":7054,"Ġdrew":7055,"Ġnovel":7056,"ĠSav":7057,"ĠIll":7058,"ĠBart":7059,"Ġvital":7060,"olds":7061,"Ġblind":7062,"bris":7063,"Ġfacilities":7064,"Ġposes":7065,"Ġapproached":7066,"Ġharass":7067,"Ġrebel":7068,"Ġstepped":7069,"Ġunderstanding":7070,"ĠCornwall":7071,"Ġobviously":7072,"ĠMorris":7073,"riguez":7074,"Ġobtained":7075,"Ġiconic":7076,"After":7077,"Ġstomach":7078,"29":7079,"lah":7080,"named":7081,"atar":7082,"anes":7083,"itors":7084,"Ġlisted":7085,"Ġnative":7086,"ĠSgt":7087,"Ġformed":7088,"Ġstream":7089,"ĠBenn":7090,"ĠFriend":7091,"Ġdoors":7092,"Ġresol":7093,"Ġgrown":7094,"ĠSpace":7095,"centr":7096,"Ġguns":7097,"Ġwitnessed":7098,"ĠSuarez":7099,"ĠDoct":7100,"Ġattract":7101,"Ġkicked":7102,"ĠAshley":7103,"ĠRadio":7104,"Ġcorruption":7105,"ĠNATO":7106,"yard":7107,"Ġlies":7108,"ĠSum":7109,"ĠCop":7110,"ĠBul":7111,"ĠHas":7112,"emic":7113,"ĠRick":7114,"ĠNap":7115,"Ġworry":7116,"Ġ400":7117,"ĠSheffield":7118,"aug":7119,"ĠWeek":7120,"Ġ1999":7121,"Ġtrees":7122,"Ġwrites":7123,"Ġthrow":7124,"Ġstrikes":7125,"ointment":7126,"Ġdocumentary":7127,"Ġaccepting":7128,"Ġconcluded":7129,"Ġargument":7130,"Ġstunning":7131,"ĠBruce":7132,"ĠAmazon":7133,"otherapy":7134,"Ar":7135,"two":7136,"vy":7137,"wick":7138,"Ġwalls":7139,"Ġthinks":7140,"olas":7141,"achel":7142,"Ġplus":7143,"igned":7144,"Ġcrack":7145,"Ġstring":7146,"Ġdescribes":7147,"Ġimmigrants":7148,"Ġembarrass":7149,"Ġinquest":7150,"ĠInvestigators":7151,"Ġabandoned":7152,"ĠTurkish":7153,"39":7154,"Ġrom":7155,"Ġboot":7156,"icut":7157,"elson":7158,"ĠLi":7159,"ĠLaur":7160,"ĠFern":7161,"Ġrural":7162,"ĠOcean":7163,"Ġsubs":7164,"Ġunp":7165,"Ġintent":7166,"Ġministers":7167,"ĠBrand":7168,"Ġdiscover":7169,"Ġmemorial":7170,"iamond":7171,"Ġpayments":7172,"Ġsummit":7173,"Ġarchit":7174,"vant":7175,"Ġtennis":7176,"erves":7177,"rees":7178,"Ġhide":7179,"Ġmer":7180,"Ġmal":7181,"ighth":7182,"ĠNY":7183,"Ġkiss":7184,"Ġunless":7185,"ĠStand":7186,"Ġsupported":7187,"Ġbelief":7188,"Ġcaps":7189,"Ġyourself":7190,"Ġ06":7191,"Ġobject":7192,"ĠRoma":7193,"Ġbasic":7194,"borne":7195,"ĠOliver":7196,"Ġassociated":7197,"Ġfavorite":7198,"ĠConnecticut":7199,"36":7200,"cia":7201,"Ġca":7202,"Ġcode":7203,"Ġcateg":7204,"Ġbench":7205,"Ġnone":7206,"ĠSever":7207,"imin":7208,"ĠFreed":7209,"ĠRoss":7210,"Ġconcentr":7211,"ĠJason":7212,"ortion":7213,"ellor":7214,"Ġinstru":7215,"Ġenjoying":7216,"Ġperforming":7217,"Ġdesperate":7218,"Ġknee":7219,"EN":7220,"car":7221,"mouth":7222,"ĠSub":7223,"ima":7224,"Ġstated":7225,"ĠBecause":7226,"ĠHou":7227,"ĠHur":7228,"ĠRA":7229,"ĠNev":7230,"Ġfees":7231,"arents":7232,"Ġpatrol":7233,"ĠDeputy":7234,"echan":7235,"ĠUkip":7236,"gun":7237,"lad":7238,"water":7239,"Ġreward":7240,"ĠIts":7241,"ĠHun":7242,"ĠPot":7243,"Ġconcl":7244,"ĠOscar":7245,"ardo":7246,"Ġhadn":7247,"Ġmeal":7248,"Ġapply":7249,"Ġmilk":7250,"ĠShow":7251,"ĠAsian":7252,"Ġexecution":7253,"Ġracing":7254,"Ġassistance":7255,"Ġestablished":7256,"ĠDuncan":7257,"Ġinvolvement":7258,"ĠExperts":7259,"400":7260,"AR":7261,"gio":7262,"enz":7263,"Ġlocked":7264,"style":7265,"ĠPop":7266,"ĠWenger":7267,"ĠFree":7268,"ĠNig":7269,"rene":7270,"Ġcarbon":7271,"Ġfee":7272,"Ġ53":7273,"ĠMarg":7274,"tlet":7275,"Ġsmoke":7276,"Ġchecks":7277,"Ġreporting":7278,"Ġdeliber":7279,"Ġterrorism":7280,"Ġmotiv":7281,"ĠTeam":7282,"Ġunveiled":7283,"Ġpunishment":7284,"iable":7285,"Ġcoin":7286,"Ġcock":7287,"Ġmoon":7288,"iration":7289,"eld":7290,"chair":7291,"Ġconstitution":7292,"ifying":7293,"ĠGov":7294,"Ġcha":7295,"ĠStew":7296,"Ġbrilliant":7297,"Ġawards":7298,"Ġstarts":7299,"ĠPolit":7300,"Ġcontinuing":7301,"Ġsupporting":7302,"too":7303,"Ġdelivery":7304,"Ġtravelled":7305,"ĠEdin":7306,"Ġwindows":7307,"Ġbills":7308,"Ġparking":7309,"Ġdemanding":7310,"ĠEgyptian":7311,"Ġopinions":7312,"ĠFrancisco":7313,"Ġultimately":7314,"Ġvessel":7315,"ĠArmstrong":7316,"Ġconsequences":7317,"Ġenthus":7318,"aya":7319,"Ġgolf":7320,"ĠIb":7321,"illo":7322,"ĠWater":7323,"ĠGriff":7324,"orders":7325,"Ġknocked":7326,"Ġimplement":7327,"minster":7328,"Ġsixth":7329,"Ġprovides":7330,"Ġ1998":7331,"Ġhumanitarian":7332,"Ġescaped":7333,"Ġconnected":7334,"Ġcrucial":7335,"Ġtemperature":7336,"Ġorders":7337,"ĠConservative":7338,"Ġsolely":7339,"Ġastron":7340,"adelph":7341,"mers":7342,"yd":7343,"Ġfighter":7344,"Ġnaked":7345,"ĠTele":7346,"ĠPan":7347,"ĠWayne":7348,"Ġking":7349,"Ġoutrage":7350,"Ġearning":7351,"Ġrelief":7352,"rones":7353,"Ġstrict":7354,"Ġdepression":7355,"Ġtranspl":7356,"ĠBarb":7357,"Ġappearances":7358,"espread":7359,"regon":7360,"ĠMuslims":7361,"ĠAuthority":7362,"Ġindependence":7363,"Ġflew":7364,"Ġincredibly":7365,"Ġimagine":7366,"ĠCollins":7367,"ĠStevens":7368,"adelphia":7369,"hand":7370,"mun":7371,"Ġties":7372,"ĠTun":7373,"ĠPy":7374,"ĠRio":7375,"ĠOregon":7376,"ĠStan":7377,"Ġresist":7378,"oyal":7379,"Ġarrests":7380,"bey":7381,"Ġradical":7382,"ĠTraff":7383,"Ġsatell":7384,"Ġpetition":7385,"rifying":7386,"aghd":7387,"Ġanalysis":7388,"ĠOklah":7389,"ĠHodgson":7390,"called":7391,"gow":7392,"wa":7393,"Ġwestern":7394,"Ġbones":7395,"Ġtoll":7396,"ĠJac":7397,"Ġdebris":7398,"Ġnotes":7399,"Ġintense":7400,"ureau":7401,"Ġcompar":7402,"ĠThough":7403,"Ġexpand":7404,"areness":7405,"Ġentry":7406,"Ġstatements":7407,"ducing":7408,"Ġbreast":7409,"ĠWestminster":7410,"Ġpromote":7411,"Ġavo":7412,"ĠGlas":7413,"Ġexcited":7414,"ĠMilan":7415,"ĠRobin":7416,"Ġlabor":7417,"Ġpregnancy":7418,"ĠDisney":7419,"ĠMcDonald":7420,"Ġethnic":7421,"ĠNigeria":7422,"tletico":7423,"Some":7424,"Ġhate":7425,"Ġmap":7426,"ĠSud":7427,"olitan":7428,"ĠGall":7429,"ĠStoke":7430,"ishop":7431,"ĠMarine":7432,"Ġplanes":7433,"Ġofficially":7434,"Ġthoughts":7435,"Ġgovernments":7436,"ecutive":7437,"Ġexplains":7438,"Ġ07":7439,"Ġmarked":7440,"Ġsolution":7441,"ĠPhiladelphia":7442,"Ġcomputers":7443,"Ġencourage":7444,"Ġsurrounded":7445,"ĠBowl":7446,"ĠJessica":7447,"Ġearthqu":7448,"ĠFollowing":7449,"Ġempty":7450,"girl":7451,"nam":7452,"oh":7453,"ta":7454,"wing":7455,"Ġpushing":7456,"Ġthin":7457,"Ġlinks":7458,"ĠTime":7459,"ĠPower":7460,"ĠFederal":7461,"ĠNich":7462,"ĠGreg":7463,"Ġships":7464,"Ġje":7465,"Ġprojects":7466,"Ġovert":7467,"oyd":7468,"Ġrecon":7469,"Ġknock":7470,"anche":7471,"Ġtrail":7472,"Ġraid":7473,"Ġguards":7474,"Ġbehalf":7475,"Ġfewer":7476,"Ġburning":7477,"ĠMoore":7478,"ĠCommons":7479,"Ġpoison":7480,"ĠSanta":7481,"Ġcoffee":7482,"28":7483,"onz":7484,"Ġferry":7485,"Ġmine":7486,"oln":7487,"ĠPM":7488,"ĠDick":7489,"ĠRub":7490,"Ġvision":7491,"Ġafraid":7492,"Ġaboard":7493,"mann":7494,"Ġapprec":7495,"ancellor":7496,"ugby":7497,"Ġcapable":7498,"Ġsentencing":7499,"ĠChristopher":7500,"Ġdescribe":7501,"Ġcelebrities":7502,"Ġfeaturing":7503,"Ġengaged":7504,"Ġcollected":7505,"Ġreplied":7506,"Ġtradition":7507,"Ġmatters":7508,"Ġdigital":7509,"ĠDevon":7510,"Ġnarrow":7511,"ĠDirector":7512,"ĠHouston":7513,"ĠOklahoma":7514,"ES":7515,"Ne":7516,"fast":7517,"Ġske":7518,"Ġdu":7519,"Ġloves":7520,"ĠSk":7521,"ĠHom":7522,"ĠGab":7523,"Ġclients":7524,"rence":7525,"ĠYesterday":7526,"izarre":7527,"Ġdefending":7528,"shot":7529,"Ġextended":7530,"Ġopposed":7531,"istrates":7532,"Ġcommitment":7533,"Ġsuggesting":7534,"Ġideas":7535,"Ġwinds":7536,"Ġfamiliar":7537,"Ġcomplained":7538,"Ġvoting":7539,"Ġelected":7540,"ĠBrazilian":7541,"breaking":7542,"ĠKnox":7543,"Ġlandsc":7544,"Ġinnocent":7545,"Ġcasual":7546,"ĠSterling":7547,"Is":7548,"worth":7549,"orough":7550,"Ġtoler":7551,"idays":7552,"ĠMull":7553,"ĠLam":7554,"ĠLow":7555,"ĠStra":7556,"Ġtex":7557,"Ġdesire":7558,"ricane":7559,"Ġshouldn":7560,"ĠMcL":7561,"Ġmetres":7562,"Ġ1997":7563,"Ġwriter":7564,"Ġvotes":7565,"Ġambulance":7566,"Ġextraordinary":7567,"Ġprocedure":7568,"ĠCruz":7569,"Ġtemporary":7570,"Ġdisappearance":7571,"adhafi":7572,"600":7573,"II":7574,"gage":7575,"wen":7576,"Ġing":7577,"Ġtheat":7578,"Ġhired":7579,"Ġtoile":7580,"Ġpacked":7581,"ĠAT":7582,"ĠCos":7583,"verse":7584,"ĠBang":7585,"ĠRh":7586,"Ġsharing":7587,"Ġplenty":7588,"ords":7589,"Ġscared":7590,"ibr":7591,"Ġotherwise":7592,"ĠMarsh":7593,"ĠSpring":7594,"ĠCommon":7595,"Ġpromise":7596,"ĠAdministration":7597,"Ġburst":7598,"incoln":7599,"ippi":7600,"Ġsearching":7601,"Ġprepare":7602,"Ġpreparing":7603,"ĠOfficers":7604,"ĠSoviet":7605,"ĠGlasgow":7606,"fe":7607,"ls":7608,"Ġcub":7609,"Ġfel":7610,"Ġfinger":7611,"Ġpin":7612,"Ġlung":7613,"ĠSull":7614,"ĠCross":7615,"igaret":7616,"irty":7617,"osh":7618,"ĠJong":7619,"Ġclimb":7620,"eping":7621,"Ġoverwhel":7622,"ĠYemen":7623,"Ġanywhere":7624,"Ġ54":7625,"Ġending":7626,"Ġguarant":7627,"Ġfollows":7628,"nessee":7629,"Ġspecialist":7630,"Ġstronger":7631,"Ġopportunities":7632,"Ġcultural":7633,"Ġentirely":7634,"Ġnormally":7635,"Ġwidespread":7636,"Ġrecommend":7637,"BA":7638,"Rep":7639,"care":7640,"icts":7641,"stone":7642,"Ġgap":7643,"uro":7644,"etime":7645,"ĠLocal":7646,"ĠFood":7647,"ĠRy":7648,"ĠNSA":7649,"ĠGet":7650,"Ġaccur":7651,"Ġrecall":7652,"aware":7653,"athon":7654,"Ġregret":7655,"exp":7656,"centre":7657,"aii":7658,"Ġformal":7659,"ĠJean":7660,"Ġrescued":7661,"Ġreforms":7662,"Ġintrod":7663,"Ġexisting":7664,"Ġsuddenly":7665,"Ġdubbed":7666,"aghdad":7667,"800":7668,"Ġtheory":7669,"Ġod":7670,"lete":7671,"oty":7672,"Ġgro":7673,"ĠDra":7674,"Ġ($":7675,"Ġcontaining":7676,"Ġdispl":7677,"Ġenorm":7678,"ĠBright":7679,"Ġsubsequ":7680,"Ġinfected":7681,"Ġinstruct":7682,"ĠPhot":7683,"attered":7684,"Ġcutting":7685,"Ġactivist":7686,"Ġturns":7687,"Ġtotally":7688,"ĠSimpson":7689,"Ġconstruction":7690,"ĠMelbourne":7691,"Ġchampionship":7692,"Ġsuspicion":7693,"Ġbirds":7694,"Ġbrutal":7695,"ĠRonaldo":7696,"ĠAbbott":7697,"Ġcocaine":7698,"din":7699,"door":7700,"ridge":7701,"zer":7702,"Ġbasket":7703,"Ġhidden":7704,"Ġpig":7705,"alo":7706,"icious":7707,"iders":7708,"ĠServ":7709,"ĠMas":7710,"amm":7711,"ĠHait":7712,"ĠDj":7713,"Ġ(Â£":7714,"ocket":7715,"Ġgrass":7716,"Ġexposed":7717,"Ġrestrain":7718,"Ġswitch":7719,"ĠSean":7720,"ĠSeattle":7721,"Ġclassic":7722,"ĠSwitzer":7723,"ĠRodriguez":7724,"Ġcomfortable":7725,"ĠTransport":7726,"Ġslightly":7727,"ĠPentagon":7728,"ĠSwitzerland":7729,"CS":7730,"dis":7731,"maker":7732,"Ġfier":7733,"itage":7734,"esity":7735,"Ġmechan":7736,"lec":7737,"acular":7738,"Ġanx":7739,"ema":7740,"ĠRangers":7741,"Ġshops":7742,"Ġchap":7743,"abama":7744,"umed":7745,"ĠKey":7746,"antic":7747,"apes":7748,"Ġadministr":7749,"Ġattending":7750,"ĠBrother":7751,"ĠClark":7752,"Ġpositions":7753,"Ġrent":7754,"Ġaccommod":7755,"Ġattracted":7756,"Ġpriority":7757,"ĠCastro":7758,"Ġrelatively":7759,"ndrome":7760,"asion":7761,"ĠSorry":7762,"ĠMen":7763,"ĠLyn":7764,"ĠRem":7765,"overty":7766,"ĠSport":7767,"Ġextensive":7768,"Ġexplo":7769,"Ġmeetings":7770,"Ġdealing":7771,"Ġnetworks":7772,"iece":7773,"Ġreaching":7774,"Ġdemanded":7775,"panied":7776,"ĠHolland":7777,"Ġsearched":7778,"Ġregistered":7779,"eals":7780,"pes":7781,"Ġsch":7782,"real":7783,"oration":7784,"Ġfile":7785,"itting":7786,"Ġmut":7787,"Ġlaid":7788,"Ġnav":7789,"Ġrein":7790,"ĠBan":7791,"ĠHo":7792,"ĠPass":7793,"ĠPope":7794,"earing":7795,"Ġru":7796,"Ġchocol":7797,"abilities":7798,"umph":7799,"ivan":7800,"Ġamounts":7801,"Ġputs":7802,"ĠRussell":7803,"ĠAmanda":7804,"Ġ05":7805,"Ġannounce":7806,"Ġforest":7807,"Ġorganisation":7808,"razy":7809,"Ġthrowing":7810,"Ġimproved":7811,"Ġvalues":7812,"hetic":7813,"Ġdefendant":7814,"ĠGarcia":7815,"Ġrapid":7816,"Ġexhibition":7817,"Ġdedicated":7818,"Ġterritory":7819,"Ġacknowledged":7820,"Ġunemployment":7821,"ĠLaura":7822,"55":7823,"En":7824,"LL":7825,"with":7826,"Ġsac":7827,"Ġcited":7828,"Ġbat":7829,"Ġhiding":7830,"Ġdiver":7831,"ĠAtletico":7832,"ami":7833,"ĠCair":7834,"ĠHon":7835,"ĠLet":7836,"ĠRose":7837,"ĠKer":7838,"Ġclashes":7839,"Ġteeth":7840,"Ġoffices":7841,"Ġdecline":7842,"Ġawareness":7843,"Ġheadquarters":7844,"grade":7845,"ĠAsked":7846,"ĠFlight":7847,"Ġconvin":7848,"Ġproducer":7849,"aska":7850,"Ġvariety":7851,"Ġcruel":7852,"Ġshocking":7853,"Ġexperiences":7854,"ĠCharlie":7855,"Ġtypically":7856,"ĠJimmy":7857,"Ġeffectively":7858,"Ġapplication":7859,"Ġdetectives":7860,"idelines":7861,"ĠTennessee":7862,"Ġaccusations":7863,"Ġfantastic":7864,"Ġentitled":7865,"23":7866,"AS":7867,"bar":7868,"li":7869,"Ġtank":7870,"Ġtired":7871,"Ġbon":7872,"Ġbeer":7873,"olar":7874,"Ġsty":7875,"ĠLincoln":7876,"Ġovernight":7877,"Ġcompound":7878,"ancer":7879,"ĠAlabama":7880,"Ġ51":7881,"Ġsett":7882,"Ġposting":7883,"Ġfinds":7884,"Ġskull":7885,"Ġveget":7886,"class":7887,"ĠThatcher":7888,"Ġbabies":7889,"Ġcommentary":7890,"Ġgrave":7891,"ĠLuis":7892,"ĠOfficer":7893,"ĠiPad":7894,"Ġjudges":7895,"Ġvacc":7896,"Ġtaste":7897,"ĠServices":7898,"Ġfault":7899,"asy":7900,"idi":7901,"ĠAff":7902,"Ġforget":7903,"ira":7904,"Ġsheriff":7905,"ĠKenn":7906,"aved":7907,"Ġappointed":7908,"ĠAnne":7909,"Ġguide":7910,"ĠClar":7911,"Ġdemands":7912,"Ġadvance":7913,"Ġtechnical":7914,"Ġinteresting":7915,"ĠLuke":7916,"Ġcommunications":7917,"ĠDoctors":7918,"Ġconvinced":7919,"Mar":7920,"Ġsib":7921,"Ġsits":7922,"rets":7923,"rehens":7924,"aling":7925,"Ġmisc":7926,"ĠWhe":7927,"Ġconced":7928,"ĠNov":7929,"odes":7930,"usting":7931,"quiao":7932,"ĠAnton":7933,"Ġ56":7934,"Ġemph":7935,"Ġfilming":7936,"Ġmissile":7937,"Ġdepend":7938,"nesota":7939,"Ġspeculation":7940,"Ġaffairs":7941,"ĠAustin":7942,"Ġoldest":7943,"Ġadvised":7944,"Ġinformed":7945,"Ġgrandfather":7946,"Ġrepresentative":7947,"Ġexplosion":7948,"ĠBusiness":7949,"ĠUtah":7950,"ĠSeveral":7951,"ĠStewart":7952,"ĠTories":7953,"olph":7954,"ĠMu":7955,"ĠBM":7956,"ĠLl":7957,"ĠFre":7958,"ĠFur":7959,"ĠNat":7960,"ĠEst":7961,"ateful":7962,"endum":7963,"Ġunits":7964,"Ġunivers":7965,"Ġfounded":7966,"Ġplants":7967,"Ġprotected":7968,"Ġairstri":7969,"Ġinterviewed":7970,"Ġlowest":7971,"Ġexpecting":7972,"Ġcharacters":7973,"Ġdevastating":7974,"Ġbreath":7975,"Ġcomedy":7976,"ĠBelgium":7977,"Ġtouched":7978,"Ġmicro":7979,"ĠNigel":7980,".)":7981,"Sh":7982,"list":7983,"Ġster":7984,"Ġsisters":7985,"Ġbike":7986,"Ġpages":7987,"alia":7988,"Ġmask":7989,"ila":7990,"Ġnomin":7991,"ĠTs":7992,"ĠTes":7993,"Ġgest":7994,"roid":7995,"ĠDallas":7996,"ĠLisa":7997,"Ġjihad":7998,"Ġfiring":7999,"venue":8000,"ĠBris":8001,"ĠBloom":8002,"Ġapology":8003,"Ġdenies":8004,"ĠAssad":8005,"Ġcovering":8006,"ĠFerr":8007,"Ġbreathing":8008,"Ġpurpose":8009,"Ġstretch":8010,"ĠMessi":8011,"ĠEdinburgh":8012,"OW":8013,"col":8014,"Ġtat":8015,"Ġtape":8016,"Ġtheft":8017,"ĠAre":8018,"esty":8019,"ĠFro":8020,"Ġmeals":8021,"Ġenemy":8022,"Ġblank":8023,"Ġchildhood":8024,"Ġbranch":8025,"ĠBristol":8026,"ĠQPR":8027,"Ġdetailed":8028,"Ġcouples":8029,"ĠMinnesota":8030,"Ġgunman":8031,"Ġhotels":8032,"Ġdeny":8033,"Ġpleas":8034,"Ġdrawing":8035,"Ġdispute":8036,"onnell":8037,"Ġapplied":8038,"ĠMohammed":8039,"Ġcontrolled":8040,"ĠMargaret":8041,"free":8042,"lings":8043,"mile":8044,"vard":8045,"writ":8046,"Ġtip":8047,"Ġtwe":8048,"Ġcope":8049,"Ġfaster":8050,"aying":8051,"Ġgained":8052,"Ġalert":8053,"chi":8054,"ĠLes":8055,"Ġriding":8056,"ĠGaza":8057,"ĠJud":8058,"Ġvent":8059,"Ġoffence":8060,"ĠVlad":8061,"Ġcolor":8062,"Ġfactors":8063,"Ġlift":8064,"ĠBeckham":8065,"ĠGraham":8066,"ĠAguero":8067,"!!":8068,"king":8069,"Ġiron":8070,"Ġtie":8071,"Ġtaught":8072,"Ġsector":8073,"Ġward":8074,"level":8075,"ĠFo":8076,"essing":8077,"umes":8078,"Ġabroad":8079,"Ġ57":8080,"Ġacted":8081,"Ġmemories":8082,"Ġobjects":8083,"Ġarriving":8084,"Ġpresenter":8085,"Ġreferendum":8086,"ĠPakistani":8087,"ĠOthers":8088,"ĠDefence":8089,"Ġinnov":8090,"Ġdelayed":8091,"Ġassaulted":8092,"Ġbattery":8093,"ĠProsecutors":8094,"Ġmonitoring":8095,"Ġopponents":8096,"ĠCuba":8097,"Russ":8098,"mo":8099,"ser":8100,"oral":8101,"Ġge":8102,"ĠAston":8103,"ĠCBS":8104,"imer":8105,"ĠLt":8106,"ĠLive":8107,"ĠRand":8108,"Ġselect":8109,"Ġshed":8110,"Ġcontained":8111,"athy":8112,"Ġbrown":8113,"Ġminimum":8114,"Ġtries":8115,"Ġ64":8116,"Ġentr":8117,"Ġdrama":8118,"Ġharder":8119,"Ġexcell":8120,"Ġtourist":8121,"Ġpredict":8122,"ĠAtlantic":8123,"Ġmanufactur":8124,"ĠBiden":8125,"Ġcompensation":8126,"burn":8127,"bane":8128,"inch":8129,"amber":8130,"ether":8131,"iller":8132,"ĠHad":8133,"ĠFather":8134,"ĠFDA":8135,"ĠNob":8136,"Ġramp":8137,"Ġchall":8138,"resents":8139,"ĠKl":8140,"Ġbecomes":8141,"issippi":8142,"Ġblast":8143,"ĠAny":8144,"ĠQatar":8145,"Ġmanaging":8146,"Ġcelebrating":8147,"Ġimportance":8148,"Ġracial":8149,"Ġsurprising":8150,"ĠBayern":8151,"Ġsleeping":8152,"Ġslowly":8153,"................":8154,"Ġupdated":8155,"Ġoverseas":8156,"ĠScientists":8157,"ĠSpecial":8158,"33":8159,"ci":8160,"uous":8161,"Ġcul":8162,"Ġfruit":8163,"stream":8164,"imir":8165,"ĠBond":8166,"ĠPear":8167,"Ġconcept":8168,"Ġmanner":8169,"Ġscar":8170,"ĠEnter":8171,"Ġreferee":8172,"beat":8173,"ĠSee":8174,"Ġcelebrated":8175,"Ġclasses":8176,"Ġcalc":8177,"ĠDemocrat":8178,"Ġcrossed":8179,"ĠResearchers":8180,"ĠKenya":8181,"ĠSurrey":8182,"Ġreligion":8183,"Ġspecifically":8184,"Ġoccasions":8185,"ĠKatie":8186,"Ġwealthy":8187,"Ġnurses":8188,"ĠChapman":8189,"ĠDubai":8190,"ĠSnowden":8191,"Ġsatellite":8192,"uer":8193,"ximately":8194,"Ġfitness":8195,"icial":8196,"Ġlad":8197,"Ġwaste":8198,"ĠPowell":8199,"ifts":8200,"Ġvig":8201,"Ġvowed":8202,"Ġages":8203,"ĠChancellor":8204,"Ġdeficit":8205,"Ġ63":8206,"Ġfactor":8207,"Ġtaxes":8208,"Ġplea":8209,"Ġrelationships":8210,"While":8211,"loaded":8212,"ĠRobinson":8213,"Ġbombing":8214,"Ġpsychiat":8215,"ĠBrend":8216,"Ġdiplomatic":8217,"Ġwalks":8218,"Ġarchitect":8219,"zy":8220,"Ġbizarre":8221,"Ġinmates":8222,"Ġloyal":8223,"iga":8224,"ĠBon":8225,"ĠBad":8226,"ĠBaker":8227,"ĠGadhafi":8228,"Ġshares":8229,"Ġprohib":8230,"Ġrepresents":8231,"ĠVen":8232,"Ġbacking":8233,"inking":8234,"ugs":8235,"Ġassass":8236,"Ġcapacity":8237,"Ġyoungest":8238,"Ġartists":8239,"Ġcompetitive":8240,"Ġcriminals":8241,"Ġracist":8242,"Ġbullying":8243,"Ġpredicted":8244,"Ġencouraged":8245,"Ġindicated":8246,"Ġregarding":8247,"ĠPacquiao":8248,"iques":8249,"ĠHawaii":8250,"Ġcondemned":8251,"Ġfrozen":8252,"ĠEssex":8253,"but":8254,"da":8255,"ded":8256,"sen":8257,"uine":8258,"Ġtail":8259,"Ġwine":8260,"isons":8261,"Ġhole":8262,"Ġgreet":8263,"ĠCrit":8264,"ĠCrystal":8265,"iro":8266,"roc":8267,"unior":8268,"ĠâĢ¢":8269,"ĠStur":8270,"onduct":8271,"weather":8272,"Ġ58":8273,"Ġgrade":8274,"Ġmini":8275,"Ġemails":8276,"Ġguest":8277,"Ġwinners":8278,"Ġdrone":8279,"annah":8280,"Ġelsewhere":8281,"Ġsuccessfully":8282,"Ġteenagers":8283,"Ġexciting":8284,"Ġmarketing":8285,"Ġindustrial":8286,"Ġhonour":8287,"trol":8288,"Ġoptim":8289,"Ġwelcom":8290,"ĠJulie":8291,"Ġassessment":8292,"ĠMalaysia":8293,"Mr":8294,"pass":8295,"Ġpoverty":8296,"olly":8297,"ĠCas":8298,"terror":8299,"osition":8300,"children":8301,"ĠDur":8302,"ĠFund":8303,"Ġshout":8304,"acker":8305,"Ġoverd":8306,"Ġteach":8307,"Ġtherefore":8308,"ointing":8309,"ooth":8310,"Ġextent":8311,"approp":8312,"Ġtransition":8313,"ĠAbbey":8314,"Ġreads":8315,"Ġcivilian":8316,"Ġera":8317,"Ġholidays":8318,"Ġambassador":8319,"Ġpilots":8320,"Ġconstantly":8321,"Ġpeaceful":8322,"Ġilleg":8323,"ĠMaryland":8324,"Ġshelter":8325,"Ġadvertising":8326,"Ġresulted":8327,"Ġstroke":8328,"ĠTrafford":8329,"Ġchocolate":8330,"59":8331,"cott":8332,"how":8333,"range":8334,"sk":8335,"âĤ":8336,"aron":8337,"arms":8338,"Ġhunt":8339,"Ġtools":8340,"Ġpapers":8341,"ici":8342,"idal":8343,"Ġlady":8344,"ĠMit":8345,"ĠChen":8346,"Ġstages":8347,"ĠBent":8348,"ules":8349,"ĠEnd":8350,"Ġscan":8351,"Ġrecession":8352,"encer":8353,"Ġpasses":8354,"Ġpromin":8355,"Ġstrongly":8356,"Ġcolleague":8357,"Ġrepresenting":8358,"Ġprize":8359,"Ġmulti":8360,"Ġspeaks":8361,"Ġordeal":8362,"Ġtransferred":8363,"Ġadopt":8364,"ĠSafety":8365,"ĠSudan":8366,"Ġenormous":8367,"âĤ¬":8368,"ais":8369,"equ":8370,"math":8371,"uations":8372,"zed":8373,"Ġtur":8374,"ĠMitt":8375,"acement":8376,"ĠDiv":8377,"uls":8378,"Ġsugar":8379,"above":8380,"Ġshell":8381,"Ġusual":8382,"Ġteens":8383,"Ġsmile":8384,"Ġlawmakers":8385,"Ġhandle":8386,"Ġmemor":8387,"Ġstrange":8388,"erald":8389,"ĠMississippi":8390,"enging":8391,"ĠJuan":8392,"Ġfunny":8393,"Ġcollision":8394,"Ġrepresented":8395,"inois":8396,"Ġanswers":8397,"ught":8398,"Ġreferring":8399,"Ġbrave":8400,"ĠCharlotte":8401,"respond":8402,"ĠJeremy":8403,"ĠAcademy":8404,"Ġelectricity":8405,"Ġfrequently":8406,"ĠCardiff":8407,"Ġtherapy":8408,"Ġorganizations":8409,"ĠNasa":8410,"ĠSullivan":8411,"CR":8412,"ders":8413,"lar":8414,"yo":8415,"Ġsacked":8416,"Ġcous":8417,"itis":8418,"uting":8419,"Ġstamp":8420,"ĠHend":8421,"ĠWas":8422,"ĠWolf":8423,"ĠRachel":8424,"enda":8425,"Ġafterwards":8426,"ĠKurd":8427,"ĠStat":8428,"Ġallies":8429,"Ġrecruit":8430,"Ġactual":8431,"Ġbrings":8432,"Ġemp":8433,"Ġshoulder":8434,"Ġconfron":8435,"Ġdiscl":8436,"Ġvisible":8437,"Ġglam":8438,"ĠProject":8439,"Ġrequests":8440,"Ġmovies":8441,"Ġprotecting":8442,"Ġportray":8443,"Ġcombined":8444,"ĠForest":8445,"ĠCaroline":8446,"Ġhyp":8447,"Ġclinic":8448,"Ġobvious":8449,"ĠJewish":8450,"ĠPalestinian":8451,"ĠFriends":8452,"44":8453,"His":8454,"rington":8455,"Ġtent":8456,"Ġsounds":8457,"rete":8458,"Ġped":8459,"Ġnick":8460,"Ġnobody":8461,"ĠTower":8462,"ĠAp":8463,"ĠHills":8464,"Ġselection":8465,"aby":8466,"Ġmonitor":8467,"ulture":8468,"Ġdecor":8469,"Ġcounty":8470,"phones":8471,"Ġends":8472,"Ġsmashed":8473,"Ġinvestigations":8474,"Ġdrinks":8475,"Ġdrunk":8476,"Ġdisturb":8477,"ĠSerge":8478,"Ġinterviews":8479,"Ġerror":8480,"ĠNeil":8481,"Ġiniti":8482,"ĠLibyan":8483,"ycle":8484,"Ġencouraging":8485,"ĠStudent":8486,"ĠSandy":8487,"Ġbegun":8488,"ĠSocial":8489,"Ġveterans":8490,"Ġadopted":8491,"Ġwithdraw":8492,"Ġdeparture":8493,"rahim":8494,"Ġdemocracy":8495,"Ġpermanent":8496,"Ġearthquake":8497,"32":8498,"75":8499,"?âĢĻ":8500,"Ġtens":8501,"inations":8502,"armed":8503,"Ġmand":8504,"ications":8505,"Ġliqu":8506,"amous":8507,"\"\"\",\"":8508,"ĠHM":8509,"ĠPle":8510,"unction":8511,"Ġyes":8512,"Ġhabit":8513,"ĠLy":8514,"Ġconver":8515,"ĠEth":8516,"Ġshall":8517,"Ġshark":8518,"Ġsuc":8519,"Ġexcess":8520,"ĠStation":8521,"Ġresolution":8522,"Ġfined":8523,"gging":8524,"Ġlegacy":8525,"Ġposts":8526,"ikh":8527,"Ġspokesperson":8528,"Ġgenuine":8529,"Ġposing":8530,"Ġprofession":8531,"Ġlisten":8532,"Ġdivision":8533,"Ġopposite":8534,"ĠNotting":8535,"ĠFarage":8536,"Ġwarnings":8537,"Ġtypes":8538,"Ġpurchase":8539,"Ġspectacular":8540,"Ġpraised":8541,"iac":8542,"low":8543,"rical":8544,"rend":8545,"itable":8546,"Ġrehab":8547,"stairs":8548,"uts":8549,"ĠCirc":8550,"ĠBaghdad":8551,"ĠPers":8552,"Ġyards":8553,"thal":8554,"ĠLand":8555,"ĠEmer":8556,"Ġjoy":8557,"Ġworn":8558,"Ġcancel":8559,"Ġ1950":8560,"ĠArk":8561,"Ġchef":8562,"Ġmilitant":8563,"Ġdetention":8564,"Ġobesity":8565,"stitutes":8566,"Ġplease":8567,"Ġcreative":8568,"Ġtracks":8569,"glas":8570,"Ġprocedures":8571,"Ġrecovering":8572,"Ġsharp":8573,"',\"":8574,"250":8575,"34":8576,"die":8577,"mith":8578,"ati":8579,"Ġlobby":8580,"Ġgender":8581,"Ġgift":8582,"roso":8583,"ĠBox":8584,"Ġwhist":8585,"ĠJobs":8586,"ghazi":8587,"Ġjur":8588,"Ġoutcome":8589,"Ġclosing":8590,"acey":8591,"Ġpeak":8592,"Ġflown":8593,"ĠAnna":8594,"Ġwarrant":8595,"Ġentering":8596,"ĠEuro":8597,"ĠIndepend":8598,"Ġpleased":8599,"nsic":8600,"Ġneighbours":8601,"load":8602,"ĠPhilip":8603,"Ġestimates":8604,"Ġachieved":8605,"ĠCaptain":8606,"Ġemotion":8607,"ĠCommissioner":8608,"Ġresigned":8609,"Ġhunting":8610,"Ġsuspicious":8611,"Ġemphas":8612,"Now":8613,"final":8614,"Ġaer":8615,"Ġfishing":8616,"Ġpink":8617,"entle":8618,"ĠTrib":8619,"ĠTurn":8620,"ĠSouthern":8621,"estone":8622,"ĠNav":8623,"oded":8624,"Ġspr":8625,"ideo":8626,"Ġmanage":8627,"angel":8628,"wealth":8629,"Ġowns":8630,"ĠReid":8631,"Ġlegit":8632,"Ġcamps":8633,"Ġcampus":8634,"Ġrequires":8635,"Ġwebsites":8636,"ĠBenghazi":8637,"Ġcrews":8638,"Ġbaseball":8639,"Ġdreams":8640,"Ġsmartphone":8641,"Ġbleeding":8642,"Ġremarkable":8643,"ĠMunich":8644,"Ġdirected":8645,"Ġtransplant":8646,"ĠVladimir":8647,"caster":8648,"front":8649,"inter":8650,"erate":8651,"Ġpump":8652,"Ġdust":8653,"icing":8654,"Ġloud":8655,"ĠTar":8656,"ĠSent":8657,"ĠMors":8658,"acc":8659,"acter":8660,"Ġstole":8661,"ifted":8662,"ĠGover":8663,"Ġsequ":8664,"ecting":8665,"ailand":8666,"ĠThailand":8667,"Ġattached":8668,"awa":8669,"Ġimposed":8670,"Ġcoord":8671,"rett":8672,"Ġpersonality":8673,"enna":8674,"Ġobst":8675,"Ġfoods":8676,"Ġdistress":8677,"Ġcontrols":8678,"ĠMidlands":8679,"ĠBoard":8680,"Ġportra":8681,"Ġsporting":8682,"Ġprayers":8683,"graph":8684,"Ġstructure":8685,"Ġsupplies":8686,"ĠStafford":8687,"ĠColombia":8688,"ĠIllinois":8689,"Ġlandscape":8690,"Ġodds":8691,"Ġchallenging":8692,"49":8693,"AC":8694,"Ass":8695,"hill":8696,"orge":8697,"Ġdial":8698,"ĠTro":8699,"ĠSU":8700,"ĠMI":8701,"ĠCivil":8702,"ĠDave":8703,"Ġspac":8704,"ometers":8705,"orses":8706,"Ġblocked":8707,"Ġhelmet":8708,"ĠLeban":8709,"Ġcourtroom":8710,"ĠGuine":8711,"Ġlimits":8712,"ructure":8713,"ĠBoe":8714,"Ġrenew":8715,"venth":8716,"Ġarchae":8717,"Ġwildlife":8718,"Ġignored":8719,"Ġessential":8720,"Ġsettlement":8721,"Ġaffiliate":8722,"Ġdiscrimination":8723,"ĠCairo":8724,"ĠBrisbane":8725,"Just":8726,"box":8727,"face":8728,"grees":8729,"made":8730,"tt":8731,"uable":8732,"onia":8733,"Ġpupp":8734,"ĠCall":8735,"ĠBos":8736,"âĢ¦":8737,"ĠWhere":8738,"ĠFair":8739,"ĠNight":8740,"ĠNelson":8741,"odge":8742,"okovic":8743,"ĠKay":8744,"Ġrepair":8745,"identified":8746,"Ġrecru":8747,"Ġfirms":8748,"onsin":8749,"aimed":8750,"Ġfinishing":8751,"Ġembr":8752,"Ġindeed":8753,"Ġmarry":8754,"Ġcheer":8755,"ĠBarnes":8756,"portion":8757,"Ġtraveling":8758,"Ġpaint":8759,"Ġexecuted":8760,"ylum":8761,"Ġautomatic":8762,"isconsin":8763,"Ġrebu":8764,"Ġsongs":8765,"ĠFederer":8766,"Ġeggs":8767,"Ġencounter":8768,"Ġbarely":8769,"Two":8770,"ois":8771,"ww":8772,"Ġmere":8773,"olved":8774,"ĠMack":8775,"ĠBin":8776,"ĠBook":8777,"ando":8778,"Ġshore":8779,"Ġdegrees":8780,"Ġneither":8781,"Ġcomprom":8782,"aws":8783,"tershire":8784,"ĠLeg":8785,"Ġawa":8786,"Ġrespective":8787,"Ġhighlight":8788,"Ġaffects":8789,"Ġski":8790,"ĠMayweather":8791,"Ġadviser":8792,"Ġapproximately":8793,"Ġdisappointed":8794,"Ġattempting":8795,"ĠTravel":8796,"Ġaims":8797,"Ġheroin":8798,"embly":8799,"Ġmedication":8800,"ĠBrooklyn":8801,"Ġunderwent":8802,"Ġmentioned":8803,"Ġsubstant":8804,"Ġsubstance":8805,"ĠDouglas":8806,"Ġevacuated":8807,"Ġbottle":8808,"ĠSweden":8809,"Ġfelony":8810,"ĠDjokovic":8811,"cons":8812,"ean":8813,"jan":8814,"erg":8815,"Ġwing":8816,"Ġcake":8817,"Ġmos":8818,"Ġlav":8819,"ĠTou":8820,"ĠTem":8821,"aders":8822,"Ġforms":8823,"irm":8824,"Ġstable":8825,"ĠPelle":8826,"Ġaside":8827,"thur":8828,"ĠFive":8829,"ĠEastern":8830,"ively":8831,"season":8832,"anged":8833,"Ġquoted":8834,"Ġanybody":8835,"certain":8836,"Ġpersonally":8837,"Ġrealized":8838,"Ġfacts":8839,"Ġkeeps":8840,"Ġkeeper":8841,"ĠHoward":8842,"Ġfundra":8843,"Ġerup":8844,"Ġdressing":8845,"Ġabsence":8846,"ĠHollande":8847,"ĠGuardian":8848,"Ġvolunteers":8849,"Ġkidnapping":8850,"Ġwheelchair":8851,"ĠClarke":8852,".-":8853,"700":8854,"ih":8855,"ports":8856,"tim":8857,"xual":8858,"Ġcigaret":8859,"Ġbone":8860,"Ġbru":8861,"Ġfed":8862,"Ġfame":8863,"esh":8864,"arak":8865,"ĠCher":8866,"Ġforcing":8867,"roit":8868,"ĠBol":8869,"\"\".":8870,"ĠWol":8871,"ĠWimb":8872,"ĠRaf":8873,"ĠNancy":8874,"Ġdeem":8875,"abs":8876,"ĠHead":8877,"ĠChile":8878,"Ġtrapped":8879,"Ġaddressed":8880,"ĠMario":8881,"Ġtriumph":8882,"Ġgoods":8883,"ception":8884,"Ġequival":8885,"Ġhosts":8886,"Ġsolid":8887,"Ġsurvival":8888,"Ġcollapse":8889,"Ġcrowds":8890,"Ġaccompanied":8891,"Ġpersu":8892,"Ġhyd":8893,"ĠArabia":8894,"Ġargue":8895,"ĠMagistrates":8896,"Ġpledged":8897,"ĠGhana":8898,"Ġsurvivors":8899,"ĠTunis":8900,"ĠNottingham":8901,"150":8902,"bag":8903,"case":8904,"Ġbes":8905,"Ġfill":8906,"Ġhanging":8907,"Ġpace":8908,"Ġnerv":8909,"ĠAut":8910,"ĠMaur":8911,"ĠBrom":8912,"ĠHy":8913,"riers":8914,"Ġasylum":8915,"Ġank":8916,"Ġalt":8917,"ĠWisconsin":8918,"ifting":8919,"Ġrounds":8920,"astro":8921,"ubarak":8922,"Ġapps":8923,"ledon":8924,"hner":8925,"Ġregul":8926,"Ġregions":8927,"Ġstudying":8928,"Ġsmugg":8929,"Ġconfront":8930,"ĠRef":8931,"ĠClass":8932,"ĠBarry":8933,"Ġappearing":8934,"ucker":8935,"Ġfeelings":8936,"ĠAmb":8937,"Ġtwin":8938,"ĠEmb":8939,"Ġfields":8940,"ĠVictor":8941,"Ġpolls":8942,"Ġconsumer":8943,"ĠOliv":8944,"ĠNetwork":8945,"ĠHillary":8946,"ĠSilver":8947,"ĠBailey":8948,"Ġgrabbed":8949,"Ġmystery":8950,"second":8951,"ĠNadal":8952,"ĠBrighton":8953,"aver":8954,"uay":8955,"held":8956,"Ġcos":8957,"Ġinapprop":8958,"Ġmood":8959,"omed":8960,"Ġbears":8961,"ĠMah":8962,"ĠMajor":8963,"Ġstations":8964,"ĠBureau":8965,"ĠWy":8966,"ĠNS":8967,"ctic":8968,"ĠOK":8969,"Ġproof":8970,"Ġabd":8971,"Ġoutfit":8972,"ĠChild":8973,"onde":8974,"iants":8975,"Ġappeals":8976,"ĠVill":8977,"ĠViet":8978,"Ġ59":8979,"Ġweekly":8980,"Ġacad":8981,"ĠZoo":8982,"Ġyoungster":8983,"bean":8984,"Ġconvictions":8985,"Ġbusinessman":8986,"Ġcelebration":8987,"Ġframe":8988,"Ġpopularity":8989,"Ġhearts":8990,"Ġrarely":8991,"Ġbranded":8992,"Ġairlines":8993,"Ġminority":8994,"ĠSusan":8995,"istorius":8996,"Ġsustained":8997,"ĠCabinet":8998,"Ġkilometers":8999,"ĠPortugal":9000,"ĠWimbledon":9001,"xic":9002,"Ġfare":9003,"ilst":9004,"Ġthick":9005,"ĠSad":9006,"ĠSoph":9007,"ĠAC":9008,"ĠAaron":9009,"ĠMH":9010,"Ġstressed":9011,"ĠPistorius":9012,"ested":9013,"ĠLook":9014,"ĠLane":9015,"ĠNear":9016,"ĠEight":9017,"ĠJay":9018,"ante":9019,"ĠThousands":9020,"rition":9021,"Ġcommander":9022,"Ġimpression":9023,"Ġ67":9024,"ĠShaw":9025,"Ġposter":9026,"Ġ85":9027,"Ġbreach":9028,"Ġinstance":9029,"Ġmurdering":9030,"Ġtraveled":9031,"ĠAdd":9032,"Ġmainly":9033,"Ġelite":9034,"Ġtechniques":9035,"ĠGray":9036,"Ġrif":9037,"Ġtitles":9038,"Ġdestination":9039,"Ġsafely":9040,"Ġdiscussed":9041,"Ġchecked":9042,"Ġscientific":9043,"Ġrequested":9044,"ĠGreater":9045,"ĠDetroit":9046,"upper":9047,"winning":9048,"Ġridic":9049,"ĠMorrison":9050,"Ġpartnership":9051,"Ġdiplom":9052,"Ġcaution":9053,"ĠIbrahim":9054,"Ġbasketball":9055,"47":9056,"48":9057,"BO":9058,"Jo":9059,"bal":9060,"government":9061,"Ġfright":9062,"Ġdates":9063,"ĠTed":9064,"Ġstunt":9065,"usal":9066,"oping":9067,"Ġrating":9068,"Ġjoke":9069,"mented":9070,"Ġspin":9071,"ello":9072,"Ġresidence":9073,"ilding":9074,"ĠBritons":9075,"Ġlovely":9076,"Ġinspiration":9077,"Ġerr":9078,"ĠMorning":9079,"Ġuncle":9080,"Ġcruise":9081,"Ġsilence":9082,"ĠWoods":9083,"ventus":9084,"ĠGolden":9085,"Ġvacation":9086,"Ġcopy":9087,"Ġentertainment":9088,"cript":9089,"Ġroughly":9090,"Ġretirement":9091,"Ġchaos":9092,"Ġexcellent":9093,"CH":9094,"rast":9095,"Ġtensions":9096,"Ġsed":9097,"org":9098,"Ġtodd":9099,"Ġmel":9100,"Ġdiving":9101,"Ġdancing":9102,"omo":9103,"ĠCu":9104,"ĠRet":9105,"ĠGill":9106,"ĠJill":9107,"Ġprobe":9108,"ectors":9109,"Ġpron":9110,"Ġimprison":9111,"ĠAndroid":9112,"ĠSpencer":9113,"Ġtrials":9114,"Ġ68":9115,"Ġregulations":9116,"Ġwarn":9117,"Ġhandling":9118,"Ġlocations":9119,"ĠCarib":9120,"lessly":9121,"Ġforever":9122,"Ġpublish":9123,"Ġgenerally":9124,"Ġdiscussion":9125,"Ġtablet":9126,"Ġsalary":9127,"Ġunfair":9128,"Ġmaterials":9129,"Ġanticip":9130,"Ġcycl":9131,"Ġstealing":9132,"Ġcongressional":9133,"Ġconclusion":9134,"ĠBarbara":9135,"Ġsucceed":9136,"Bl":9137,"bi":9138,"dam":9139,"oons":9140,"hem":9141,"esus":9142,"Ġho":9143,"Ġtool":9144,"Ġpocket":9145,"Ġluck":9146,"Ġeighth":9147,"eta":9148,"andom":9149,"ĠRow":9150,"Ġrig":9151,"ĠGreek":9152,"Ġaftermath":9153,"ucks":9154,"Ġfoundation":9155,"Ġdefensive":9156,"Ġdonations":9157,"ĠPolish":9158,"Ġhumil":9159,"owski":9160,"Ġadvent":9161,"ropolitan":9162,"Ġfunction":9163,"Ġbreaks":9164,"Ġpicking":9165,"Ġvolcan":9166,"Ġcriticized":9167,"Ġbosses":9168,"profile":9169,"ĠTodd":9170,"borough":9171,"Ġdiagnosis":9172,"ĠLouisiana":9173,"Ġpulling":9174,"Ġbombs":9175,"ĠIndonesia":9176,"ĠCommonwealth":9177,"Ġairstrikes":9178,"Ġwelcomed":9179,"ĠBoehner":9180,"lus":9181,"tra":9182,"uan":9183,"yang":9184,"Ġbitter":9185,"leep":9186,"Ġla":9187,"ĠTH":9188,"ĠMaj":9189,"ĠHit":9190,"ĠPen":9191,"Ġhaz":9192,"ĠDomin":9193,"ĠFest":9194,"ĠNa":9195,"ĠGonz":9196,"Ġdeals":9197,"ĠOwen":9198,"okyo":9199,"Ġclim":9200,"Ġclip":9201,"Ġcomprehens":9202,"Ġdisag":9203,"ogan":9204,"ogether":9205,"Ġtrick":9206,"Ġflash":9207,"Ġtrains":9208,"Ġtrips":9209,"enez":9210,"Ġcheap":9211,"Ġvisits":9212,"Ġcontrast":9213,"Ġdepth":9214,"ikes":9215,"Ġcert":9216,"Ġcompeting":9217,"Ġfootballer":9218,"guard":9219,"Ġtrophy":9220,"ĠMedic":9221,"Ġtelephone":9222,"Ġranks":9223,"Ġembassy":9224,"Ġsignificantly":9225,"Ġmixed":9226,"ĠOsborne":9227,"Ġnegotiations":9228,"ĠDerby":9229,"Assad":9230,"90":9231,"lan":9232,"lock":9233,"page":9234,"say":9235,"tes":9236,"zan":9237,"inion":9238,"Ġsamples":9239,"Ġfires":9240,"Ġhundred":9241,"ĠSot":9242,"etch":9243,"ĠBash":9244,"ĠPictured":9245,"ĠDid":9246,"ĠLenn":9247,"ĠForm":9248,"Ġselected":9249,"Ġorg":9250,"Ġcontains":9251,"actor":9252,"Ġaddiction":9253,"Ġexposure":9254,"Ġministry":9255,"ĠScience":9256,"formation":9257,"ĠIslands":9258,"Ġstrang":9259,"Ġrealise":9260,"Ġconvention":9261,"Ġclassroom":9262,"Ġtaxi":9263,"Ġhomeless":9264,"ĠSwiss":9265,"ĠExp":9266,"Ġquestioning":9267,"Ġhorror":9268,"Ġriot":9269,"Ġviral":9270,"ĠFerdin":9271,"ĠVictim":9272,"Ġflooded":9273,"Ġperformances":9274,"ĠCampaign":9275,"Ġliked":9276,"Ġconservation":9277,"Ġmortgage":9278,"Ġresulting":9279,"Ġslammed":9280,"ĠBuckingham":9281,"Ġelephants":9282,"Ġtoilet":9283,"Ġillegally":9284,"ĠFerdinand":9285,"46":9286,"election":9287,"found":9288,"host":9289,"iences":9290,"kel":9291,"och":9292,"pects":9293,"sized":9294,"ture":9295,"Ġsoul":9296,"Ġwire":9297,"Ġwider":9298,"Ġcrazy":9299,"Ġphen":9300,"amine":9301,"ĠCape":9302,"ecent":9303,"ĠPie":9304,"ĠWitness":9305,"ĠNik":9306,"ĠKyle":9307,"Ġuncom":9308,"ĠStock":9309,"ĠChad":9310,"Ġdism":9311,"Ġattitude":9312,"ĠYour":9313,"obb":9314,"ussels":9315,"grini":9316,"Ġsyndrome":9317,"Ġexperim":9318,"Ġdelighted":9319,"Ġ04":9320,"Ġballs":9321,"Ġneighbors":9322,"Ġseparated":9323,"Ġattorneys":9324,"Ġconstant":9325,"Ġremembered":9326,"Ġmistakes":9327,"Ġparticipants":9328,"ĠBrooks":9329,"ĠAhmed":9330,"Ġmuscle":9331,"Ġanonymous":9332,"Ġastronaut":9333,"ĠSturridge":9334,"Ġequivalent":9335,"Ġnervous":9336,"rastructure":9337,"ĠCaribbean":9338,"ji":9339,"lb":9340,"moon":9341,"rd":9342,"sur":9343,"spe":9344,"uther":9345,"Ġgear":9346,"ĠCold":9347,"ĠCelt":9348,"ĠCatherine":9349,"owered":9350,"ĠBilly":9351,"ĠHope":9352,"ĠPoll":9353,"Ġasks":9354,"ĠDog":9355,"quir":9356,"Ġoffenders":9357,"ĠChamp":9358,"Ġovercome":9359,"Ġdisg":9360,"Ġdisabled":9361,"Ġtea":9362,"Ġcommem":9363,"ĠQC":9364,"Ġcourage":9365,"rolled":9366,"ĠEdwards":9367,"ĠSamuel":9368,"ĠRogers":9369,"Ġinstitutions":9370,"ĠPellegrini":9371,"31":9372,"Sp":9373,"cot":9374,"km":9375,"laughter":9376,"uart":9377,"atched":9378,"orld":9379,"orage":9380,"Ġdrones":9381,"Ġstrain":9382,"ĠHaving":9383,"rive":9384,"aga":9385,"Ġshadow":9386,"Ġabortion":9387,"aping":9388,"Ġsoil":9389,"underland":9390,"Ġhell":9391,"ĠSpurs":9392,"Ġ61":9393,"ullah":9394,"Ġheadlines":9395,"ĠShak":9396,"Ġcream":9397,"irds":9398,"Ġmanagers":9399,"Ġmarkets":9400,"Ġdescribing":9401,"Ġtreatments":9402,"ĠJuventus":9403,"ographic":9404,"Ġloving":9405,"etta":9406,"Ġcombination":9407,"Ġordinary":9408,"Ġcommunication":9409,"ĠFranklin":9410,"Ġcabin":9411,"ĠTreas":9412,"Ġvolunteer":9413,"Ġnomine":9414,"Fr":9415,"bound":9416,"oir":9417,"uits":9418,"xy":9419,"Ġ+":9420,"Ġid":9421,"Ġupper":9422,"isan":9423,"Ġmad":9424,"ichel":9425,"ĠTechn":9426,"stan":9427,"ĠSanche":9428,"ĠAround":9429,"ĠMubarak":9430,"aco":9431,"ĠCer":9432,"ĠCust":9433,"ĠITV":9434,"ĠHappy":9435,"ĠLion":9436,"ĠLater":9437,"ĠGM":9438,"Ġshr":9439,"Ġju":9440,"Ġspray":9441,"Ġdischar":9442,"ĠAlb":9443,"Ġdonated":9444,"Ġstudio":9445,"Ġ71":9446,"Ġexperiment":9447,"ĠDeb":9448,"ĠForces":9449,"Ġrefusing":9450,"ĠProv":9451,"Ġsinging":9452,"ĠCrow":9453,"Ġarrives":9454,"Ġpainful":9455,"ĠSergio":9456,"Ġengagement":9457,"Ġcoroner":9458,"Ġstriking":9459,"Ġlifted":9460,"ĠKingdom":9461,"Ġpractices":9462,"Ġanswered":9463,"Ġathlete":9464,"Ġproposals":9465,"Ġpolitician":9466,"Ġunderwater":9467,"ĠMohamed":9468,"Ġbattling":9469,"ĠWelsh":9470,"ĠLatin":9471,"Ġcycle":9472,"Ġcorporate":9473,"Ġextrad":9474,"Ġrestrictions":9475,"embley":9476,"ĠPhilippines":9477,"Ġharassment":9478,"ĠGuinea":9479,"ĠSanchez":9480,"05":9481,"FC":9482,"MZ":9483,"fish":9484,"Ġrib":9485,"Ġce":9486,"Ġtoug":9487,"omy":9488,"Ġrear":9489,"Ġgri":9490,"Ġgrey":9491,"Ġgentle":9492,"rod":9493,"ĠWembley":9494,"ĠNico":9495,"Ġrugby":9496,"ĠET":9497,"ĠEconom":9498,"ĠKrist":9499,"Ġdisgr":9500,"Ġgrateful":9501,"Ġ66":9502,"ĠArthur":9503,"ĠWhit":9504,"ĠBrady":9505,"ĠBrussels":9506,"Ġsmoking":9507,"Ġboom":9508,"Ġ72":9509,"Ġsymp":9510,"Ġlocals":9511,"Ġmurders":9512,"ĠHarvard":9513,"ĠUKIP":9514,"Ġmidfield":9515,"Ġadvanced":9516,"Ġ1996":9517,"Ġtargeting":9518,"Ġhosted":9519,"Ġmassacre":9520,"Ġfract":9521,"Why":9522,"Ġsensitive":9523,"Ġperfectly":9524,"Ġcitizen":9525,"Ġpurchased":9526,"Ġrevenue":9527,"ĠIvan":9528,"ĠPeterson":9529,"Ġproceedings":9530,"ĠNYPD":9531,"bian":9532,"jo":9533,"Ġsessions":9534,"Ġcry":9535,"Ġcraft":9536,"orer":9537,"Ġburned":9538,"Ġflex":9539,"arth":9540,"idency":9541,"ĠTokyo":9542,"ĠSat":9543,"ĠAst":9544,"eling":9545,"ĠPrest":9546,"ĠGor":9547,"ackers":9548,"Ġplun":9549,"Ġcler":9550,"anson":9551,"ĠView":9552,"Ġ62":9553,"ahu":9554,"ĠBron":9555,"Ġcurren":9556,"Ġ1995":9557,"ĠNext":9558,"Ġdisappointing":9559,"Ġelements":9560,"Ġbullets":9561,"ĠQuest":9562,"Ġdemonstrators":9563,"Ġbriefly":9564,"looking":9565,"Ġfortune":9566,"ĠFederation":9567,"Ġsustain":9568,"Ġliterally":9569,"Ġenthusi":9570,"Ġsettled":9571,"ĠTesco":9572,"Berry":9573,"Con":9574,"LC":9575,"Ġaide":9576,"inth":9577,"eration":9578,"Ġpaed":9579,"Ġdistr":9580,"Ġlake":9581,"Ġreun":9582,"Ġreference":9583,"uters":9584,"owa":9585,"riving":9586,"ĠDrug":9587,"opard":9588,"emia":9589,"Ġshame":9590,"Ġchronic":9591,"Ġdeleg":9592,"Ġseventh":9593,"ques":9594,"Ġbutton":9595,"Ġintensive":9596,"Ġinvasion":9597,"Ġbelt":9598,"Ġexpenses":9599,"ĠEnergy":9600,"Ġstudied":9601,"ĠClay":9602,"Ġ120":9603,"Ġsuspension":9604,"ĠAdams":9605,"ĠCrist":9606,"Ġadmitting":9607,"Ġproducers":9608,"Ġrepresentatives":9609,"Ġcrossing":9610,"Ġelement":9611,"cao":9612,"ĠNether":9613,"Ġfestive":9614,"Ġmedicine":9615,"Ġgathering":9616,"ĠOperation":9617,"ĠPhillips":9618,"ĠHeart":9619,"Ġtaxpayers":9620,"expected":9621,"65":9622,"bow":9623,"dale":9624,"top":9625,"wife":9626,"inf":9627,"Ġwrapped":9628,"icate":9629,"ilit":9630,"Ġnights":9631,"ĠAwards":9632,"ĠBed":9633,"ĠHud":9634,"Ġsail":9635,"agen":9636,"ĠRon":9637,"ĠNazi":9638,"asty":9639,"Ġseed":9640,"Ġadjust":9641,"Ġunidentified":9642,"ĠChair":9643,"acht":9644,"aley":9645,"Ġconfessed":9646,"grat":9647,"Ġvisa":9648,"ĠCarr":9649,"ĠDavies":9650,"Ġreception":9651,"Ġinstalled":9652,"Ġtwins":9653,"Ġmotion":9654,"ĠPlan":9655,"Ġexpectations":9656,"Ġvolunt":9657,"ĠAngela":9658,"Ġvillages":9659,"ĠCapital":9660,"ĠNorway":9661,"Ġphotographed":9662,"Ġenvironmental":9663,"ĠBradford":9664,"Ġmanslaughter":9665,"Ġlicence":9666,"Ġpursue":9667,"grav":9668,"Ġtornado":9669,"ĠFreedom":9670,"ĠHaiti":9671,"ĠEmergency":9672,"ĠNSW":9673,"fund":9674,"vised":9675,"Ġcore":9676,"Ġciting":9677,"Ġlip":9678,"ĠSunderland":9679,"otelli":9680,"ĠBah":9681,"opes":9682,"ĠFel":9683,"ĠResc":9684,"ouses":9685,"Ġneur":9686,"Ġintr":9687,"avan":9688,"Ġteaching":9689,"Ġflowers":9690,"Ġcarries":9691,"Ġbrands":9692,"ierra":9693,"ĠBrid":9694,"Ġprotective":9695,"insula":9696,"Ġyoungsters":9697,"Ġexplore":9698,"Ġinfrastructure":9699,"Ġinstall":9700,"ĠBeat":9701,"Ġsoccer":9702,"Ġdealt":9703,"Ġbooked":9704,"Ġviewed":9705,"Ġdistinct":9706,"Ġorganized":9707,"Ġprospect":9708,"ĠManuel":9709,"Ġaccidentally":9710,"chell":9711,"Ġnecessarily":9712,"Ġcomedian":9713,"ĠWindows":9714,"cription":9715,"Ġconsultant":9716,"Ġfirefighters":9717,"Ġisolated":9718,"Ġscreaming":9719,"TC":9720,"TS":9721,"bul":9722,"Ġ,":9723,"Ġtag":9724,"ician":9725,"Ġgrief":9726,"ĠMick":9727,"ĠBall":9728,"Ġ250":9729,"Ġrandom":9730,"abil":9731,"ums":9732,"Ġcloud":9733,"Ġupcoming":9734,"Ġunh":9735,"Ġpartly":9736,"ĠYe":9737,"anges":9738,"Ġprepar":9739,"Ġcaring":9740,"Ġextend":9741,"ĠBarcl":9742,"annon":9743,"Ġdifferences":9744,"ĠConst":9745,"ĠSeven":9746,"Ġ1994":9747,"ĠNeighb":9748,"ĠMcCain":9749,"Ġtracking":9750,"Ġphysically":9751,"ambling":9752,"Ġexamined":9753,"ĠBalotelli":9754,"Ġultimate":9755,"ĠBradley":9756,"Ġrecommended":9757,"ĠLucy":9758,"Ġburglary":9759,"ĠSupport":9760,"Ġavoided":9761,"Ġtweets":9762,"ĠFoley":9763,"Ġentrance":9764,"Ġorgans":9765,"ĠPieters":9766,"43":9767,"Not":9768,"gate":9769,"high":9770,"mare":9771,"oen":9772,"pective":9773,"Ġtech":9774,"Ġturb":9775,"Ġfate":9776,"Ġhorses":9777,"storm":9778,"ĠSara":9779,"ĠSierra":9780,"amo":9781,"accept":9782,"Ġstagger":9783,"rove":9784,"ĠBolt":9785,"ĠPage":9786,"ĠLiga":9787,"ĠFashion":9788,"Ġroles":9789,"eps":9790,"ĠInf":9791,"Ġreplic":9792,"aven":9793,"inder":9794,"ĠVideo":9795,"issa":9796,"Ġnoise":9797,"Ġintervention":9798,"ashire":9799,"Ġourselves":9800,"ĠRebec":9801,"axy":9802,"ruguay":9803,"Ġgenetic":9804,"Ġmembership":9805,"Ġreplacement":9806,"ĠiRep":9807,"Ġlifetime":9808,"ĠBenj":9809,"****":9810,"ĠBoeing":9811,"Ġlaunching":9812,"Ġchemotherapy":9813,"Ġmachines":9814,"Ġstunned":9815,"Ġcomplicated":9816,"ING":9817,"ĠTelegraph":9818,"Ġfierce":9819,"Ġsiblings":9820,"Ġconfronted":9821,"ĠGovernor":9822,"Ġinappropriate":9823,"ĠRebecca":9824,"41":9825,"Am":9826,"Any":9827,"RE":9828,"Re":9829,"bits":9830,"greg":9831,"you":9832,"Ġts":9833,"inating":9834,"Ġwet":9835,"Ġhug":9836,"Ġhung":9837,"outed":9838,"leans":9839,"ĠSaid":9840,"ĠAy":9841,"ĠAz":9842,"Ġalter":9843,"Ġcongrat":9844,"oren":9845,"Ġrush":9846,"ĠGates":9847,"aki":9848,"Ġorbit":9849,"anting":9850,"ieber":9851,"ĠYes":9852,"ĠAlger":9853,"ĠAlbert":9854,"ocking":9855,"Ġsupports":9856,"Ġassets":9857,"shine":9858,"ĠObam":9859,"Ġcarefully":9860,"Ġparade":9861,"atican":9862,"Ġincreases":9863,"Ġsnap":9864,"Ġconcert":9865,"Ġwatchdog":9866,"Ġglobe":9867,"ĠRichardson":9868,"Ġconsumption":9869,"Ġdefendants":9870,"Ġapologised":9871,"ĠLawrence":9872,"ĠJulian":9873,"Ġgraduate":9874,"Ġclinical":9875,"ĠWinter":9876,"Ġscreens":9877,"Ġerupted":9878,"Ġdeemed":9879,"ĠNetherlands":9880,"07":9881,"OS":9882,"PS":9883,"Pol":9884,"fortunately":9885,"gement":9886,"ja":9887,"rard":9888,"viously":9889,"Ġtoys":9890,"Ġpets":9891,"Ġpending":9892,"Ġmath":9893,"Ġreass":9894,"ĠAvenue":9895,"ĠCele":9896,"oween":9897,"ĠHung":9898,"unning":9899,"ĠNathan":9900,"ĠUruguay":9901,"istory":9902,"ĠStuart":9903,"Ġrecording":9904,"Ġdece":9905,"Ġimpressed":9906,"Ġconscious":9907,"cedented":9908,"Ġguess":9909,"Ġsentences":9910,"ometimes":9911,"ĠDevelop":9912,"Ġsubmitted":9913,"Ġletting":9914,"bedroom":9915,"Ġwaited":9916,"Ġproperties":9917,"Ġdamaging":9918,"Ġemployment":9919,"Ġurban":9920,"Ġtalented":9921,"ĠPatri":9922,"Ġpercentage":9923,"ĠBerg":9924,"Ġexistence":9925,"Ġmaintained":9926,"precedented":9927,"ĠSomalia":9928,"ĠLancashire":9929,"Ġvirtual":9930,"Ġsponsors":9931,"ĠAndrea":9932,"Ġdragged":9933,"ĠFalcao":9934,"rosoft":9935,"ĠSUV":9936,"Ġtoddler":9937,"ĠCeltic":9938,"acceptable":9939,"BE":9940,"Dav":9941,"fits":9942,"kg":9943,"was":9944,"Ġcats":9945,"orse":9946,"itched":9947,"Ġease":9948,"ĠCase":9949,"ighed":9950,"vere":9951,"ĠHundreds":9952,"ceeds":9953,"ĠWars":9954,"ĠFall":9955,"aints":9956,"ighting":9957,"idents":9958,"ĠVice":9959,"ĠVenez":9960,"ĠVatican":9961,"Ġflow":9962,"Ġcarpet":9963,"Ġsecured":9964,"lington":9965,"Ġcolumn":9966,"Ġslim":9967,"Ġcreation":9968,"Ġdescri":9969,"ĠHispan":9970,"club":9971,"Ġreturns":9972,"Ġtowns":9973,"Ġescal":9974,"Ġzero":9975,"Ġexamination":9976,"Ġfitted":9977,"Ġjudgment":9978,"ascus":9979,"Ġapplications":9980,"Ġcycling":9981,"Ġopponent":9982,"Ġeuros":9983,"reprene":9984,"Ġsavings":9985,"Russian":9986,"Ġprominent":9987,"Ġankle":9988,"eff":9989,"fts":9990,"nia":9991,"tail":9992,"vo":9993,"Ġfo":9994,"Ġfasc":9995,"iture":9996,"asks":9997,"omic":9998,"olis":9999,"uten":10000,"Ġgod":10001,"amental":10002,"unami":10003,"ĠFe":10004,"Ġdeployed":10005,"Ġsued":10006,"Ġexha":10007,"Ġspy":10008,"arded":10009,"ieves":10010,"Ġagenda":10011,"ĠHeath":10012,"ĠChan":10013,"Ġrecre":10014,"ĠVis":10015,"izon":10016,"Ġflames":10017,"pton":10018,"Ġcenturies":10019,"Ġgoverning":10020,"Ġsyn":10021,"Ġinvolves":10022,"Ġpromising":10023,"ĠGerrard":10024,"ĠCrim":10025,"Ġhostage":10026,"ĠEmirates":10027,"Ġsupermarket":10028,"Ġversions":10029,"ĠSpeaker":10030,"ĠKeane":10031,"Ġobser":10032,"Ġgangs":10033,"Ġseverely":10034,"Ġjumping":10035,"Ġscrutin":10036,"ĠDamascus":10037,"Ġweighing":10038,"Ġnomination":10039,"Ġjacket":10040,"ĠBrendan":10041,"Ġcommemor":10042,"CE":10043,"Ġtons":10044,"aning":10045,"Ġfing":10046,"Ġfoul":10047,"Ġinher":10048,"Ġdumped":10049,"ĠAle":10050,"ĠMoy":10051,"Ġec":10052,"ĠCy":10053,"ĠCroat":10054,"imid":10055,"ĠIl":10056,"ĠIowa":10057,"ĠPC":10058,"ĠPed":10059,"through":10060,"ĠJoy":10061,"endment":10062,"ardens":10063,"ardash":10064,"qual":10065,"Ġads":10066,"ĠVik":10067,"Ġenh":10068,"Ġdesk":10069,"Ġundert":10070,"Ġbeloved":10071,"ĠFront":10072,"Ġeverywhere":10073,"cedes":10074,"Ġguidelines":10075,"ĠDeath":10076,"Ġdelays":10077,"Ġsuffers":10078,"Ġpromises":10079,"Ġstripped":10080,"Ġcounsel":10081,"Ġtreating":10082,"Ġ1991":10083,"ĠOrleans":10084,"Ġbloody":10085,"Ġtourism":10086,"ĠBlackBerry":10087,"Ġlabour":10088,"Ġdiscussions":10089,"elligent":10090,"Ġrecognition":10091,"ĠHalloween":10092,"Ġclosure":10093,"Ġtrafficking":10094,"ĠAndrews":10095,"Ġcleaning":10096,"Ġengineering":10097,"Ġancest":10098,"ĠProsecutor":10099,"ĠSussex":10100,"ĠCrimea":10101,"broken":10102,"Ġhammer":10103,"Ġprincipal":10104,"Ġcategory":10105,"ĠHurricane":10106,"Ġoverwhelming":10107,"Ġmisconduct":10108,"Ġcousin":10109,"Ġwhistle":10110,"Ġpronounced":10111,"ĠVenezuel":10112,"Washington":10113,"eter":10114,"nan":10115,"heimer":10116,"Ġfurn":10117,"Ġduties":10118,"Ġthroat":10119,"ĠSuch":10120,"ĠMS":10121,"Ġhailed":10122,"ulating":10123,"ĠFoster":10124,"Ġric":10125,"Ġunexpected":10126,"Ġprol":10127,"Ġscul":10128,"ĠVin":10129,"Ġdesert":10130,"Ġbron":10131,"Ġcoat":10132,"Ġlegally":10133,"Ġwanting":10134,"Ġcareful":10135,"Ġpointing":10136,"conn":10137,"Ġexplan":10138,"Ġestimate":10139,"Ġoblig":10140,"Ġfunded":10141,"Ġcollabor":10142,"Ġautism":10143,"Ġparked":10144,"ĠMicrosoft":10145,"ĠStudents":10146,"Ġburns":10147,"Ġtrauma":10148,"ĠPietersen":10149,"02":10150,"08":10151,"auc":10152,"rad":10153,"zech":10154,"Ġborr":10155,"Ġfights":10156,"Ġfiance":10157,"esome":10158,"Ġpile":10159,"Ġdangers":10160,"leton":10161,"idance":10162,"ĠSin":10163,"ĠChes":10164,"Ġstim":10165,"Ġislands":10166,"ecraft":10167,"ĠPS":10168,"ĠPere":10169,"ĠDy":10170,"ĠDream":10171,"ource":10172,"ĠJesus":10173,"ateur":10174,"Ġseasons":10175,"Ġexit":10176,"udes":10177,"ĠKardash":10178,"apore":10179,"Ġuncertain":10180,"ĠThanks":10181,"Ġblocks":10182,"Ġcargo":10183,"Ġexpanded":10184,"Ġstarring":10185,"Ġswept":10186,"Ġstops":10187,"Ġcelebrations":10188,"Ġtechnique":10189,"Ġloans":10190,"Ġchoices":10191,"Ġprobation":10192,"Ġwatches":10193,"Ġdemonstration":10194,"Ġconcrete":10195,"Ġcommissioner":10196,"ĠIntelligence":10197,"Ġhighlighted":10198,"ĠGabri":10199,"ĠMitchell":10200,"ĠKurdish":10201,"ĠEmbassy":10202,"ĠPreston":10203,"Don":10204,"bast":10205,"mans":10206,"py":10207,"pher":10208,"sung":10209,"selling":10210,"ints":10211,"Ġsoph":10212,"oning":10213,"Ġwoke":10214,"Ġbuck":10215,"Ġborders":10216,"Ġhook":10217,"Ġpip":10218,"stop":10219,"veland":10220,"ĠSale":10221,"ayed":10222,"ĠMade":10223,"acare":10224,"ĠCav":10225,"uration":10226,"ĠIP":10227,"Ġnotorious":10228,"ĠKr":10229,"ĠKnight":10230,"Ġintens":10231,"Ġ600":10232,"Ġendang":10233,"ĠShan":10234,"Ġrunner":10235,"Ġfiles":10236,"ĠCompany":10237,"ĠBlue":10238,"Ġbread":10239,"force":10240,"ĠControl":10241,"Ġelectrical":10242,"Ġpainted":10243,"Ġ1989":10244,"loe":10245,"Ġradiation":10246,"Ġsteel":10247,"Ġdresses":10248,"Ġdemonstrations":10249,"ĠCleveland":10250,"Ġschedule":10251,"ĠDetective":10252,"Ġconversations":10253,"Ġmigrants":10254,"Ġinsisting":10255,"ĠPyong":10256,"ĠHudson":10257,"ĠBenjamin":10258,"Cl":10259,"From":10260,"Pr":10261,"mind":10262,"oa":10263,"oist":10264,"Ġbust":10265,"Ġoxy":10266,"inging":10267,"Ġpound":10268,"Ġdiamond":10269,"ĠMust":10270,"ĠBas":10271,"ĠDew":10272,"ĠRome":10273,"ĠElect":10274,"ĠGi":10275,"ĠJama":10276,"abul":10277,"rous":10278,"Ġorange":10279,"berry":10280,"Ġmanip":10281,"Ġincor":10282,"onder":10283,"osexual":10284,"Ġbackl":10285,"Ġquake":10286,"Ġunderc":10287,"ĠEnvironment":10288,"alking":10289,"Ġboasts":10290,"Ġpublicity":10291,"ĠClaire":10292,"Ġsituations":10293,"ĠIndeed":10294,"Ġmidnight":10295,"Ġprofits":10296,"Ġforensic":10297,"ĠWarren":10298,"ĠOrland":10299,"Ġdeterior":10300,"Ġvaluable":10301,"ĠIslamist":10302,"screen":10303,"Ġpunched":10304,"Ġprevented":10305,"ĠCommand":10306,"Ġfastest":10307,"Ġengineer":10308,"Ġtypical":10309,"ĠKentucky":10310,"Ġassaulting":10311,"Ġdesperately":10312,"Ġlengthy":10313,"Eng":10314,"ĠNobel":10315,"ĠChairman":10316,"Ex":10317,"bus":10318,"Ġsne":10319,"Ġwages":10320,"Ġwinger":10321,"Ġcable":10322,"Ġcafe":10323,"Ġlasted":10324,"ĠToy":10325,"Ġrely":10326,"Ġreducing":10327,"ĠHague":10328,"Ġasleep":10329,"Ġanch":10330,"ĠField":10331,"Ġraces":10332,"ĠEp":10333,"ĠGil":10334,"Ġheritage":10335,"Ġchannel":10336,"Ġvit":10337,"upid":10338,"Ġspends":10339,"umm":10340,"Ġplate":10341,"ĠKath":10342,"ĠKansas":10343,"Ġreck":10344,"Ġrecip":10345,"ĠAlmost":10346,"ribed":10347,"Ġ69":10348,"ĠShort":10349,"ĠDean":10350,"ĠBlake":10351,"heless":10352,"Ġviolation":10353,"Ġcampaigns":10354,"opsy":10355,"Ġloose":10356,"Ġmusical":10357,"Ġcorrespond":10358,"Ġgenerations":10359,"ĠRoberto":10360,"Ġfemin":10361,"ĠKeith":10362,"ĠOpinion":10363,"Ġassociation":10364,"ĠMetropolitan":10365,"Ġexplosive":10366,"ĠInvestigation":10367,"Ġpurposes":10368,"ĠSportsmail":10369,"Ġwreckage":10370,"Ġsomewhere":10371,"ĠSingapore":10372,"Ġtactics":10373,"ĠQueensland":10374,"ĠGlobal":10375,"Ġvigil":10376,"Ġoxygen":10377,"Be":10378,"Brit":10379,"Gen":10380,"Oh":10381,"kh":10382,"Ġcra":10383,"Ġmph":10384,"idd":10385,"ĠSab":10386,"ĠMaine":10387,"igible":10388,"Ġwhis":10389,"ĠHut":10390,"Ġalerted":10391,"Ġrot":10392,"Ġchamber":10393,"outheast":10394,"ĠInformation":10395,"neider":10396,"ĠVol":10397,"Ġrocks":10398,"Ġactors":10399,"Ġundergo":10400,"Ġphase":10401,"Ġrelation":10402,"ĠJoel":10403,"rently":10404,"amedics":10405,"Ġestrang":10406,"ĠPeace":10407,"Ġdesigns":10408,"ropical":10409,"Ġlistening":10410,"Ġspotlight":10411,"ĠMilitary":10412,"Ġstorms":10413,"Ġuncons":10414,"Ġtablets":10415,"ĠMurphy":10416,"Ġcoastal":10417,"Ġpanic":10418,"Ġhistorical":10419,"ĠMercedes":10420,"Ġfleet":10421,"Ġmotorc":10422,"Ġpromoting":10423,"Ġrevenge":10424,"ĠBryant":10425,"Ġgallery":10426,"Ġmethods":10427,"ĠBrotherhood":10428,"ĠCritics":10429,"Ġliquid":10430,"ĠStaffordshire":10431,"ĠTreasury":10432,"06":10433,"Even":10434,"fa":10435,"lbs":10436,"rated":10437,"Ġaston":10438,"Ġbol":10439,"Ġhoney":10440,"ĠTitan":10441,"otes":10442,"aman":10443,"Ġstorage":10444,"ĠBain":10445,"ĠBase":10446,"ĠHop":10447,"ĠHold":10448,"ĠDor":10449,"ĠGame":10450,"ĠGran":10451,"ourse":10452,"Ġchase":10453,"Ġweighed":10454,"ups":10455,"ĠUr":10456,"Ġworrying":10457,"Ġoutstanding":10458,"Ġovers":10459,"Ġmeters":10460,"Ġappointment":10461,"pless":10462,"Ġmonarch":10463,"Ġdowntown":10464,"Ġraises":10465,"Ġhandful":10466,"Ġmarathon":10467,"Ġ78":10468,"Ġsignature":10469,"ĠColin":10470,"Ġoperate":10471,"Ġelectronic":10472,"Ġ03":10473,"Ġorganised":10474,"ĠGrace":10475,"Ġgrandchildren":10476,"Ġnationwide":10477,"Ġdiab":10478,"Ġmotive":10479,"Ġurging":10480,"ĠMedia":10481,"ĠCorpor":10482,"Ġfamously":10483,"Ġtouchdown":10484,"Ġnewspapers":10485,"Ġnetworking":10486,"ĠNorman":10487,"Ġfulf":10488,"ĠMerkel":10489,"Ġparticipate":10490,"ĠSilva":10491,"Ġchemicals":10492,"Ġlicense":10493,"Ġsurgeon":10494,"ĠColumbia":10495,"ĠGirls":10496,"Ġcancelled":10497,"ĠLloyd":10498,"Ġdisturbing":10499,"ĠArkansas":10500,"Her":10501,"LA":10502,"Of":10503,"mm":10504,"rac":10505,"will":10506,"onso":10507,"Ġwishes":10508,"Ġfer":10509,"ouces":10510,"Ġdies":10511,"Ġdivers":10512,"Ġthorough":10513,"Ġlapt":10514,"ĠTMZ":10515,"ĠSaint":10516,"amford":10517,"ĠHunt":10518,"ĠPo":10519,"Ġalarm":10520,"ĠWay":10521,"ĠDise":10522,"Ġvs":10523,"Ġsuits":10524,"Ġclar":10525,"Ġadj":10526,"Ġunlaw":10527,"Ġpride":10528,"Ġprint":10529,"ĠVoy":10530,"Ġtheme":10531,"ĠAlaska":10532,"ĠAnimal":10533,"ĠLeone":10534,"Ġconsent":10535,"Ġplanets":10536,"Ġsmiles":10537,"Ġ73":10538,"Ġentreprene":10539,"etsk":10540,"Ġ800":10541,"Ġrealize":10542,"Ġdirectors":10543,"Ġtravelers":10544,"ĠAbove":10545,"Ġprofit":10546,"Ġfurious":10547,"ĠGrant":10548,"Ġbreakfast":10549,"ĠCountry":10550,"Ġgrandp":10551,"Ġfalls":10552,"ĠLabor":10553,"Ġdoubled":10554,"ĠPrize":10555,"Ġwooden":10556,"ĠLarry":10557,"Ġforgotten":10558,"emetery":10559,"Ġvenue":10560,"Ġguarantee":10561,"Ġnavig":10562,"Ġportrait":10563,"ĠBarclays":10564,"ĠPyongyang":10565,"ĠOrlando":10566,"Do":10567,"ahn":10568,"necess":10569,"Ã¢":10570,"itar":10571,"ingu":10572,"Ġmart":10573,"Ġmud":10574,"ĠSel":10575,"igious":10576,"ĠBattle":10577,"ĠBieber":10578,"threat":10579,"Ġconstit":10580,"ĠEve":10581,"oday":10582,"ĠKob":10583,"Ġaggrav":10584,"Ġunprecedented":10585,"Ġintelligent":10586,"Ġperpet":10587,"Ġblonde":10588,"Ġinterior":10589,"Ġundergoing":10590,"Ġopens":10591,"ologies":10592,"Ġnightmare":10593,"Ġmissiles":10594,"ĠOnline":10595,"ika":10596,"ĠTrade":10597,"Ġshootings":10598,"Ġclassified":10599,"Ġreaders":10600,"Ġillustr":10601,"Ġpresents":10602,"Ġchallenged":10603,"Ġconnect":10604,"Ġperiods":10605,"Ġbombings":10606,"Ġvanished":10607,"Ġindicate":10608,"iggs":10609,"ĠConservatives":10610,"Ġdramatically":10611,"ĠMembers":10612,"Ġextremists":10613,"Ġtumour":10614,"Ġtriggered":10615,"ĠInspector":10616,"ĠCosby":10617,"Ġrapidly":10618,"Ġspacecraft":10619,"ĠFestival":10620,"ĠObamacare":10621,"Ġestranged":10622,"42":10623,"85":10624,"IM":10625,"hur":10626,"pol":10627,"pret":10628,"Ġtrem":10629,"aters":10630,"ori":10631,"itated":10632,"Ġhij":10633,"ĠTai":10634,"ĠAud":10635,"adget":10636,"ĠPres":10637,"ĠWik":10638,"ĠLin":10639,"ĠLoc":10640,"ĠLamb":10641,"ĠRen":10642,"ĠRice":10643,"ĠJet":10644,"Ġspots":10645,"ortheast":10646,"ĠKaren":10647,"rena":10648,"Ġintimid":10649,"iper":10650,"actions":10651,"obi":10652,"Ġunderground":10653,"Ġguidance":10654,"Ġboats":10655,"ĠMonaco":10656,"Ġinfant":10657,"Ġprisoner":10658,"headed":10659,"ĠPhoen":10660,"Ġgunshot":10661,"ĠGuy":10662,"Ġelabor":10663,"ĠSerie":10664,"ĠExpl":10665,"Ġbeds":10666,"liminary":10667,"ĠBerlin":10668,"profit":10669,"addy":10670,"Ġspirits":10671,"ĠWalters":10672,"Ġrolled":10673,"Ġcyber":10674,"ĠBurnley":10675,"ĠRAF":10676,"ĠGriffin":10677,"Ġingred":10678,"Ġmanufacturers":10679,"ĠVietnam":10680,"Ġstaggering":10681,"Ġunconscious":10682,"EC":10683,"Man":10684,"fi":10685,"ht":10686,"kick":10687,"lie":10688,"sign":10689,"inate":10690,"ĠTSA":10691,"ĠTrip":10692,"Ġstance":10693,"Ġsaving":10694,"ĠPit":10695,"ĠDonald":10696,"Ġchop":10697,"Ġjunior":10698,"Ġprost":10699,"ĠKu":10700,"ĠKy":10701,"Ġeval":10702,"Ġstarred":10703,"Ġhighway":10704,"Ġnightclub":10705,"Ġalleges":10706,"Ġcontracts":10707,"Ġmissions":10708,"ĠCarroll":10709,"ĠDead":10710,"ifications":10711,"Ġdetain":10712,"Ġpayment":10713,"Ġinfamous":10714,"ĠConf":10715,"Ġdraft":10716,"Ġbarr":10717,"Ġbarrel":10718,"Ġsuggestion":10719,"Ġcovers":10720,"ĠSamsung":10721,"Ġboarding":10722,"ĠAlexand":10723,"Ġresponding":10724,"ĠRobb":10725,"Ġpenalties":10726,"Ġbuyers":10727,"Ġscientist":10728,"ĠBaltim":10729,"Ġmountains":10730,"iggins":10731,"ĠBoyle":10732,"Ġbattled":10733,"ĠAbdul":10734,"ĠColumbus":10735,"ĠKirk":10736,"Ġrevelations":10737,"Ġcrackdown":10738,"Ġduo":10739,"ĠHomeland":10740,"ĠAntonio":10741,"ĠDivision":10742,"Ġlegitimate":10743,"Ġbronze":10744,"Ġexplanation":10745,"ĠBaltimore":10746,"Let":10747,"OM":10748,"beck":10749,"power":10750,"zh":10751,"Ġax":10752,"enh":10753,"Ġbite":10754,"Ġfence":10755,"itol":10756,"Ġtooth":10757,"Ġtoxic":10758,"Ġinaug":10759,"ĠSold":10760,"Ġgifts":10761,"ĠCou":10762,"Ġforth":10763,"ĠBelf":10764,"ĠHistory":10765,"ĠLie":10766,"emouth":10767,"ĠNy":10768,"Ġlethal":10769,"ĠOpp":10770,"ista":10771,"Ġresear":10772,"Ġcontext":10773,"Ġraw":10774,"Ġfinance":10775,"Ġeveryday":10776,"Ġrelie":10777,"Ġterrifying":10778,"Ġ700":10779,"Ġdeport":10780,"Ġannoy":10781,"Ġopenly":10782,"Ġ1992":10783,"Ġlandmark":10784,"Ġwaist":10785,"Ġhopeful":10786,"Ġkidney":10787,"Ġgraphic":10788,"Ġurge":10789,"umbled":10790,"Ġtrading":10791,"Ġlosses":10792,"Ġseparat":10793,"ĠValent":10794,"ĠDonetsk":10795,"ĠDunn":10796,"ĠVeter":10797,"ĠPrevention":10798,"ĠLiberia":10799,"Ġtransformed":10800,"Ġtroubled":10801,"ĠBennett":10802,"ĠBoxing":10803,"54":10804,"AA":10805,"ET":10806,"eor":10807,"eating":10808,"fted":10809,"mund":10810,"match":10811,"enberg":10812,"Ġcease":10813,"isle":10814,"itement":10815,"Ġmate":10816,"Ġmall":10817,"Ġbeaches":10818,"Ġlied":10819,"Ġreop":10820,"ĠAge":10821,"ĠCancer":10822,"tering":10823,"ĠIV":10824,"ĠBud":10825,"ĠBark":10826,"osa":10827,"ĠRoc":10828,"ĠResp":10829,"Ġleaked":10830,"endar":10831,"Ġsuic":10832,"ghai":10833,"Ġjets":10834,"ĠKiev":10835,"onda":10836,"Ġdish":10837,"ĠThames":10838,"ultural":10839,"Ġdonor":10840,"Ġrespected":10841,"Ġconfused":10842,"Ġ76":10843,"Ġ77":10844,"Ġcolours":10845,"Ġdrives":10846,"Ġrelevant":10847,"Ġsubjected":10848,"Ġrestored":10849,"ĠAustria":10850,"ĠRomania":10851,"Ġequally":10852,"ĠGlouces":10853,"ructive":10854,"ĠHolmes":10855,"Ġbankrupt":10856,"Ġboxes":10857,"Ġappealed":10858,"Ġrolling":10859,"ĠDenver":10860,"Ġachievement":10861,"ĠIII":10862,"Ġsearches":10863,"However":10864,"Ġjeans":10865,"Ġappreciate":10866,"Neill":10867,"Ġaccurate":10868,"Ġstere":10869,"Ġtattoo":10870,"Ġshouting":10871,"Ġpaedoph":10872,"ĠKardashian":10873,"ĠPhoenix":10874,"53":10875,"di":10876,"hat":10877,"hum":10878,"making":10879,"sm":10880,"yth":10881,"zai":10882,"Ġtanks":10883,"Ġfab":10884,"itted":10885,"esa":10886,"Ġmourn":10887,"Ġbeef":10888,"ĠTake":10889,"Ġreign":10890,"oting":10891,"olo":10892,"Ġecho":10893,"ĠCzech":10894,"ĠHag":10895,"riages":10896,"ĠWo":10897,"orey":10898,"ĠJav":10899,"issance":10900,"Ġphil":10901,"Ġreluct":10902,"ahoo":10903,"avez":10904,"Ġlongest":10905,"Ġsmell":10906,"Ġattacker":10907,"Ġmarch":10908,"Ġfiling":10909,"ĠCohen":10910,"Ġartific":10911,"Ġballoon":10912,"ĠOrange":10913,"ĠEmily":10914,"Ġsenator":10915,"Ġpresidency":10916,"ĠSenior":10917,"ĠHamas":10918,"ĠNeander":10919,"Ġdestruction":10920,"Ġcreature":10921,"ĠHighway":10922,"ĠBroad":10923,"Ġaudio":10924,"ĠPeru":10925,"ĠValenc":10926,"Ġclosest":10927,"ĠIndiana":10928,"Ġapologise":10929,"Ġassociate":10930,"ĠArgentine":10931,"Ġexplosives":10932,"Ġresignation":10933,"doing":10934,"Ġspiritual":10935,"Ġextremist":10936,"ĠNicolas":10937,"Ġprecise":10938,"Ġmentally":10939,"Ġpatterns":10940,"Ġjewell":10941,"ĠPolitical":10942,"ĠTransportation":10943,"terrorism":10944,"Ġinitiative":10945,"ĠIndependent":10946,"ĠSophie":10947,"David":10948,"Car":10949,"bat":10950,"fers":10951,"heastern":10952,"Ġcin":10953,"arted":10954,"Ġpod":10955,"Ġmamm":10956,"Ġrevers":10957,"ĠMain":10958,"ĠBaby":10959,"raged":10960,"agne":10961,"ĠNine":10962,"ĠGene":10963,"Ġchicken":10964,"Ġsuing":10965,"Ġjoked":10966,"abad":10967,"istent":10968,"ĠChavez":10969,"Ġreserved":10970,"Ġcompon":10971,"ignment":10972,"Ġprince":10973,"Ġrover":10974,"licted":10975,"Ġfever":10976,"Ġteammates":10977,"Ġwarns":10978,"Ġindict":10979,"Ġschoolgirl":10980,"Ġconfusion":10981,"ĠReed":10982,"tainment":10983,"ĠPrice":10984,"Ġmenu":10985,"omething":10986,"Ġprovoc":10987,"Ġstopping":10988,"Ġ130":10989,"Ġfundamental":10990,"ĠAirways":10991,"Ġharsh":10992,"Ġradar":10993,"Ġdivided":10994,"Ġbasically":10995,"Ġtouching":10996,"Ġrecognise":10997,"Ġrecognized":10998,"ĠHelen":10999,"Ġhelicopters":11000,"ĠDowning":11001,"ĠJeffrey":11002,"ĠAgain":11003,"Ġinstitution":11004,"Ġdemocratic":11005,"ĠJenkins":11006,"Ġqualified":11007,"ĠOrganization":11008,"ĠFernando":11009,"Ġcomprehensive":11010,"ĠDisease":11011,"58":11012,"iott":11013,"nity":11014,"onies":11015,"onto":11016,"ammar":11017,"ĠHal":11018,"ĠHus":11019,"ĠHannah":11020,"osc":11021,"rawn":11022,"ĠDian":11023,"ĠDaw":11024,"ouring":11025,"Ġjokes":11026,"abwe":11027,"ockey":11028,"Ġupstairs":11029,"Ġadapt":11030,"Ġunrest":11031,"neath":11032,"ĠVar":11033,"Ġanyway":11034,"Ġinterven":11035,"aux":11036,"asha":11037,"ĠLeader":11038,"ahaw":11039,"ĠBrun":11040,"Ġcheaper":11041,"aturally":11042,"Ġexplaining":11043,"ĠConstitution":11044,"ĠSebast":11045,"Ġ1993":11046,"Ġhomicide":11047,"Ġemployed":11048,"Ġsolve":11049,"ĠCameroon":11050,"Ġshoppers":11051,"Ġenjoys":11052,"ĠMusic":11053,"Ġzoo":11054,"Ġrecognised":11055,"ographer":11056,"Ġfrag":11057,"Ġpetrol":11058,"Ġobserv":11059,"imbabwe":11060,"ĠLiberal":11061,"ĠProtection":11062,"ĠColeman":11063,"ĠErn":11064,"Ġdictator":11065,"ĠStrauss":11066,"Ġsubsequently":11067,"Ġscholar":11068,"olphins":11069,"Ġuniversities":11070,"ĠHitler":11071,"Ġphenomen":11072,"Ġtsunami":11073,"ĠShanghai":11074,"OT":11075,"Today":11076,"daughter":11077,"mal":11078,"migr":11079,"Ġaired":11080,"Ġhill":11081,"Ġhip":11082,"Ġpure":11083,"Ġlorry":11084,"ĠSuff":11085,"olan":11086,"Ġgal":11087,"Ġgig":11088,"Ġgadget":11089,"achers":11090,"etz":11091,"Ġstake":11092,"Ġstairs":11093,"ĠPier":11094,"ĠUl":11095,"Ġclock":11096,"ansion":11097,"Ġunions":11098,"Ġpeers":11099,"Ġrepeat":11100,"ĠYan":11101,"obile":11102,"Ġtracked":11103,"Ġinterim":11104,"Ġunderneath":11105,"ĠMarie":11106,"Ġconsecutive":11107,"Ġinvestors":11108,"anyahu":11109,"apper":11110,"Ġcomeback":11111,"Ġsubstitute":11112,"Ġexplicit":11113,"Ġexploded":11114,"Ġsufficient":11115,"Ġaviation":11116,"Ġlessons":11117,"Ġseemingly":11118,"ĠAssist":11119,"Ġsquee":11120,"uffed":11121,"Ġbillionaire":11122,"Ġreasonable":11123,"ĠPerhaps":11124,"Ġepid":11125,"ĠNetanyahu":11126,"Ġflags":11127,"Ġpsychological":11128,"ĠLancaster":11129,"Ġpaintings":11130,"Ġratings":11131,"Ġrefugees":11132,"Ġtorture":11133,"Ġcomparison":11134,"Ġdisplays":11135,"ĠTurner":11136,"Ġrespectively":11137,"ĠRafael":11138,"Ġsophistic":11139,"ĠValencia":11140,"Go":11141,"Yes":11142,"good":11143,"haul":11144,"oop":11145,"sl":11146,"Ġwww":11147,"Ġfu":11148,"itudes":11149,"Ġpole":11150,"Ġdign":11151,"Ġdyn":11152,"ication":11153,"Ġheels":11154,"utting":11155,"eler":11156,"ĠBath":11157,"Ġwhilst":11158,"ĠHistor":11159,"raught":11160,"ĠLuk":11161,"ĠFlyn":11162,"ĠRight":11163,"ĠGot":11164,"Ġcoma":11165,"Ġexceed":11166,"abel":11167,"oko":11168,"Ġunnamed":11169,"Ġ2020":11170,"Ġdise":11171,"assion":11172,"Ġrecalls":11173,"ancial":11174,"Ġshower":11175,"Ġcrown":11176,"Ġdecent":11177,"ĠShel":11178,"Ġexpects":11179,"ĠScene":11180,"ahman":11181,"Ġendured":11182,"Ġshoulders":11183,"ships":11184,"Ġhandled":11185,"ĠIsa":11186,"Ġpubl":11187,"Ġemployers":11188,"ĠGlass":11189,"Ġimproving":11190,"Ġgenerous":11191,"Ġdevoted":11192,"Ġuncovered":11193,"IDS":11194,"Ġunfold":11195,"ĠCarlos":11196,"ĠAbdullah":11197,"ĠMemorial":11198,"Ġinnocence":11199,"ĠPhillip":11200,"rupted":11201,"Ġromantic":11202,"ĠBMW":11203,"Police":11204,"ĠBelfast":11205,"OU":11206,"hard":11207,"pot":11208,"rina":11209,"tons":11210,"volt":11211,"Ġtiss":11212,"Ġsou":11213,"antha":11214,"Ġbic":11215,"Ġmild":11216,"entry":11217,"Ġlun":11218,"ĠTa":11219,"ĠSex":11220,"ĠSony":11221,"Ġgown":11222,"Ġgru":11223,"acon":11224,"ĠCow":11225,"ĠBT":11226,"ĠBishop":11227,"ĠProm":11228,"Ġashes":11229,"ĠLight":11230,"ĠExt":11231,"ĠGay":11232,"ablo":11233,"ĠInside":11234,"Ġaccusing":11235,"Ġanymore":11236,"Ġdeserve":11237,"Ġdeserves":11238,"Ġtrio":11239,"ĠArn":11240,"uthors":11241,"Ġmedals":11242,"Ġpassport":11243,"Ġreceives":11244,"iveness":11245,"Ġoperator":11246,"Ġcostume":11247,"Ġrevealing":11248,"Ġfirearms":11249,"ranch":11250,"Ġrises":11251,"Ġreduction":11252,"ĠManagement":11253,"Ġkinds":11254,"Ġbeneath":11255,"Ġhorrible":11256,"Ġpriest":11257,"ĠSanford":11258,"Ġphotography":11259,"ĠLouise":11260,"Ġexamine":11261,"Ġperspective":11262,"Ġcollecting":11263,"Ġgradu":11264,"respons":11265,"Ġkidnapped":11266,"Ġweighs":11267,"Ġtemporarily":11268,"ĠMalaysian":11269,"Ġtaxpayer":11270,"Ġdiscipline":11271,"enzie":11272,"Ġreconst":11273,"ĠMarshall":11274,"Ġaccommodation":11275,"Ġconceded":11276,"ĠLebanon":11277,"ĠNearly":11278,"ĠBashar":11279,"ĠiReport":11280,"Ġsculpt":11281,"May":11282,"Most":11283,"Ob":11284,"casters":11285,"pat":11286,"turn":11287,"Ġtips":11288,"erie":11289,"enk":11290,"Ġbacter":11291,"aro":11292,"Ġmerc":11293,"ione":11294,"Ġles":11295,"Ġlane":11296,"utt":11297,"ĠCov":11298,"Ġwashed":11299,"rogen":11300,"ĠWH":11301,"ems":11302,"ĠFOR":11303,"ĠRic":11304,"Ġrans":11305,"ĠGCS":11306,"aste":11307,"sein":11308,"umper":11309,"ĠKier":11310,"aph":11311,"ectives":11312,"ubb":11313,"ibilities":11314,"ĠAlz":11315,"overs":11316,"ĠAnti":11317,"Ġsmiling":11318,"Ġcheek":11319,"Ġcondol":11320,"Ġstatue":11321,"ĠZimbabwe":11322,"Ġairpl":11323,"Ġswing":11324,"Ġhospitalized":11325,"ĠCoalition":11326,"ĠProgram":11327,"Ġemerging":11328,"Ġshooter":11329,"ipper":11330,"Ġbillions":11331,"ĠSamantha":11332,"Ġhugely":11333,"ĠSenator":11334,"Ġcontribute":11335,"ĠSchum":11336,"Ġcreatures":11337,"Ġappealing":11338,"Ġstrateg":11339,"Ġdominated":11340,"Ġanalysts":11341,"Ġtransported":11342,"Ġterminal":11343,"Ġhighlights":11344,"ĠGibson":11345,"Ġcoinc":11346,"Ġresistance":11347,"ĠDurham":11348,"Ġjurors":11349,"Ġawaiting":11350,"John":11351,"Ġdescription":11352,"ĠHispanic":11353,"Ġjewellery":11354,"LS":11355,"Many":11356,"RI":11357,"cr":11358,"fare":11359,"hall":11360,"rising":11361,"western":11362,"eries":11363,"Ġsin":11364,"only":11365,"Ġwrest":11366,"Ġcow":11367,"Ġhacked":11368,"Ġlibr":11369,"Ġgate":11370,"ĠAward":11371,"amel":11372,"Ġstability":11373,"rov":11374,"ĠBuff":11375,"rag":11376,"ĠDod":11377,"ĠDiana":11378,"ĠRaj":11379,"Ġconven":11380,"eway":11381,"uper":11382,"Ġuploaded":11383,"Ġadmin":11384,"Ġunacceptable":11385,"ubble":11386,"ĠVers":11387,"ĠYo":11388,"ĠYahoo":11389,"Ġblaze":11390,"anches":11391,"Ġprey":11392,"Ġpreliminary":11393,"Ġdecre":11394,"ĠScar":11395,"othy":11396,"Ġheader":11397,"ĠWeiner":11398,"cker":11399,"Ġsignal":11400,"steroid":11401,"Ġstranger":11402,"ĠZe":11403,"plete":11404,"Ġcontinent":11405,"Ġglad":11406,"Ġmodest":11407,"ĠHarper":11408,"Ġviolations":11409,"Ġoperated":11410,"Ġobese":11411,"Ġforecast":11412,"lett":11413,"Ġorganis":11414,"Ġformally":11415,"Ġchiefs":11416,"Ġholes":11417,"Ġstruggles":11418,"Ġaccidents":11419,"Ġpreventing":11420,"Ġbroadcaster":11421,"Ġkicking":11422,"Ġepic":11423,"Ġbottles":11424,"Ġglasses":11425,"ĠCastle":11426,"ĠWinston":11427,"ĠPrix":11428,"ĠWells":11429,"iosity":11430,"Ġarranged":11431,"Ġarrangements":11432,"Ġparliamentary":11433,"ĠBryan":11434,"Ġgarage":11435,"Ġlegendary":11436,"Ġelephant":11437,"Ġconsistent":11438,"ĠNevada":11439,"ĠLambert":11440,"ĠRyder":11441,"ĠFerrari":11442,"Ġconverted":11443,"Ġaerial":11444,"ĠOlivia":11445,"ĠFormula":11446,"ĠWitnesses":11447,"Ġcurrency":11448,"ĠDevelopment":11449,"ĠVoyager":11450,"ĠAlzheimer":11451,"GB":11452,"kinson":11453,"wear":11454,"wind":11455,"Ġaunt":11456,"Ġsample":11457,"isp":11458,"aria":11459,"Ġhacking":11460,"Ġmac":11461,"Ġdock":11462,"Ġlone":11463,"Ġlists":11464,"Ġrend":11465,"ĠSong":11466,"Ġgross":11467,"ĠMatch":11468,"acco":11469,"urred":11470,"eting":11471,"roft":11472,"ĠWool":11473,"ulent":11474,"ĠLine":11475,"ĠLiving":11476,"ĠRun":11477,"Ġshirts":11478,"Ġvocal":11479,"Ġdeer":11480,"ĠOmar":11481,"Ġunnecess":11482,"ructed":11483,"ĠViol":11484,"plus":11485,"ĠAlg":11486,"Ġcarrier":11487,"ĠMarx":11488,"Ġdefeated":11489,"shirt":11490,"Ġhandc":11491,"Ġslipped":11492,"Ġairports":11493,"Ġefficient":11494,"Ġdeadline":11495,"Ġhardly":11496,"linary":11497,"Ġcompetitions":11498,"Ġengage":11499,"Ġsurely":11500,"ĠParker":11501,"Ġdifficulties":11502,"ĠRichards":11503,"ĠTragic":11504,"ĠLux":11505,"ĠPortland":11506,"Ġinfluential":11507,"Ġapologized":11508,"Ġfairly":11509,"habi":11510,"Ġconducting":11511,"Ġfeeding":11512,"Ġprompting":11513,"Ġfrequent":11514,"Ġsurgeons":11515,"Ġqualify":11516,"Ġliberal":11517,"Ġroutinely":11518,"Ġintegrity":11519,"ĠJoshua":11520,"Ġdeliberately":11521,"Ġcasualties":11522,"Ġtheatre":11523,"ĠBloomberg":11524,"ĠToure":11525,"astrophic":11526,"ĠNicole":11527,"ĠCelebr":11528,"Ġaggravated":11529,"Ġstereoty":11530,"Ġdiseases":11531,"Il":11532,"hran":11533,"lades":11534,"mons":11535,"sa":11536,"Ġtables":11537,"Ġcared":11538,"Ġov":11539,"esha":11540,"ĠTam":11541,"ĠCre":11542,"usions":11543,"that":11544,"ĠLamp":11545,"agu":11546,"ĠFast":11547,"Ġshouted":11548,"Ġproven":11549,"Ġwheels":11550,"aka":11551,"aku":11552,"ousand":11553,"Ġunaware":11554,"manuel":11555,"Ġnewborn":11556,"Ġflats":11557,"Ġmonkey":11558,"ĠAlice":11559,"ĠUnlike":11560,"Ġserv":11561,"ĠAnfield":11562,"ementia":11563,"Ġguitar":11564,"Ġrespects":11565,"Ġterrified":11566,"Ġslaughter":11567,"Ġ88":11568,"Ġspeeds":11569,"Ġfathers":11570,"Ġannouncing":11571,"fordshire":11572,"Ġcompetitors":11573,"Ġproducing":11574,"Ġideal":11575,"ĠRoom":11576,"Ġcaption":11577,"Ġsurviving":11578,"intend":11579,"Ġtradem":11580,"Ġdropping":11581,"Ġcommonly":11582,"Ġconsiderable":11583,"Ġquarterback":11584,"Ġarguments":11585,"Ġregardless":11586,"Ġwidow":11587,"Ġcooking":11588,"Ġtower":11589,"Ġexception":11590,"Ġfrustration":11591,"munition":11592,"ĠStanley":11593,"Ġtexts":11594,"ĠAffairs":11595,"Ġgreeted":11596,"ĠPersie":11597,"Ġmerely":11598,"ĠTunisia":11599,"usalem":11600,"Ġconstitu":11601,"01":11602,"EF":11603,"More":11604,"sers":11605,"Ġinmate":11606,"idges":11607,"ĠTri":11608,"ĠTib":11609,"stick":11610,"Ġgotten":11611,"ĠMort":11612,"igue":11613,"ĠBourn":11614,"ushes":11615,"ĠHos":11616,"unes":11617,"oser":11618,"ĠDhabi":11619,"ĠLank":11620,"keys":11621,"Ġshake":11622,"Ġshield":11623,"Ġproportion":11624,"Ġkm":11625,"Ġoutdoor":11626,"apolis":11627,"Ġadmission":11628,"ollah":11629,"Ġbacks":11630,"Ġprest":11631,"Ġinvent":11632,"ĠAlf":11633,"Ġamateur":11634,"Ġremem":11635,"Ġears":11636,"ĠSpani":11637,"Ġcoaches":11638,"ĠReagan":11639,"Ġpassage":11640,"Ġpublication":11641,"Ġstranded":11642,"Ġpresidents":11643,"Ġdemol":11644,"ĠCoch":11645,"Ġeligible":11646,"Ġsolic":11647,"Ġdemonstrated":11648,"Ġstabbing":11649,"Ġacceptable":11650,"Ġscreening":11651,"Ġfixed":11652,"Ġantib":11653,"Ġpupil":11654,"ĠOsama":11655,"Ġhalt":11656,"Ġstructures":11657,"Ġfrustrated":11658,"ĠNicola":11659,"Ġvirtually":11660,"Ġcooperation":11661,"Ġboots":11662,"Ġanxiety":11663,"Ġgesture":11664,"Ġoverdose":11665,"Ġbeside":11666,"ĠCuomo":11667,"ĠRescue":11668,"ĠCasey":11669,"utenant":11670,"ĠPerez":11671,"ĠTitanic":11672,"ĠSchumacher":11673,"52":11674,"OLL":11675,"ea":11676,"hal":11677,"sor":11678,"inst":11679,"erts":11680,"Ġbases":11681,"Ġodd":11682,"Ġlatter":11683,"Ġreaches":11684,"Ġheal":11685,"stead":11686,"ĠMang":11687,"ĠBever":11688,"ĠBerry":11689,"ĠHS":11690,"Ġhaul":11691,"tshire":11692,"ĠNEW":11693,"ĠNBA":11694,"ĠGro":11695,"ĠGolf":11696,"ework":11697,"Ġspare":11698,"ummy":11699,"Ġclick":11700,"icting":11701,"issions":11702,"enson":11703,"ĠAlong":11704,"Ġlongtime":11705,"ĠClick":11706,"Ġstatistics":11707,"ĠPrison":11708,"Ġsubmit":11709,"Ġdetected":11710,"Ġvet":11711,"ĠColbert":11712,"Ġtravels":11713,"Ġoccurs":11714,"Ġexecutives":11715,"friendly":11716,"ĠSamar":11717,"ĠWithout":11718,"scale":11719,"Ġconnections":11720,"Ġ1977":11721,"Ġ1979":11722,"ĠCorp":11723,"ĠCongo":11724,"Ġfatally":11725,"Ġboxing":11726,"Ġcredited":11727,"Ġsalt":11728,"Ġdelivering":11729,"Ġdining":11730,"ĠCapitol":11731,"ĠRosberg":11732,"Ġmaintains":11733,"Ġexercises":11734,"Ġqualifying":11735,"Ġnuts":11736,"Ġpledge":11737,"ĠCommunity":11738,"Ġfirefighter":11739,"ĠBernard":11740,"ĠMotor":11741,"Ġresolve":11742,"ĠBanglades":11743,"ĠLynch":11744,"ĠEntertainment":11745,"Ġnicknamed":11746,"ĠLennon":11747,"Ġnominee":11748,"ĠCroatia":11749,"Ġunlawful":11750,"03":11751,"57":11752,"Bay":11753,"DP":11754,"IL":11755,"aired":11756,"finals":11757,"feld":11758,"giving":11759,"hr":11760,"rera":11761,"there":11762,"uj":11763,"ument":11764,"uccess":11765,"hend":11766,"inted":11767,"Ġbold":11768,"Ġfool":11769,"itious":11770,"ario":11771,"Ġtoy":11772,"Ġdated":11773,"Ġdimin":11774,"Ġdementia":11775,"omers":11776,"ĠTan":11777,"Ġgrie":11778,"ĠArena":11779,"ĠMA":11780,"ĠMey":11781,"ĠCroy":11782,"ĠBae":11783,"ĠPR":11784,"ĠPard":11785,"child":11786,"ĠDJ":11787,"ĠEmp":11788,"ĠEti":11789,"ainted":11790,"Ġseal":11791,"umar":11792,"ĠKi":11793,"ĠKle":11794,"ellar":11795,"Ġunt":11796,"Ġresume":11797,"Ġscare":11798,"Ġpolar":11799,"Ġevil":11800,"Ġenable":11801,"Ġammunition":11802,"Ġcenters":11803,"Ġexpression":11804,"Ġawful":11805,"ĠWhich":11806,"Ġgovern":11807,"Ġ84":11808,"uctions":11809,"ĠMaybe":11810,"ĠBeaut":11811,"aunch":11812,"Ġ02":11813,"Ġedition":11814,"Ġlesson":11815,"Ġtreas":11816,"umps":11817,"umping":11818,"Ġimmune":11819,"Ġexcuse":11820,"Ġmeanwhile":11821,"Ġripped":11822,"Ġvalid":11823,"Ġracism":11824,"ĠBelle":11825,"Ġconsideration":11826,"Ġattractive":11827,"Ġsemif":11828,"Ġarguing":11829,"ĠHelp":11830,"Ġcopies":11831,"Ġprayer":11832,"ĠFinancial":11833,"Ġwoods":11834,"Ġupdate":11835,"Ġbattles":11836,"ĠToronto":11837,"Ġutter":11838,"ĠIndonesian":11839,"Ġrelaxed":11840,"lects":11841,"ĠMorsi":11842,"Ġautomatically":11843,"Ġridiculous":11844,"Ġhazard":11845,"ĠHungary":11846,"ĠPatriots":11847,"Ġscrutiny":11848,"Ġelaborate":11849,"51":11850,"chester":11851,"four":11852,"fair":11853,"iya":11854,"liest":11855,"mel":11856,"yes":11857,"zes":11858,"Ġsank":11859,"Ġtheater":11860,"enko":11861,"Ġbik":11862,"isk":11863,"ishers":11864,"Ġhorm":11865,"Ġinev":11866,"ouds":11867,"enter":11868,"otal":11869,"ĠAth":11870,"ĠMug":11871,"ĠMitch":11872,"ĠIM":11873,"Ġstupid":11874,"ĠHa":11875,"ĠHerald":11876,"Ġate":11877,"ĠParents":11878,"rien":11879,"Ġally":11880,"Ġyard":11881,"three":11882,"ĠFisher":11883,"ĠNi":11884,"ĠEri":11885,"ĠGw":11886,"Ġvom":11887,"uming":11888,"iva":11889,"ĠKings":11890,"Ġcliff":11891,"ieu":11892,"berger":11893,"ĠChange":11894,"iped":11895,"ĠThai":11896,"ensed":11897,"Ġquant":11898,"Ġmonster":11899,"Ġcentres":11900,"Ġindecent":11901,"ĠShi":11902,"Ġ74":11903,"Ġsignals":11904,"ĠClose":11905,"Ġ86":11906,"Ġmoderate":11907,"Ġcampaigners":11908,"lining":11909,"Ġstrip":11910,"Ġthreaten":11911,"Ġfreezing":11912,"Ġhopefully":11913,"Ġsuperb":11914,"uka":11915,"Ġcalendar":11916,"ĠCoroner":11917,"Ġimmigrant":11918,"Ġinflation":11919,"Ġfloods":11920,"Ġspreading":11921,"Ġconclud":11922,"Ġconservatives":11923,"ĠDetectives":11924,"Ġcommunicate":11925,"ĠMiddleton":11926,"Ġownership":11927,"Ġdivorced":11928,"ĠJerusalem":11929,"Ġfeedback":11930,"believ":11931,"ĠUsing":11932,"Ġaffecting":11933,"Ġeuro":11934,"Ġadvocates":11935,"ĠSwedish":11936,"Ġmirror":11937,"controlled":11938,"ĠSavile":11939,"ĠWeekly":11940,"Ġbeliefs":11941,"Ġconstitutional":11942,"Ġcruelty":11943,"Ġacademic":11944,"ĠTechnology":11945,"Ġdischarged":11946,"arthy":11947,"hurst":11948,"Ġartificial":11949,"Ġsophisticated":11950,"mir":11951,"new":11952,"pound":11953,"rings":11954,"uzz":11955,"Â¿":11956,"Ġwand":11957,"Ġfranch":11958,"icians":11959,"ido":11960,"Ġlod":11961,"Ġlap":11962,"ĠTrain":11963,"Ġheated":11964,"ĠSet":11965,"Ġgroom":11966,"ĠAber":11967,"ĠCit":11968,"Ġstir":11969,"ĠBene":11970,"ĠPin":11971,"ĠPriv":11972,"Ġash":11973,"ulting":11974,"opping":11975,"ĠFat":11976,"ĠRams":11977,"ĠNash":11978,"Ġrall":11979,"ĠEc":11980,"ĠGove":11981,"ĠOak":11982,"Ġjaw":11983,"abouts":11984,"Ġspan":11985,"see":11986,"Ġabusing":11987,"Ġorph":11988,"Ġbutter":11989,"antan":11990,"ĠStamford":11991,"Ġscam":11992,"oyle":11993,"ampa":11994,"Ġhomeown":11995,"Ġrelating":11996,"ĠArctic":11997,"Ġ79":11998,"Ġcareers":11999,"Ġdeputies":12000,"Ġsupportive":12001,"Ġparole":12002,"Ġtrainer":12003,"ĠAustralians":12004,"Ġemerge":12005,"Ġelimin":12006,"Ġwears":12007,"Ġhostages":12008,"ortunate":12009,"Ġsolutions":12010,"Ġexcitement":12011,"Ġsenators":12012,"Ġlifting":12013,"spec":12014,"Ġautopsy":12015,"Ġdraws":12016,"ĠArsene":12017,"Ġbasement":12018,"Ġtrousers":12019,"Ġminds":12020,"Ġdisplayed":12021,"Ġpersons":12022,"ozone":12023,"ĠDarren":12024,"ĠWebb":12025,"doch":12026,"ĠFollow":12027,"Ġnutrition":12028,"ĠAhmad":12029,"Ġpalace":12030,"Ġisolation":12031,"Ġprinted":12032,"Ġintroduce":12033,"Ġdialogue":12034,"Ġsubstantial":12035,"Ġastronauts":12036,"Ġunhappy":12037,"Ġfingers":12038,"Ġendangered":12039,"Ġgrandparents":12040,"ĠTibet":12041,"09":12042,"56":12043,"IT":12044,"Sc":12045,"folk":12046,"mid":12047,"norm":12048,"race":12049,"Ġtone":12050,"Ġauthors":12051,"Ġcave":12052,"Ġcops":12053,"Ġbip":12054,"Ġfisher":12055,"Ġpills":12056,"Ġpoured":12057,"oub":12058,"Ġmug":12059,"Ġlinger":12060,"Ġnerve":12061,"Ġreverse":12062,"ĠSA":12063,"ĠMul":12064,"ĠHig":12065,"ĠHook":12066,"ĠHuss":12067,"ĠPast":12068,"unal":12069,"ĠDisc":12070,"ĠFle":12071,"ĠRest":12072,"ewhat":12073,"ĠJun":12074,"Ġsealed":12075,"about":12076,"Ġprostitution":12077,"Ġclues":12078,"ĠInn":12079,"Ġpeer":12080,"Ġcontamin":12081,"Ġdisrupt":12082,"Ġprank":12083,"Ġprisons":12084,"izza":12085,"Ġ1940":12086,"ĠNewark":12087,"Ġstrangers":12088,"Ġspecially":12089,"Ġsubmar":12090,"Ġrefuse":12091,"Ġmovements":12092,"ĠAdeb":12093,"Ġsnapped":12094,"ĠCenters":12095,"ĠWarner":12096,"eymar":12097,"Ġprescription":12098,"Ġurgent":12099,"ĠAlexis":12100,"Ġmeasured":12101,"ĠWiltshire":12102,"ĠMalala":12103,"Ġsunshine":12104,"Ġdoubts":12105,"ĠPerth":12106,"ĠBurke":12107,"fortable":12108,"Ġdetermination":12109,"Ġconfidential":12110,"Americans":12111,"Everyone":12112,"Ġmonitored":12113,"Ġmysterious":12114,"Ġretailers":12115,"ĠWildlife":12116,"Ġtortured":12117,"Ġclimbing":12118,"Ġinstructions":12119,"Ġassassination":12120,"Ġprofessionals":12121,"ĠBolton":12122,"Ġcertific":12123,"Ġextradition":12124,"ĠMoyes":12125,"Ġfurniture":12126,"Ġdiabet":12127,"threatening":12128,"ĠTripoli":12129,"Ġtrademark":12130,"antanamo":12131,"ĠHussain":12132,"Mad":12133,"hot":12134,"lay":12135,"rane":12136,"Ġtipped":12137,"Ġtropical":12138,"hell":12139,"eria":12140,"Ġsod":12141,"Ġwage":12142,"eded":12143,"anor":12144,"Ġbout":12145,"Ġpave":12146,"Ġda":12147,"Ġdrought":12148,"icy":12149,"Ġthousand":12150,"Ġlion":12151,"ĠTax":12152,"ĠST":12153,"ĠSaints":12154,"ayor":12155,"oline":12156,"ambers":12157,"ĠCand":12158,"ĠCreek":12159,"urches":12160,"change":12161,"ĠDiamond":12162,"ulus":12163,"ĠLower":12164,"ĠEsc":12165,"aston":12166,"Ġnoting":12167,"oca":12168,"ĠKatherine":12169,"olls":12170,"ressing":12171,"Ġscary":12172,"Ġattrib":12173,"Then":12174,"ĠAlonso":12175,"years":12176,"ieri":12177,"ribe":12178,"Ġkillers":12179,"ricted":12180,"Ġcoal":12181,"ĠClo":12182,"ĠMcN":12183,"ometown":12184,"Ġdepos":12185,"Ġprovision":12186,"Ġtopic":12187,"Ġsubway":12188,"Ġglory":12189,"Ġswift":12190,"Ġparks":12191,"Ġoppose":12192,"Ġcostumes":12193,"engu":12194,"ĠEditor":12195,"Ġdebates":12196,"Ġdamages":12197,"working":12198,"Ġpoliceman":12199,"Ġprivile":12200,"ĠSochi":12201,"ĠDanish":12202,"iscal":12203,"ĠCorps":12204,"Ġdiscussing":12205,"Ġcomplaining":12206,"ĠTehran":12207,"Ġindication":12208,"Ġmagazines":12209,"Ġshutdown":12210,"Ġstrategic":12211,"Ġcabinet":12212,"Ġfarmers":12213,"Ġrequirements":12214,"ĠNigerian":12215,"ĠBoris":12216,"Ġrefugee":12217,"ĠGriffith":12218,"Ġsacrif":12219,"beaten":12220,"Ġcanceled":12221,"Ġfundraising":12222,"ĠVenezuela":12223,"ĠVincent":12224,"Ġastonishing":12225,"ĠCochran":12226,");":12227,"PC":12228,"cill":12229,"cony":12230,"hift":12231,"iy":12232,"iating":12233,"jud":12234,"mand":12235,"name":12236,"rowing":12237,"uz":12238,"vity":12239,"eness":12240,"Ġfancy":12241,"itches":12242,"Ġpand":12243,"ilot":12244,"ĠTon":12245,"olks":12246,"utral":12247,"amic":12248,"ĠIT":12249,"ĠIce":12250,"ĠIron":12251,"Ġstones":12252,"ĠHass":12253,"una":12254,"Ġalien":12255,"thouse":12256,"ĠRou":12257,"ĠRSP":12258,"ĠNever":12259,"ĠNeymar":12260,"ĠJerry":12261,"Ġseas":12262,"Ġabusive":12263,"onga":12264,"Ġoverweight":12265,"Ġsomehow":12266,"Ġmyth":12267,"Ġnowhere":12268,"Ġcrushed":12269,"Ġdeciding":12270,"ĠAntar":12271,"Ġremoving":12272,"Ġcountless":12273,"oval":12274,"ĠArmed":12275,"Ġseeks":12276,"ĠObs":12277,"prise":12278,"Ġparach":12279,"Ġviolated":12280,"ĠSeahaw":12281,"ĠAdrian":12282,"Ġsnake":12283,"Ġmainstream":12284,"ĠGuantanamo":12285,"Ġhumanity":12286,"Ġballot":12287,"Ġprocessed":12288,"ĠMcCarthy":12289,"Ġvalued":12290,"Ġautumn":12291,"Ġresidential":12292,"ĠTravolt":12293,"Ġbanking":12294,"ĠMurdoch":12295,"Ġtributes":12296,"ĠSalmond":12297,"Ġimprovement":12298,"Ġbalcony":12299,"Ġregarded":12300,"Ġbelonging":12301,"ĠBobby":12302,"Ġsweat":12303,"ĠRamsey":12304,"Ġtunnel":12305,"Ġdistribution":12306,"Ġdisciplinary":12307,"Ġprinciples":12308,"Ġsatisfied":12309,"ĠNeville":12310,"Ġintroduction":12311,"Ġvaccine":12312,"OWN":12313,"Ġimprisonment":12314,"ĠAlgeria":12315,"ĠSebastian":12316,"Ġtissue":12317,"ĠSpaniard":12318,"FK":12319,"Smith":12320,"gs":12321,"nation":12322,"pit":12323,"post":12324,"Ġtong":12325,"Ġasteroid":12326,"inness":12327,"Ġcours":12328,"orne":12329,"aned":12330,"oust":12331,"Ġmail":12332,"Ġdre":12333,"Ġthunder":12334,"ĠTah":12335,"ĠSri":12336,"ĠAN":12337,"ĠMol":12338,"ĠMaid":12339,"Ġeager":12340,"elve":12341,"elia":12342,"roe":12343,"ĠBody":12344,"ĠPict":12345,"Ġhabits":12346,"ĠDa":12347,"ĠDark":12348,"opol":12349,"ĠLan":12350,"aganda":12351,"ĠFans":12352,"ĠReds":12353,"iffer":12354,"ĠNaz":12355,"ĠJol":12356,"Ġdeploy":12357,"Ġexamples":12358,"ĠUg":12359,"akh":12360,"oker":12361,"Ġoffender":12362,"Ġuncon":12363,"ĠChuck":12364,"inding":12365,"Ġpoly":12366,"Ġacres":12367,"atching":12368,"ĠBritt":12369,"anked":12370,"ĠReyn":12371,"ĠWeather":12372,"iox":12373,"Ġextension":12374,"Ġdetective":12375,"Ġswall":12376,"Ġ01":12377,"Ġcampaigning":12378,"Ġmoral":12379,"Ġprogrammes":12380,"ĠAlliance":12381,"Ġgrandson":12382,"Ġengaging":12383,"Ġprivately":12384,"ocumented":12385,"offs":12386,"Ġthrone":12387,"Ġ1986":12388,"ĠMcCart":12389,"ĠWithin":12390,"Ġdisappointment":12391,"Ġcreates":12392,"Ġdispers":12393,"Ġgolden":12394,"Ġrecognize":12395,"ĠLords":12396,"ĠCamilla":12397,"Ġsensors":12398,"âĢĿ.":12399,"ĠHugo":12400,"ĠKatrina":12401,"Ġharmful":12402,"Ġthanked":12403,"Ġassaults":12404,"Ġblew":12405,"Ġreminder":12406,"ĠRobertson":12407,"ĠGunners":12408,"Ġmotivated":12409,"Ġrecommendations":12410,"Ġpsychiatric":12411,"Ġfrightened":12412,"Ġdeceased":12413,"vereign":12414,"ĠCriminal":12415,"Ġdiabetes":12416,"ĠSeahawks":12417,"):":12418,"Mart":12419,"PA":12420,"bes":12421,"lon":12422,"nock":12423,"piece":12424,"taking":12425,"ucc":12426,"voy":12427,"walk":12428,"Ġtan":12429,"Ġtemp":12430,"heart":12431,"erals":12432,"onial":12433,"Ġcrop":12434,"atab":12435,"Ġhometown":12436,"ilitation":12437,"Ġlined":12438,"Ġninth":12439,"Ġhed":12440,"string":12441,"ĠMata":12442,"ĠCL":12443,"ĠCay":12444,"ĠCord":12445,"Ġstem":12446,"ĠBes":12447,"ĠBald":12448,"ĠHum":12449,"ĠHave":12450,"ĠDal":12451,"ĠDak":12452,"ĠDOWN":12453,"ĠLis":12454,"ĠLaz":12455,"ĠRush":12456,"ĠNone":12457,"Ġcomic":12458,"asting":12459,"okia":12460,"ĠKam":12461,"ansk":12462,"ĠChallen":12463,"ĠInit":12464,"Ġreserv":12465,"Ġrepay":12466,"Ġincent":12467,"never":12468,"Ġrecl":12469,"Ġ1930":12470,"Ġwhereabouts":12471,"Ġimpose":12472,"Ġacademy":12473,"Ġfines":12474,"Ġemissions":12475,"Ġregulation":12476,"Ġfriendship":12477,"ĠShah":12478,"ĠEngine":12479,"Ġwrist":12480,"Ġinjuring":12481,"Ġdepending":12482,"bye":12483,"Ġrecordings":12484,"Ġadvis":12485,"Ġhomosexual":12486,"Ġequality":12487,"Ġpleading":12488,"Ġhosting":12489,"ĠSteenk":12490,"Ġ1984":12491,"Ġweekends":12492,"Ġvolley":12493,"Ġcrashing":12494,"ĠBlacks":12495,"Ġsteady":12496,"Ġ1968":12497,"Ġstormed":12498,"hett":12499,"Ġroutes":12500,"ĠFarrell":12501,"Ġcoaching":12502,"Ġreviewed":12503,"Ġobsc":12504,"Ġexperiencing":12505,"Ġblocking":12506,"Ġlegislative":12507,"Ġmotorists":12508,"ĠKarl":12509,"emporary":12510,"ĠSlov":12511,"Ġlogo":12512,"Ġessentially":12513,"Ġvessels":12514,"Ġderby":12515,"Ġadvocate":12516,"ĠModel":12517,"Ġpermanently":12518,"Ġoccasionally":12519,"ĠBrandon":12520,"ĠPotter":12521,"Ġsubsequent":12522,"ĠHenderson":12523,"ĠTHE":12524,"Ġtougher":12525,"pherd":12526,"ĠTaiwan":12527,"ĠHussein":12528,"intendent":12529,"ĠTravolta":12530,"ĠSteenkamp":12531,"EFA":12532,"Me":12533,"aab":12534,"home":12535,"lifting":12536,"mill":12537,"ruption":12538,"Ġsadd":12539,"Ġtheories":12540,"anium":12541,"Ġboun":12542,"Ġbisc":12543,"Ġhood":12544,"Ġdirty":12545,"Ġthigh":12546,"Ġnaturally":12547,"ĠTob":12548,"ĠSut":12549,"ĠSearch":12550,"ĠSCR":12551,"Ġgren":12552,"acles":12553,"etary":12554,"Ġsticking":12555,"ĠHand":12556,"ĠHaz":12557,"ĠPay":12558,"ationally":12559,"ĠFun":12560,"ĠRuth":12561,"Ġconvert":12562,"ĠGadd":12563,"ĠJod":12564,"ĠJagger":12565,"Ġchurches":12566,"Ġleap":12567,"Ġleather":12568,"ĠOz":12569,"Ġexists":12570,"Ġspo":12571,"Ġunbeaten":12572,"Ġsovereign":12573,"ensus":12574,"Ġprecious":12575,"Ġcaravan":12576,"Ġcrashes":12577,"Ġdeck":12578,"Ġdeserved":12579,"Ġphr":12580,"Ġconsol":12581,"Ġbelieving":12582,"ternal":12583,"grand":12584,"Ġslip":12585,"ĠMcIl":12586,"Ġ83":12587,"ĠCara":12588,"Ġdepressed":12589,"ysc":12590,"tenance":12591,"Ġcommunist":12592,"ĠMission":12593,"Ġoperators":12594,"ĠAfricans":12595,"Ġapprove":12596,"century":12597,"Ġeyel":12598,"ĠExecutive":12599,"Ġ1987":12600,"ĠMcConnell":12601,"spoken":12602,"Ġautom":12603,"Ġstepping":12604,"Ġportion":12605,"ĠEvent":12606,"Ġcardiac":12607,"ĠBurg":12608,"ĠFrancois":12609,"Ġunfortunate":12610,"uddy":12611,"Ġpromotion":12612,"ĠDelhi":12613,"ERE":12614,"ĠElliott":12615,"Ġpremium":12616,"Although":12617,"Ġpraise":12618,"Ġwithdrawn":12619,"Ġnursing":12620,"Ġdistributed":12621,"Ġpreferred":12622,"ĠBarton":12623,"Ġpoisoning":12624,"ĠRuby":12625,"Ġglamorous":12626,"\"\"\",\"(":12627,"ĠCristiano":12628,"ĠJamaica":12629,"Ġundercover":12630,"Ġresearcher":12631,"Ġphenomenon":12632,"ĠGCSE":12633,"Ġairplane":12634,"ĠBournemouth":12635,"ĠSCROLL":12636,"Ad":12637,"EL":12638,"Ed":12639,"Well":12640,"iop":12641,"tz":12642,"then":12643,"Ġ*":12644,"Ġx":12645,"Ġug":12646,"Ġtap":12647,"inction":12648,"Ġsew":12649,"Ġsizes":12650,"Ġcord":12651,"Ġcure":12652,"Ġcried":12653,"Ġtours":12654,"Ġmakers":12655,"Ġdolphins":12656,"Ġgiants":12657,"ĠBony":12658,"ĠHalf":12659,"ĠHoff":12660,"Ġaspect":12661,"ĠDh":12662,"ĠDist":12663,"ĠFem":12664,"ĠFish":12665,"ifies":12666,"ĠNokia":12667,"Ġjunk":12668,"iah":12669,"Ġunbeliev":12670,"Ġ(\"\"":12671,"Ġoverc":12672,"Ġcompassion":12673,"Ġ2018":12674,"Ġdisability":12675,"Ġarts":12676,"hedral":12677,"ĠVII":12678,"Ġpartially":12679,"amps":12680,"nings":12681,"Ġserves":12682,"Ġhelm":12683,"ĠScots":12684,"Ġsupporter":12685,"Ġfinals":12686,"Ġendors":12687,"Ġdonation":12688,"Ġattackers":12689,"Ġmarine":12690,"veson":12691,"Ġcontracted":12692,"Ġ87":12693,"ĠBlanc":12694,"Ġbreed":12695,"Ġrestore":12696,"Ġuseful":12697,"Ġreflected":12698,"Ġreflects":12699,"ĠBaron":12700,"Ġparamedics":12701,"ĠHarrison":12702,"rained":12703,"Ġconsiders":12704,"Ġbreakthrough":12705,"Ġinspire":12706,"Ġhorrified":12707,"Ġprepares":12708,"ĠWils":12709,"Ġcircle":12710,"ĠResidents":12711,"ĠQuinn":12712,"Ġmisd":12713,"Ġsuitable":12714,"Ġtrusted":12715,"ĠFAA":12716,"Ġflee":12717,"ĠInterior":12718,"ĠStephan":12719,"Ġfestiv":12720,"Ġsmartphones":12721,"Ġfixture":12722,"Ġprimarily":12723,"Ġunsuccess":12724,"Ġapproaching":12725,"Ġhunger":12726,"CAA":12727,"Ġactively":12728,"ĠDublin":12729,"ĠBelgian":12730,"ĠGPS":12731,"Ġtroubles":12732,"ĠLiu":12733,"Ġunpaid":12734,"Ġnarrowly":12735,"Ġvegetables":12736,"Ġnominated":12737,"ĠRandy":12738,"Ġshallow":12739,"ĠExpress":12740,"ĠToyota":12741,"Ġfabric":12742,"Ġepidemic":12743,"ĠMcCartney":12744,"%.":12745,".âĢĿ":12746,"De":12747,"RC":12748,"des":12749,"ration":12750,"rows":12751,"Ġcam":12752,"Ġfolks":12753,"arry":12754,"Ġthieves":12755,"Ġrej":12756,"Ġgene":12757,"Ġgonna":12758,"ĠMik":12759,"Ġstaged":12760,"ĠBund":12761,"ĠBanks":12762,"ĠPas":12763,"ĠPel":12764,"ĠPret":12765,"ĠDawn":12766,"Ġranging":12767,"Ġarena":12768,"ĠGur":12769,"Ġshaking":12770,"ĠJub":12771,"ĠON":12772,"ĠStef":12773,"iph":12774,"Ġ2017":12775,"icki":12776,"Ġtrace":12777,"hentic":12778,"ugar":12779,"riculture":12780,"Ġwars":12781,"alez":12782,"Ġcapabilities":12783,"Ġcountryside":12784,"ĠJoan":12785,"ĠIsab":12786,"Ġpostp":12787,"prot":12788,"Ġrefund":12789,"Ġtestify":12790,"Ġmeteor":12791,"ĠChristians":12792,"Ġrequiring":12793,"Ġmainland":12794,"Ġburial":12795,"Ġequipped":12796,"Ġtwist":12797,"ĠFrenchman":12798,"ĠRichmond":12799,"Ġmakeshift":12800,"ĠMedal":12801,"Ġrockets":12802,"Ġdeeper":12803,"Ġneglect":12804,"Ġquarant":12805,"Ġquarters":12806,"ophob":12807,"Ġreviews":12808,"Ġimprovements":12809,"ĠMelissa":12810,"Ġfleeing":12811,"Ġargues":12812,"ĠArias":12813,"ĠSantos":12814,"ĠBreak":12815,"Ġfortnight":12816,"Ġimplications":12817,"Ġhalted":12818,"Ġepisodes":12819,"ĠLeonard":12820,"impse":12821,"ĠRolling":12822,"Ġoverturned":12823,"Ġcigarette":12824,"Ġbacklash":12825,"Ġbankruptcy":12826,"ĠLampard":12827,"ĠCroydon":12828,"Ġlingerie":12829,"ĠReynolds":12830,"ĠMcIlroy":12831,"04":12832,"98":12833,"Because":12834,"fig":12835,"iere":12836,"rum":12837,"wl":12838,"zens":12839,"Ġbunk":12840,"Ġtopped":12841,"Ġpier":12842,"Ġpione":12843,"alin":12844,"Ġmol":12845,"Ġdawn":12846,"Ġthus":12847,"ĠTLC":12848,"ĠTampa":12849,"ĠSi":12850,"Ġgambling":12851,"ĠMills":12852,"ĠCory":12853,"thirds":12854,"opa":12855,"ĠFC":12856,"ĠRav":12857,"ĠGul":12858,"ĠGarr":12859,"Ġleak":12860,"ĠOwn":12861,"Ġnotor":12862,"ĠUEFA":12863,"Ġspaces":12864,"Ġperce":12865,"Ġ1945":12866,"Ġflour":12867,"Ġflav":12868,"Ġcharging":12869,"ĠFrances":12870,"Ġteammate":12871,"Ġhandgun":12872,"Ġreleasing":12873,"Ġdepends":12874,"Ġmilitia":12875,"Ġglimpse":12876,"Ġpopulations":12877,"Ġcompleting":12878,"Ġbarrier":12879,"ĠDems":12880,"ĠAssembly":12881,"Ġinspectors":12882,"Ġwrongdoing":12883,"ĠHoly":12884,"Ġneglig":12885,"ĠAction":12886,"Ġunfortunately":12887,"Ġfocusing":12888,"Ġemotions":12889,"ĠSandra":12890,"ĠBali":12891,"ĠWatkins":12892,"Christ":12893,"Ġjumps":12894,"ĠImmigr":12895,"Ġbelonged":12896,"Ġspectators":12897,"Ġethics":12898,"Ġsweeping":12899,"ĠAviation":12900,"onymous":12901,"iasm":12902,"Ġranked":12903,"Ġtiming":12904,"Ġaccomplish":12905,"ĠHonor":12906,"Ġcompromise":12907,"Ġhoax":12908,"ĠPeninsula":12909,"Ġentrepreneur":12910,"Ġdetainees":12911,"ĠDiane":12912,"Ġcondolences":12913,"Ġadminister":12914,"Ġunnecessary":12915,"ĠBangladesh":12916,"ĠPardew":12917,"bia":12918,"cal":12919,"ez":12920,"gone":12921,"iors":12922,"kind":12923,"kward":12924,"pired":12925,"Ġcute":12926,"Ġcraw":12927,"isive":12928,"Ġinner":12929,"Ġmelt":12930,"Ġduck":12931,"Ġlips":12932,"ĠTaking":12933,"ĠAS":12934,"ĠMason":12935,"owder":12936,"ura":12937,"igers":12938,"ĠBened":12939,"ĠBeth":12940,"ĠPsych":12941,"rived":12942,"ĠWals":12943,"estine":12944,"ĠLed":12945,"emies":12946,"ĠFra":12947,"ĠNumber":12948,"Ġrings":12949,"ĠGir":12950,"Ġshoe":12951,"Ġsheep":12952,"ĠKa":12953,"ieval":12954,"Ġtraces":12955,"Ġpreced":12956,"ĠAlt":12957,"ĠNewtown":12958,"ĠLev":12959,"Ġcharities":12960,"Ġacid":12961,"ĠShin":12962,"Ġbusiest":12963,"ĠBlatter":12964,"Ġproviders":12965,"Ġfacial":12966,"affe":12967,"Ġparalys":12968,"covery":12969,"ĠProp":12970,"Ġconvince":12971,"Ġdifferently":12972,"Ġparticles":12973,"ĠSerena":12974,"Ġbreakdown":12975,"Ġemployer":12976,"Ġlightning":12977,"Ġprosecuted":12978,"Ġdifficulty":12979,"Ġrivers":12980,"Ġchoosing":12981,"Ġvolume":12982,"Ġsteep":12983,"Ġslept":12984,"Ġbodily":12985,"Ġattraction":12986,"Ġmistaken":12987,"ĠDonna":12988,"ĠNorfolk":12989,"Ġengineers":12990,"Ġphotographers":12991,"ĠSharon":12992,"Former":12993,"Ġpromoted":12994,"ĠDownton":12995,"Ġtransportation":12996,"ĠEveryone":12997,"Ġrumors":12998,"Ġrumours":12999,"Ġsomewhat":13000,"ĠJacob":13001,"Ġbonus":13002,"Ġblanket":13003,"founder":13004,"Ġuncomfortable":13005,"Ġplunged":13006,"Ġobservers":13007,"Ġpaedophile":13008,"ĠIsaac":13009,"Ġorganisations":13010,"ranean":13011,"ĠClooney":13012,"ĠRSPCA":13013,"Ġmisdeme":13014,"has":13015,"mits":13016,"oft":13017,"rise":13018,"vious":13019,"word":13020,"yer":13021,"zb":13022,"heem":13023,"Ġcere":13024,"Ġdim":13025,"ilater":13026,"Ġluc":13027,"ĠMom":13028,"Ġstyl":13029,"usc":13030,"ecute":13031,"ĠHan":13032,"ĠHans":13033,"ĠPoc":13034,"ĠPap":13035,"unct":13036,"ĠLiz":13037,"agged":13038,"kee":13039,"Ġchips":13040,"Ġchains":13041,"Ġdeployment":13042,"Ġlets":13043,"Ġproving":13044,"ephew":13045,"ĠHeather":13046,"Ġimper":13047,"Ġroots":13048,"ptic":13049,"Ġserial":13050,"Ġbride":13051,"Ġhanding":13052,"ĠSha":13053,"Ġcheese":13054,"Ġbuses":13055,"ĠRepresent":13056,"Ġmodelling":13057,"ĠChristina":13058,"Ġveto":13059,"espe":13060,"ĠAdv":13061,"Ġdistraught":13062,"ĠElsewhere":13063,"Ġloaded":13064,"Ġprocessing":13065,"Ġlighting":13066,"yla":13067,"umbling":13068,"ĠNeither":13069,"ĠMoroc":13070,"Ġdestinations":13071,"Ġclever":13072,"Ġ1978":13073,"Ġrenov":13074,"Ġobserved":13075,"Ġdocumented":13076,"Ġhyper":13077,"Ġupdates":13078,"Ġyouths":13079,"Ġbattered":13080,"ĠCuban":13081,"Ġlaughing":13082,"Ġfloating":13083,"ĠFurther":13084,"Ġpreparation":13085,"Ġbacteria":13086,"Ġsolicitor":13087,"Ġcertificate":13088,"Ġcourses":13089,"ĠDakota":13090,"95":13091,"900":13092,"fur":13093,"hit":13094,"iago":13095,"rary":13096,"Ġtension":13097,"onel":13098,"atri":13099,"Ġpants":13100,"idav":13101,"Ġlugg":13102,"Ġnod":13103,"ĠTiger":13104,"sts":13105,"oland":13106,"adi":13107,"ĠMasters":13108,"urance":13109,"ĠID":13110,"Ġstored":13111,"ĠWes":13112,"ĠLen":13113,"Ġrated":13114,"ĠEle":13115,"ĠESP":13116,"Ġleaks":13117,"ĠâĢ¦":13118,"ĠKel":13119,"Ġoutfits":13120,"Ġunear":13121,"Ġintel":13122,"ĠIns":13123,"Ġdisgu":13124,"Ġsoap":13125,"manned":13126,"ĠThrough":13127,"ĠThank":13128,"ickers":13129,"Ġfamed":13130,"Ġunderway":13131,"Ġmonthly":13132,"Ġraping":13133,"ĠLeft":13134,"teen":13135,"ĠMarco":13136,"Ġretreat":13137,"Ġassured":13138,"Ġindef":13139,"ĠShare":13140,"Ġmargin":13141,"ĠMcM":13142,"ĠSyl":13143,"Ġrestricted":13144,"Ġfarmer":13145,"Ġgloves":13146,"iola":13147,"being":13148,"Ġlottery":13149,"ealous":13150,"ĠConc":13151,"ĠConvention":13152,"Ġmarking":13153,"Ġhardest":13154,"Ġgunmen":13155,"Ġdesigners":13156,"Ġdistingu":13157,"Ġclassmates":13158,"Ġidentification":13159,"Ġbarg":13160,"ĠOrig":13161,"ĠOrder":13162,"Ġengines":13163,"ĠMegan":13164,"Ġcommented":13165,"Ġharvest":13166,"Ġsupervis":13167,"ĠParkinson":13168,"Ġpropaganda":13169,"Ġsooner":13170,"Ġ1982":13171,"Ġauthentic":13172,"backs":13173,"Ġboxer":13174,"ĠFarm":13175,"Ġdemonstrate":13176,"Ġjudicial":13177,"Ġsurfing":13178,"Ġapologize":13179,"embled":13180,"Ġillnesses":13181,"Ġscenario":13182,"Ġbowel":13183,"Ġbullied":13184,"Ġmiracle":13185,"Ġrevelation":13186,"ĠKenneth":13187,"Ġladies":13188,"Ġoptimistic":13189,"ĠTemple":13190,"ĠLionel":13191,"ĠGeneva":13192,"ĠLanka":13193,"Ġprestigious":13194,"Ġugly":13195,"Ġluggage":13196,"Donald":13197,"Pro":13198,"bear":13199,"mort":13200,"po":13201,"ski":13202,"uers":13203,"Ġbog":13204,"Ġborough":13205,"Ġhire":13206,"Ġhorn":13207,"Ġtopp":13208,"asant":13209,"alle":13210,"Ġdatab":13211,"ĠAM":13212,"ĠCass":13213,"ĠCowell":13214,"iri":13215,"Ġwashing":13216,"ĠBird":13217,"ĠBorder":13218,"\"\"\"":13219,"eches":13220,"illon":13221,"ĠHat":13222,"ĠHuff":13223,"changing":13224,"ĠWW":13225,"ĠWine":13226,"estrian":13227,"ĠFried":13228,"ĠNCAA":13229,"ĠEqu":13230,"ĠElection":13231,"Ġshy":13232,"ĠJur":13233,"Ġspa":13234,"Ġsheet":13235,"Ġplug":13236,"Ġuprising":13237,"Ġwhenever":13238,"Ġattitudes":13239,"ĠVi":13240,"Ġblown":13241,"Ġblades":13242,"ĠFraser":13243,"Ġretain":13244,"ĠShould":13245,"ĠReuters":13246,"Ġmarriages":13247,"sterdam":13248,"Ġdrum":13249,"Ġaffidav":13250,"aney":13251,"Ġinflam":13252,"ĠReport":13253,"ĠRussians":13254,"ĠHerrera":13255,"ĠColchester":13256,"claimed":13257,"Ġartwork":13258,"Ġadvisers":13259,"Ġpressed":13260,"ĠCentury":13261,"Ġtechnologies":13262,"alymp":13263,"ĠManning":13264,"Ġgranddaughter":13265,"ĠAppeal":13266,"Ġmagic":13267,"Ġallegation":13268,"Ġdisputed":13269,"Ġchairs":13270,"Ġfirmly":13271,"Ġcredits":13272,"hetor":13273,"Ġchecking":13274,"Ġaddresses":13275,"Ġdeclar":13276,"Ġvoices":13277,"ĠJulia":13278,"Ġultra":13279,"ĠTeresa":13280,"Ġignore":13281,"ĠDelaware":13282,"Ġcommissioned":13283,"Ġbelongings":13284,"Ġcitizenship":13285,"ĠFinally":13286,"ĠAbdel":13287,"Ġbedrooms":13288,"Ġeurozone":13289,"EAL":13290,"Ġestablishment":13291,"party":13292,"Ġcorrectly":13293,"Ġsuburban":13294,"Ġconsistently":13295,"Ġlungs":13296,"Ġpleasure":13297,"skirts":13298,"Ġrifle":13299,"Ġceiling":13300,"ĠEconomic":13301,"ĠDyke":13302,"Ġanchor":13303,"General":13304,"Ġingredients":13305,"Ġfranchise":13306,"ĠWilshere":13307,"78":13308,"FO":13309,"US":13310,"West":13311,"author":13312,"bishop":13313,"dah":13314,"drop":13315,"filled":13316,"great":13317,"hyd":13318,"kar":13319,"piring":13320,"erra":13321,"Ġsends":13322,"onic":13323,"Ġfails":13324,"ittle":13325,"Ġpays":13326,"iler":13327,"ilation":13328,"ĠSN":13329,"ĠSally":13330,"ĠAly":13331,"ĠeBay":13332,"ĠCoul":13333,"eli":13334,"Ġstating":13335,"rock":13336,"Ġsafer":13337,"ĠPa":13338,"Ġaspects":13339,"ĠLiam":13340,"agle":13341,"Ġrh":13342,"ĠGav":13343,"Ġshook":13344,"Ġshipping":13345,"Ġlect":13346,"Ġleaf":13347,"ĠOman":13348,"Ġprostitutes":13349,"Ġproceeds":13350,"Ġsperm":13351,"Ġsheets":13352,"geon":13353,"ĠKind":13354,"ĠKris":13355,"Ġadap":13356,"Ġneutral":13357,"ĠHey":13358,"Ġreserve":13359,"Ġincl":13360,"ogy":13361,"Ġjustify":13362,"Ġknives":13363,"Ġtrash":13364,"Ġwomb":13365,"Ġgrant":13366,"ĠMarines":13367,"Ġreloc":13368,"ricts":13369,"shots":13370,"ĠShadow":13371,"ĠJoanna":13372,"ĠAshes":13373,"ĠZucker":13374,"ĠPrim":13375,"Ġinjection":13376,"coni":13377,"Ġsubjects":13378,"Ġdrowned":13379,"Ġ110":13380,"ĠChristine":13381,"Ġpolitically":13382,"Ġfactories":13383,"Ġdevelopments":13384,"ĠParalymp":13385,"Ġbanning":13386,"Ġresponses":13387,"Ġneighboring":13388,"ippers":13389,"Ġfrank":13390,"Ġprosecuting":13391,"Ġreplacing":13392,"who":13393,"white":13394,"Ġelev":13395,"Ġpunished":13396,"Ġseekers":13397,"Ġdispos":13398,"trick":13399,"Ġbattlefield":13400,"prov":13401,"Ġcouncils":13402,"Ġspeeding":13403,"olutely":13404,"Ġgraduation":13405,"ozy":13406,"ĠDenmark":13407,"respect":13408,"Ġapplaud":13409,"ĠCurrently":13410,"ĠPrior":13411,"ĠTyler":13412,"Ġweakness":13413,"ĠMirror":13414,"Ġwithdrew":13415,"Ġrubble":13416,"Ġdominant":13417,"ĠMountain":13418,"ĠLeonardo":13419,"Ġscreamed":13420,"Ġtunn":13421,"ĠLinda":13422,"ĠPalestinians":13423,"Ġpassionate":13424,"ĠRevolution":13425,"Ġlovers":13426,"Ġinstruments":13427,"Ġmotivation":13428,"Ġanxious":13429,"ĠTsar":13430,"Ġexcessive":13431,"ĠBosnia":13432,"Ġerrors":13433,"Ġclimbed":13434,"ĠBahrain":13435,"Ġancestors":13436,"ĠGabriel":13437,"Ġtremend":13438,"ĠArnold":13439,"ĠCoventry":13440,"ĠEtihad":13441,"ĠObserv":13442,"ĠGaddafi":13443,"62":13444,"OC":13445,"Shab":13446,"TA":13447,"big":13448,"fried":13449,"gel":13450,"hor":13451,"rin":13452,"rative":13453,"wed":13454,"Ġaver":13455,"Ġsounded":13456,"Ġther":13457,"Ġmour":13458,"Ġdive":13459,"Ġnephew":13460,"ĠSue":13461,"aye":13462,"otted":13463,"Ġgrip":13464,"Ġgaming":13465,"ĠMove":13466,"ĠCa":13467,"urer":13468,"ĠBat":13469,"ĠBian":13470,"illery":13471,"ĠHav":13472,"ĠPad":13473,"ĠPorts":13474,"Ġyield":13475,"ĠDennis":13476,"ĠDais":13477,"thals":13478,"Ġrhetor":13479,"ĠEcc":13480,"ĠGol":13481,"ĠGarden":13482,"Ġvic":13483,"essa":13484,"Ġspill":13485,"Ġplain":13486,"ĠKit":13487,"ĠKass":13488,"ĠKane":13489,"Ġoutlets":13490,"Ġoutskirts":13491,"Ġclouds":13492,"ĠStri":13493,"Ġintimate":13494,"ĠChloe":13495,"ilee":13496,"ollar":13497,"iang":13498,"asses":13499,"Ġscattered":13500,"Ġencl":13501,"ancies":13502,"Ġsecrets":13503,"Ġbrows":13504,"Ġbranches":13505,"Ġwherever":13506,"airy":13507,"Ġawkward":13508,"Ġdefined":13509,"Ġregrets":13510,"Ġassume":13511,"Ġheadline":13512,"arency":13513,"Ġinvested":13514,"Ġopted":13515,"graded":13516,"cery":13517,"ĠClaud":13518,"ĠMcQ":13519,"minent":13520,"ĠCarney":13521,"Ġ99":13522,"ĠBarca":13523,"Ġcoup":13524,"Ġshotgun":13525,"enny":13526,"Ġdelight":13527,"ĠHero":13528,"forward":13529,"ĠCox":13530,"ĠAmsterdam":13531,"Ġcriteria":13532,"Ġpressing":13533,"Ġrisen":13534,"Ġbooking":13535,"Ġviewing":13536,"missions":13537,"Ġwriters":13538,"parts":13539,"Who":13540,"ĠBenz":13541,"regas":13542,"Ġsteam":13543,"Ġpractical":13544,"Once":13545,"Ġselfie":13546,"Ġmusician":13547,"Ġcredibility":13548,"ĠAnnie":13549,"ĠGoldman":13550,"Ġparticipating":13551,"Ġexplosions":13552,"China":13553,"ĠSunni":13554,"Ġtrends":13555,"Ġcartels":13556,"Ġagreeing":13557,"Ġbomber":13558,"Ġdepartments":13559,"Ġpornography":13560,"ĠBetween":13561,"ĠWorkers":13562,"ĠSherman":13563,"Ġhouseholds":13564,"Ġembarrassing":13565,"Ġimplemented":13566,"Ġembrace":13567,"ĠLooking":13568,"Ġdiplomats":13569,"Ġpublishing":13570,"Ġflexible":13571,"funded":13572,"Ġrichest":13573,"Ġmotorcycle":13574,"ĠBarkley":13575,"ĠNeanderthals":13576,"ĠSuffolk":13577,"Ġhedge":13578,"ĠESPN":13579,"120":13580,"EG":13581,"UR":13582,"bish":13583,"vas":13584,"Ġtense":13585,"Ġwished":13586,"Ġcaut":13587,"Ġbans":13588,"Ġbund":13589,"Ġfict":13590,"isure":13591,"Ġdip":13592,"Ġditch":13593,"Ġgardens":13594,"ĠMerc":13595,"Ġforb":13596,"ĠImp":13597,"ĠBorn":13598,"ĠBible":13599,"ĠBrew":13600,"ĠHack":13601,"ĠHERE":13602,"ĠWi":13603,"ĠWr":13604,"ĠWrit":13605,"ĠDri":13606,"ulum":13607,"ulates":13608,"ĠFif":13609,"ĠFinal":13610,"ĠJar":13611,"Ġchasing":13612,"artz":13613,"umin":13614,"iaz":13615,"ĠChase":13616,"ollo":13617,"Ġperception":13618,"Ġblasted":13619,"Ġinterpre":13620,"Ġinterpret":13621,"Ġamp":13622,"Ġamput":13623,"Ġgrades":13624,"Ġexpansion":13625,"phis":13626,"Ġfinances":13627,"ĠSpit":13628,"opez":13629,"Ġassembly":13630,"Ġdonors":13631,"ronics":13632,"Ġhappiness":13633,"ĠJoey":13634,"Ġprotester":13635,"Ġmemoir":13636,"ĠSystem":13637,"Ġdrank":13638,"iked":13639,"Ġgreatly":13640,"tenham":13641,"Ġskysc":13642,"Ġswitched":13643,"Ġinfections":13644,"Ġinstantly":13645,"ĠHarvey":13646,"Ġpatron":13647,"Ġconvoy":13648,"Ġordering":13649,"ĠGeoff":13650,"Ġtrek":13651,"Ġburden":13652,"Ġengulf":13653,"ĠCheltenham":13654,"Ġgenerate":13655,"boat":13656,"ĠBlackburn":13657,"Ġcircuit":13658,"Ġensuring":13659,"ĠBelar":13660,"Ġfitting":13661,"Ġaccompany":13662,"Ġencourages":13663,"Ġindicates":13664,"Ġsecretly":13665,"Ġgraduated":13666,"Ġparticipated":13667,"ĠJessie":13668,"Ġapartments":13669,"Ġpursuing":13670,"ĠSomers":13671,"iatric":13672,"ĠDesign":13673,"Ġcontrolling":13674,"Ġacquitted":13675,"Ġrailway":13676,"Ġpensioner":13677,"Ġtraumatic":13678,"ĠFabregas":13679,"Ġconcentration":13680,"Ġexpanding":13681,"Ġinnovation":13682,"Ġmandatory":13683,"Ġcheerle":13684,"Ġlavish":13685,"Ġpersuade":13686,"Ġconfrontation":13687,"Ġvolcano":13688,"Ġstrangled":13689,"Ġexperimental":13690,"Ġvoluntary":13691,"Ġperpetr":13692,"Ġprosthetic":13693,"Ġindictment":13694,"ĠAssistant":13695,"Ġvomiting":13696,"Ġtongue":13697,"Ġlucrative":13698,"espeare":13699,"Ġintellect":13700,"76":13701,"Br":13702,"elect":13703,"iLe":13704,"nut":13705,"powered":13706,"ras":13707,"Ġtube":13708,"atoes":13709,"anj":13710,"Ġbats":13711,"Ġfold":13712,"Ġfond":13713,"Ġfiscal":13714,"itans":13715,"esy":13716,"Ġpatch":13717,"lease":13718,"ĠTat":13719,"ĠSEAL":13720,"Ġonlook":13721,"ĠAk":13722,"ĠMann":13723,"ĠCad":13724,"ĠCurt":13725,"lymouth":13726,"Ġwash":13727,"ĠBag":13728,"\"\",":13729,"ĠPul":13730,"ĠWigan":13731,"ĠWiggins":13732,"throp":13733,"ĠLav":13734,"empl":13735,"ĠFull":13736,"ĠRig":13737,"ĠRica":13738,"ĠRahman":13739,"ĠGos":13740,"ĠGiven":13741,"Ġshapes":13742,"Ġchann":13743,"Ġvicious":13744,"Ġsue":13745,"ĠUpper":13746,"ocial":13747,"udley":13748,"ĠKens":13749,"Ġdisabilities":13750,"Ġappalling":13751,"areth":13752,"fty":13753,"reatment":13754,"adequ":13755,"Ġblunt":13756,"ĠButler":13757,"ptions":13758,"Ġcrater":13759,"Ġintercep":13760,"Ġbrace":13761,"Ġpharm":13762,"Ġgrace":13763,"Ġacute":13764,"henko":13765,"aughton":13766,"aha":13767,"Ġ101":13768,"Ġ82":13769,"ĠBlues":13770,"ieties":13771,"Ġhumor":13772,"Ġprompt":13773,"Ġhalfway":13774,"Ġheartbreaking":13775,"Ġmaintenance":13776,"Ġprosper":13777,"Ġcourthouse":13778,"Ġproduces":13779,"Ġstrongest":13780,"mont":13781,"Ġmatching":13782,"Ġinspiring":13783,"Ġexcav":13784,"ĠStein":13785,"Ġmomentum":13786,"Ġaccountable":13787,"deep":13788,"Ġrobust":13789,"Ġaudiences":13790,"Ġambitious":13791,"Ġcatastrophic":13792,"Ġtrucks":13793,"Ġembark":13794,"Ġpoorly":13795,"Ġbidding":13796,"Ġsells":13797,"ĠConsum":13798,"ĠCapt":13799,"Ġgradually":13800,"ĠBowie":13801,"ĠCuriosity":13802,"Ġinquiries":13803,"ĠWelbeck":13804,"Ġmanufacturing":13805,"Ġbrutally":13806,"Ġretailer":13807,"Ġunemployed":13808,"Ġcomplications":13809,"Ġnegotiating":13810,"Ġsubsid":13811,"ĠStandards":13812,"ENT":13813,"Ġtraditionally":13814,"writer":13815,"Ġwardro":13816,"Ġpuppy":13817,"Ġrebuild":13818,"ĠVillage":13819,"ĠGonzalez":13820,"Ġintrud":13821,"ĠCheshire":13822,"ĠGloucestershire":13823,"ĠBuffalo":13824,"ĠMugabe":13825,"normal":13826,"hettino":13827,"ĠBurgess":13828,"Ġunbelievable":13829,"Ġtunnels":13830,"Brien":13831,"Can":13832,"Look":13833,"Men":13834,"OL":13835,"frey":13836,"gant":13837,"gie":13838,"lav":13839,"mud":13840,"nesty":13841,"pack":13842,"senal":13843,"tech":13844,"Ġtub":13845,"Ġtasks":13846,"Ġaides":13847,"Ġsar":13848,"enza":13849,"atics":13850,"Ġpanda":13851,"Ġmaid":13852,"Ġmaps":13853,"Ġmaker":13854,"ilies":13855,"Ġlanes":13856,"ĠSark":13857,"Ġgre":13858,"ĠMoss":13859,"aments":13860,"Ġeld":13861,"urbed":13862,"ĠBot":13863,"Ġhaird":13864,"ĠWoman":13865,"ĠDays":13866,"ĠLuther":13867,"ĠFul":13868,"ĠNina":13869,"ppo":13870,"ĠGat":13871,"ĠGard":13872,"Ġsums":13873,"Ġseiz":13874,"Ġspine":13875,"seek":13876,"Ġabduc":13877,"Ġouter":13878,"Ġunarmed":13879,"Ġalliance":13880,"Ġdisruption":13881,"Ġ350":13882,"Ġtrim":13883,"Ġroot":13884,"Ġcarn":13885,"sson":13886,"Ġbetray":13887,"Ġexped":13888,"Ġkills":13889,"Ġsupplier":13890,"uese":13891,"Ġkeys":13892,"Ġretrie":13893,"ĠArrest":13894,"Ġbuff":13895,"Ġsmooth":13896,"Ġmedium":13897,"Ġconfession":13898,"anya":13899,"Ġprotein":13900,"otti":13901,"Ġvictories":13902,"Ġcontrad":13903,"Ġspeeches":13904,"Ġexploration":13905,"Ġreflection":13906,"Ġauthorized":13907,"Ġsketch":13908,"ĠBarn":13909,"affer":13910,"ĠBeh":13911,"ĠHert":13912,"ĠHeritage":13913,"Ġopener":13914,"after":13915,"Ġfireworks":13916,"Ġcritically":13917,"ĠPalmer":13918,"Ġboarded":13919,"ĠNeg":13920,"ĠMediter":13921,"Ġeducated":13922,"ourage":13923,"Ġabsent":13924,"Ġbroader":13925,"ĠTeen":13926,"Ġpredecess":13927,"ĠActress":13928,"Ġcontractor":13929,"marked":13930,"Ġcrowded":13931,"Ġobsessed":13932,"Ġdefenders":13933,"ĠDiscovery":13934,"ĠRosie":13935,"ĠWatts":13936,"Ġarticles":13937,"Ġshelling":13938,"Ġunderstands":13939,"Ġunderwear":13940,"ĠJesse":13941,"Ġpremature":13942,"Ġwillingness":13943,"Ġplotting":13944,"Ġrubber":13945,"ĠBuen":13946,"ĠWindsor":13947,"Ġhamstring":13948,"ĠCommunist":13949,"Ġmuscles":13950,"ĠPortuguese":13951,"Ġinstrument":13952,"Ġcocktail":13953,"Ġenthusiasm":13954,"Ġavoiding":13955,"Ġtolerate":13956,"Ġpigs":13957,"Ġnominations":13958,"Ġrecruitment":13959,"Ġrehabilitation":13960,"ĠCheryl":13961,"Ġsmuggling":13962,"Ġcosmet":13963,"Ġcyclist":13964,"speed":13965,"ĠChampion":13966,"Ġdisgusting":13967,"Ġsympathy":13968,"Ġsustainable":13969,"ĠSincl":13970,"ĠThanksgiving":13971,"ĠCorporation":13972,"Ġseparatists":13973,"Ġmourners":13974,"Ġphilos":13975,"ĠVersace":13976,"Ġremembers":13977,"ĠEcu":13978,"ĠEventually":13979,"ĠStephanie":13980,"ĠBenedict":13981,"Ġinflamm":13982,"ĠSomerset":13983,"iLeaks":13984,"ĠKensington":13985,"HA":13986,"President":13987,"cts":13988,"cap":13989,"gence":13990,"gically":13991,"lu":13992,"size":13993,"Ã±":13994,"Ġtire":13995,"inity":13996,"Ġsorts":13997,"onation":13998,"Ġware":13999,"atile":14000,"organ":14001,"aniel":14002,"Ġfert":14003,"Ġok":14004,"eslig":14005,"arming":14006,"Ġpne":14007,"Ġpals":14008,"alie":14009,"Ġdys":14010,"Ġbearing":14011,"Ġlighter":14012,"ĠSay":14013,"ĠSusp":14014,"uton":14015,"Ġgaining":14016,"ĠAIDS":14017,"ĠMoon":14018,"etti":14019,"ĠPam":14020,"ĠPlymouth":14021,"Ġaspir":14022,"ĠWA":14023,"ĠWang":14024,"ĠDoyle":14025,"ĠFell":14026,"ĠRat":14027,"ĠGrey":14028,"ĠJail":14029,"Ġvary":14030,"Ġnotably":14031,"umonia":14032,"Ġdishes":14033,"Ġscans":14034,"Ġevolution":14035,"Ġpermit":14036,"ĠVogue":14037,"Ġlasting":14038,"ĠAlison":14039,"luding":14040,"oints":14041,"ssa":14042,"Ġrapper":14043,"ĠLeah":14044,"phoon":14045,"Ġmining":14046,"henge":14047,"Ġretal":14048,"ĠArts":14049,"shore":14050,"ĠBrig":14051,"Ġplanted":14052,"ĠShir":14053,"ĠReview":14054,"Ġsecondary":14055,"Ġlocally":14056,"Ġ81":14057,"ĠDebor":14058,"Thank":14059,"Ġhealthcare":14060,"Ġtravellers":14061,"ĠFloyd":14062,"Ġapproaches":14063,"Ġcouncill":14064,"Ġdealer":14065,"Ġdeveloper":14066,"Ġamongst":14067,"Ġformation":14068,"ĠSmall":14069,"incing":14070,"quez":14071,"Ġsolo":14072,"naev":14073,"Ġinspector":14074,"Ġ1988":14075,"space":14076,"Ġcreator":14077,"Ġassisting":14078,"Ġrobbed":14079,"Ġmatched":14080,"Ġsouthwest":14081,"Ġconsumed":14082,"Ġdeclare":14083,"Ġattendance":14084,"Ġundocumented":14085,"ĠDenise":14086,
[...]
