{"<s>":0,"</s>":1,"<pad>":2,"<unk>":3,"<USER>":4,"<ASSISTANT>":5,"<SYSTEM>":6,"!":7,"\"":8,"#":9,"$":10,"%":11,"&":12,"'":13,"(":14,")":15,"*":16,"+":17,",":18,"-":19,".":20,"/":21,"0":22,"1":23,"2":24,"3":25,"4":26,"5":27,"6":28,"7":29,"8":30,"9":31,":":32,";":33,"<":34,"=":35,">":36,"?":37,"@":38,"A":39,"B":40,"C":41,"D":42,"E":43,"F":44,"G":45,"H":46,"I":47,"J":48,"K":49,"L":50,"M":51,"N":52,"O":53,"P":54,"Q":55,"R":56,"S":57,"T":58,"U":59,"V":60,"W":61,"X":62,"Y":63,"Z":64,"[":65,"\\":66,"]":67,"^":68,"_":69,"`":70,"a":71,"b":72,"c":73,"d":74,"e":75,"f":76,"g":77,"h":78,"i":79,"j":80,"k":81,"l":82,"m":83,"n":84,"o":85,"p":86,"q":87,"r":88,"s":89,"t":90,"u":91,"v":92,"w":93,"x":94,"y":95,"z":96,"{":97,"|":98,"}":99,"~":100,"¡":101,"¢":102,"£":103,"¤":104,"¥":105,"¦":106,"§":107,"¨":108,"©":109,"ª":110,"«":111,"¬":112,"®":113,"¯":114,"°":115,"±":116,"²":117,"³":118,"´":119,"µ":120,"¶":121,"·":122,"¸":123,"¹":124,"º":125,"»":126,"¼":127,"½":128,"¾":129,"¿":130,"À":131,"Á":132,"Â":133,"Ã":134,"Ä":135,"Å":136,"Æ":137,"Ç":138,"È":139,"É":140,"Ê":141,"Ë":142,"Ì":143,"Í":144,"Î":145,"Ï":146,"Ð":147,"Ñ":148,"Ò":149,"Ó":150,"Ô":151,"Õ":152,"Ö":153,"×":154,"Ø":155,"Ù":156,"Ú":157,"Û":158,"Ü":159,"Ý":160,"Þ":161,"ß":162,"à":163,"á":164,"â":165,"ã":166,"ä":167,"å":168,"æ":169,"ç":170,"è":171,"é":172,"ê":173,"ë":174,"ì":175,"í":176,"î":177,"ï":178,"ð":179,"ñ":180,"ò":181,"ó":182,"ô":183,"õ":184,"ö":185,"÷":186,"ø":187,"ù":188,"ú":189,"û":190,"ü":191,"ý":192,"þ":193,"ÿ":194,"Ā":195,"ā":196,"Ă":197,"ă":198,"Ą":199,"ą":200,"Ć":201,"ć":202,"Ĉ":203,"ĉ":204,"Ċ":205,"ċ":206,"Č":207,"č":208,"Ď":209,"ď":210,"Đ":211,"đ":212,"Ē":213,"ē":214,"Ĕ":215,"ĕ":216,"Ė":217,"ė":218,"Ę":219,"ę":220,"Ě":221,"ě":222,"Ĝ":223,"ĝ":224,"Ğ":225,"ğ":226,"Ġ":227,"ġ":228,"Ģ":229,"ģ":230,"Ĥ":231,"ĥ":232,"Ħ":233,"ħ":234,"Ĩ":235,"ĩ":236,"Ī":237,"ī":238,"Ĭ":239,"ĭ":240,"Į":241,"į":242,"İ":243,"ı":244,"Ĳ":245,"ĳ":246,"Ĵ":247,"ĵ":248,"Ķ":249,"ķ":250,"ĸ":251,"Ĺ":252,"ĺ":253,"Ļ":254,"ļ":255,"Ľ":256,"ľ":257,"Ŀ":258,"ŀ":259,"Ł":260,"ł":261,"Ń":262,"Ġa":263,"Ġt":264,"in":265,"en":266,"er":267,"es":268,"on":269,"čĊ":270,"Ġc":271,"Ġs":272,"Ġd":273,"he":274,"Ġp":275,"or":276,"at":277,"ar":278,"an":279,"Ġthe":280,"re":281,"Ġl":282,"Ġm":283,"Ġo":284,"al":285,"as":286,"is":287,"it":288,"Ġf":289,"ic":290,"Ġan":291,"Ġw":292,"Ġde":293,"os":294,"ing":295,"Ġe":296,"ent":297,"Ġb":298,"ed":299,"Ġin":300,"un":301,"ro":302,"Ġand":303,"Ġto":304,"ion":305,"Ġof":306,"le":307,"Ġh":308,"om":309,"us":310,"Ġy":311,"ac":312,"ad":313,"qu":314,"id":315,"US":316,"ER":317,"ST":318,"EM":319,"USER":320,"SY":321,"STEM":322,"SYSTEM":323,"ur":324,"Ġn":325,"ĠÐ":326,"il":327,"ol":328,"im":329,"ut":330,"Ġun":331,"el":332,"am":333,"ec":334,"iv":335,"Ġg":336,"et":337,"Ġre":338,"Ġen":339,"Ġla":340,"hat":341,"Ð¾":342,"Ġcon":343,"Ġqu":344,"ĠT":345,"ul":346,"est":347,"ĠA":348,"Ġis":349,"Ã³":350,"ig":351,"Ġv":352,"Ðµ":353,"ĠW":354,"ĠC":355,"ir":356,"ĠS":357,"ow":358,"ĠI":359,"Ġfor":360,"Ġpro":361,"ÑĤ":362,"Ġque":363,"em":364,"uc":365,"ers":366,"Ġr":367,"Ð°":368,"Ġcom":369,"Ð¸":370,"tr":371,"ab":372,"ation":373,"if":374,"Ġal":375,"ce":376,"Ġel":377,"ot":378,"ÃŃ":379,"ĠE":380,"ter":381,"ay":382,"ci":383,"ant":384,"ĠP":385,"ate":386,"Ã³n":387,"Ġse":388,"Ã¡":389,"Ġ1":390,"Ð½":391,"od":392,"um":393,"ist":394,"Ñģ":395,"Ġth":396,"Ġbe":397,"ag":398,"Ð¾Ð":399,"ith":400,"Ġes":401,"Ġpar":402,"st":403,"ly":404,"Ġon":405,"Ġas":406,"Ġyo":407,"Ġex":408,"Ġus":409,"ess":410,"ÑĢ":411,"th":412,"Ġst":413,"Ġthat":414,"Ã©":415,"av":416,"pl":417,"ĠD":418,"iz":419,"ect":420,"ĠM":421,"ch":422,"ĠThe":423,"and":424,"Ġwith":425,"ĠB":426,"end":427,"Ġit":428,"ort":429,"ud":430,"ĠL":431,"ĠH":432,"Ġ-":433,"ib":434,"Ġor":435,"ak":436,"op":437,"Ġuna":438,"Ġwh":439,"ver":440,"iÃ³n":441,"Ġcan":442,"oc":443,"ĠG":444,"Ġ2":445,"ĠF":446,"Ġtr":447,"Ġare":448,"ain":449,"ap":450,"ct":451,"Ġim":452,"Ġsu":453,"ive":454,"Ġhe":455,"Ġ\"":456,"ĠWhat":457,"Ġest":458,"Ġlos":459,"ĠR":460,"ment":461,"og":462,"Ġcomp":463,"ient":464,"Ġpr":465,"Ġwas":466,"Ġpara":467,"ies":468,"ere":469,"Ġso":470,"igh":471,"ity":472,"ill":473,"per":474,"ia":475,"Ġ(":476,"Ð»":477,"Ġyou":478,"ĠN":479,"ie":480,"ence":481,"te":482,"Ġne":483,"Ġres":484,"ue":485,"ip":486,"Ġle":487,"ial":488,"Ġimp":489,"io":490,"Ġdes":491,"Ġpu":492,"act":493,"aciÃ³n":494,"duc":495,"Ñĥ":496,"ore":497,"ug":498,"ine":499,"ich":500,"ure":501,"Ġch":502,"ĠIn":503,"up":504,"Ġpl":505,"Ġk":506,"low":507,"ang":508,"rom":509,"oul":510,"'s":511,"Ġwor":512,"Ġme":513,"Ġper":514,"ould":515,"Ġj":516,"ust":517,"und":518,"Ġdel":519,"ide":520,"Ġab":521,"Ð°Ð":522,"orm":523,"ado":524,"uch":525,"Ñı":526,"Ġar":527,"ave":528,"Ġsh":529,"all":530,"able":531,"Ġ3":532,"Ġinc":533,"ight":534,"ĠO":535,"Ġte":536,"ica":537,"ame":538,"ell":539,"Ġlas":540,"Ġap":541,"ĠWh":542,"idad":543,"ÃŃa":544,"ener":545,"Ġcre":546,"to":547,"Ġser":548,"ions":549,"cr":550,"Ġad":551,"Ã¡s":552,"Ġby":553,"Ñĭ":554,"Ġman":555,"age":556,"00":557,"ite":558,"ÑĮ":559,"ien":560,"ical":561,"Ġcl":562,"Ġlo":563,"Ġfrom":564,"ve":565,"Ġsp":566,"se":567,"ult":568,"Ġac":569,"ual":570,"ake":571,"Ġdis":572,"Ġno":573,"ĠJ":574,"gr":575,"Ġpued":576,"ost":577,"ach":578,"ind":579,"ĠU":580,"out":581,"Ġat":582,"Ġyour":583,"ÐµÐ":584,"Ġdat":585,"fer":586,"Ġpre":587,"form":588,"are":589,"ard":590,"--":591,"ier":592,"âĢ":593,"ces":594,"ĠTh":595,"ome":596,"Ã±":597,"ada":598,"our":599,"ep":600,"ast":601,"Ġpor":602,"Ġwhat":603,"Ġhave":604,"Ġgr":605,"Ġcont":606,"Ġwe":607,"ass":608,"ff":609,"Ð¸Ð":610,"Ġ=":611,"Ġdo":612,"Ġdif":613,"Ñĩ":614,"ĠÐ¿":615,"Ġem":616,"ear":617,"ra":618,"Ãº":619,"aj":620,"ific":621,"ase":622,"Ġ5":623,"Ġcons":624,"ks":625,"ign":626,"pt":627,"art":628,"ans":629,"ÑģÑĤ":630,"Ġsent":631,"Ġam":632,"so":633,"lo":634,"cess":635,"pr":636,"Ġinter":637,"Ġdid":638,"Ġ4":639,"ens":640,"Ġtheir":641,"ther":642,"ice":643,"ong":644,"ations":645,"Ġfol":646,"ĠÐ¸":647,"ĠÐ²":648,"ated":649,"ber":650,"ional":651,"Ġpers":652,"ire":653,"Ġmore":654,"ik":655,"iones":656,"Ġimport":657,"ĠmÃ¡s":658,"Ġrec":659,"ack":660,"tic":661,"ace":662,"Ġcomo":663,"ĠIt":664,"ple":665,"unt":666,"les":667,"Ġsol":668,"Ġfollow":669,"Ġco":670,"Ġent":671,"Ġob":672,"Ġro":673,"ech":674,"arg":675,"ime":676,"ĠÑģ":677,"Ġstr":678,"Ġnot":679,"ugh":680,"ente":681,"Ġthis":682,"Ġgo":683,"Ġform":684,"ile":685,"ari":686,"Ġdata":687,"ance":688,"ok":689,"Ġalg":690,"Ġhas":691,"Ġhel":692,"ord":693,"iven":694,"int":695,"Ġperson":696,"Ġcol":697,"ĠEn":698,"olog":699,"Ġcu":700,"ĠÐ½":701,"Ġpe":702,"Ġused":703,"ey":704,"Ð²":705,"Ġev":706,"ater":707,"Ġincl":708,"vel":709,"Ðº":710,"Ġwhich":711,"cia":712,"ĠV":713,"her":714,"Ġrel":715,"pe":716,"Ġact":717,"ÐµÐ½":718,"Ġfollowing":719,"Ġmod":720,"ĠHow":721,"Ġfe":722,"Ġsy":723,"Ġtw":724,"ido":725,"az":726,"Ġproduc":727,"Ġup":728,"ante":729,"ond":730,"Ġfr":731,"Ġsuch":732,"Ġhelp":733,"Ġprov":734,"atur":735,"dit":736,"Ġpos":737,"eng":738,"Ġalso":739,"ĠUn":740,"Ġele":741,"ĠK":742,"ov":743,"ciÃ³n":744,"Ġabout":745,"Ġind":746,"Ġother":747,"ub":748,"Ġuse":749,"ando":750,"ĠCh":751,"Ġout":752,"ĠY":753,"erg":754,"ld":755,"Ð¾Ð²":756,"ning":757,"Ġdec":758,"ary":759,"port":760,"ail":761,"ons":762,"Ġsentence":763,"xt":764,"Ġmed":765,"ular":766,"Ġbet":767,"Ġnew":768,"ory":769,"Ġprogr":770,"ree":771,"ous":772,"ores":773,"bre":774,"Ġtwo":775,"Ġint":776,"Ġinv":777,"plic":778,"ject":779,"Ġfun":780,"one":781,"iend":782,"Ġund":783,"Ñħ":784,"Ġlist":785,"ĠThis":786,"we":787,"Ġits":788,"stem":789,"Ġi":790,"Ġresp":791,"Ð¼":792,"ĠAd":793,"ert":794,"oy":795,"amb":796,"ating":797,"ents":798,"era":799,"Ġall":800,"ft":801,"Ġcar":802,"ark":803,"Ġmany":804,"ĠLa":805,"mer":806,"crib":807,"fic":808,"ÐµÑĤ":809,"ĠÐº":810,"Ġthey":811,"Ġmake":812,"ĠÐ¾":813,"co":814,"Ġone":815,"que":816,"Ġinto":817,"Ġnum":818,"Ġty":819,"lic":820,"Ġson":821,"ely":822,"con":823,"ize":824,"ĠAn":825,"uct":826,"Ġop":827,"eg":828,"ew":829,"Ġher":830,"ida":831,"Ġtime":832,"ism":833,"ible":834,"Ġ19":835,"echn":836,"ose":837,"ĠEst":838,"ful":839,"ian":840,"ustom":841,"Ġag":842,"Ġprogram":843,"Ð´":844,"ĠDes":845,"ors":846,"Ġcomm":847,"Ġgiven":848,"ob":849,"Ġapp":850,"Ġ6":851,"Ġdiffer":852,"Ġinform":853,"Ġbr":854,"Ġeff":855,"Ġpol":856,"Ġwill":857,"la":858,"uy":859,"ales":860,"ÑĤÐ¾":861,"ĠAl":862,"ĠSt":863,"Ġpuede":864,"ðŁ":865,"Ġinclud":866,"Ġhis":867,"Ġsi":868,"ople":869,"ĠÂ":870,"Ġway":871,"Ġexper":872,"rit":873,"Ġthem":874,"ative":875,"ased":876,"Ġut":877,"ish":878,"Ñİ":879,"Ġsystem":880,"ange":881,"Ã©n":882,"als":883,"ify":884,"iliz":885,"Ã©s":886,"Ġval":887,"put":888,"Ġlear":889,"Ġz":890,"Ġcustom":891,"Ġshould":892,"cul":893,"Ġfo":894,"Ġlik":895,"ese":896,"Ġph":897,"Ġusing":898,"erm":899,"ates":900,"Ġgener":901,"Ġhow":902,"ÑĤÑĮ":903,"po":904,"Ġif":905,"Ġwould":906,"rol":907,"Ġover":908,"Ġenerg":909,"ÐµÑĢ":910,"ados":911,"now":912,"aus":913,"ics":914,"``":915,"Ġwork":916,"Ġvari":917,"Ġword":918,"Ġpo":919,"ĠâĢ":920,"Ġ<":921,"----":922,"Ġmay":923,"Ġ20":924,"Ġserv":925,"Ġpeople":926,"Ġaut":927,"Ġreg":928,"rite":929,"Ġmuch":930,"Ġcal":931,"Ġbut":932,"ne":933,"Ð°Ð½":934,"ts":935,"inal":936,"ĠÐ¼":937,"Ġpat":938,"ble":939,"Ġneed":940,"Ġexam":941,"Ġver":942,"ĠðŁ":943,"ĠCre":944,"Ġsome":945,"ower":946,"ities":947,"Ġmet":948,"Ġcor":949,"Ġany":950,"iento":951,"Ġyear":952,"ild":953,"irst":954,"Ġtu":955,"Ġhum":956,"ivers":957,"ick":958,"ĠEs":959,"ios":960,"tern":961,"Ġcould":962,"Ġcomple":963,"cial":964,"ten":965,"Ð¾Ð»":966,"ĠEl":967,"Ġtechn":968,"\",":969,"ĠWho":970,"velop":971,"aking":972,"Ġhab":973,"Ġesp":974,"ina":975,"Ð½Ð¾":976,"uest":977,"ween":978,"ax":979,"ings":980,"Ġsim":981,"res":982,"Ġtem":983,"alth":984,"Ġbetween":985,"ĠÐ´":986,"Ġtod":987,"Ġ*":988,"Ġreal":989,"de":990,"Ġwhen":991,"Ġbo":992,"Ġpod":993,"ĠGener":994,"ĠEx":995,"Ġprocess":996,"Ġutiliz":997,"ys":998,"ĠCom":999,"Ġsec":1000,"Ġhad":1001,"ĠÐ¿ÑĢ":1002,"Ġ#":1003,"Ġwho":1004,"Ġbl":1005,"Ð¿":1006,"its":1007,"Ġgro":1008,"Ġins":1009,"Ġplan":1010,"Ġweb":1011,"Ġmost":1012,"Ġtrans":1013,"urn":1014,"ility":1015,"der":1016,"Ġmodel":1017,"ident":1018,"Ġlike":1019,"Ġ10":1020,"Ġreduc":1021,"ge":1022,"Ð¾Ð¼":1023,"any":1024,"Ġcap":1025,"Ġpres":1026,"Ġimportant":1027,"ry":1028,"eces":1029,"ement":1030,"Ġ8":1031,"ĠÑ":1032,"Ġlarg":1033,"Ġpart":1034,"Ã¡n":1035,"Ġsc":1036,"ativ":1037,"Ġwere":1038,"ph":1039,"ious":1040,"oth":1041,"Ġdi":1042,"reat":1043,"rough":1044,"Ġbec":1045,"cribe":1046,"za":1047,"gan":1048,"Ġmin":1049,"Ġtien":1050,"Ġset":1051,"ict":1052,"Ġacc":1053,"ise":1054,"Ġej":1055,"Ġincre":1056,"encia":1057,"Ġfirst":1058,"ution":1059,"Ġbus":1060,"Ġ7":1061,"ene":1062,"Ġhigh":1063,"Ð½Ñĭ":1064,"Ġrequ":1065,"ĠGenerate":1066,"go":1067,"Ġbu":1068,"ork":1069,"Ġdef":1070,"Ġresult":1071,"ade":1072,"Ġspec":1073,"blem":1074,"amente":1075,"Ġknow":1076,"ied":1077,"ï¼":1078,"ider":1079,"Ġworld":1080,"ology":1081,"wn":1082,"Ġthan":1083,"Ġexpl":1084,"ras":1085,"aciones":1086,"ode":1087,"ico":1088,"ĠAs":1089,"ta":1090,"Ġsus":1091,"ĠHe":1092,"ĠCreate":1093,"Ġequ":1094,"elf":1095,"ambi":1096,"ren":1097,"ages":1098,"ential":1099,"ments":1100,"empl":1101,"Ġart":1102,"ĠÑĤ":1103,"ĠPro":1104,"Ġdevelop":1105,"angu":1106,"Ġmat":1107,"Ġseg":1108,"Ġproblem":1109,"yth":1110,"mo":1111,"ĠCon":1112,"Ġpot":1113,"ife":1114,"ura":1115,"ware":1116,"uer":1117,"Ġenergy":1118,"Ð¾Ð³":1119,"cl":1120,"ction":1121,"arm":1122,"pos":1123,"ices":1124,"Ġsal":1125,"ender":1126,"ara":1127,"Ġtas":1128,"Ġsign":1129,"Ġproduct":1130,"Ġav":1131,"crip":1132,"ĠAI":1133,"Ġdifferent":1134,"Ġdeb":1135,"Ġhac":1136,"Ġhealth":1137,"ÐµÐ»":1138,"cept":1139,"ting":1140,"ock":1141,"Ð°Ðº":1142,"Ġexample":1143,"Ġ'":1144,"Ġday":1145,"red":1146,"Ġpop":1147,"Ġdoes":1148,"Ġsk":1149,"ero":1150,"ition":1151,"Ġvis":1152,"Ġsobre":1153,"erc":1154,"Ġdr":1155,"Ġthere":1156,"Ġmon":1157,"Ġ[":1158,"line":1159,"ature":1160,"Ġcomput":1161,"Ð·":1162,"Ġcr":1163,"__":1164,"Ġotr":1165,"Ġ200":1166,"ink":1167,"fr":1168,"Ġide":1169,"Ġlearning":1170,"Ġwhile":1171,").":1172,"ĠDe":1173,"yud":1174,"Ġallow":1175,"Ġdur":1176,"ument":1177,"ĠAr":1178,"aph":1179,"Ġbeen":1180,"Ġentre":1181,"Ġcustomer":1182,"ĠRe":1183,"Ġayud":1184,"erst":1185,"pect":1186,"Ġret":1187,"Ġadv":1188,"Ġmain":1189,"Ġsm":1190,"ĠÑĢ":1191,"idades":1192,"pres":1193,"Ġtext":1194,"ÑĪ":1195,"ĠWhen":1196,"Ġthrough":1197,"Ġlangu":1198,"Ġhuman":1199,"af":1200,"ĠcÃ³":1201,"\".":1202,"ern":1203,"Ġmej":1204,"Ġname":1205,"Ġ{":1206,"Ġeach":1207,"Ġloc":1208,"Ġcam":1209,"Ð¸Ñı":1210,"ables":1211,"ador":1212,"ience":1213,"Ġ|":1214,"Ġcreate":1215,"Ġfam":1216,"Ġsin":1217,"Ġsub":1218,"iness":1219,"Ð³":1220,"Ð¾Ð´":1221,"Ġshe":1222,"ix":1223,"ateg":1224,"min":1225,"Ġpub":1226,"cu":1227,"ä¸":1228,"Ġcur":1229,"round":1230,"Ġthree":1231,"iem":1232,"ung":1233,"entes":1234,"Ġimpro":1235,"Ġpueden":1236,"Ġalgun":1237,"Ġfl":1238,"âĢĻ":1239,"vir":1240,"Ġstud":1241,"Ġdep":1242,"Ġmov":1243,"ited":1244,"Ã±o":1245,"adas":1246,"Ġprovide":1247,"ior":1248,"iÃ³":1249,"iente":1250,"lar":1251,"Ġ+":1252,"Ġfind":1253,"Ġprovid":1254,"Ġtype":1255,"iel":1256,"ata":1257,"Ġha":1258,"Ġinst":1259,"Ġnumber":1260,"Ġcontr":1261,"ÑĨ":1262,"acter":1263,"Ġsup":1264,"ĠÑĩ":1265,"ambiÃ©n":1266,"hed":1267,"Ġinf":1268,"Ãºn":1269,"cript":1270,"ÃŃas":1271,"ou":1272,"ython":1273,"Ġpower":1274,"Ġchar":1275,"Ġmy":1276,"ues":1277,"mente":1278,"ized":1279,"ditional":1280,"Ġhay":1281,"way":1282,"Ġanal":1283,"Ġconsider":1284,"Ġactiv":1285,"Ġtake":1286,"ational":1287,"iss":1288,"Ġprop":1289,"Ð¸ÑĤ":1290,"Ġejempl":1291,"ĠÐ±":1292,"cion":1293,"Ġche":1294,"Ġget":1295,"Ġ0":1296,"Ġhist":1297,"Ġinclude":1298,"ican":1299,"ences":1300,"Ġmus":1301,"Ġour":1302,"Ġfin":1303,"erstand":1304,"Ġ9":1305,"Ġneces":1306,"ivid":1307,"Ġlong":1308,"own":1309,"ena":1310,"icas":1311,"old":1312,"ustr":1313,"olv":1314,"ĠId":1315,"Ġwater":1316,"Ġ}":1317,"truct":1318,"Ġcaus":1319,"Ġrem":1320,"uro":1321,"ases":1322,"Ġaf":1323,"Ġer":1324,"Ġdifer":1325,"Ġalgor":1326,"Ġlead":1327,"atural":1328,"com":1329,"Ġfil":1330,"anc":1331,"Ġmejor":1332,"Ġ$":1333,"Ġlife":1334,"Ġprof":1335,"ines":1336,"mar":1337,"Ġsur":1338,"Ġcent":1339,"get":1340,"ãĢ":1341,"ven":1342,"viron":1343,"erv":1344,"Ġlib":1345,"hip":1346,"lect":1347,"Ġorgan":1348,"Ġclass":1349,"iendo":1350,"ĠÐ½Ð°":1351,"ana":1352,"ÑģÑı":1353,"Ð±":1354,"Ġwords":1355,"Ġdem":1356,"Ð¾Ð¹":1357,"Ġfact":1358,"Ġet":1359,"Ġass":1360,"ÐµÐ¼":1361,"Ġcoun":1362,"Ġwell":1363,"Ġunderstand":1364,"jet":1365,"ough":1366,"Ġmo":1367,"ily":1368,"iew":1369,"ï¼Į":1370,"ex":1371,"Ġlanguage":1372,"ĠÃ":1373,"Ġanim":1374,"ros":1375,"Ġwhere":1376,");":1377,"ctr":1378,"Ġdet":1379,"Ġplay":1380,"Ġll":1381,"led":1382,"Ġever":1383,"par":1384,"Ġterm":1385,"Ð¸Ð¼":1386,"Ġsum":1387,"ĠDescribe":1388,"Ġmark":1389,"Ð¾Ð¶":1390,"ithm":1391,"Ġdesign":1392,"Ġeffect":1393,"Ð°Ð»":1394,"Ġprot":1395,"Ġreduce":1396,"ĠFr":1397,"ically":1398,"Ġdire":1399,"ario":1400,"ety":1401,"Ġpero":1402,"Ġtyp":1403,"Ġopt":1404,"'t":1405,"Ġsoft":1406,"ias":1407,"Ġstart":1408,"Ð¾ÑĢ":1409,"iment":1410,"Ġarr":1411,"Ġexist":1412,"Ġobject":1413,"ants":1414,"ĠWhich":1415,"),":1416,"pa":1417,"ĠÐ·":1418,"ures":1419,"aje":1420,"Ġ201":1421,"Ġprin":1422,"uego":1423,"Ġconf":1424,"Ġinformation":1425,"Ġecon":1426,"ĠWrite":1427,"ificial":1428,"Ġeng":1429,"istem":1430,"quÃŃ":1431,"ato":1432,"ĠAmer":1433,"Ġpas":1434,"ivo":1435,"Ġprim":1436,"Ġquest":1437,"til":1438,"ze":1439,"Ġstory":1440,"pre":1441,"uel":1442,"Ġenviron":1443,"Ġperform":1444,"Ġident":1445,"Ġmen":1446,"Ã±os":1447,"ĠÂ¿":1448,"ples":1449,"Ġamb":1450,"igo":1451,"lev":1452,"ĠSe":1453,"Ġcode":1454,"Ð¸Ðµ":1455,"Ġpass":1456,"Ġcas":1457,"Ġbel":1458,"Ġimportante":1459,"app":1460,"Ġsuc":1461,"Ġtop":1462,"cho":1463,"Ġdecis":1464,"ones":1465,"ram":1466,"Ġespec":1467,"den":1468,"Ġdist":1469,"Ġve":1470,"Ġbeing":1471,"Ġalgorithm":1472,"ĠÑĥ":1473,"ital":1474,"Ġadd":1475,"Ġperm":1476,"Ġhacer":1477,"Ġder":1478,"```":1479,"Ġbusiness":1480,"Ġcost":1481,"ĠFor":1482,"uev":1483,"Ð°ÑĤÑĮ":1484,"ua":1485,"Ġejemplo":1486,"Ġcommun":1487,"Ġreturn":1488,"ĠAdditional":1489,"Ġ18":1490,"Ġend":1491,"Ġcountr":1492,"ward":1493,"Ġlight":1494,"Ġnatural":1495,"Ġrecom":1496,"Ġtechnology":1497,"Ð°Ð¼":1498,"ĠAdditionally":1499,"Ġx":1500,"Ġsistem":1501,"Ġref":1502,"Ġappro":1503,"imiento":1504,"ods":1505,"eb":1506,"nect":1507,"enc":1508,"icos":1509,"Ġposs":1510,"arr":1511,"Ġmater":1512,"enta":1513,"atures":1514,"Ġenvironment":1515,"tica":1516,"Ñī":1517,"ets":1518,"ather":1519,"):":1520,"Ġtiem":1521,"izar":1522,"vers":1523,"Ġcult":1524,"Ã©r":1525,"ÐµÑģ":1526,"ĠPor":1527,"Ġbas":1528,"Ġaccess":1529,"ives":1530,"Ġsoftware":1531,"Ġcada":1532,"ĠTr":1533,"Ġpartic":1534,"ÃŃs":1535,"çļ":1536,"Ġthen":1537,"achine":1538,"Ġsit":1539,"çļĦ":1540,"//":1541,"fore":1542,"Ġbene":1543,"ols":1544,"Ġcorre":1545,"Ġtener":1546,"hing":1547,"Ġapr":1548,"Ã¼":1549,"Ġlet":1550,"Ġing":1551,"ĠOn":1552,"ÐµÐ´":1553,"ĠNew":1554,"Ġimpact":1555,"000":1556,"Ġcall":1557,"Ġpur":1558,"ization":1559,"vert":1560,"Ġtemper":1561,"Ġ```":1562,"oss":1563,"oh":1564,"Ġbest":1565,"Ġoff":1566,"ĠPr":1567,"Ã¤":1568,"itive":1569,"Ġmem":1570,"bers":1571,"Ð¾Ð½":1572,"uz":1573,"ness":1574,"Ġconoc":1575,"Ġthese":1576,"Ġsour":1577,"ps":1578,"Ġstat":1579,"Ġsmall":1580,"Ġtiempo":1581,"ll":1582,"omet":1583,"Ġdeter":1584,"Ġair":1585,"cip":1586,"Ġatt":1587,"Ġback":1588,"ciones":1589,"Ġant":1590,"ĠYou":1591,"Ġobjet":1592,"akes":1593,"Ġpotential":1594,"ense":1595,"ars":1596,"Ġsocial":1597,"ale":1598,"Ġgu":1599,"Ð»Ð¸":1600,"ĠPython":1601,"Ġpublic":1602,"Ġlim":1603,"Ġcontrol":1604,"land":1605,"Ġens":1606,"gest":1607,"Ġsig":1608,"Ġboth":1609,"ĠExpl":1610,"Ġoper":1611,"undo":1612,"Ġdepend":1613,"vent":1614,"ank":1615,"Ġpa":1616,"Ð¾Ð±":1617,"orn":1618,"arch":1619,"Ġcontin":1620,"Ġles":1621,"Ġtasks":1622,"uir":1623,"Â¿":1624,"ins":1625,"Ġpersonal":1626,"me":1627,"Ġtip":1628,"fect":1629,"ĠtambiÃ©n":1630,"enci":1631,"Ġmas":1632,"Ġown":1633,"gen":1634,"Ġeas":1635,"asta":1636,"Ġfriend":1637,"Ġhand":1638,"iving":1639,"ÑģÑĤÐ²":1640,"Ġindivid":1641,"ever":1642,"ito":1643,"Ð°ÑĤ":1644,"Ġlarge":1645,"Ġvida":1646,"Ġeconom":1647,"ued":1648,"Ġbre":1649,"arte":1650,"Ġleng":1651,"ino":1652,"ĠÑį":1653,"ĠÃ©":1654,"ament":1655,"aut":1656,"Ð»Ñı":1657,"Ġpred":1658,"arrol":1659,"ĠZ":1660,"ellig":1661,"Ġpoint":1662,"20":1663,"jo":1664,"ner":1665,"Ġdatos":1666,"--------":1667,"Ġtrav":1668,"Ġmarket":1669,"Ġaround":1670,"Ġdie":1671,"ats":1672,"Ġorder":1673,"Ġbetter":1674,"Ġmean":1675,"Ġspe":1676,"Ġautom":1677,"ja":1678,"ger":1679,"ount":1680,"Ġesta":1681,"ita":1682,"Ġforma":1683,"Ġmaterial":1684,"ĠName":1685,"Ġeffic":1686,"Ġgre":1687,"ody":1688,"iqu":1689,"Ġconc":1690,"Ã¨":1691,"ually":1692,"ĠestÃ¡":1693,"Ġwebs":1694,"Ġmade":1695,"Ġrest":1696,"Ġinvest":1697,"Ġcomb":1698,"Ġeste":1699,"vern":1700,"Ġbuild":1701,"Qu":1702,"ath":1703,"The":1704,"Ð°Ð²":1705,"Ġfound":1706,"Ġoften":1707,"Ġpopular":1708,"ĠSi":1709,"Ġris":1710,"Ġapplic":1711,"Ġpuedes":1712,"work":1713,"ĠCl":1714,"press":1715,"Ġmaking":1716,"Ġbased":1717,"Ġmot":1718,"Ġmuy":1719,"Ġintern":1720,"itar":1721,"ilidad":1722,"Ġuser":1723,"br":1724,"Ġjust":1725,"Ġexperience":1726,"Ġgeneral":1727,"ton":1728,"ute":1729,"Ġpodr":1730,"amiento":1731,"ont":1732,"ĠAmerican":1733,"Ġya":1734,"bal":1735,"Ġgood":1736,"eep":1737,"Ġoc":1738,"ĠShe":1739,"raph":1740,"Ġrev":1741,"Ġconcept":1742,"ientes":1743,"Ġkey":1744,"ouse":1745,"Ġdos":1746,"ural":1747,"abaj":1748,"ote":1749,"Ġlook":1750,"Ġdoc":1751,"Ġelectr":1752,"ck":1753,"Ġfive":1754,"Ġdesarrol":1755,"tro":1756,"Ġmag":1757,"Ġmi":1758,"ĠIf":1759,"Ð°Ð·":1760,"ora":1761,"Ġstep":1762,"Ġpreg":1763,"ved":1764,"Ġprint":1765,"Ġmeth":1766,"Ġmill":1767,"imate":1768,"Ġonly":1769,"Ġconnect":1770,"Ġindividual":1771,"ann":1772,"Ġsuper":1773,"Ġfut":1774,"Ġsci":1775,"Ġable":1776,"Ġdise":1777,"Ġartificial":1778,"Ġinte":1779,"antes":1780,"ĠThey":1781,"Ġtus":1782,"ĠExplain":1783,"iar":1784,"iva":1785,"ĠTo":1786,"Ġfeel":1787,"ason":1788,"Ġright":1789,"Ġitem":1790,"Ġsoci":1791,"earch":1792,"ah":1793,"Ġni":1794,"Ġresour":1795,"Ġmult":1796,"Ġtrabaj":1797,"Ġsuccess":1798,"uss":1799,"Ġcual":1800,"Ġprom":1801,"Ġservice":1802,"Ġfood":1803,"Ð¾ÑĤ":1804,"Ġdev":1805,"ability":1806,"ca":1807,"Ġeduc":1808,"tract":1809,"Ġevent":1810,"ĠComp":1811,"Ġgreat":1812,"ĠPl":1813,"Ġotros":1814,"Ð¶":1815,"oria":1816,"Ġconst":1817,"ĠLos":1818,"Ġgroup":1819,"Ġnet":1820,"Ġmil":1821,"ÐµÐº":1822,"La":1823,"Ġfunction":1824,"ication":1825,"rop":1826,"ÑĢÑĥ":1827,"bo":1828,"Ġbefore":1829,"Ġopen":1830,"19":1831,"Ãł":1832,"Ġdown":1833,"ird":1834,"Ġonline":1835,"ocus":1836,"Ġtiene":1837,"elligence":1838,"Ġinput":1839,"Ġeven":1840,"Ġlog":1841,"ilar":1842,"Ġlearn":1843,"ted":1844,"Ð¸Ð²":1845,"ãĢĤ":1846,"ood":1847,"Ġda":1848,"ama":1849,"Ġrepres":1850,"Ð¾Ñģ":1851,"bot":1852,"Ġchange":1853,"Ġimprove":1854,"Ġsupport":1855,"Ð¸Ð½":1856,"trar":1857,"aining":1858,"Ġcity":1859,"ĠGiven":1860,"Ġartic":1861,"anto":1862,"Ġexp":1863,"cil":1864,"ills":1865,"Ġchang":1866,"Ġdirect":1867,"Ġtrad":1868,"Ġesc":1869,"Ġelement":1870,"alk":1871,"Ġshow":1872,"Ð¾Ð»ÑĮ":1873,"ohn":1874,"ek":1875,"Ġaplic":1876,"Ġinfl":1877,"ws":1878,"idos":1879,"ista":1880,"Ġpregunt":1881,"ĠlÃŃ":1882,"Ġcle":1883,"Ġemb":1884,"Ġcorrect":1885,"Ġenc":1886,"Ġsignific":1887,"aving":1888,"ield":1889,"Ġsea":1890,"Ġmism":1891,"Ġhasta":1892,"Ġgame":1893,"Ġread":1894,"ugar":1895,"Ġevery":1896,"mos":1897,"Ġinvolv":1898,"ĠAm":1899,"Ġcolor":1900,"Ġprincip":1901,"Ġbro":1902,"Ġorig":1903,"Ġmanera":1904,"Ġmundo":1905,"Ġ12":1906,"Ġgovern":1907,"Ġsame":1908,"Ã¡tic":1909,"ertain":1910,"ause":1911,"urs":1912,"Ġunivers":1913,"ÐµÐ¹":1914,".\"":1915,"Ġquick":1916,"digo":1917,"tt":1918,"Ġtest":1919,"Ġdog":1920,"uf":1921,"amos":1922,"Ġglo":1923,"Ġminut":1924,"Ġbenef":1925,"Ñĸ":1926,"Ġsw":1927,"aba":1928,"Ġcrear":1929,"Ġcompany":1930,"Ġrequire":1931,"Ð¾Ð³Ð¾":1932,"Ġess":1933,"ĠBe":1934,"Ġcommon":1935,"Ġgen":1936,"emos":1937,"Ġarea":1938,"Ġarch":1939,"=\"":1940,"Ġwrit":1941,"leg":1942,"Ġpresent":1943,"ling":1944,"ĠBey":1945,"ique":1946,"Ġmachine":1947,"Ġvir":1948,"Ġwant":1949,"iver":1950,"Ġcos":1951,"Ġvers":1952,"arse":1953,"Ġfocus":1954,"ĠNo":1955,"Ġexperien":1956,"Ġdefin":1957,"ĠWe":1958,"Ġsolar":1959,"Ġpap":1960,"ĠÐ°":1961,"ĠSo":1962,"ĠÐ½Ðµ":1963,"Ġsitu":1964,"El":1965,"be":1966,"rent":1967,"ĠAp":1968,"Ġrun":1969,"Ġdig":1970,"ately":1971,"ava":1972,"ĠIdent":1973,"Ġwebsite":1974,"ano":1975,"Ġpract":1976,"Ġyears":1977,"Ġcomputer":1978,"ĠÃ¡":1979,"ola":1980,"Ġpersonas":1981,"count":1982,"ÑĤÐ¾ÑĢ":1983,"acy":1984,"ĠUnited":1985,"Ġsing":1986,"..":1987,"eta":1988,"ĠWhere":1989,"Ġrespons":1990,"Ġcomplex":1991,"Ġresources":1992,"Ġaccur":1993,"ĠBeyon":1994,"ĠFind":1995,"Ġteam":1996,"ress":1997,"ym":1998,"arth":1999,"Ð¸Ð·":2000,"Ġsun":2001,"Ì¦":2002,"Ġplace":2003,"portun":2004,"Ġcharacter":2005,"Ġsistema":2006,"Ġdon":2007,"Ì¦Ì¦":2008,"zar":2009,"ãģ":2010,"Ġveg":2011,"(\"":2012,"ivos":2013,"Ġcontent":2014,"Ġindustr":2015,"Ġnuev":2016,"olution":2017,"ĠJohn":2018,"las":2019,"atch":2020,"iciÃ³n":2021,"Ð¸Ðº":2022,"por":2023,"Ġred":2024,"ĠSin":2025,"other":2026,"ÃŃcul":2027,"()":2028,"Ġiss":2029,"los":2030,"lish":2031,"Ã¶":2032,"Ġtec":2033,"ĠcÃ³digo":2034,"aw":2035,"cer":2036,"Ġvar":2037,"Ãºs":2038,"Ġdiferentes":2039,"Ġten":2040,"Ġdest":2041,"ator":2042,"ality":2043,"ogn":2044,"Ġsystems":2045,"Ġknown":2046,"ĠOne":2047,"inally":2048,"Ġ11":2049,"ists":2050,"Ġsug":2051,"do":2052,"read":2053,"Ġtom":2054,"Ġhy":2055,"ĠBr":2056,"Ġlevel":2057,"Ġsolo":2058,"Ġbeh":2059,"edad":2060,"Ġhard":2061,"els":2062,"Ġamount":2063,"ĠÐ³":2064,"ee":2065,"Ð¸Ñģ":2066,"ĠinformaciÃ³n":2067,"Ġneg":2068,"Ġphys":2069,"Ġintegr":2070,"sc":2071,"Ġvol":2072,"Ġestr":2073,"ming":2074,"ream":2075,"Ġnight":2076,"Ġproject":2077,"li":2078,"Ġstand":2079,"pro":2080,"adores":2081,"Ġcomun":2082,"ĠÐ¾Ð±":2083,"Ġduring":2084,"][":2085,"tle":2086,"Ġmar":2087,"Ġfew":2088,"Ġfeatures":2089,"Ġanaly":2090,"Ġafter":2091,"ium":2092,"ories":2093,"Ġvide":2094,"âĢĿ":2095,"Ġpossible":2096,"ull":2097,"Ġ15":2098,"na":2099,"ä»":2100,"Ġless":2101,"In":2102,"imes":2103,"ĠSch":2104,"Ġext":2105,"Ġconsum":2106,"ele":2107,"opin":2108,"Ġdesc":2109,"Ġspecific":2110,"ced":2111,"Ð¸Ñĩ":2112,"ĠYork":2113,"ĠcÃ³mo":2114,"self":2115,"uring":2116,"Ġinterest":2117,"Ð¸ÑĤÑĮ":2118,"Ġwithout":2119,"Ġcour":2120,"ames":2121,"Ġkeep":2122,"Ġmedia":2123,"Ġnumbers":2124,"Ġcalcul":2125,"Ġein":2126,"Ġuntil":2127,"tra":2128,"ĠGr":2129,"ients":2130,"Ġzu":2131,"Ġdevelopment":2132,"Ġmeaning":2133,"Ġcuenta":2134,"Ġincluding":2135,"Ġincrease":2136,"ĠCol":2137,"ĠGo":2138,"Ġleg":2139,"Ġbecome":2140,"Ġarticle":2141,"Ġcreating":2142,"itud":2143,"ulation":2144,"ÐµÐ½Ð¸Ñı":2145,"Ġencon":2146,"ĠIm":2147,"Ġpredict":2148,"äº":2149,"head":2150,"entr":2151,"ape":2152,"illa":2153,"Ġstruct":2154,"ĠChopin":2155,"Ð¹":2156,"ides":2157,"Ð¾Ð·":2158,"ÑĨÐ¸":2159,"Ġhome":2160,"ĠÐ»":2161,"Ð¾ÑģÑĤ":2162,"ains":2163,"ombre":2164,"Ġincluy":2165,"Ġcustomers":2166,"ĠUS":2167,"Ġstore":2168,"Ġsomet":2169,"Ġbi":2170,"emÃ¡s":2171,"word":2172,"Ã¡l":2173,"Ġrange":2174,"da":2175,"åı":2176,"Ġstrateg":2177,"ĠâĢľ":2178,"Ġidentify":2179,"Ġrepresent":2180,"Ġbook":2181,"less":2182,"Ġmom":2183,"Ġmaj":2184,"ĠSp":2185,"Ġgran":2186,"Ġmayor":2187,"ĠIdentify":2188,"val":2189,"ĠCal":2190,"Ð¸Ñħ":2191,"Ġbelie":2192,"Ġtecn":2193,"Ġself":2194,"Ġline":2195,"Ġfac":2196,"lab":2197,"Ġpi":2198,"epend":2199,"Ġgrand":2200,"ĠâĢ¢":2201,"Ġfriends":2202,"alleng":2203,"lease":2204,"Ġter":2205,"Ġcompr":2206,"Ġalgunos":2207,"Ġhim":2208,"ury":2209,"Ġtry":2210,"Ġjob":2211,"Ġinteract":2212,"ector":2213,"Ġoptim":2214,"tion":2215,"ĠIs":2216,"ĠInd":2217,"ĠÐ²Ñĭ":2218,"ĠEng":2219,"Ġsimple":2220,"Ġcare":2221,"reg":2222,"Ġsure":2223,"ologÃŃa":2224,"Ð½Ð¾ÑģÑĤ":2225,"Ġintelligence":2226,"ploy":2227,"arios":2228,"Ġcurrent":2229,"Ġlab":2230,"Ġexc":2231,"encias":2232,"ping":2233,"ty":2234,"idas":2235,"Ġren":2236,"argo":2237,"Ġrelations":2238,"Ġgrow":2239,"Ġfinan":2240,"Ġuno":2241,"ficult":2242,"Ġidea":2243,"Ġdetermin":2244,"'m":2245,"Ġfamily":2246,"Ġtot":2247,"Ġcome":2248,"chie":2249,"Ġkind":2250,"Ġglobal":2251,"Ġment":2252,"Ġpattern":2253,"Ð°Ñģ":2254,"Ã±a":2255,"Ġensure":2256,"Ġcir":2257,"let":2258,"ember":2259,"itch":2260,"ĠEuro":2261,"Ġbecause":2262,"ecess":2263,"Ġdisc":2264,"uj":2265,"Ġmust":2266,"lement":2267,"Ġexpress":2268,"text":2269,"Ġsimilar":2270,"Ġci":2271,"Ġlengu":2272,"light":2273,"Ġbase":2274,"Ġproces":2275,"Ġmanag":2276,"Ġways":2277,"Ġscho":2278,"avor":2279,"Ġdifficult":2280,"Ġhapp":2281,"Ġcuando":2282,"Ġquickly":2283,"orld":2284,"Ġge":2285,"Ġusers":2286,"Ġarg":2287,"ĠÐ¾ÑĤ":2288,"Ġitems":2289,"Ġvez":2290,"æĪ":2291,"Ġstay":2292,"Ġshort":2293,"ĠfunciÃ³n":2294,"Ġvalue":2295,"Ġtoget":2296,"ÃŃn":2297,"Ġperformance":2298,"Ġtogether":2299,"zen":2300,"ÑĦ":2301,"ientras":2302,"outh":2303,"Ð¸Ð¹":2304,"ways":2305,"Ġtodo":2306,"ves":2307,"ÅĤ":2308,"Ġbien":2309,"xim":2310,"ĠCan":2311,"Ð°ÑĢ":2312,"Ġsigu":2313,"Ġcalled":2314,"wer":2315,"Ġluz":2316,"Ġgust":2317,"ĠRew":2318,"ĠHowever":2319,"Ġdue":2320,"Ġvo":2321,"ĠEm":2322,"Ġcompar":2323,"Ġresearch":2324,"Ġelements":2325,"Ġsab":2326,"rees":2327,"Ġlugar":2328,"urther":2329,"Ġchalleng":2330,"Ġmusic":2331,"lt":2332,"ux":2333,"ĠX":2334,"ĠÃº":2335,"ece":2336,"ÃŃan":2337,"Ġpersona":2338,"no":2339,"joy":2340,"ades":2341,"ĠSh":2342,"ÃŃst":2343,"Ġunderstanding":2344,"car":2345,"Ġrad":2346,"istant":2347,"Ġregular":2348,"Ġtodos":2349,"Ġprotect":2350,"ĠÑı":2351,"ĠRec":2352,"ÑİÑĤ":2353,"Ġbenefits":2354,"ĠaÃ±os":2355,"uras":2356,"ientos":2357,"Ġskills":2358,"Ġayudar":2359,"Ġseason":2360,"ÑĥÑĩ":2361,"Ġembargo":2362,"',":2363,"Ġfour":2364,"Ġveget":2365,"Ġthink":2366,"Ġmeas":2367,"Ġservices":2368,"ĠÑĩÑĤÐ¾":2369,"Ġdiv":2370,"onde":2371,"ĠÂ¡":2372,"asing":2373,"Ġgive":2374,"Ġefficient":2375,"En":2376,"Ġfre":2377,"Ġagain":2378,"Ġaff":2379,"Ġproper":2380,"Ġneeds":2381,"Ġengine":2382,"ä½":2383,"Ġland":2384,"ĠnÃº":2385,"Ġwhy":2386,"Ġestos":2387,"Ġusar":2388,"iet":2389,"mat":2390,"Ġquestions":2391,"Ġsong":2392,"Ġpost":2393,"Ġfue":2394,"Ġabs":2395,"ula":2396,"Ġrecord":2397,"bol":2398,"eros":2399,"ancia":2400,"lex":2401,"ope":2402,"Ġallows":2403,"Ġoffer":2404,"yle":2405,"Ġcant":2406,"Ġthough":2407,"Ġcho":2408,"ĠStates":2409,"Ġ//":2410,"Ġwind":2411,"Ġreach":2412,"iques":2413,"Ġinflu":2414,"Ġbody":2415,"Ġsee":2416,"Ġfund":2417,"Ġed":2418,"Ã³m":2419,"trib":2420,"Ġhead":2421,"ĠÐ¸Ð·":2422,"Ġrelationship":2423,"ove":2424,"Ġpal":2425,"ĠquÃ©":2426,"Ġbeg":2427,"ona":2428,"Ġrefer":2429,"Ġequip":2430,"iate":2431,"ma":2432,"Ġachie":2433,"Ġpel":2434,"Ġbat":2435,"ows":2436,"Ġlista":2437,"Ġtienes":2438,"Ġgovernment":2439,"Ġmajor":2440,"ites":2441,"urity":2442,"____":2443,"Ġfield":2444,"Ð½Ð°":2445,"Ġrobot":2446,"Ġtypes":2447,"ĠnÃºmer":2448,"Ġcell":2449,"Ġcertain":2450,"ĠRes":2451,"Ġcountries":2452,"hor":2453,"ule":2454,"ento":2455,"ĠWith":2456,"ĠCons":2457,"uciÃ³n":2458,"Ġsearch":2459,"ĠEsto":2460,"Ġideas":2461,"Ġreci":2462,"Ġprote":2463,"Ġteng":2464,"ono":2465,"Ġalgo":2466,"utions":2467,"Ġactual":2468,"ric":2469,"ĠprogramaciÃ³n":2470,"ĠâĢĵ":2471,"ination":2472,"Ġrespuest":2473,"ĠAdemÃ¡s":2474,"pon":2475,"Ġlit":2476,"ained":2477,"itect":2478,"Ġarray":2479,"ĠÐµ":2480,"ÃŃfic":2481,"Ġnever":2482,"Ġstrong":2483,"Ġcountry":2484,"Ġocc":2485,"ĠOp":2486,"Ġaud":2487,"itos":2488,"row":2489,"ĠJava":2490,"med":2491,"ane":2492,"verage":2493,"quier":2494,"Ġist":2495,"Ġestud":2496,"Ġrecogn":2497,"ramient":2498,"mend":2499,"Ø§":2500,"aces":2501,"ĠThere":2502,"cover":2503,"ĠÐ¼Ð¾Ð¶":2504,"Ġerr":2505,"iere":2506,"omb":2507,"Ġprovides":2508,"Ġsources":2509,"Ġfuture":2510,"Ġâ":2511,"eno":2512,"aves":2513,"Ġobt":2514,"Ġmodern":2515,"Ġherramient":2516,"**":2517,"çĶ":2518,"Ġfinal":2519,"Ġdeep":2520,"ĠOut":2521,"Ġclimate":2522,"Ġoutput":2523,"clus":2524,"Ġstatement":2525,"Ġmant":2526,"ĠmÃ©":2527,"ĠPar":2528,"Ġavail":2529,"ĠRewrite":2530,"aÃ±":2531,"face":2532,"Ġcup":2533,"Ġsa":2534,"Ġnecess":2535,"izing":2536,"Ġplat":2537,"Ġaprender":2538,"10":2539,"Ġmientras":2540,"ĠHere":2541,"nea":2542,"Ġsomething":2543,"ires":2544,"ĠasÃŃ":2545,"Ã©c":2546,"Ġdesde":2547,"Ġagua":2548,"Ð½ÑĭÑħ":2549,"ĠClass":2550,"Ġsteps":2551,"aur":2552,"itor":2553,"Ġencontrar":2554,"rase":2555,"ima":2556,"Ð¾ÑĤÐ¾ÑĢ":2557,"by":2558,"cle":2559,"Ġsat":2560,"ĠList":2561,"dition":2562,"ĠIdol":2563,"pose":2564,"ery":2565,"Ġden":2566,"Ġfile":2567,"Ġefect":2568,"Ġhor":2569,"Ġ100":2570,"Ð¾Ðº":2571,"Ġstate":2572,"Ġconvers":2573,"Ġsever":2574,"ĠOr":2575,"Ġvisual":2576,"Ġdocument":2577,"Ġmillion":2578,"Ġdom":2579,"unto":2580,"ĠAt":2581,"ĠPort":2582,"Ġjug":2583,"Ġnon":2584,"Ġpoem":2585,"Ġmuchos":2586,"Ġapplications":2587,"Ġnetwork":2588,"Ġchild":2589,"Ġtypically":2590,"ilidades":2591,"Ġbeaut":2592,"Ġusu":2593,"Ġprefer":2594,"ourn":2595,"Ġphysical":2596,"lym":2597,"Ġcompon":2598,"Ġlove":2599,"Ġexplor":2600,"</":2601,"ving":2602,"Ġquier":2603,"Ġprob":2604,"Ġalways":2605,"ĠEste":2606,"Ġvariety":2607,"Ġsecond":2608,"Ġstudents":2609,"Ġaprend":2610,"Ġdigital":2611,"Ġwarm":2612,"Ã³g":2613,"Ġactivities":2614,"Ġpropor":2615,"ĠFinally":2616,"Ð°Ð´":2617,"ledge":2618,"cy":2619,"for":2620,"Ã²":2621,"Ġtanto":2622,"Ġotro":2623,"Ġfu":2624,"ived":2625,"Ġask":2626,"Ġimag":2627,"Ð½ÑĭÐµ":2628,"just":2629,"Ġhan":2630,"Ġnos":2631,"ĠLe":2632,"ĠIntern":2633,"yn":2634,"oco":2635,"Ġcompet":2636,"Ġaccount":2637,"Ġtienen":2638,"Ġstructure":2639,"ML":2640,"Ġconse":2641,"Ġespecial":2642,"Ġtemperature":2643,"Ġtipo":2644,"ĠQ":2645,"udd":2646,"Ġrelated":2647,"Ġpositive":2648,"Ġvirt":2649,"ĠaquÃŃ":2650,"Ġsens":2651,"ret":2652,"Ġfas":2653,"Ð°Ð¶":2654,"Ġhelps":2655,"ĠAnd":2656,"Ġfel":2657,"ĠTw":2658,"ĠSum":2659,"ĠMake":2660,"Ġvarious":2661,"Ġfinancial":2662,"rar":2663,"Ã§":2664,"Ġ/":2665,"Ġir":2666,"lec":2667,"ĠPara":2668,"ĠNot":2669,"Ġdescribe":2670,"Ġability":2671,"ĠProv":2672,"Ġmovie":2673,"cent":2674,"itle":2675,"Ġ16":2676,"Ġthose":2677,"Ġcapac":2678,"Ġingred":2679,"Ġtotal":2680,"istr":2681,"Ġparte":2682,"Ġlocal":2683,"care":2684,"Ġid":2685,"Ġpan":2686,"Ġold":2687,"ĠCo":2688,"Ġimplement":2689,"Ġsky":2690,"Ġpast":2691,"Ġans":2692,"odo":2693,"Ġpriv":2694,"Ġpoints":2695,"inar":2696,"ĠestÃ¡n":2697,"Ġgoals":2698,"Ġinvolves":2699,"Ġvideo":2700,"Ġmind":2701,"Ġfa":2702,"Ġ17":2703,"Ġcreative":2704,"Ġmejorar":2705,"ÐµÑģÐº":2706,"50":2707,"ĠdÃŃa":2708,"uck":2709,"Ġopportun":2710,"Ġverd":2711,"++":2712,"Ġinn":2713,"Ġpolit":2714,"anye":2715,"ĠKanye":2716,"Ġproviding":2717,"Ġcontrib":2718,"Ġeg":2719,"ĠUnivers":2720,"Ġintro":2721,"Ġscient":2722,"ances":2723,"aly":2724,"ĠWorld":2725,"ĠUna":2726,"Ġanimals":2727,"Ġquestion":2728,"Ġperi":2729,"Ġpoll":2730,"Ġear":2731,"Ġresum":2732,"Ġlenguaje":2733,"ke":2734,"ped":2735,"una":2736,"ush":2737,"Ġworks":2738,"Ġsecurity":2739,"Ġbehav":2740,"://":2741,"ius":2742,"Ġanother":2743,"ĠHT":2744,"Ġmismo":2745,"ĠEurope":2746,"Ġmit":2747,"ĠBy":2748,"Ġtask":2749,"ww":2750,"Ġbal":2751,"ifica":2752,"Ġplant":2753,"Ġpuedo":2754,"Ġdurante":2755,"ko":2756,"Ġum":2757,"Ġfuer":2758,"Ð°ÐµÑĤ":2759,"ĠLas":2760,"iple":2761,"Ġbreak":2762,"Ġinternet":2763,"Ġdivers":2764,"Ġdonde":2765,"Ġenjoy":2766,"ograph":2767,"illed":2768,"Ġproducts":2769,"Ġpoder":2770,"oks":2771,"Ġunder":2772,"Ġeconomic":2773,"Ġport":2774,"Ġmor":2775,"elig":2776,"Ð½Ð¾Ð¹":2777,"Ġmeet":2778,"Ġutiliza":2779,"Ġpowerful":2780,"oid":2781,"âł":2782,"Ġ`":2783,"Ġcard":2784,"ished":2785,"ĠBl":2786,"Ġjuego":2787,"ĠÑģÐ²":2788,"Ġsyn":2789,"Ġutilizar":2790,"Ġcause":2791,"ĠlÃŃnea":2792,"Ġminutes":2793,"ĠÑģÑĤ":2794,"Ġsaf":2795,"Ġtransport":2796,"che":2797,"æľ":2798,"Ġdin":2799,"Ġgl":2800,"Ġ30":2801,"ĠThese":2802,"ired":2803,"ording":2804,"Ġpeque":2805,"Ġdetect":2806,"Ġpatterns":2807,"ÄĻ":2808,"ĠCity":2809,"Ġexperiment":2810,"Ġalgorithms":2811,"Ġciud":2812,"ilities":2813,"ĠSol":2814,"endo":2815,"Ġsound":2816,"ights":2817,"ierra":2818,"Ġemploy":2819,"Ġ**":2820,"\":":2821,"Ġrep":2822,"ÐµÐ»ÑĮ":2823,"Ġlocated":2824,"Ġsource":2825,"lich":2826,"Ġcat":2827,"Ġlow":2828,"Ġencu":2829,"aging":2830,"Ġadvant":2831,"Ġhistoria":2832,"ĠtravÃ©s":2833,"ÙĦ":2834,"Ġfree":2835,"Ġnuest":2836,"ĠÐĴ":2837,"ĠRep":2838,"Ġrespect":2839,"Ġcommunication":2840,"Ġsingle":2841,"Ġaverage":2842,"ĠfÃŃs":2843,"imientos":2844,"ecut":2845,"ĠMan":2846,"Ġsentences":2847,"untos":2848,"Ġcaracter":2849,"ĠÐºÐ°Ðº":2850,"Ġmoney":2851,"serv":2852,"war":2853,"Ġproy":2854,"ibles":2855,"Ġgenerate":2856,"Ġ\\":2857,"Ġmis":2858,"soci":2859,"Ġmethods":2860,"Ġsuggest":2861,"aff":2862,"wor":2863,"ĠÃ©s":2864,"Ã³r":2865,"place":2866,"Ġstudy":2867,"uedes":2868,"Pod":2869,"based":2870,"day":2871,"âĸ":2872,"Ġcoc":2873,"Ġmass":2874,"Ġbar":2875,"Ġthings":2876,"Ġhealthy":2877,"ha":2878,"ĠmÃºs":2879,"Ã¡g":2880,"iene":2881,"Ġexplain":2882,"Ġallowing":2883,"Ġalgunas":2884,"Ġpay":2885,"Ġ14":2886,"izaciÃ³n":2887,"Ġspace":2888,"Ġconstr":2889,"gos":2890,"Ġtrack":2891,"Ġphrase":2892,"Ġ</":2893,"Ġknowledge":2894,"vis":2895,"enn":2896,"ĠAc":2897,"play":2898,"ĠMe":2899,"Ġprec":2900,"ĠPortug":2901,"Ġdu":2902,"Ġdark":2903,"Ġfavor":2904,"Ġdescrib":2905,"Ġemail":2906,"Ġcarb":2907,"Ġdifference":2908,"Ġil":2909,"ering":2910,"ĠAquÃŃ":2911,"Ð¸ÑĢ":2912,"ĠPre":2913,"ibr":2914,"ength":2915,"Ġindepend":2916,"ĠAdd":2917,"ewable":2918,"Ġchanges":2919,"Ġsignificant":2920,"Ġvirtual":2921,"ystem":2922,"Ġcamb":2923,"Ġdate":2924,"Ġva":2925,"Ġuses":2926,"Ġjourn":2927,"ĠÑĤÐ°Ðº":2928,"wards":2929,"Ġeducation":2930,"Ġclear":2931,"Ġessential":2932,"Ġproyect":2933,"Ġera":2934,"ĠMar":2935,"Ġorden":2936,"action":2937,"ysis":2938,"Ġdecisions":2939,"Ġintroduc":2940,"ound":2941,"itas":2942,"itional":2943,"Ġnorm":2944,"Ġesto":2945,"Ġmeans":2946,"Ġhistory":2947,"Ġavailable":2948,"va":2949,"Ġmal":2950,"Ġnut":2951,"Ġgar":2952,"Ġvel":2953,"Ð¾Ð¿":2954,"Ġcompos":2955,"ĠArt":2956,"Ġllam":2957,"man":2958,"pir":2959,"å¤":2960,"ified":2961,"istic":2962,"priate":2963,"ĠDesign":2964,"Ġmarketing":2965,"dr":2966,"Ġsort":2967,"alu":2968,"ently":2969,"Ġhace":2970,"Ġteor":2971,"ĠAlg":2972,"Ġplatform":2973,"Ġpain":2974,"Ġhaving":2975,"Ġdescript":2976,"Ġclo":2977,"ĠenergÃŃa":2978,"Ġdebe":2979,"Ġfamil":2980,"Ġcrit":2981,"isis":2982,"ĠbÃ¡s":2983,"Ġrece":2984,"Ġelse":2985,"umn":2986,"Ð°Ð¹":2987,"ÐµÐ½Ð¸Ðµ":2988,"Ġrecommend":2989,"Ġaway":2990,"ĠEarth":2991,"Ġprofess":2992,"ttps":2993,"Ġseveral":2994,"Ġmes":2995,"Ġstill":2996,"Ġcualquier":2997,"Ġestruct":2998,"of":2999,"Ġtimes":3000,"Ġmess":3001,"iting":3002,"une":3003,"Ġrelev":3004,"ĠSte":3005,"ogle":3006,"Ġaction":3007,"Ġmedical":3008,"Ġpopulation":3009,"ĠClassify":3010,"Ġtaking":3011,"use":3012,"thers":3013,"Ġrespond":3014,"marize":3015,"ency":3016,"cel":3017,"Ġuso":3018,"Ġestab":3019,"ike":3020,"Ġincreasing":3021,"Ġspecial":3022,"Ġinvestig":3023,"Ġsuccessful":3024,"back":3025,"Ġol":3026,"ivel":3027,"ÑģÐº":3028,"ÑĭÐµ":3029,"ĠÐºÐ¾ÑĤÐ¾ÑĢ":3030,"Ġmatem":3031,"ĠpaÃŃs":3032,"åħ":3033,"Ġparticular":3034,"ĠBeyonce":3035,"etic":3036,"Ġview":3037,"empre":3038,"Ġalm":3039,"Ġstor":3040,"pero":3041,"Ġrelig":3042,"Ġsym":3043,"Ġposible":3044,"Ġresults":3045,"ĠAss":3046,"Ġschool":3047,"ĠProvide":3048,"name":3049,"son":3050,"Ġcop":3051,"isf":3052,"erson":3053,"ĠPh":3054,"ÑĥÑĤ":3055,"Ġrespuesta":3056,"ht":3057,"jos":3058,"acks":3059,"iencia":3060,"Ð¾Ð²Ð°Ð½":3061,"ĠÐ´Ð»Ñı":3062,"laro":3063,"Ġetc":3064,"Ġbusinesses":3065,"dic":3066,"ral":3067,"Ġsl":3068,"Ġpack":3069,"Ġnow":3070,"imin":3071,"ending":3072,"ĠGive":3073,"icht":3074,"Ġatmos":3075,"Ġproduce":3076,"Ġ199":3077,"come":3078,"Ġmol":3079,"ĠfÃ¡":3080,"Ġ13":3081,"agn":3082,"ends":3083,"Ġvalues":3084,"Ġvery":3085,"Ġdetail":3086,"Ñĳ":3087,"Ġsay":3088,"Ġsize":3089,"anz":3090,"ecu":3091,"atura":3092,"Ġprogramming":3093,"Ġhigher":3094,"ĠÑĢÐ°Ð·":3095,"Ġciudad":3096,"â£":3097,"Ġtax":3098,"Ġpes":3099,"Ġhouse":3100,"Ġunique":3101,"ĠWest":3102,"Ġdese":3103,"Ġadap":3104,"Ġrisk":3105,"Ġnecessary":3106,"Ġtor":3107,"onom":3108,"ĠInst":3109,"raw":3110,"Ġapproach":3111,"Ġbegin":3112,"Ġpoco":3113,"Ġwin":3114,"cio":3115,"ĠMy":3116,"Ġproblems":3117,"],":3118,"Ġmight":3119,"Ġmax":3120,"Ġcook":3121,"Ġlevels":3122,"Ġproporcion":3123,"\")":3124,"ision":3125,"Ġwalk":3126,"ĠGP":3127,"Ġlast":3128,"Ġoriginal":3129,"Ġagainst":3130,"Ġsense":3131,"Ġmuchas":3132,"anced":3133,"Ġpermit":3134,"Ġcloud":3135,"Å¼":3136,"Ã¡ct":3137,"ensive":3138,"Ġsomeone":3139,"Ġplanet":3140,"Claro":3141,"tor":3142,"Ġsust":3143,"Ġlleg":3144,"Ġaltern":3145,"ibility":3146,"Ġincreased":3147,"Ġmaint":3148,"æĺ":3149,"ots":3150,"Ġareas":3151,"Ġampl":3152,"Ð°Ð»ÑĮ":3153,"ĠOnce":3154,"ĠnÃºmero":3155,"ĠHTML":3156,"ead":3157,"Ġflow":3158,"ements":3159,"acters":3160,"Ġappropriate":3161,"ĠQu":3162,"Ġtable":3163,"ined":3164,"Ġliving":3165,"ĠCar":3166,"oca":3167,"ĠÐ±Ñĭ":3168,"Ġdecision":3169,"Ġlooking":3170,"ole":3171,"Ġcase":3172,"ours":3173,"Ġopin":3174,"Ġterms":3175,"No":3176,"ai":3177,"xto":3178,"Ġwar":3179,"Ġtools":3180,"aciÃ³":3181,"Ġheart":3182,"Ġestar":3183,"Ġvalor":3184,"Ġhabilidades":3185,"Ġparticip":3186,"Ġpalab":3187,"Ġveloc":3188,"Ġdar":3189,"Ġwithin":3190,"Ġworking":3191,"Ġspecies":3192,"Ġmethod":3193,"Ġaqu":3194,"erve":3195,"ival":3196,"Ġquant":3197,"Ġteach":3198,"Ġcentury":3199,"Ġanimal":3200,"Ġgreen":3201,"Ġoil":3202,"oma":3203,"Ġ25":3204,"Ġ==":3205,"Ġexamples":3206,"Ġmodels":3207,"Ġcharacters":3208,"onse":3209,"Ġothers":3210,"ĠPer":3211,"ÑģÐ¿":3212,"ĠRed":3213,"ĠUs":3214,"Ġtechniques":3215,"Ġeffects":3216,"Ġcontinu":3217,"Ġissues":3218,"åĪ":3219,"Ġsqu":3220,"ĠTambiÃ©n":3221,"ĠSug":3222,"Ġdiscover":3223,"Ġprepar":3224,"ĠÑģÐ»":3225,"Ġpermite":3226,"ĠOpen":3227,"col":3228,"Ġquality":3229,"Ġvi":3230,"ificar":3231,"Ġotras":3232,"Ġfactors":3233,"Ġwriting":3234,"Ġdescub":3235,"ĠBudd":3236,"ĠWhite":3237,"Ġemot":3238,"phere":3239,"Ġpurch":3240,"Ġtravel":3241,"ĠSie":3242,"Ġrecurs":3243,"Ġfilm":3244,"Ġinnov":3245,"ĠfÃ¡cil":3246,"Â°":3247,"Ġside":3248,"Ġreport":3249,"Ġexerc":3250,"Ġyourself":3251,"uesto":3252,"Ġcaso":3253,"Ġperiod":3254,"mit":3255,"ĠWar":3256,"Ġexpect":3257,"Ġdesp":3258,"ajes":3259,"Ġdecid":3260,"Ġsiempre":3261,"Ġdesarrollo":3262,"Ġmultiple":3263,"è¯":3264,"Ġhere":3265,"ĠUse":3266,"Ġprocessing":3267,"Ġantes":3268,"Ġindustry":3269,"Ġcantidad":3270,"eff":3271,"Ġlay":3272,"ÐµÑģÑĤÐ²":3273,"ĠEsta":3274,"Ġargument":3275,"'re":3276,"))":3277,"py":3278,"Ġfull":3279,"ĠBrit":3280,"ops":3281,"ÐµÐ³":3282,"Ġevents":3283,"Ġmonth":3284,"Ġpregunta":3285,"Ġagr":3286,"oms":3287,"ample":3288,"ĠAut":3289,"Ġdecir":3290,"Ġfunct":3291,"Ġeffective":3292,"ĠDo":3293,"ativo":3294,"bs":3295,"tes":3296,"eras":3297,"Ġwrite":3298,"Ġvent":3299,"Ġshar":3300,"Ġempres":3301,"arget":3302,"Ġtraditional":3303,"Ġelementos":3304,"Ġjourney":3305,"PI":3306,"Ġbot":3307,"Ġnivel":3308,"ests":3309,"Ġseen":3310,"Ġexplic":3311,"anger":3312,"Ġprev":3313,"Ġintelig":3314,"Ġfuncion":3315,"Ð¼Ð¸":3316,"ä¸Ģ":3317,"Ġaffect":3318,"ĠSuggest":3319,"uan":3320,"Äħ":3321,"Ġpep":3322,"ĠII":3323,"Ġheat":3324,"ĠNe":3325,"Ġrole":3326,"Ġupon":3327,"Ġnews":3328,"Ġsecure":3329,"Ġsalud":3330,"ĠmÃ©t":3331,"Ġbehavior":3332,"åĬ":3333,"Ġtare":3334,"Ġmiss":3335,"Ġfar":3336,"icate":3337,"Ġassoci":3338,"ches":3339,"Ġnext":3340,"Ġspeed":3341,"Ġpaper":3342,"ĠGoogle":3343,"jar":3344,"zy":3345,"ĠAg":3346,"agraph":3347,"ĠDis":3348,"Ġimage":3349,"ption":3350,"Ġanalysis":3351,"Ġcheck":3352,"Ġmental":3353,"works":3354,"ĠmÃºsica":3355,"Ġcort":3356,"Ġconj":3357,"ĠAf":3358,"Ð°Ð¿":3359,"ficial":3360,"Ġrealizar":3361,"ãĢģ":3362,"Ġtitle":3363,"Ġllev":3364,"Ġdeg":3365,"Ġtoo":3366,"adr":3367,"ĠGe":3368,"posit":3369,"Es":3370,"key":3371,"Ġcy":3372,"ĠÐ¶":3373,"agon":3374,"ĠDec":3375,"Ġcompan":3376,"iency":3377,"Ġ196":3378,"Ġinstruct":3379,"Ġdogs":3380,"ĠEnglish":3381,"Ġanswer":3382,"âłĢ":3383,"Ð¸Ð¸":3384,"Ġnovel":3385,"ĠpolÃŃ":3386,"Ġhumans":3387,"Ġblue":3388,"Ġobjects":3389,"Ì¦Ì¦Ì¦Ì¦":3390,"cular":3391,"hr":3392,"Ġturn":3393,"unque":3394,"Ð¸Ð»":3395,"ĠIns":3396,"Ġpolic":3397,"Ġprovided":3398,"Ġtopic":3399,"Ġaplicaciones":3400,"eder":3401,"amm":3402,"ĠPlym":3403,"Ġfeed":3404,"Ġtechnolog":3405,"Ġayudarte":3406,"Ġacr":3407,"ony":3408,"Ġey":3409,"oman":3410,"amed":3411,"Ġvia":3412,"Ġrate":3413,"ift":3414,"ĠData":3415,"ÑĥÑİ":3416,"ĠChina":3417,"Ġresumen":3418,"rup":3419,"Ġnature":3420,"ĠMed":3421,"Ġperfect":3422,"Ġevalu":3423,"ĠÐ¿ÑĢÐ¾":3424,"Ġhealthcare":3425,"Ġrecomend":3426,"Ġsem":3427,"Ġbig":3428,"ĠStr":3429,"Ð°ÑģÑĤ":3430,"ither":3431,"Ġestas":3432,"Ġvariable":3433,"ĠÑĦ":3434,"ĠDevelop":3435,"ĠpodrÃŃa":3436,"Ġencour":3437,"ĠtecnologÃŃa":3438,"ĠSummarize":3439,"Ġ:":3440,"Ġtend":3441,"Ġcab":3442,"idd":3443,"idence":3444,"ĠTe":3445,"ĠSu":3446,"Ġimages":3447,"ification":3448,"Ġimportance":3449,"Ġotra":3450,"ĠTrans":3451,"----------------":3452,"irm":3453,"Ð°Ñı":3454,"ards":3455,"ajas":3456,"ublic":3457,"Ġtransform":3458,"Ġmotiv":3459,"Ġnegative":3460,"Ġatmosphere":3461,"\">":3462,"fort":3463,"Ġtarget":3464,"Ġdistrib":3465,"Ġmucho":3466,"Ġpath":3467,"Ġtoday":3468,"Ġmatter":3469,"Ġfurther":3470,"Ġcreated":3471,"('":3472,"view":3473,"ä¹":3474,"Ġmel":3475,"ister":3476,"ĠÐĿ":3477,"esta":3478,"âĢį":3479,"Ġcapt":3480,"Ġconsidered":3481,"Ġaddress":3482,"Ġobjetos":3483,"Ġofre":3484,"Ð½Ð¾Ð³Ð¾":3485,"Ġaspect":3486,"aps":3487,"Ġ50":3488,"Ġinstall":3489,"Ġdeterm":3490,"ened":3491,"olve":3492,"ĠIr":3493,"Ġspread":3494,"Ġgram":3495,"Ġstring":3496,"arme":3497,"Ġsistemas":3498,"Ð¸ÑĩÐµÑģÐº":3499,"rist":3500,"å®":3501,"ĠÃºn":3502,"Ġdir":3503,"acional":3504,"ĠWind":3505,"ÃŃm":3506,"Ġley":3507,"Ġclos":3508,"ĠÐ¿Ð¾":3509,"Ġconsist":3510,"Ġresponse":3511,"Ġbring":3512,"Ġproblemas":3513,"Ġayuda":3514,"Ġleading":3515,"Ġeasy":3516,"ĠÐ¼Ð¾Ð¶ÐµÑĤ":3517,"ĠAlgun":3518,"12":3519,"ĠTechn":3520,"ĠPol":3521,"Ġtrue":3522,"Ð°Ð±":3523,"Ġdatab":3524,"Ġlibr":3525,"ĠÑįÑĤÐ¾":3526,"Ġscience":3527,"Ġblo":3528,"ĠÐŁ":3529,"ively":3530,"Ã¡m":3531,"ello":3532,"tico":3533,"Ġsolution":3534,"Ġneeded":3535,"Ġtrabajo":3536,"ĠteorÃŃa":3537,"ĠPlymouth":3538,"zo":3539,"åĲ":3540,"Ġ&":3541,"ĠØ":3542,"Ġtur":3543,"unch":3544,"Ġgal":3545,"umb":3546,"Ġincor":3547,"Ġreview":3548,"Ġsituation":3549,"can":3550,"ml":3551,"err":3552,"Ġsido":3553,"Ġdas":3554,"uridad":3555,"Ġrele":3556,"Ġveh":3557,"ÑĢÑĥÐ³":3558,"Ġgrowth":3559,"ho":3560,"Ġtakes":3561,"Ã©cn":3562,"18":3563,"here":3564,"Ġaz":3565,"ÐµÑĩ":3566,"Ġsepar":3567,"ĠBell":3568,"Ġappear":3569,"QuÃ©":3570,"uit":3571,"Ġauf":3572,"Ġrul":3573,"ĠFren":3574,"the":3575,"ters":3576,"Ġtro":3577,"Ġlives":3578,"Ġfig":3579,"unter":3580,"urr":3581,"ilos":3582,"ands":3583,"ÑĥÐ´":3584,"Ġshare":3585,"elling":3586,"astic":3587,"Ġfeature":3588,"Ġproduction":3589,"Ġefficiency":3590,"Ġrestaur":3591,"çĶ¨":3592,"Ġencuent":3593,"ĠLo":3594,"ĠInt":3595,"uble":3596,"Ġdifferences":3597,"Ġeasier":3598,"Ġmagn":3599,"labor":3600,"ÙĬ":3601,"Ġeine":3602,"Ġcontact":3603,"ÐµÐ½ÑĤ":3604,"Ġcapital":3605,"Ġapplication":3606,"cÃ©":3607,"Ġlive":3608,"Ġlado":3609,"Ġfal":3610,"icio":3611,"eter":3612,"Ġusually":3613,"illo":3614,"Ġresist":3615,"angle":3616,"Ġfres":3617,"Ġinstr":3618,"Ġoptions":3619,"ĠApple":3620,"Ġrenewable":3621,"Ġcateg":3622,"Ġfall":3623,"Ġsequ":3624,"Ġprevent":3625,"Ġcontain":3626,"Ġtodas":3627,"Ġsubject":3628,"Ġpurpose":3629,"Ġpolitical":3630,"Ġpollution":3631,"âĸĪ":3632,"Ġtreat":3633,"Ġlower":3634,"ĠBut":3635,"ĠNor":3636,"ensiÃ³n":3637,"Ġentren":3638,"Ġequation":3639,"Ġdays":3640,"Ġenvironmental":3641,"Ã£":3642,"inas":3643,"Ã³s":3644,"Ġescrib":3645,"Ġyoung":3646,"aint":3647,"uegos":3648,"Ġphot":3649,"Ð¿ÑĢ":3650,"Ġexplore":3651,"issions":3652,"Ġindividuals":3653,"ĠmatemÃ¡tic":3654,"æĺ¯":3655,"uÃ©s":3656,"arÃŃa":3657,"acion":3658,"Ġvac":3659,"lying":3660,"izaje":3661,"Ġweather":3662,"Ġlikely":3663,"Ġprofes":3664,"Ġmove":3665,"Ġlimit":3666,"Script":3667,"jas":3668,"Ġtrees":3669,"Ġdass":3670,"Ġmakes":3671,"ĠSal":3672,"Ġforce":3673,"Ġescr":3674,"ĠDame":3675,"Ġtri":3676,"ÐµÐ·":3677,"Ġcampa":3678,"Ġmenos":3679,"Ġgreater":3680,"Ġarchitect":3681,"ĠFrench":3682,"cciÃ³n":3683,"ĠtÃ©cn":3684,"Ġeither":3685,"Ġgas":3686,"Ġcontext":3687,"cean":3688,"ibilidad":3689,"ĠGerm":3690,"Ġkn":3691,"Ġsince":3692,"Ġfundament":3693,"tos":3694,"Ġ.":3695,"Ġox":3696,"Ġedit":3697,"igual":3698,"oph":3699,"Ġsolutions":3700,"Ġprocesses":3701,"Ġsignifica":3702,"ĠespecÃŃfic":3703,"Ġclean":3704,"Ġceb":3705,"Ġpens":3706,"itable":3707,"Ġnombre":3708,"ilt":3709,"Ġconvert":3710,"Ġra":3711,"Ġdetermine":3712,"Ġbuy":3713,"ĠAPI":3714,"ĠEdit":3715,"Ġpress":3716,"Ġjo":3717,"ÐµÐ²":3718,"Ġobserv":3719,"Ġcolors":3720,"Ġlocation":3721,"Ġdesigned":3722,"Ġingredients":3723,"dro":3724,"dom":3725,"eza":3726,"è¿":3727,"atic":3728,"icial":3729,"Ġhope":3730,"ulo":3731,"Ġvector":3732,"ĠSome":3733,"ĠDr":3734,"iza":3735,"Ġcollect":3736,"ĠAnaly":3737,"Ġelectric":3738,"Ð¾Ð»ÑĮÐ·":3739,"ĠBeyoncÃ©":3740,"bl":3741,"fica":3742,"reen":3743,"leep":3744,"lection":3745,"ilo":3746,"ulate":3747,"ĠPe":3748,"Ġarm":3749,"Ġconflic":3750,"Ã¼r":3751,"Ġlabor":3752,"Ġsatisf":3753,"Ġaprendizaje":3754,"fo":3755,"hemat":3756,"atu":3757,"ison":3758,"ione":3759,"aken":3760,"Ġplants":3761,"ĠOver":3762,"Ġgrav":3763,"Ġmedio":3764,"ĠEspero":3765,"Ġmodelo":3766,"Ġdiscuss":3767,"Ġnormal":3768,"tar":3769,"Ġpage":3770,"Ġlat":3771,"Ġwide":3772,"oming":3773,"erse":3774,"Ġnear":3775,"Ġadvent":3776,"Ġfeeling":3777,"Ġstrategies":3778,"Ġcapacidad":3779,"ĠAfter":3780,"Ġcit":3781,"ĠmÃ©s":3782,"ĠCu":3783,"ĠHar":3784,"Ġinterpre":3785,"Ġstrength":3786,"Ġimportantes":3787,"Ġsetting":3788,"...":3789,"ÃŃsticas":3790,"Ġtomar":3791,"ĠTierra":3792,"Ġdisplay":3793,"Ġcomplete":3794,"Ġlength":3795,"ĠfÃŃsica":3796,"Ġcarbon":3797,"Ġrecursos":3798,"tom":3799,"Ġu":3800,"Ġdone":3801,"Ġpand":3802,"ising":3803,"icios":3804,"ĠAb":3805,"ĠCome":3806,"iful":3807,"Ã¡p":3808,"Ġparagraph":3809,"Ġextra":3810,"Ġaddition":3811,"ismo":3812,"Ġcasa":3813,"ä»¥":3814,"ĠÃºtil":3815,"ĠNotre":3816,"ched":3817,"side":3818,"icult":3819,"Ġvon":3820,"ĠLear":3821,"ief":3822,"Ġleft":3823,"Ġadecu":3824,"ught":3825,"Ġgoing":3826,"Ð½ÑĭÐ¹":3827,"ĠelectrÃ³n":3828,"ÃŃculas":3829,"Ġdescription":3830,"Ġassociated":3831,"Ġaument":3832,"Ġscript":3833,"Ġput":3834,"Ġconclus":3835,"ĠBar":3836,"Ġtraining":3837,"Ġprice":3838,"Ġserver":3839,"ĠÐ¿Ð¾Ð´":3840,"Ġemp":3841,"ditions":3842,"Ġauthor":3843,"Ġobtener":3844,"Ġprofessional":3845,"ler":3846,"num":3847,"ention":3848,"ĠSet":3849,"Ġcomen":3850,"Ġprogress":3851,"Ġcarr":3852,"Ġmusical":3853,"Ġbuilding":3854,"æĪĳ":3855,"Ġsiguiente":3856,"Ġmeasure":3857,"Ġconditions":3858,"ĠLet":3859,"Ġtres":3860,"Ġshop":3861,"Ġsolve":3862,"Ġblack":3863,"Ġlargest":3864,"Ġimproved":3865,"aft":3866,"Ġdeber":3867,"osa":3868,"Ġefic":3869,"ĠMon":3870,"ended":3871,"ieren":3872,"Ġbecame":3873,"Ġswitch":3874,"ĠCalcul":3875,"Ġfeedback":3876,"Cu":3877,"set":3878,"emic":3879,"Ġdisposit":3880,"ept":3881,"Ġstress":3882,"Ġaccording":3883,"Ġbasic":3884,"Ġpractice":3885,"ĠConstruct":3886,"Â¡":3887,"Äĩ":3888,"Ġale":3889,"aron":3890,"ises":3891,"icious":3892,"Ġhours":3893,"ĠÐŀ":3894,"Ġroom":3895,"obile":3896,"Ġactivity":3897,"ltim":3898,"Ġrelationships":3899,"Ġsaid":3900,"Ã£o":3901,"not":3902,"str":3903,"ĠaÃ±o":3904,"aria":3905,"Ġflex":3906,"Ã¡tica":3907,"istas":3908,"Ġapro":3909,"Ġentr":3910,"Ġposition":3911,"Ġincludes":3912,"ĠCompare":3913,"Ġextre":3914,"ĠJavaScript":3915,"Ġchildren":3916,"Ġtell":3917,"Ġsave":3918,"Ġbaj":3919,"olver":3920,"Ġviv":3921,"Ð¸ÑģÑĤ":3922,"ĠGu":3923,"ĠâĢĶ":3924,"ĠespaÃ±":3925,"Ġutilizando":3926,"ativa":3927,"Ġprincipal":3928,"Ġcampaign":3929,"Ġban":3930,"Ġgain":3931,"Ġemissions":3932,"ĠÐ¸Ð»Ð¸":3933,"ĠDesp":3934,"Ġvalid":3935,"Ġhabit":3936,"Ġresultado":3937,"Ġcosts":3938,"Ġmaterials":3939,"AI":3940,"js":3941,"Ġsn":3942,"itions":3943,"omes":3944,"Ġconduc":3945,"izes":3946,"Ġpercent":3947,"Ġjoy":3948,"Ġweight":3949,"Ġpeace":3950,"iano":3951,"Ġverb":3952,"Ġstrategy":3953,"Ġmomento":3954,"Ġtorch":3955,"Ġcaf":3956,"imal":3957,"Ġcalidad":3958,"Ġsociety":3959,"ÑĨÐ¸Ð¸":3960,"ĠWhitehead":3961,"Hola":3962,"cos":3963,"nen":3964,"Ġcambi":3965,"Ġeta":3966,"ÐµÑģÑĤ":3967,"Ġese":3968,"ĠLin":3969,"ugg":3970,"Ġclar":3971,"ĠÐ´ÑĢÑĥÐ³":3972,"Ġproceso":3973,"yal":3974,"Ġill":3975,"Ġtables":3976,"amp":3977,"cient":3978,"ĠMachine":3979,"orts":3980,"Ġimm":3981,"Ġprior":3982,"ĠNational":3983,"ĠÐ¸Ð½":3984,"ĠVer":3985,"Ġavoid":3986,"Ġissue":3987,"Ð½Ð¾ÑģÑĤÐ¸":3988,"Ġegg":3989,"â£¿":3990,"iddle":3991,"30":3992,"Un":3993,"ĠÑħ":3994,"ĠEr":3995,"uments":3996,"ĠMin":3997,"Ġcredit":3998,"Ġmanage":3999,"Ġinteres":4000,"oke":4001,"Ġmanagement":4002,"Ġvoice":4003,"Ġvegetables":4004,"Ġopportunities":4005,"tre":4006,"Ġpow":4007,"ĠPero":4008,"Ġreli":4009,"ĠEstos":4010,"Ġseguir":4011,"Ġcaused":4012,"Ġorganiz":4013,"Ġpasos":4014,"Ġarchivo":4015,"Ġthought":4016,"Ġreleased":4017,"ges":4018,"orial":4019,"Ġuns":4020,"etes":4021,"poon":4022,"Ġcosas":4023,"Ġbelieve":4024,"Ġcompanies":4025,"Ġtal":4026,"esis":4027,"Ġsil":4028,"iced":4029,"Ġforest":4030,"udo":4031,"Ġestable":4032,"Ġmez":4033,"Ġformat":4034,"Ġequipo":4035,"sel":4036,"Ġur":4037,"ĠTake":4038,"ĠApr":4039,"ÐµÐµ":4040,"Ġels":4041,"Ġstyle":4042,"Ġbright":4043,"Ġvariables":4044,"ĠdiseÃ±o":4045,"Ġmessage":4046,"sh":4047,"Â»":4048,"åŃ":4049,"Ġigual":4050,"Ġmys":4051,"ash":4052,"Ġwhe":4053,"Ġqual":4054,"ĠPres":4055,"Ġselect":4056,"Ġdispon":4057,"ierto":4058,"Ġamor":4059,"Ġblock":4060,"ĠFrance":4061,"Ġrelevant":4062,"âłĢâłĢ":4063,"What":4064,"åĴ":4065,"anas":4066,"omen":4067,"uce":4068,"Ġraz":4069,"Ġperspect":4070,"Ġchem":4071,"Ġafect":4072,"ĠÑįÑĤ":4073,"ĠPortugal":4074,"ĠArtificial":4075,"Ġacross":4076,"ball":4077,"inary":4078,"itation":4079,"icaciÃ³n":4080,"Ġhi":4081,"ĠÐ¡":4082,"cep":4083,"cias":4084,"Ġwhite":4085,"load":4086,"Ġgoal":4087,"Ġframe":4088,"Ġelect":4089,"ube":4090,"Ġrequires":4091,"Ġobjeto":4092,"Ġwritten":4093,"Ġherramientas":4094,"Ġfail":4095,"Ġfuel":4096,"ques":4097,"ĠprÃ¡ct":4098,"Ġporque":4099,"Ġcollabor":4100,"Ġ197":4101,"Ġespac":4102,"Ġnuevo":4103,"Ġcebol":4104,"ĠCalculate":4105,"åĴĮ":4106,"ba":4107,"bum":4108,"Ġmix":4109,"Ġunos":4110,"ĠDet":4111,"Ġgrup":4112,"Ð¸Ð´":4113,"Ġentender":4114,"Ġoverall":4115,"Ġcontrast":4116,"Ġintegral":4117,"Ġadvantages":4118,"Ġsustain":4119,"div":4120,"ken":4121,"âķ":4122,"ĠsÃŃ":4123,"ored":4124,"Ġhuev":4125,"ceite":4126,"andom":4127,"ocol":4128,"Ġseguridad":4129,"Ġaccuracy":4130,"ĠOutput":4131,"Ġtransportation":4132,"Ġtechnologies":4133,"Com":4134,"air":4135,"Ġslow":4136,"ĠÐ¸ÑģÐ¿":4137,"ÐºÐ¸":4138,"iante":4139,"ĥ½":4140,"Ġlif":4141,"ala":4142,"Ġface":4143,"Ġnamed":4144,"Ġvot":4145,"Ġselec":4146,"ude":4147,"ĠJap":4148,"ieron":4149,"Ġweek":4150,"ĠÐ¿Ð¾Ð»":4151,"ĠAll":4152,"ĠÑĨ":4153,"Ġbuena":4154,"Ġproblema":4155,"ĠConvert":4156,"Ġflu":4157,"Ġeconomy":4158,"Ġpiece":4159,"Ġprecis":4160,"ening":4161,"ivity":4162,"Ġpatr":4163,"Ġbooks":4164,"orno":4165,"Ġincluyendo":4166,"ĠInternet":4167,"Ġband":4168,"Ġhttps":4169,"Ġstop":4170,"alla":4171,"Ġteas":4172,"Ġcuer":4173,"ĠComm":4174,"Ġreducing":4175,"Ġcomputing":4176,"Ġassist":4177,"Ġdevice":4178,"Ġresponsible":4179,"Ġanalyze":4180,"Ġsquare":4181,"Ġdescubr":4182,"16":4183,"IN":4184,"ĠÙ":4185,"Ġti":4186,"Ġeth":4187,"Ġhid":4188,"imum":4189,"igur":4190,"ĠSc":4191,"Ġindic":4192,"Ġlargo":4193,"Ġinstit":4194,"Ġletter":4195,"Ġmantener":4196,"Ġcomponents":4197,"Ġquieres":4198,"Ġvehic":4199,"Ex":4200,"over":4201,"Ġnav":4202,"ĠrÃ¡p":4203,"Ġellos":4204,"chen":4205,"Ġloss":4206,"Ġmetaph":4207,"ĠsegÃºn":4208,"Ġdemand":4209,"Ġminutos":4210,"ĠÃ¡re":4211,"Ġidi":4212,"Ġpepper":4213,"ON":4214,"åľ":4215,"Ġsich":4216,"Ġdream":4217,"hel":4218,"Ġhot":4219,"ume":4220,"Ġesper":4221,"Ġtexto":4222,"ĠÂ«":4223,"Ġdiet":4224,"uerra":4225,"ĠRev":4226,"Ġrevolution":4227,"Ġexperiencia":4228,"Ġsaber":4229,"Ġlaw":4230,"iff":4231,"ĠcuÃ¡n":4232,"ÐºÐ°":4233,"Ġoffers":4234,"Ġhydro":4235,"Ġbeauty":4236,"Ġestructura":4237,"Ġinteligencia":4238,"ĠLearning":4239,"ply":4240,"Ġcient":4241,"Ġsor":4242,"Ġbud":4243,"Ġbird":4244,"eda":4245,"elo":4246,"ĠAfr":4247,"ÃŃcil":4248,"Ð°Ð³":4249,"ĠJul":4250,"Ġmedic":4251,"Ġvarios":4252,"Ġdesarroll":4253,"ĠIndia":4254,"Por":4255,"more":4256,"Ġ][":4257,"Ġenough":4258,"Ð¾Ñĩ":4259,"igos":4260,"Ġ198":4261,"Ġmathemat":4262,"Ġcombin":4263,"ĠniÃ±os":4264,"Ġdevices":4265,"Ġexperiences":4266,"Ar":4267,"time":4268,"ĠÑĤÐ¾":4269,"onic":4270,"onym":4271,"Ġsch":4272,"Ġma":4273,"ĠSim":4274,"istics":4275,"ocr":4276,"Ġleast":4277,"Ġjud":4278,"Ġadjust":4279,"Ġacid":4280,"ĠdifÃŃcil":4281,"ĠEspa":4282,"Ġcampo":4283,"Ġbelow":4284,"ĠSchwar":4285,"Ġvelocidad":4286,"ĠBuddh":4287,"SS":4288,"lin":4289,"tas":4290,"vas":4291,"ÅĽ":4292,"Ġ>":4293,"Ġwid":4294,"Ġbill":4295,"ĠAct":4296,"Ġvan":4297,"ĠSec":4298,"Ġalong":4299,"Ġaseg":4300,"ÑıÑĤ":4301,"Ġemerg":4302,"Ġconsult":4303,"ĠChrist":4304,"Ġ202":4305,"Ġideal":4306,"Ġfamous":4307,"Ġstudent":4308,"Ġstarted":4309,"Ġpassword":4310,"Ġcommunity":4311,"Ġeasily":4312,"Ã¶n":4313,"åı¯":4314,"Ġrecipe":4315,"ĠBritish":4316,"Ġdivid":4317,"Ġpad":4318,"Ġflo":4319,"Ġho":4320,"acias":4321,"iles":4322,"Ġseem":4323,"ago":4324,"Ġforms":4325,"egger":4326,"Ġphone":4327,"Ġvisit":4328,"ÐµÐºÑĤ":4329,"Ġaccurate":4330,"zenegger":4331,"Ġchallenges":4332,"ĠSchwarzenegger":4333,"'ll":4334,"lished":4335,"Ġtre":4336,"Ġecu":4337,"Ġhon":4338,"Ġisland":4339,"terior":4340,"ĠRo":4341,"ured":4342,"Ġacord":4343,"Ġconten":4344,"Ġbutter":4345,"Ġtemperatura":4346,"Ġgrande":4347,"Ġcells":4348,"Ġusuarios":4349,"data":4350,"uits":4351,"æĹ":4352,"eth":4353,"ĠRuss":4354,"Ġwaste":4355,"Ġclim":4356,"Ġconstruct":4357,"ĠÃł":4358,"Ġculture":4359,"Ġconcentr":4360,"Ġconnected":4361,"Ð½Ð¾ÑģÑĤÑĮ":4362,"Ġrecognition":4363,"Ġscientific":4364,"ä¾":4365,"Ġcm":4366,"ĠpÃ¡g":4367,"Ġball":4368,"eles":4369,"Ð°ÑİÑĤ":4370,"Ġappl":4371,"Ġgrad":4372,"ÐºÑĥ":4373,"Ġupd":4374,"Ġdebido":4375,"Ġfactores":4376,"Ġspeech":4377,"Ġmoment":4378,"15":4379,"QL":4380,"Ġdud":4381,"Ġmir":4382,"aced":4383,"owl":4384,"odos":4385,"Ġtrends":4386,"ĠInc":4387,"ĠÐ¿ÐµÑĢ":4388,"Ġcover":4389,"Ġsets":4390,"Ġconocido":4391,"Ġrunning":4392,"Ġachieve":4393,"Ġherramienta":4394,"TP":4395,"vo":4396,"Ġmic":4397,"Ġmuest":4398,"olÃ³g":4399,"Ġune":4400,"ĠAustr":4401,"ucle":4402,"abilidad":4403,"ÃŃo":4404,"Ġstates":4405,"ĠFrom":4406,"ĠestÃ©":4407,"ĠReg":4408,"Ġeleg":4409,"Ð°Ð¼Ð¸":4410,"Ġpalabras":4411,"ny":4412,"Ġpet":4413,"Ġdeath":4414,"ley":4415,"ilit":4416,"uth":4417,"ĠBo":4418,"Ġestim":4419,"Ġclase":4420,"Ġgraph":4421,"Ġcolumn":4422,"aily":4423,"Ġearly":4424,"Ġfunctions":4425,"uk":4426,"è®":4427,"ators":4428,"ela":4429,"ĠTom":4430,"Ġrain":4431,"Ġ24":4432,"Ġabove":4433,"Ġadditional":4434,"Ġcolores":4435,"ĠKing":4436,"ÐµÑĤÑģÑı":4437,"Ġ2008":4438,"Ġalguna":4439,"Ġhistor":4440,"Ġmulti":4441,"Ġdefinition":4442,"Ġmaintain":4443,"Ġescribir":4444,"14":4445,"ein":4446,"åº":4447,"Ġsleep":4448,"org":4449,"Ġled":4450,"Ġfarm":4451,"Ġtool":4452,"ĠHel":4453,"ips":4454,"Ġdish":4455,"bert":4456,"ionales":4457,"ological":4458,"Ġsalt":4459,"Ġlanguages":4460,"Ġorganization":4461,"Ġhardware":4462,"Ġbeautiful":4463,"Ġusuario":4464,"Ġtareas":4465,"yr":4466,"eso":4467,"Ġcum":4468,"Ġdraw":4469,"entro":4470,"Ġqui":4471,"ĠPart":4472,"Ġstars":4473,"Ġestado":4474,"Ġcontest":4475,"ticas":4476,"ĠÑģÐ¾":4477,"Ġregul":4478,"Ġblog":4479,"atoes":4480,"ÃŃcula":4481,"Ġfaster":4482,"ĠAssistant":4483,"Para":4484,"Ġcele":4485,"Ġpour":4486,"Ġhost":4487,"ĠIA":4488,"ays":4489,"Ġbegan":4490,"ĠFurther":4491,"apa":4492,"raft":4493,"Ġsentiment":4494,"Ġrock":4495,"Ġcultural":4496,"Ġeveryone":4497,"Ġrequired":4498,"Ġradi":4499,"ET":4500,"bit":4501,"ga":4502,"èĥ½":4503,"Ġchat":4504,"Ġgest":4505,"Ġgames":4506,"ĠCO":4507,"ucciÃ³n":4508,"Ġbeach":4509,"ĠBost":4510,"Ġneur":4511,"Ġcreativ":4512,"Ġaccept":4513,"Ġfrut":4514,"Ġcars":4515,"Ġplaneta":4516,"Ġhighest":4517,"ĠÃ¨":4518,"ĠmÃ©todo":4519,"â£¿â£¿":4520,"200":4521,"å°":4522,"æĸ":4523,"erÃŃa":4524,"urt":4525,"otec":4526,"ĠMay":4527,"ĠNet":4528,"uchar":4529,"ÑĭÐ²":4530,"ÑĭÑħ":4531,"print":4532,"ĠChar":4533,"Ġinstead":4534,"ĠÃ©l":4535,"Ġgroups":4536,"ĠcaracterÃŃsticas":4537,"ground":4538,"ties":4539,"Ãª":4540,"Ġmobile":4541,"Ġfilled":4542,"Ġgir":4543,"igen":4544,"ibli":4545,"Ġkann":4546,"Ġdatas":4547,"Ð¾Ð²Ð°ÑĤÑĮ":4548,"Ġpresident":4549,"Ġcomputers":4550,"Ġejemplos":4551,"Ã©rica":4552,"Ġpreguntas":4553,"Ġrobots":4554,"Ġtriangle":4555,"fl":4556,"ĠtÃ©r":4557,"Ġtalk":4558,"Ġmach":4559,"aster":4560,"Ġbur":4561,"Ġgases":4562,"Ġalbum":4563,"Ġstar":4564,"Ġstock":4565,"Ġnumer":4566,"Ġvalores":4567,"Ġvariedad":4568,"ĠÐ¼Ð¾Ð³":4569,"Ġautomat":4570,"Ġrights":4571,"NA":4572,"Ġ%":4573,"inese":4574,"ige":4575,"ĠSm":4576,"Ġaliment":4577,"ĠPark":4578,"ĠPuedes":4579,"Ġexact":4580,"ĠHum":4581,"Ġtrat":4582,"weet":4583,"Ġbuscar":4584,"Ġbuilt":4585,"Ġprimary":4586,"Ġmembers":4587,"ĠStep":4588,"html":4589,"Ġdatabase":4590,"ĠÐ¸ÑģÐ¿Ð¾Ð»ÑĮÐ·":4591,"AquÃŃ":4592,"house":4593,"len":4594,"uary":4595,"Ġtaken":4596,"Ġps":4597,"ĠWeb":4598,"Ġrap":4599,"Ã©ctr":4600,"Ġtra":4601,"ĠOb":4602,"Ġseries":4603,"Ġacces":4604,"ÐµÐ±":4605,"Ġempe":4606,"onstr":4607,"ĠiPod":4608,"ĠÐ¿ÑĢÐµÐ´":4609,"Ġlarger":4610,"Ð³ÑĢ":4611,"Ġassistant":4612,"Ġdistance":4613,"ĠniÃ±o":4614,"Ã¡tico":4615,"Ġinteresting":4616,"Ġgrandes":4617,"ef":4618,"ees":4619,"oon":4620,"Ġrom":4621,"Ġaceite":4622,"Ġtree":4623,"Ġciv":4624,"Ġcast":4625,"Ġwon":4626,"Ġinit":4627,"cios":4628,"ĠPot":4629,"aged":4630,"ĠGreat":4631,"illas":4632,"Ġincome":4633,"ongo":4634,"tics":4635,"ĠðŁĺ":4636,"Ġnecesidades":4637,"Ġsmaller":4638,"Ġstandard":4639,"Ġterr":4640,"Ġfelt":4641,"ĠAnalyze":4642,"Ġcebolla":4643,"25":4644,"Est":4645,"je":4646,"Ġaunque":4647,"orge":4648,"Ġfuego":4649,"ĠÐĺ":4650,"Ġenv":4651,"ÑĤÐµ":4652,"Ġneural":4653,"ĠserÃŃa":4654,"arts":4655,"ĠÐºÐ¾Ð½":4656,"Ġground":4657,"Ġprimer":4658,"ĠWindows":4659,"Ġchemical":4660,"')":4661,"cal":4662,"lÃ©s":4663,"zas":4664,"Ġcand":4665,"Ġlot":4666,"Ġhar":4667,"adamente":4668,"Ã³mo":4669,"Ġinterface":4670,"Ġequal":4671,"ministr":4672,"Ġinstal":4673,"Ġlegal":4674,"æľī":4675,"Ġadapt":4676,"ka":4677,"uas":4678,"vest":4679,"Ġsenc":4680,"ĠdÃŃas":4681,"anos":4682,"Ġlack":4683,"Ġlink":4684,"asons":4685,"Ġloyal":4686,"Ġdouble":4687,"Ġdecre":4688,"Ġtema":4689,"Ġrequest":4690,"Ġmonitor":4691,"Ġprojects":4692,"Ġerror":4693,"Ġmyster":4694,"17":4695,"hold":4696,"Ġcod":4697,"rel":4698,"Ġlic":4699,"uno":4700,"term":4701,"Ġshape":4702,"ella":4703,"ĠÐ¿Ð¾Ð¼":4704,"Ġamong":4705,"Ġrelativ":4706,"Ġbran":4707,"Ġdeveloping":4708,"frut":4709,"Ġsurface":4710,"Ġprinci":4711,"Ġmemory":4712,"Ġnetworks":4713,"Ġversion":4714,"Ġproyectos":4715,"Ġteaspoon":4716,".-":4717,"40":4718,"BC":4719,"equ":4720,"ffer":4721,"ians":4722,"mary":4723,"Ġ?":4724,"Ġtab":4725,"entar":4726,"Ġhold":4727,"iger":4728,"Ġcomfort":4729,"abor":4730,"ĠPerson":4731,"Ġdiferencia":4732,"Ġcenter":4733,"Ġuniverso":4734,"Ġempresa":4735,"Ġrules":4736,"Ġbudget":4737,"ĠEspaÃ±a":4738,"ĠBoston":4739,"hora":4740,"atos":4741,"Ġharm":4742,"ĠÐļ":4743,"olf":4744,"Ġvuel":4745,"ĠHay":4746,"gress":4747,"aza":4748,"resp":4749,"ĠCont":4750,"Ġliter":4751,"Ġlibrary":4752,"my":4753,"Ġtail":4754,"Ġcerc":4755,"Ġdial":4756,"Ġdaily":4757,"atas":4758,"rect":4759,"Ġlines":4760,"icient":4761,"Ġconv":4762,"ĠCateg":4763,"ĠSystem":4764,"Ġsuitable":4765,"unda":4766,"Ã±ar":4767,"ificaciÃ³n":4768,"azon":4769,"ĠLinux":4770,"ĠFurthermore":4771,"].":4772,"men":4773,"ÃŁ":4774,"Ġdam":4775,"Ġfast":4776,"Ġwild":4777,"Ġbowl":4778,"lege":4779,"Ġvoc":4780,"ĠWord":4781,"ĠSan":4782,"ĠelÃ©ctr":4783,"plica":4784,"ection":4785,"Ġemoc":4786,"ĠChinese":4787,"Ġoutside":4788,"Ġregion":4789,"ungen":4790,"Ġsociedad":4791,"Ġmilk":4792,"ĠÐ»Ñİ":4793,"Ġoccur":4794,"ĠTechnology":4795,",\"":4796,"It":4797,"blic":4798,"Ġtan":4799,"Ġocean":4800,"Ġang":4801,"ÑĤÐµÑĢ":4802,"Ġthird":4803,"ĠRem":4804,"ÑĥÑĢ":4805,"Ġregard":4806,"ĠðŁĳ":4807,"Ġhacia":4808,"Ġ2007":4809,"itude":4810,"zing":4811,"å¸":4812,"Ġtim":4813,"ĠmÃ¡":4814,"Ġmens":4815,"alf":4816,"Ġfit":4817,"Ġkil":4818,"Ġrelacion":4819,"Ġcommand":4820,"ĠStud":4821,"Ġcalor":4822,"Ġcentral":4823,"ĠAmerica":4824,"Ġuniverse":4825,"Ġcourse":4826,"Ġcalculate":4827,"ĠGPT":4828,"ĠespaÃ±ol":4829,"99":4830,"sp":4831,"è§":4832,"Ġsides":4833,"Ġdies":4834,"Ġpunto":4835,"Ġoportun":4836,"iter":4837,"Ġpros":4838,"Ġsoon":4839,"ĠWhy":4840,"Ġmanip":4841,"echan":4842,"arge":4843,"Ġage":4844,"Ð´Ð°":4845,"ĠÂ·":4846,"Ġpartir":4847,"Ġorganism":4848,"ĠPrin":4849,"ĠCompose":4850,"board":4851,"Ġexpression":4852,"Ġpurchase":4853,"Ġarchitecture":4854,"Ġfundamental":4855,"Ġcontenido":4856,"ĠtÃ©rmin":4857,"Ġwent":4858,"ĠÐĶ":4859,"Ð¾Ðµ":4860,"Ġrandom":4861,"Ġesa":4862,"stit":4863,"ĠDuring":4864,"ĠMark":4865,"ĠFin":4866,"ĠIng":4867,"ĠkÃ¶n":4868,"Ġdeliver":4869,"ÑħÐ¾Ð´":4870,"Ġprograms":4871,"Ġtheme":4872,"Ġaccom":4873,"Ġgetting":4874,"Ġlonger":4875,"Ġdepende":4876,"Ġtrabajar":4877,"know":4878,"oft":4879,"input":4880,"Ġcart":4881,"Ġtheory":4882,"edor":4883,"ĠEver":4884,"Ġstream":4885,"ffee":4886,"Ġ40":4887,"Ġcool":4888,"Ġevidence":4889,"Ġactive":4890,"erta":4891,"Ġpatient":4892,"atives":4893,"phas":4894,"Ġnecesario":4895,"Ġmount":4896,"Ġcultura":4897,"æķ":4898,"Ġaj":4899,"Ġca":4900,"Ġearth":4901,"ĠÐĲ":4902,"ivas":4903,"ÑģÐ»Ð¸":4904,"ĠMic":4905,"ĠMus":4906,"Ġfollows":4907,"Ġevitar":4908,"Ġmedida":4909,"ĠEstas":4910,"Ġpollo":4911,"ĠhabÃŃa":4912,"Ġdeben":4913,"Ġthroughout":4914,"ography":4915,"Ġaproxim":4916,"hen":4917,"ciÃ³":4918,"Ġeso":4919,"ĠMod":4920,"ibet":4921,"Ġcannot":4922,"raf":4923,"Ġsoluc":4924,"order":4925,"ĠÐ¾Ñģ":4926,"Ġhighly":4927,"Ð¸ÑĤÐµÐ»ÑĮ":4928,"Ġtopics":4929,"Ġtemperatures":4930,"Ġoperating":4931,"Ġtipos":4932,"produc":4933,"ĠEuropean":4934,"Ġdecided":4935,"Ġcitiz":4936,"Ġpercentage":4937,"hi":4938,"Ġcut":4939,"Ġdol":4940,"Ġtowards":4941,"ĠÐŃ":4942,"ete":4943,"ĠChe":4944,"ota":4945,"ĠEd":4946,"Ġpark":4947,"ĠFirst":4948,"Ġadject":4949,"Ġdiscr":4950,"Ġformas":4951,"Ġprograma":4952,"Ð½Ð¾Ðµ":4953,"ĠDef":4954,"Ġmisma":4955,"Ġprincipales":4956,"Ġabsor":4957,"________":4958,"Ġreceive":4959,"âĸĪâĸĪ":4960,"'.":4961,"Si":4962,"rÃŃas":4963,"ç»":4964,"reet":4965,"idge":4966,"ĠseÃ±":4967,"ĠBro":4968,"Ġclose":4969,"Ġemphas":4970,"Ġcount":4971,"Ġformal":4972,"Ġuseful":4973,"ĠopciÃ³n":4974,"Ġcorr":4975,"Ġhaya":4976,"Ġobjetivo":4977,"Ġvirus":4978,"Ġincluyen":4979,"Ġencuentra":4980,"An":4981,"ij":4982,"list":4983,"ðĿ":4984,"aling":4985,"itz":4986,"unk":4987,"Ġna":4988,"uted":4989,"Ġenab":4990,"Ġcomes":4991,"agram":4992,"Ġtrust":4993,"Ġresolver":4994,"alls":4995,"Ġobst":4996,"ĠÐºÐ¾Ð¼":4997,"posed":4998,"Ġbackground":4999,"Ġmiles":5000,"ĠÃºltim":5001,"www":5002,"Ġexercise":5003,"Ġinstructions":5004,"ĠpÃ¡gina":5005,"cla":5006,"uation":5007,"Ġdio":5008,"Ġlate":5009,"Ġoder":5010,"omic":5011,"Ġnada":5012,"ĠCor":5013,"irth":5014,"empt":5015,"Ð»Ñİ":5016,"echa":5017,"Ġpodemos":5018,"Ġplaying":5019,"Ġplayers":5020,"Ġexisting":5021,"ĠeconÃ³m":5022,"Ġrisks":5023,"Ġtrying":5024,"ĠAlgunos":5025,"ĠCuando":5026,"Ġcelebr":5027,"iantes":5028,"è¦":5029,"Ġich":5030,"Ġluego":5031,"Ġmerc":5032,"Ġfish":5033,"Ġbibli":5034,"Ġtown":5035,"imens":5036,"ellow":5037,"Ġreason":5038,"Ġking":5039,"fera":5040,"Ġrout":5041,"Ġopciones":5042,"Ġbuen":5043,"Ġsummer":5044,"Ġspeak":5045,"Ġdiseases":5046,"Ð¶Ðµ":5047,"Ġgusto":5048,"Ġaudience":5049,"ĠUniversity":5050,"ĠÑģÐ²Ð¾":5051,"Ġdegrees":5052,"Ġgalax":5053,"Ġinterpret":5054,"Ġwhether":5055,"\"?":5056,"body":5057,"rÃ¡":5058,"inks":5059,"ĠdÃ©":5060,"Ġdentro":5061,"Ġhora":5062,"ĠTibet":5063,"ĠCr":5064,"ĠGet":5065,"Ġimplic":5066,"ĠThree":5067,"Ð¸Ð±":5068,"Ġdoing":5069,"Ġdistancia":5070,"Ġconstant":5071,"Ġtesting":5072,"Ġpieces":5073,"Ġnavig":5074,"II":5075,"OM":5076,"ls":5077,"atory":5078,"Ġmist":5079,"Ġfear":5080,"acciÃ³n":5081,"Ġrepl":5082,"Ã³l":5083,"Ð°ÑĪ":5084,"ĠPo":5085,"ĠBu":5086,"ĠHer":5087,"ĠÐ²Ñģ":5088,"Ġhaber":5089,"Ġinspir":5090,"ativos":5091,"Ġcrisis":5092,"olving":5093,"Ġfilos":5094,"Ġprimera":5095,"Ġdesarrollar":5096,"Ġpromot":5097,"Ġstorage":5098,"ĠNorth":5099,"Ġcer":5100,"alia":5101,"Ġbreat":5102,"Ġconven":5103,"ÐµÑĪ":5104,"throp":5105,"Ġtrained":5106,"Ġfoot":5107,"Ġvarias":5108,"ï¼ļ":5109,"uerda":5110,"ä¸į":5111,"Ġfiles":5112,"Ġreflect":5113,"ĠinglÃ©s":5114,"Ġcontinue":5115,"Ġconceptos":5116,"Ġaccurately":5117,"Ġconsumption":5118,"Ġcourage":5119,"Ð¾Ð·Ð´":5120,"Ġconsequ":5121,"Ġcambio":5122,"Ġgarlic":5123,"Ġviol":5124,"Ġfresh":5125,"ĠmatemÃ¡ticas":5126,"?\"":5127,"pers":5128,"Ġsales":5129,"ili":5130,"Ġparts":5131,"Ġplata":5132,"Ġdisfrut":5133,"Ġengaging":5134,"Ġimagen":5135,"Ġsafe":5136,"ĠGermany":5137,"Ġshopping":5138,"è¦ģ":5139,"Los":5140,"Ġlived":5141,"uns":5142,"Ġqued":5143,"Ð°Ñħ":5144,"Ð½Ð¸Ðº":5145,"Ġ->":5146,"Ġheav":5147,"ellent":5148,"Ġpueda":5149,"iana":5150,"Ġdiagn":5151,"Ġbecoming":5152,"iction":5153,"Ð½ÑĭÐ¼":5154,"Ġamounts":5155,"Ġfrequ":5156,"Ġalmac":5157,"Ġhydrogen":5158,"Can":5159,"au":5160,"vil":5161,"å¯":5162,"Ġmechan":5163,"ĠÐ¢":5164,"Ġrise":5165,"ĠPlease":5166,"Ġextern":5167,"ĠLat":5168,"Ġprices":5169,"iera":5170,"Ġsentido":5171,"Ġheld":5172,"Ġcold":5173,"Ġmedium":5174,"Ġmediante":5175,"cont":5176,"Ġauth":5177,"Ġeventually":5178,"Ø§ÙĦ":5179,"ĠUsing":5180,"Ġrestaurant":5181,"inter":5182,"onal":5183,"Ġplease":5184,"anza":5185,"eler":5186,"umin":5187,"Ġonce":5188,"Ġinside":5189,"Ġcontra":5190,"Ð¸ÑĤÐµ":5191,"Ġmenor":5192,"Ġoperations":5193,"Ġtengo":5194,"ĠpaÃŃses":5195,"Ġpandemic":5196,"How":5197,"OS":5198,"Sure":5199,"hol":5200,"Ġfi":5201,"Ġfire":5202,"Ġwatch":5203,"Ġextract":5204,"Ġ--":5205,"ĠFl":5206,"Ġcomport":5207,"ĠcreaciÃ³n":5208,"ĠrelaciÃ³n":5209,"ĠYour":5210,"Ð°Ð½ÑĤ":5211,"ĠComput":5212,"Ġmatch":5213,"Ġhumano":5214,"Ġmoon":5215,"Ġplayer":5216,"Ġtips":5217,"Ġfuturo":5218,"Ġproyecto":5219,"ĠJapan":5220,"80":5221,"Th":5222,"ya":5223,"Ġsind":5224,"Ġpic":5225,"Ġfab":5226,"ĠSE":5227,"Ð°Ñİ":5228,"agement":5229,"ÑĢÐ¾Ñģ":5230,"ende":5231,"Ġorient":5232,"craft":5233,"ĠJo":5234,"gram":5235,"Ġcontains":5236,"Ġutilizan":5237,"Ð¾Ð¼Ñĥ":5238,"Ġscore":5239,"Ġremain":5240,"Ġremember":5241,"Ð¾Ð±Ñĭ":5242,"troduc":5243,"Ġsiguientes":5244,"\");":5245,"])":5246,"gu":5247,"å¥":5248,"orize":5249,"aring":5250,"Ġful":5251,"icar":5252,"oso":5253,"Ġnational":5254,"oluciÃ³n":5255,"Ġveces":5256,"ÃŃt":5257,"ÑĢÐ°Ð½":5258,"thing":5259,"ĠestÃ¡s":5260,"Ġdesired":5261,"vey":5262,"arian":5263,"ĠAng":5264,"Ġparty":5265,"Ġdebes":5266,"Ġassign":5267,"Ġsummary":5268,"Ġstarting":5269,"Ġattention":5270,"Ġexpand":5271,"Ġpapel":5272,"ä½ł":5273,"Ġchoice":5274,"Ġwarming":5275,"Ġprevious":5276,"ĠDespite":5277,"ĠcientÃŃfic":5278,"CÃ³mo":5279,"Hay":5280,"Puedes":5281,"Ġtut":5282,"Ġciencia":5283,"Ġsav":5284,"Ġpython":5285,"arc":5286,"Ġfer":5287,"eline":5288,"Ġrelease":5289,"Ġconect":5290,"Ġvill":5291,"Ġforward":5292,"emon":5293,"Ġsex":5294,"Ã©tica":5295,"Ġsho":5296,"ource":5297,"ĠÑģÐ¿":5298,"ÐºÐ¾":5299,"Ġposit":5300,"Ġinvolve":5301,"ĠiP":5302,"Ġejecut":5303,"Ġexisten":5304,"ĠPract":5305,"ĠAmazon":5306,"Ġessay":5307,"Ġvideos":5308,"Ġdetermined":5309,"Ġmeasures":5310,"Ġbalance":5311,"Ġsafety":5312,"Ġpainting":5313,"Ġamplia":5314,"ĠRevolution":5315,"Me":5316,"pire":5317,"ï¸":5318,"Ġdanger":5319,"Ġpie":5320,"iten":5321,"Ġdedic":5322,"Ġnicht":5323,"Ġlaws":5324,"ĠSub":5325,"emente":5326,"ĠEin":5327,"cipl":5328,"Ð½Ð¾Ð²":5329,"ump":5330,"Ġste":5331,"verb":5332,"Ġimpres":5333,"ĠWhile":5334,"Ã±as":5335,"Ġrecent":5336,"Ġdeclar":5337,"Ġ60":5338,"Ġservid":5339,"Ġmejores":5340,"Ġantib":5341,"ĠcomprensiÃ³n":5342,"Ġschools":5343,"Ġopportunity":5344,"Ġrepet":5345,"ĠRepublic":5346,"Ġcomenzar":5347,"Ġcambiar":5348,"ĠDeterm":5349,"Ġasegur":5350,"Ġempezar":5351,"ss":5352,"vi":5353,"Ġaus":5354,"Ġos":5355,"ised":5356,"Ġbaking":5357,"roz":5358,"ĠSw":5359,"Ġthing":5360,"Ġord":5361,"ĠForm":5362,"ĠInter":5363,"Ġjuegos":5364,"Ġcolon":5365,"Ġinvent":5366,"Ġagreg":5367,"Ġanything":5368,"Ġinsights":5369,"Ġequil":5370,"Ġdeveloped":5371,"Ġderiv":5372,"Ġprompt":5373,"ĠaplicaciÃ³n":5374,"Ð¸Ð·Ð½":5375,"Ġjoin":5376,"Ġplataform":5377,"ï¸ı":5378,".,":5379,"iot":5380,"ring":5381,"åĩ":5382,"esiÃ³n":5383,"Ġdyn":5384,"Ġfat":5385,"estic":5386,"ĠWars":5387,"otos":5388,"ÑģÐ»":5389,"Ġexpres":5390,"Ã©d":5391,"aper":5392,"Ġhecho":5393,"Ġacerc":5394,"Ãºblic":5395,"arias":5396,"Ġinclus":5397,"Ġsix":5398,"Ġcorresp":5399,"Ġcross":5400,"Ġmovimiento":5401,"Ġpropied":5402,"Ġmasa":5403,"Ġinternational":5404,"Ġlittle":5405,"Ġincorpor":5406,"Ġbillion":5407,"Ġsart":5408,"Ġwoman":5409,"Ġvect":5410,"ĠSov":5411,"ĠSouth":5412,"ĠestÃ©n":5413,"ienta":5414,"ÐµÐ¿":5415,"Ġcarne":5416,"move":5417,"Ġhumanos":5418,"Ġambiente":5419,"Ġmagical":5420,"Ġbroad":5421,"Ġengineering":5422,"ĠTwo":5423,"Ġfair":5424,"Ġpackage":5425,"Ġadventure":5426,"Ġeggs":5427,"Ġreliable":5428,"iado":5429,"Ġwer":5430,"Ġofficial":5431,"Ġhaz":5432,"igu":5433,"Ġrule":5434,"ĠGod":5435,"ĠalgÃºn":5436,"Ġcomplet":5437,"Ġresulting":5438,"Ġlibros":5439,"Ġdemonstr":5440,"Ġlimited":5441,"Ġinvolved":5442,"ĠÃ¡r":5443,"Ġpredictions":5444,"Ġfuente":5445,"Ġmetaphor":5446,"Ġbibliotec":5447,"CT":5448,"ID":5449,"St":5450,"bar":5451,"ban":5452,"uff":5453,"ype":5454,"Ġult":5455,"enciÃ³n":5456,"Ġpen":5457,"Ġtook":5458,"quir":5459,"quitect":5460,"oles":5461,"uts":5462,"ĠCat":5463,"Ġriver":5464,"Ġ21":5465,"Ġju":5466,"Ġadvert":5467,"Ġphilos":5468,"Ð°Ð½Ð¸Ñı":5469,"ĠÑĤÑĢ":5470,"Ġ2009":5471,"ission":5472,"Ġdetall":5473,"Ġnaturaleza":5474,"Ġimpacto":5475,"amento":5476,"Ġmeaningful":5477,"Ġsequence":5478,"ĠPresident":5479,"xide":5480,"èĢ":5481,"Ġcel":5482,"Ġsaw":5483,"isiÃ³n":5484,"Ġfight":5485,"Ġanthrop":5486,"ids":5487,"Ġgather":5488,"ĠSaint":5489,"Ġproced":5490,"orte":5491,"Ġprime":5492,"Ġattract":5493,"ference":5494,"ĠgrÃ¡":5495,"ĠÐ¸Ð¼":5496,"ĠIts":5497,"Ġcub":5498,"Ġindex":5499,"Ġ193":5500,"phone":5501,"adora":5502,"Ġpersonalized":5503,"Ġconcern":5504,"Ġcirc":5505,"ĠdespuÃ©s":5506,"Ġpolicy":5507,"ĠcafÃ©":5508,"Ġcuerpo":5509,"Ġcandid":5510,"Ġcitizens":5511,"aim":5512,"vant":5513,"ych":5514,"éĹ":5515,"Ġcot":5516,"Ġpob":5517,"reci":5518,"imos":5519,"Ġgot":5520,"Ġcondic":5521,"Ġquien":5522,"agen":5523,"Ġastr":5524,"apes":5525,"Ġestilo":5526,"illi":5527,"Ġdesaf":5528,"Ġplastic":5529,"Ġadop":5530,"ÑĭÐ¹":5531,"Ġcloth":5532,"Ġinterf":5533,"ticos":5534,"Ġfeet":5535,"Ġfunciones":5536,"Ð¾Ð»Ð½":5537,"clude":5538,"ÑĪÐµ":5539,"Ġsurv":5540,"ĠÃ¼":5541,"Ã¨n":5542,"Ġmilit":5543,"Ġchanged":5544,"Ġhyp":5545,"Ġfuerza":5546,"Ġcategories":5547,"Ġdispositivos":5548,"éĢ":5549,"acing":5550,"Ġrect":5551,"abilities":5552,"Ġstir":5553,"Ġorg":5554,"ocks":5555,"Ġestoy":5556,"Ġestaba":5557,"ĠsoluciÃ³n":5558,"Ġprogramas":5559,"Ð·Ñĭ":5560,"ĠÐ·Ð°":5561,"Ġguid":5562,"Ġpromote":5563,"Ġtecnolog":5564,"Ġverdad":5565,"Ġverduras":5566,"âĢįðŁ":5567,"Ġalmacen":5568,"Here":5569,"å¼":5570,"Ġcin":5571,"Ġsint":5572,"arlo":5573,"ĠmÃ³":5574,"ĠfÃ¼r":5575,"Ġwond":5576,"Ġeating":5577,"etr":5578,"ership":5579,"Ġalta":5580,"iste":5581,"ÑĥÐ¼":5582,"iko":5583,"Ġcoffee":5584,"Ġstrugg":5585,"Ġactions":5586,"alsa":5587,"Ġdrink":5588,"Ġcauses":5589,"ĠdirecciÃ³n":5590,"Ġ2010":5591,"Ġderech":5592,"Ġdepending":5593,"Ġconcepts":5594,"book":5595,"Ġchanging":5596,"Ġchoose":5597,"Ġplatforms":5598,"Ġfamiliar":5599,"ĠÐºÐ¾ÑĤÐ¾ÑĢÑĭÐµ":5600,"ĠHarry":5601,"ocolate":5602,"ĠÐ¼Ð¾Ð³ÑĥÑĤ":5603,"ĠsartÃ©n":5604,"iu":5605,"ãĤ":5606,"Ġcities":5607,"arÃ¡":5608,"ask":5609,"osp":5610,"Ġense":5611,"Ġquery":5612,"ĠquÃŃm":5613,"ĠSci":5614,"antic":5615,"ager":5616,"ĠLond":5617,"icha":5618,"Ġclave":5619,"Ġamigos":5620,"enses":5621,"lick":5622,"Ġeffort":5623,"Ġpassage":5624,"Ġattempt":5625,"Ġdependiendo":5626,"Ġbread":5627,"ufact":5628,"Ġjugadores":5629,"Ġadvantage":5630,"vised":5631,"ĠinvestigaciÃ³n":5632,"Ġquantum":5633,"Ġagricult":5634,"Ġconflict":5635,"Ġespacio":5636,"Ġsustainable":5637,"ĠIngred":5638,"();":5639,"Ùħ":5640,"ÙĨ":5641,"heit":5642,"Ġpon":5643,"Ġmut":5644,"Ġod":5645,"alada":5646,"ostrar":5647,"Ġtour":5648,"ĠÐľ":5649,"ams":5650,"ĠServ":5651,"Ġstories":5652,"ĠHis":5653,"Ġestre":5654,"Ġsoy":5655,"Ġprem":5656,"Ġroad":5657,"Ġcuanto":5658,"Ġbox":5659,"Ġadvice":5660,"Ġremind":5661,"Ġcommunicate":5662,"Ġmateriales":5663,"Ġfocused":5664,"Ġproperties":5665,"Ġconversation":5666,"Ġmeeting":5667,"ÐµÐ³Ð¾":5668,"Ì¦Ì¦Ì¦Ì¦Ì¦Ì¦Ì¦Ì¦":5669,"Ġeyes":5670,"Ġacordes":5671,"pic":5672,"æ³":5673,"ĠaÃ±":5674,"Ġtort":5675,"Ġpun":5676,"room":5677,"Ġhip":5678,"Ã¡r":5679,"Ġheight":5680,"Ġsentir":5681,"Ġformula":5682,"Ġrelax":5683,"ÐµÐ½Ð¸":5684,"azo":5685,"Ġhelping":5686,"rosoft":5687,"Ð¸Ð¼ÐµÑĢ":5688,"Ġdecisiones":5689,"ossil":5690,"Ġorigin":5691,"Ġtenga":5692,"Ġdetails":5693,"ĠIntelligence":5694,"Ġorganizations":5695,"åı¯ä»¥":5696,"ĠDetermine":5697,"60":5698,"åĨ":5699,"Ġtama":5700,"Ġbank":5701,"acer":5702,"Ġnp":5703,"imize":5704,"Ġgiving":5705,"eters":5706,"ĠSeg":5707,"ĠcomÃºn":5708,"Ġalt":5709,"cha":5710,"Ġloop":5711,"ĠJan":5712,"Ġtwe":5713,"Ġproducto":5714,"Ġactividades":5715,"Ġconocimiento":5716,"Ġpractices":5717,"Ġcharacteristics":5718,"Ġnuevas":5719,"ĠconstrucciÃ³n":5720,"efficient":5721,"Ġbajo":5722,"selves":5723,"Ġcorrespond":5724,"LE":5725,"pass":5726,"inct":5727,"Ġoven":5728,"icks":5729,"Ġwood":5730,"omas":5731,"used":5732,"Ġgold":5733,"igr":5734,"ĠMat":5735,"Ġtelev":5736,"Ġspir":5737,"ÐµÐ¶":5738,"aja":5739,"ĠChange":5740,"Ġ80":5741,"Ġscen":5742,"example":5743,"Ġpaso":5744,"Ġsociales":5745,"Ġlograr":5746,"Ġtomate":5747,"Ð¸ÑģÐ»":5748,"Ã¡lisis":5749,"Ġnuestro":5750,"Ġincreasingly":5751,"Ġconclusion":5752,"ĠÃ¡rbol":5753,"AN":5754,"Te":5755,"ky":5756,"ng":5757,"td":5758,"á»":5759,"encial":5760,"Ġrh":5761,"Ġprecio":5762,"Ġgoods":5763,"Ð²Ð»Ñı":5764,"ĠStart":5765,"Ġrealidad":5766,"Ġ2011":5767,"Ġgenerally":5768,"Ġlogo":5769,"elsius":5770,"Ġcomunes":5771,"entral":5772,"Ġregularly":5773,"ĠResearch":5774,"Ø§Ø":5775,"ĠUniversal":5776,"Ġemployees":5777,"Ġeye":5778,"!\"":5779,"Ġajust":5780,"iny":5781,"Ġwr":5782,"ingu":5783,"Ġhom":5784,"Ġgan":5785,"ĠSup":5786,"ĠIh":5787,"ĠBus":5788,"ĠBoth":5789,"ogue":5790,"Ġserve":5791,"Ġfruits":5792,"erge":5793,"Ġreducir":5794,"Ġsched":5795,"ĠHealth":5796,"Ġalgorit":5797,"Ġlibre":5798,"Ġ2013":5799,"Ġsugar":5800,"Ġinfluenc":5801,"Ġopinion":5802,"Ġexpected":5803,"known":5804,"ĠLondon":5805,"rÃ³":5806,"range":5807,"Ðļ":5808,"Ġpant":5809,"isa":5810,"Ġwie":5811,"imo":5812,"Ġguerra":5813,"Ġcondition":5814,"Ġquer":5815,"ĠThat":5816,"Ġalred":5817,"Ġsean":5818,"isten":5819,"ĠBre":5820,"Ġ22":5821,"ograf":5822,"ĠOther":5823,"Ġapar":5824,"ĠThen":5825,"Ġentire":5826,"Ġgenerar":5827,"Ġhablar":5828,"Ġscale":5829,"Ġnecesitas":5830,"ÑīÐµÑģÑĤÐ²":5831,"Ġcompared":5832,"Ġgrupo":5833,"100":5834,"==":5835,"Las":5836,"cional":5837,"down":5838,"anges":5839,"Ġja":5840,"Ġ=>":5841,"raz":5842,"artment":5843,"ielo":5844,"Ġchallenge":5845,"Ġbatter":5846,"Ġdomin":5847,"Ġespecially":5848,"Ġconstruir":5849,"Ġmachines":5850,"ĠkÃ¶nnen":5851,"Ġdiscrimin":5852,"Ġequilibr":5853,"hop":5854,"ki":5855,"Ġub":5856,"Ġtall":5857,"Ġsweet":5858,"ionar":5859,"Ġenf":5860,"ĠTell":5861,"ĠChat":5862,"aban":5863,"Ġiter":5864,"ĠIntroduc":5865,"Ġload":5866,"ĠÐ½Ð°Ð¿":5867,"Ġwhole":5868,"Ġallowed":5869,"Ġmencion":5870,"Ġbenefit":5871,"Ġbelief":5872,"Ġcareer":5873,"ĠbÃ¡sicos":5874,"Ġllegar":5875,"Ġentrada":5876,"Ġmezcla":5877,"Ġhuevos":5878,"Ġmysterious":5879,"Ġservidor":5880,"'ve":5881,"Press":5882,"ries":5883,"åĽ":5884,"Ġcier":5885,"itam":5886,"Ġfossil":5887,"Ġbirth":5888,"eds":5889,"rote":5890,"ached":5891,"Ġning":5892,"ĠCSS":5893,"ĠSant":5894,"Ġcomida":5895,"Ġones":5896,"ÑĥÐ¶":5897,"Ġarte":5898,"Ġarquitect":5899,"Ġsports":5900,"ĠJuan":5901,"poons":5902,"Ġpatatas":5903,"Ġsimpl":5904,"Ġreality":5905,"ĠpartÃŃculas":5906,"Ġavanz":5907,"Ġ2006":5908,"Ġadvanced":5909,"Ġconfigur":5910,"Ġcultures":5911,"ĠSocial":5912,"Ġanalyzing":5913,"Ġhappy":5914,"ĠCoun":5915,"Ġmorning":5916,"Ġdeseas":5917,"ĠAutom":5918,"ĠGeorge":5919,"âĢįâ":5920,"Ġazul":5921,"Ġbirds":5922,"11":5923,"45":5924,"LP":5925,"life":5926,"xi":5927,"Ġsmo":5928,"itat":5929,"Ġbarr":5930,"Ġnoc":5931,"utes":5932,"ecciÃ³n":5933,"Ġusage":5934,"ÑĢÐ°":5935,"ĠDon":5936,"izado":5937,"ĠBat":5938,"ĠRob":5939,"Ð»ÑĮ":5940,"Ġtele":5941,"Ġcreature":5942,"ĠThrough":5943,"Ġsold":5944,"ä¸ª":5945,"Ġfactor":5946,"Ġhandle":5947,"Ġautomate":5948,"label":5949,"Ġexcellent":5950,"Ġthinking":5951,"ĠpelÃŃcula":5952,"Ġfields":5953,"ombres":5954,"Ġjugador":5955,"Ġpreferences":5956,"Ġvideoj":5957,"ĠpequeÃ±o":5958,"ĠAcc":5959,"Ġnutr":5960,"Ġlifest":5961,"Ġsost":5962,"reh":5963,"Ġwa":5964,"Ġcomien":5965,"ĠDin":5966,"ĠFinal":5967,"âĢĵ":5968,"Ġrecon":5969,"arga":5970,"ienda":5971,"ĠÐ¾Ð¿":5972,"ĠðŁ§":5973,"Ã¡nd":5974,"Ġdrag":5975,"Ġfinding":5976,"Ġsupuesto":5977,"Ġsurround":5978,"Ġexiste":5979,"Ġprimero":5980,"Ġconnection":5981,"Ġsuperfic":5982,"Ġlabel":5983,"Ġaudio":5984,"ĠÐ±ÑĭÑĤÑĮ":5985,"Ġfigure":5986,"Ġseleccion":5987,"ĠCategorize":5988,"Ġconsequences":5989,"Ġauthent":5990,"AR":5991,"right":5992,"uien":5993,"å·":5994,"eral":5995,"ally":5996,"Ġbor":5997,"Ġhalf":5998,"Ġyellow":5999,"iden":6000,"Ġlaunch":6001,"Ġvibr":6002,"ĠSer":6003,"ÑĤÐ¾Ð±Ñĭ":6004,"Ġalco":6005,"Ġasist":6006,"Ġheard":6007,"ogram":6008,"Ġcompart":6009,"Ġjugar":6010,"Ġgratu":6011,"loud":6012,"culo":6013,"Ġscene":6014,"Ġejerc":6015,"Ð³Ð¾":6016,"Ġcheese":6017,"Ġanalytics":6018,"Ġoptimize":6019,"Ġindependent":6020,"Ġsymbol":6021,"Ġalternative":6022,"Ġconjunto":6023,"Ġfuels":6024,"ĠMicrosoft":6025,"75":6026,"AS":6027,"Hello":6028,"lines":6029,"uar":6030,"zt":6031,"Ġsell":6032,"Ġfem":6033,"Ġbad":6034,"adem":6035,"Ġjuntos":6036,"seg":6037,"ĠÐ²Ð°Ð¼":6038,"irect":6039,"oking":6040,"Ġalguien":6041,"ĠVal":6042,"ĠVis":6043,"ĠUnion":6044,"Ġfoods":6045,"Ġmovement":6046,"Ġinfin":6047,"Ġremov":6048,"Ã©ric":6049,"Ġinvestment":6050,"Ġterrit":6051,"Ġcircu":6052,"Ġinfluence":6053,"Ġefecto":6054,"Ġvehicles":6055,"ĠWordPress":6056,"Ġdioxide":6057,"Ġmercado":6058,"32":6059,"AT":6060,"Con":6061,"bor":6062,"mod":6063,"pan":6064,"Ġtard":6065,"Ġcry":6066,"Ġmac":6067,"Ġhoy":6068,"oluc":6069,"Ġgam":6070,"ĠCustom":6071,"ÃŃos":6072,"ags":6073,"ĠDav":6074,"ĠDie":6075,"ÑĥÐµÑĤ":6076,"Ġhelpful":6077,"Ġ195":6078,"fully":6079,"Ġtemas":6080,"ĠExcel":6081,"Ġtransl":6082,"ĠArg":6083,"ĠReal":6084,"Ġsino":6085,"Ġoption":6086,"verse":6087,"genes":6088,"Ġconcise":6089,"Ġshows":6090,"ĠSoft":6091,"Ġcomunidad":6092,"Ġfreed":6093,"Ð½Ð°Ñı":6094,"Ġrecib":6095,"Ġestablish":6096,"ĠtÃ©cnicas":6097,"ĠprÃ¡ctica":6098,"åľ¨":6099,"ä¾ĭ":6100,"Ġloyalty":6101,"ĠEvery":6102,"Ġsoluciones":6103,"ĠSoviet":6104,"Ġwerden":6105,"64":6106,"https":6107,"iers":6108,"unca":6109,"Ġnucle":6110,"etas":6111,"ĠAir":6112,"Ġvast":6113,"ĠPa":6114,"Ġthreat":6115,"Ġplaces":6116,"Ġserie":6117,"Ġemple":6118,"Ġroot":6119,"ously":6120,"Ġcalcular":6121,"ĠÑĢÐ°Ñģ":6122,"Ġleader":6123,"ĠpodrÃŃan":6124,"Ġbrows":6125,"Ġdestac":6126,"ready":6127,"Ġproporcionar":6128,"ĠPeople":6129,"Ġlatest":6130,"ĠApril":6131,"Ġfabric":6132,"python":6133,"ycl":6134,"Ġcatch":6135,"Ġwel":6136,"Ġded":6137,"Ġbit":6138,"Ġyet":6139,"add":6140,"amples":6141,"Ġseek":6142,"ĠDay":6143,"Ġtrip":6144,"Ġsolving":6145,"Ġcuadr":6146,"Ġcommit":6147,"ĠÐ¼Ð½":6148,"Ġambos":6149,"ĠSelect":6150,"Ġpassion":6151,"Ġcomprender":6152,"Ġthoughts":6153,"ĠAgreg":6154,"Ġdisponibles":6155,"Ġchatbot":6156,"ĠÃ¼ber":6157,"ĠtamaÃ±o":6158,"Ġalrededor":6159,"Ġlifestyle":6160,"13":6161,"uv":6162,"Ġtun":6163,"Ġce":6164,"Ġcame":6165,"Ġsand":6166,"Ġwrote":6167,"inger":6168,"ĠgÃ©n":6169,"iga":6170,"ĠWas":6171,"ĠSpect":6172,"Ġalcan":6173,"ĠEg":6174,"ĠEach":6175,"umber":6176,"aga":6177,"Ġparam":6178,"Ġtrain":6179,"cry":6180,"ĠJune":6181,"Ġ192":6182,"Ġapply":6183,"Ġvariar":6184,"Ġboard":6185,"Ġdiab":6186,"anguage":6187,"Ġproductos":6188,"ÑĨÐ¸Ñı":6189,"ĠÐ±ÑĥÐ´":6190,"ĠFrÃ©d":6191,"Ġwanted":6192,"äºº":6193,"ĠIsland":6194,"ĠCanada":6195,"ĠnÃºmeros":6196,"PodrÃŃas":6197,"Ġfamilia":6198,"Ġmaximum":6199,"Ġmonths":6200,"ĠHelena":6201,"Ġphilosoph":6202,"ĠFrÃ©dÃ©ric":6203,"::":6204,"AM":6205,"Yes":6206,"date":6207,"hal":6208,"pare":6209,"ygen":6210,"çŃ":6211,"Ġhol":6212,"uto":6213,"elen":6214,"Ġlapt":6215,"ĠTur":6216,"Ġ23":6217,"ĠOur":6218,"Ġadult":6219,"Ġmanual":6220,"Ġclic":6221,"Ãºr":6222,"Ġconsists":6223,"Ġproduced":6224,"ÐµÐ»Ð¾Ð²":6225,"Ð¾ÑĢÐ¼":6226,"Ġ2015":6227,"Ġrefiere":6228,"Ġbeneficial":6229,"Ġautomation":6230,"ĠPlay":6231,"Ġindustrial":6232,"Ġerrors":6233,"Ġcompetition":6234,"ĠSuper":6235,"Ġfalse":6236,"Ġpatrones":6237,"ĠecuaciÃ³n":6238,"Ġcumpl":6239,"Ġfilosof":6240,"Al":6241,"RE":6242,"gar":6243,"Äģ":6244,"ĠØ§ÙĦ":6245,"Ġann":6246,"Ġbed":6247,"roup":6248,"Ġella":6249,"antas":6250,"Ð½Ñı":6251,"Ð½ÑĥÑİ":6252,"Ġstorm":6253,"ĠDog":6254,"ĠMax":6255,"ĠHaz":6256,"Ġcompare":6257,"Ġcompreh":6258,"Ġchocolate":6259,"ĠatenciÃ³n":6260,"Ð¸Ð³":6261,"Ġcoord":6262,"Ġintens":6263,"Ġhabl":6264,"Ġpresence":6265,"Ã¡nica":6266,"Ġincred":6267,"Ð½ÑĭÐ¼Ð¸":6268,"Ġimproving":6269,"Ġguard":6270,"Ð»Ð¸Ñĩ":6271,"Ġgenetic":6272,"ĠRecuerda":6273,"Ġsynonym":6274,"ĠcontinuaciÃ³n":6275,"ĠtÃ©rminos":6276,"Ġice":6277,"Ġauch":6278,"Ġancient":6279,"ache":6280,"amic":6281,"Ġcond":6282,"Ð°ÑĨÐ¸Ð¸":6283,"oto":6284,"ĠLee":6285,"Ġlost":6286,"Ġpron":6287,"Ġround":6288,"ĠÑģÐ°Ð¼":6289,"ords":6290,"Ð²ÐµÑĤ":6291,"Ġappreci":6292,"culos":6293,"Ġ<<":6294,"icken":6295,"Ġreally":6296,"rought":6297,"friend":6298,"Ġmemoria":6299,"ĠpodrÃŃas":6300,"ĠParis":6301,"Ġprivate":6302,"Ġgravit":6303,"Ġswitches":6304,"ĠBuddhism":6305,"Ġmuestra":6306,"ĠSpectre":6307,"To":6308,"cin":6309,"like":6310,"ror":6311,"å¾":6312,"æĢ":6313,"ĠaÃºn":6314,"ares":6315,"ĠlÃ³g":6316,"Ġfix":6317,"Ġeat":6318,"rog":6319,"etro":6320,"Ġremove":6321,"Ġenfr":6322,"ucciones":6323,"tres":6324,"ceed":6325,"Ġelimin":6326,"ĠMal":6327,"ĠBig":6328,"Ġsufic":6329,"Ġmanufact":6330,"---":6331,"Ġconserv":6332,"ughter":6333,"aturales":6334,"Ġbrand":6335,"Ġsecret":6336,"Ġtransfer":6337,"ativas":6338,"pected":6339,"Ġsmart":6340,"ĠÑĩÑĤÐ¾Ð±Ñĭ":6341,"Ġambient":6342,"Ġingen":6343,"llas":6344,"ĠdiseÃ±":6345,"Ġdisease":6346,"ahren":6347,"Ð¾Ð»ÑĮÐºÐ¾":6348,"Ġready":6349,"Ġestrateg":6350,"Ġcambios":6351,"Ġllamado":6352,"Ġresponder":6353,"Ġemotions":6354,"Ġleyes":6355,"Ġcollaboration":6356,"Ġhidden":6357,"Ġacceso":6358,"Ġprinciples":6359,"ĠtecnologÃŃas":6360,"Ġsuperficie":6361,"Ġscr":6362,"Ġdens":6363,"arter":6364,"Ġanterior":6365,"Ġecos":6366,"adian":6367,"Ġreb":6368,"ĠSon":6369,"ĠSir":6370,"udden":6371,"ĠLove":6372,"illing":6373,"Ġshad":6374,"Ġdiscipl":6375,"ierno":6376,"Ġsolic":6377,"ĠÑģÐ¾Ð·Ð´":6378,"Ġstrange":6379,"ondo":6380,"ĠAlong":6381,"Ġ2020":6382,"ĠÑĪ":6383,"uerzo":6384,"Ð¾Ð³ÑĢ":6385,"ocker":6386,"Ġeffectively":6387,"Ġpossess":6388,"geno":6389,"itudes":6390,"Ġoptimization":6391,"Ġrecognize":6392,"ĠOrgan":6393,"Ġgreenhouse":6394,"Ġelectricity":6395,"ĠOverall":6396,"Ġelegir":6397,"Ġfrutas":6398,"Ġdataset":6399,"ĠÐŃÑĤÐ¾":6400,"ĠScience":6401,"':":6402,"De":6403,"PT":6404,"éľ":6405,"Ġ!":6406,"Ġtens":6407,"Ġpuntos":6408,"ĠpÃºblic":6409,"isl":6410,"ecer":6411,"Ġreact":6412,"ĠCada":6413,"Ð°Ñĩ":6414,"Ġcomer":6415,"iforn":6416,"Ġalready":6417,"chain":6418,"ipe":6419,"anging":6420,"veys":6421,"Ġenter":6422,"Ġroll":6423,"Ð¾Ð»ÐµÐµ":6424,"Ġmodelos":6425,"Ġtaste":6426,"Ġvision":6427,"Ġconsiderar":6428,"Ġfacts":6429,"Ġsummar":6430,"ĠÑĥÑĩ":6431,"Ġdestr":6432,"Ġencontr":6433,"Ġjobs":6434,"Ġgrammar":6435,"Ġprofesional":6436,"Ġethical":6437,"Ġimplications":6438,"ifornia":6439,"35":6440,"han":6441,"kt":6442,"æĿ":6443,"éĿ":6444,"include":6445,"Ġcases":6446,"Ġdich":6447,"Ġlen":6448,"Ġmec":6449,"Ġmuer":6450,"Ġmiddle":6451,"itan":6452,"Ġhous":6453,"urch":6454,"ĠÐĳ":6455,"ĠAlex":6456,"Ġrather":6457,"ÃŃfica":6458,"Ġexpos":6459,"ako":6460,"Ġincent":6461,"ĠOlym":6462,"plement":6463,"ĠÐ¾Ð½":6464,"laf":6465,"ĠState":6466,"Ġutil":6467,"ĠðŁ¤":6468,"Ġdrive":6469,"ancing":6470,"Ġletra":6471,"Ð°ÑĤÐµÐ»ÑĮ":6472,"Ġwebsites":6473,"ĠÑıÐ·Ñĭ":6474,"ĠÑıÐ²Ð»Ñı":6475,"Ġabstract":6476,"Ġefectos":6477,"ĠQue":6478,"Ġwalking":6479,"Ġofrece":6480,"Ð°Ð±Ð¾ÑĤ":6481,"æĹ¶":6482,"Ġtweet":6483,"Ap":6484,"nel":6485,"yt":6486,"å¹":6487,"è¡":6488,"Ġaire":6489,"eres":6490,"alle":6491,"Ġfib":6492,"icl":6493,"uster":6494,"ĠAv":6495,"ĠCelsius":6496,"Ġforces":6497,"Ġrank":6498,"ĠEduc":6499,"Ġselection":6500,"though":6501,"plo":6502,"ĠDem":6503,"Ġtraff":6504,"Ġplus":6505,"Ġclaim":6506,"Ġgracias":6507,"Ġrelay":6508,"ĠKeep":6509,"ĠCho":6510,"Ġtechnique":6511,"Ġ+=":6512,"comes":6513,"ĠdemÃ¡s":6514,"Ġelemento":6515,"Ġrequirements":6516,"Ġrecords":6517,"Ġestablished":6518,"Ġinnovation":6519,"Ġinstrument":6520,"Ġgirl":6521,"Ġantibiot":6522,"where":6523,"åį":6524,"Ġslic":6525,"Ġsiendo":6526,"ĠanÃ¡lisis":6527,"edy":6528,"ĠTime":6529,"ĠEle":6530,"ĠBob":6531,"ĠBBC":6532,"Ġ26":6533,"ĠNov":6534,"Ġchance":6535,"Ġperd":6536,"Ġje":6537,"Ġabr":6538,"Ġarroz":6539,"ĠJames":6540,"ĠUN":6541,"xture":6542,"Ġitself":6543,"Ġbruj":6544,"Ġvalu":6545,"Ġzona":6546,"ĠÐ¿ÑĢÐ¾Ð³ÑĢ":6547,"Ġdefine":6548,"ĠÑĩÐµÐ»Ð¾Ð²":6549,"Ġclassify":6550,"Ġetiqu":6551,"Ð¸Ð¼Ð¸":6552,"Ġprotest":6553,"Ġprotagon":6554,"Ġsigue":6555,"Ġcommonly":6556,"Ġhimself":6557,"Ġchallenging":6558,"ĠÐµÐ³Ð¾":6559,"Ġcomposed":6560,"Ġmission":6561,"Ġknew":6562,"åŃ¦":6563,"ĠÃ¡rea":6564,"Ġadjectives":6565,"Ġvectores":6566,"Ġmilitary":6567,"âĢįâĻ":6568,"hood":6569,"rim":6570,"ray":6571,"uate":6572,"uper":6573,"zz":6574,"Ä±":6575,"Ġmid":6576,"ĠÐķ":6577,"uta":6578,"Ã¡genes":6579,"Ġexecut":6580,"Ġstores":6581,"Ã©ro":6582,"ander":6583,"ĠimÃ¡genes":6584,"Ġkm":6585,"Ġcreatures":6586,"ĠserÃ¡":6587,"ÑĭÑĤ":6588,"Ġdisrup":6589,"Ġconsid":6590,"ĠÐ¸Ð³ÑĢ":6591,"Ġenton":6592,"ÐµÐ½ÑĮ":6593,"uye":6594,"ÐµÑĢÐ¶":6595,"Ġautonom":6596,"Ġresultados":6597,"Ġflour":6598,"Ġlibro":6599,"Ġadding":6600,"Ġfeelings":6601,"Ġbrown":6602,"noun":6603,"Ġengineer":6604,"Ġheadline":6605,"Ġestudiantes":6606,"Ġprivacy":6607,"Ġmoral":6608,"Ġpalabra":6609,"Ġincorrect":6610,"ĠÐ»ÑİÐ´":6611,"ĠÐºÐ¾Ð¼Ð¿":6612,"Ð°Ð½ÑĤÐ¾Ð²":6613,"ografÃŃa":6614,"éľĢ":6615,"PU":6616,"Que":6617,"SR":6618,"hone":6619,"writ":6620,"anco":6621,"Ġmad":6622,"Ġantic":6623,"Ġunit":6624,"ĠPal":6625,"ÑĢÐ°Ð·":6626,"Ġsty":6627,"ĠLanguage":6628,"Ġtrade":6629,"Ġsoil":6630,"ĠNatural":6631,"Ġleaves":6632,"duct":6633,"ienen":6634,"Ġprecios":6635,"ĠÐ¿Ð¾Ð½":6636,"ĠÐ²Ð¾Ð·":6637,"Ġnote":6638,"Ġautor":6639,"Ġseguro":6640,"Ġ90":6641,"Ġclassification":6642,"Ġdirection":6643,"Ġteams":6644,"Ġbehind":6645,"ĠpelÃŃculas":6646,"Ġexploring":6647,"Ã§Ã£o":6648,"Ġdiscovered":6649,"Ġlayer":6650,"string":6651,"ĠÐ¸Ð½ÑĤÐµÑĢ":6652,"ĠIncre":6653,"Ġmicro":6654,"Ġrapid":6655,"Ġsmooth":6656,"Ġalcohol":6657,"Ġtraffic":6658,"Ġvaluable":6659,"Tr":6660,"cas":6661,"uen":6662,"uido":6663,"æĤ":6664,"é¢":6665,"ini":6666,"eness":6667,"Ġple":6668,"Ġpiano":6669,"alian":6670,"adir":6671,"Ġnames":6672,"Ġnunca":6673,"elÃ©":6674,"Ġretr":6675,"Ġreplace":6676,"Ġenable":6677,"ulas":6678,"Ġrend":6679,"Ġals":6680,"ĠBer":6681,"ĠNY":6682,"Ġabierto":6683,"ĠOk":6684,"ÑģÑĤÑĮ":6685,"Ġpersonajes":6686,"Ġthemselves":6687,"Ġworked":6688,"Ġtempor":6689,"dex":6690,"Ġsecre":6691,"Ġpartes":6692,"pha":6693,"Ġexplan":6694,"Ġequival":6695,"ÐµÐ»Ñı":6696,"ception":6697,"Ġsheet":6698,"Ġprofund":6699,"Ġorganized":6700,"Ġmole":6701,"Ġconocida":6702,"Ġaircraft":6703,"Ġdirectly":6704,"Ġincluye":6705,"Ġhoras":6706,"Ġhoriz":6707,"Ġdiverse":6708,"Ġfavorite":6709,"Ġaquell":6710,"Ġfunciona":6711,"ĠInstruct":6712,"Ġwidely":6713,"Ġdamage":6714,"ĠAccording":6715,"21":6716,"70":6717,"Ch":6718,"Lo":6719,"cast":6720,"pet":6721,"uese":6722,"yo":6723,"åĮ":6724,"Ġatr":6725,"Ġpick":6726,"orr":6727,"att":6728,"atro":6729,"anish":6730,"Ġfinally":6731,"enter":6732,"idente":6733,"Ġnaturales":6734,"Ġgent":6735,"ably":6736,"Ġalto":6737,"ĠDar":6738,"ĠGre":6739,"ĠGood":6740,"undial":6741,"Ġamaz":6742,"ĠÐ¸Ñħ":6743,"Ġdecor":6744,"Ġintent":6745,"ĠÐ¾Ð´":6746,"Ġgeneration":6747,"Ġbutton":6748,"Ġrequiere":6749,"Ġartist":6750,"Ġproductivity":6751,"redict":6752,"ĠÐ±Ð¾Ð»ÑĮ":6753,"tructure":6754,"ĠFranc":6755,"Ġpurs":6756,"Ġconocer":6757,"Ġeducational":6758,"Ġreading":6759,"Ġfriendship":6760,"Ġlenguajes":6761,"Ġprotection":6762,"Ġasked":6763,"Ð°ÐµÑĤÑģÑı":6764,"Ð¸ÑĢÐ¾Ð²Ð°Ð½":6765,"ĠAustralia":6766,"Ġaccompl":6767,"cing":6768,"mon":6769,"power":6770,"Ġsalsa":6771,"icional":6772,"Ġintr":6773,"Ġhat":6774,"usion":6775,"ĠÐł":6776,"ĠAre":6777,"ĠSun":6778,"ĠSur":6779,"Ġcommer":6780,"ÃŃr":6781,"Ġthr":6782,"ĠMount":6783,"ĠBel":6784,"uda":6785,"ibly":6786,"ocar":6787,"ĠFal":6788,"pert":6789,"ĠInvest":6790,"Ġapoy":6791,"Ġadministr":6792,"Ġrecently":6793,"ĠÐ½Ð¾":6794,"Ð²Ð°Ð½ÑĤÐ¾Ð²":6795,"Ġinvers":6796,"counter":6797,"Ġcapable":6798,"Ġdevelopers":6799,"expected":6800,"Ġ2014":6801,"Ġdistint":6802,"array":6803,"inoa":6804,"Ġautomated":6805,"Ġmotor":6806,"Ġopening":6807,"ĠSpanish":6808,"Ġprobable":6809,"Ġoliva":6810,"Ġshared":6811,"ĠPotter":6812,"Ġtutorial":6813,"Ġpobl":6814,"ahrenheit":6815,"Ġentonces":6816,"VID":6817,"flow":6818,"nos":6819,"Â²":6820,"Ġdor":6821,"isk":6822,"Ġwaves":6823,"Ġbos":6824,"imals":6825,"Ġreward":6826,"ĠIN":6827,"Ġcomplic":6828,"Ġalien":6829,"ÑĢÐµÐ¼":6830,"Ã©l":6831,"plies":6832,"ĠMac":6833,"change":6834,"ĠLib":6835,"ĠLife":6836,"ibilities":6837,"Ġneut":6838,"uge":6839,"Ġdelicious":6840,"Ð¸Ð¿":6841,"Ġrot":6842,"Ġhabilidad":6843,"ĠDeep":6844,"ĠArch":6845,"iemb":6846,"Ġbasa":6847,"Ġoffice":6848,"Ġconocimientos":6849,"Ġtoma":6850,"Ġcircle":6851,"medi":6852,"Ġtracking":6853,"Ġstored":6854,"ĠÃºnica":6855,"ĠcuÃ¡ntica":6856,"Ġabsorb":6857,"Ġalcanzar":6858,"ĠfilosofÃŃa":6859,"Ġingenier":6860,"['":6861,"fin":6862,"iation":6863,"iÃ©n":6864,"rÃŃa":6865,"Ġiz":6866,"Ġtense":6867,"ĠmÃ¡g":6868,"Ġhog":6869,"Ġenh":6870,"Ġenem":6871,"Ġencounter":6872,"ĠCap":6873,"istan":6874,"ĠHave":6875,"ĠGree":6876,"Ġtras":6877,"Ġestad":6878,"ÑĥÐ½":6879,"Ġseres":6880,"Ġmanner":6881,"Ġrod":6882,"ĠposiciÃ³n":6883,"Ð°Ð½Ð¸Ðµ":6884,"Ġbound":6885,"Ġcamino":6886,"Ġsurpr":6887,"Ġassess":6888,"Ġreturns":6889,"ĠPlan":6890,"Ġexperienced":6891,"ĠcomunicaciÃ³n":6892,"Ġinterests":6893,"ĠCalifornia":6894,"Ġinteractive":6895,"**:":6896,"Ġdinero":6897,"ĠPortuguese":6898,"Ġnutrit":6899,"Ð¾Ð¿ÑĢÐ¾Ñģ":6900,"Ġcriter":6901,"Ġpressure":6902,"Ġsatisfaction":6903,"Ġidioma":6904,"ĠAfrica":6905,"ĠMusic":6906,"ĠBuild":6907,"Ġlaptop":6908,"'d":6909,"89":6910,"Name":6911,"OR":6912,"SON":6913,"making":6914,"script":6915,"ä¿":6916,"Ġaim":6917,"Ġast":6918,"Ġcats":6919,"Ġdice":6920,"ref":6921,"Ġlater":6922,"icidad":6923,"ĠTer":6924,"ĠMah":6925,"ĠLuego":6926,"ĠHy":6927,"ĠRiver":6928,"Ġdesert":6929,"ango":6930,"Ġcrec":6931,"Ġcreates":6932,"ĠJos":6933,"ĠUr":6934,"Ãºlt":6935,"Ġoutcomes":6936,"Ġ194":6937,"Ġsett":6938,"Ġwhereas":6939,"ĠPrim":6940,"Ġconstante":6941,"Ġstructures":6942,"Ġgrowing":6943,"ĠCanadian":6944,"Ð½Ð°Ñĩ":6945,"Ġdetailed":6946,"Ġoxygen":6947,"CuÃ¡l":6948,"Ġpowder":6949,"Ġdialogue":6950,"Ġdangerous":6951,"Ġreconoc":6952,"ĠChoose":6953,"ĠÐ¿ÑĢÐ¾Ð³ÑĢÐ°Ð¼":6954,"33":6955,"65":6956,"bur":6957,"solving":6958,"tiliz":6959,"ying":6960,"Ø±":6961,"ÙĪ":6962,"Ġaid":6963,"Ġsac":6964,"Ġslight":6965,"Ġpul":6966,"Ġpict":6967,"oro":6968,"itter":6969,"ioni":6970,"Ġoficial":6971,"queda":6972,"imately":6973,"Ġreasons":6974,"ulos":6975,"Ġfore":6976,"Ġfort":6977,"Ġrat":6978,"Ã¡les":6979,"Ġstd":6980,"ĠMarch":6981,"ĠGal":6982,"ĠOf":6983,"Ġserious":6984,"osta":6985,"ÑģÑĤÑĢ":6986,"Ġincluded":6987,"Ġcapabilities":6988,"Ġsusp":6989,"Ġmuse":6990,"Ġdistinct":6991,"Ġhacerlo":6992,"Ð°ÑĤÑĮÑģÑı":6993,"Ġdocuments":6994,"ĠsituaciÃ³n":6995,"Ġcomplexity":6996,"ĠÐ³Ð¾Ð´":6997,"ĠInternational":6998,"Ġingredientes":6999,"Ġnuestra":7000,"Ġentrenamiento":7001,"Ġtablespoons":7002,"Ġmistakes":7003,"Ġcondiciones":7004,"PA":7005,"Se":7006,"ship":7007,"yg":7008,"éĩ":7009,"inos":7010,"Ġsnow":7011,"Ġmarg":7012,"Ġmiemb":7013,"ĠmÃºlt":7014,"entina":7015,"eche":7016,"Ġenables":7017,"Ġconte":7018,"Ġvary":7019,"Ġvitam":7020,"ĠGit":7021,"Ġ28":7022,"Ġtrata":7023,"Ġimper":7024,"illos":7025,"Ġleer":7026,"Ġrob":7027,"ĠEns":7028,"aze":7029,"Ġfruit":7030,"Ġworkplace":7031,"Ġcaliente":7032,"Ġreduced":7033,"ĠProt":7034,"Ġlibert":7035,"Ġplayed":7036,"ÐµÑģÑģ":7037,"Ġdoctor":7038,"Ġrenov":7039,"ximately":7040,"Ġfrecu":7041,"Ġproperly":7042,"Ġreference":7043,"ĠÐ¼Ð¾Ð¶Ð½Ð¾":7044,"Ġefectiva":7045,"Ġbeginning":7046,"ĠChristian":7047,"Ġestimated":7048,"Ġestrellas":7049,"Ġpantalla":7050,"Ġfreedom":7051,"Ġdiabetes":7052,"LL":7053,"];":7054,"ging":7055,"lig":7056,"vol":7057,"ä¼":7058,"Ġsie":7059,"Ġdf":7060,"Ġmamm":7061,"allow":7062,"Ġdead":7063,"Ġnom":7064,"ĠPat":7065,"Ġextr":7066,"Ġusando":7067,"ĠHouse":7068,"ĠRet":7069,"ÑĥÑģ":7070,"ÑĥÐ¿":7071,"Ġmeal":7072,"ÑıÐ·":7073,"Ġadm":7074,"Ġspending":7075,"Ġatm":7076,"âĢĶ":7077,"ambda":7078,"Ġphen":7079,"Ġ2005":7080,"ĠDeb":7081,"Ġdiferente":7082,"Ġobjetivos":7083,"Ġlimp":7084,"Ġmask":7085,"Ġfriendly":7086,"Ġpopulares":7087,"Ġescal":7088,"Ġnuevos":7089,"Ġredes":7090,"Ġvolume":7091,"Ð¾ÑģÑĤÐ¾":7092,"Ġradio":7093,"Ġachieved":7094,"Ġrespuestas":7095,"Ġcups":7096,"ĠBlack":7097,"affe":7098,"Ġstudying":7099,"Ġwinter":7100,"ĠÐ¶Ð¸Ð·Ð½":7101,"Ð¸ÑģÑĤÐµÐ¼":7102,"Ġcreativity":7103,"ĠHuman":7104,"æķ°":7105,"Ġbiblioteca":7106,"Ġderechos":7107,"Pro":7108,"RL":7109,"iamente":7110,"log":7111,"Ġtone":7112,"Ġcake":7113,"Ġcint":7114,"Ġsend":7115,"lete":7116,"Ġnie":7117,"amil":7118,"Ġgente":7119,"Ġgender":7120,"estr":7121,"ester":7122,"ĠAug":7123,"Ġcompl":7124,"ĠMont":7125,"ĠOct":7126,"Ġapples":7127,"Ġ500":7128,"Ġinterview":7129,"azÃ³n":7130,"Ġfront":7131,"Ġbrave":7132,"ĠAlice":7133,"rastructure":7134,"Ġhumana":7135,"Ġcamp":7136,"Ġdemocr":7137,"Ġrecomiendo":7138,"Ġmillones":7139,"ĠÃ¡tom":7140,"Ġconsumer":7141,"ĠgustarÃŃa":7142,"ederal":7143,"Ġviaje":7144,"Ġextrem":7145,"Ġinitial":7146,"Ġbranch":7147,"Ġaproximadamente":7148,"ĠseÃ±al":7149,"Ð»ÑİÑĩ":7150,"Ġroutine":7151,"å¥½":7152,"ĠJanuary":7153,"xiety":7154,"ĠFrancis":7155,")^":7156,"22":7157,"As":7158,"gers":7159,"uber":7160,"Ġcro":7161,"arily":7162,"Ġep":7163,"ett":7164,"Ġvict":7165,"ÐµÑħ":7166,"stein":7167,"ÑĢÐ¸":7168,"ĠGlo":7169,"Ġhech":7170,"Ġimpos":7171,"Ġmano":7172,"Ġinterior":7173,"Ġroute":7174,"Ġhelped":7175,"Ġoppos":7176,"Ġcorpor":7177,"ything":7178,"Ġ2012":7179,"Ġidentity":7180,"Ġcombination":7181,"Ġnueva":7182,"Ãºsqueda":7183,"Ð¸ÑĤÑĮÑģÑı":7184,"ĠGran":7185,"äºĨ":7186,"Ġedific":7187,"Ġbattle":7188,"Ġbalanced":7189,"Ġcritic":7190,"celona":7191,"Ġfunctional":7192,"Ġexplicar":7193,"Ġpolicies":7194,"Ġencourage":7195,"Ġaumentar":7196,"Ġnumerous":7197,"ĠiPhone":7198,"ĠFinalmente":7199,"ĠatmÃ³s":7200,"des":7201,"ners":7202,"å¦":7203,"æŃ":7204,"Ġcielo":7205,"Ġped":7206,"orus":7207,"icy":7208,"ostr":7209,"utton":7210,"ĠSpr":7211,"odes":7212,"agr":7213,"ĠDur":7214,"ĠBay":7215,"ĠHigh":7216,"Ġcompat":7217,"ĠNob":7218,"Ġresid":7219,"ĠJust":7220,"ĠUtiliz":7221,"Ġcontro":7222,"ĠÐ²Ð°ÑĪ":7223,"Ġobra":7224,"lah":7225,"Ġtechnical":7226,"Ġhighlight":7227,"Ġsegundo":7228,"Ġ2000":7229,"frame":7230,"Ġmenudo":7231,"ÐµÑģÑĮ":7232,"Ġletters":7233,"Ġcontrolar":7234,"Ġexpans":7235,"Ġexpensive":7236,"Ã¡ticos":7237,"Ġinterested":7238,"Ġdeterminar":7239,"Ġhappen":7240,"ombia":7241,"Ġfash":7242,"Ġcontribute":7243,"Ġparticularly":7244,"ĠInstit":7245,"ĠAlgunas":7246,"cepto":7247,"ĠÃ¡reas":7248,"ĠAfrican":7249,"Ġmultiplic":7250,"Ġcomportamiento":7251,"Ġanthropology":7252,"friendly":7253,"æĤ¨":7254,"ĠatmÃ³sfera":7255,"SÃŃ":7256,"Val":7257,"nam":7258,"source":7259,"tax":7260,"Ø¨":7261,"æī":7262,"æĬ":7263,"onos":7264,"ĠcÃ¡l":7265,"Ġmap":7266,"iture":7267,"aco":7268,"uros":7269,"Ġnode":7270,"Ġreproduc":7271,"Ġcono":7272,"try":7273,"abe":7274,"ĠLast":7275,"ibt":7276,"Ġorange":7277,"ainst":7278,"Ġsue":7279,"ĠRen":7280,"ĠRich":7281,"Ġworth":7282,"ellen":7283,"Ġcream":7284,"Ġclick":7285,"ĠUp":7286,"ieres":7287,"Ġrelaciones":7288,"Ġmodo":7289,"Ġrespir":7290,"Ġauto":7291,"Ġhabits":7292,"Ġsubst":7293,"Ġclasses":7294,"Ġdemas":7295,"Ġconfident":7296,"Ġpasar":7297,"Ġkeyword":7298,"Ġmixture":7299,"ĠAmÃ©rica":7300,"Ġeinen":7301,"Ġexcel":7302,"Ġmanten":7303,"Ġemotional":7304,"Ġlayers":7305,"Ġaspects":7306,"Ġcarrera":7307,"Ġillustr":7308,"Ġincluso":7309,"Ġhypoth":7310,"Ġspirit":7311,"Ġecosystem":7312,"GPT":7313,"cks":7314,"dis":7315,"ni":7316,"nic":7317,"ria":7318,"tan":7319,"wise":7320,"ÐĿ":7321,"onna":7322,"Ġsample":7323,"aries":7324,"icing":7325,"Ġbul":7326,"unci":7327,"Ġhunt":7328,"acci":7329,"Ġnad":7330,"imienta":7331,"Ġgard":7332,"Ġrepe":7333,"Ġenfo":7334,"Ġqueso":7335,"ĠTV":7336,"Ġbeb":7337,"Ġasign":7338,"ĠFahrenheit":7339,"Ġtrial":7340,"Ð»Ð¾":7341,"Ð»Ð°ÑģÑĤ":7342,"tegr":7343,"Ġleave":7344,"Ġdels":7345,"ÑıÑĤÑĮ":7346,"Ġdiscount":7347,"ĠJe":7348,"ĠThank":7349,"Ġgrant":7350,"Ġreceta":7351,"Ġcollege":7352,"ÐºÑĤ":7353,"object":7354,"ĠsiÄĻ":7355,"ioso":7356,"ä¸º":7357,"ä¸Ń":7358,"Ġrefers":7359,"Ġparticles":7360,"Ġmaster":7361,"Ġgreatest":7362,"Index":7363,"Ġcomprar":7364,"Ġmindful":7365,"Ġolive":7366,"ĠmÃ©todos":7367,"ĠespecÃŃficas":7368,"ĠelectrÃ³nica":7369,"ĠBarcelona":7370,"Ġcampaigns":7371,"Ġultimately":7372,"Ġcomprehensive":7373,"ĠOklah":7374,"mes":7375,"pen":7376,"person":7377,"enos":7378,"Ġdia":7379,"Ġlinks":7380,"alo":7381,"iso":7382,"Ġfen":7383,"icia":7384,"enty":7385,"ental":7386,"Ġbinary":7387,"uste":7388,"quest":7389,"Ġgave":7390,"Ġgall":7391,"ĠCena":7392,"ira":7393,"irt":7394,"emb":7395,"ems":7396,"Ġseven":7397,"ĠMad":7398,"apole":7399,"iented":7400,"Ð»ÐµÐ¼":7401,"Ġclient":7402,"Ġgrab":7403,"ĠÐ²Ð¾Ð¿ÑĢÐ¾Ñģ":7404,"Ġrecover":7405,"Ġincluir":7406,"ĠVers":7407,"Ġcarry":7408,"Ġanyone":7409,"Ġplanning":7410,"Ġdriving":7411,"ĠcrÃŃ":7412,"Ġcrime":7413,"venue":7414,"Ã¤n":7415,"Ġrestr":7416,"pression":7417,"Ġmotion":7418,"Ġgovernments":7419,"Ġcourt":7420,"entran":7421,"Ġbelieved":7422,"Ġlinear":7423,"Ġlugares":7424,"Ġuma":7425,"Ġencuentran":7426,"Ġreceived":7427,"Ġpermiten":7428,"Ġresistencia":7429,"Ġeficiente":7430,"ĠrazÃ³n":7431,"Ġtailored":7432,"Ġvillage":7433,"ĠGreek":7434,"24":7435,"fono":7436,"ged":7437,"iro":7438,"ned":7439,"ox":7440,"uac":7441,"write":7442,"å½":7443,"Ġ;":7444,"itize":7445,"Ġfest":7446,"Ġfecha":7447,"Ġhit":7448,"Ġunexpected":7449,"Ġvin":7450,"Ġvul":7451,"Ġvous":7452,"ĠWater":7453,"ĠCur":7454,"Ġrich":7455,"tros":7456,"ĠEast":7457,"ayuno":7458,"Ġsein":7459,"Ġthick":7460,"Ġases":7461,"Ã©tico":7462,"ĠDep":7463,"ĠDios":7464,"ective":7465,"ĠFort":7466,"Ġsuffer":7467,"ĠRoman":7468,"Ġprue":7469,"Ġmanz":7470,"Ġpuedan":7471,"Ġdoor":7472,"ÐµÐ½Ð¸Ð¹":7473,"oven":7474,"Ġoutdo":7475,"Ð¼Ð¾Ð¶":7476,"Ġprogramar":7477,"point":7478,"Ġhumor":7479,"Ġcompleted":7480,"Ġscal":7481,"ĠAsÃŃ":7482,"ĠÑĤÐµÐ¼":7483,"ĠÐ±Ð¾Ð»ÐµÐµ":7484,"coming":7485,"Ġengage":7486,"chool":7487,"Ġdepends":7488,"Ã¨s":7489,"Ġcuales":7490,"ĠeducaciÃ³n":7491,"ĠPlace":7492,"ĠColombia":7493,"ĠmayorÃŃa":7494,"value":7495,"Ġcurrently":7496,"ÅĤa":7497,"ĠEmpire":7498,"Ġlandsc":7499,"Ġestudiar":7500,"Ġsauce":7501,"Ġquiero":7502,"Ġfuentes":7503,"Ã§a":7504,"Ġscientist":7505,"Ġbreaks":7506,"âĸĳ":7507,"Ġcooked":7508,"Ġtarea":7509,"Ġbiggest":7510,"Ġencourages":7511,"Ġmotivated":7512,"Ġgrammat":7513,"Ġadecuada":7514,"Ġextreme":7515,"Ġslowly":7516,"Ġcomfortable":7517,"Ġorganisms":7518,"Ġauthentication":7519,"Ġmuerte":7520,"ĠOklahoma":7521,"file":7522,"note":7523,"wers":7524,"zos":7525,"Ùĥ":7526,"Ġcuchar":7527,"Ġsector":7528,"rem":7529,"Ġfont":7530,"Ġfirm":7531,"Ġanxiety":7532,"Ġwave":7533,"Ġwomen":7534,"Ġdej":7535,"Ġborder":7536,"ĠbÃºsqueda":7537,"Ġtouch":7538,"Ġreaction":7539,"aya":7540,"ÑĢÐ°Ð²":7541,"ĠMicha":7542,"ĠLink":7543,"Ġcharg":7544,"Ġchicken":7545,"Ġshapes":7546,"iert":7547,"ĠÐ¿Ð¾Ñģ":7548,"Ġconsci":7549,"Ġpersuas":7550,"ĠÑģÐº":7551,"ĠÑģÐ¸ÑģÑĤÐµÐ¼":7552,"oken":7553,"ÐºÐ¾Ð²":7554,"ĠYes":7555,"Ġdecide":7556,"Ġservicios":7557,"Ġpotatoes":7558,"Ġbelong":7559,"Ġattack":7560,"ĠClimate":7561,"Ġresource":7562,"Ġaplicar":7563,"ttp":7564,"Ġpresentation":7565,"being":7566,"Ġabsol":7567,"Ġedad":7568,"Ġconsejos":7569,"ographic":7570,"Ġdinner":7571,"ĠÑĤÐ°ÐºÐ¶Ðµ":7572,"driven":7573,"Ġrecommendations":7574,"Ġpeso":7575,"Ġdreams":7576,"Ġcivil":7577,"ĠNYC":7578,"ĠÐ¿ÑĢÐ¾Ð³ÑĢÐ°Ð¼Ð¼":7579,"Ġcontexto":7580,"90":7581,"dy":7582,"das":7583,"fit":7584,"hib":7585,"iors":7586,"oint":7587,"px":7588,"sk":7589,"win":7590,"world":7591,"Ġahora":7592,"Ġtact":7593,"esla":7594,"ĠsÃ©":7595,"Ġdiced":7596,"Ġpag":7597,"Ġpages":7598,"Ġou":7599,"icle":7600,"Ġbpy":7601,"unction":7602,"acles":7603,"uries":7604,"Ġnac":7605,"iling":7606,"illet":7607,"Ġgives":7608,"Ġreve":7609,"Ã³tica":7610,"Ġvas":7611,"irÃ¡":7612,"ĠEval":7613,"Ã©m":7614,"ĠMa":7615,"ĠMore":7616,"ĠMart":7617,"ĠMoon":7618,"ĠHol":7619,"ĠFlas":7620,"ĠOpt":7621,"ĠJack":7622,"iances":7623,"ĠðŁĴ":7624,"ĠComo":7625,"Ġincreases":7626,"ï¼Ł":7627,"ĠConstit":7628,"Ġsignal":7629,"Ġadded":7630,"ebr":7631,"hington":7632,"Ġimpacts":7633,"ĠCompany":7634,"ĠSchlaf":7635,"ĠEuropa":7636,"ÃŃnas":7637,"ĠpequeÃ±os":7638,"Ġgarant":7639,"Ġreligion":7640,"Ġclouds":7641,"Ġteacher":7642,"Ġinnovative":7643,"Ġllevar":7644,"Ġcyber":7645,"Ġtreatment":7646,"ĠJuly":7647,"ĠRussian":7648,"Ġregulations":7649,"Ġmountain":7650,"ðĿĹ":7651,"Ġenabled":7652,"ĠgrÃ¡fic":7653,"ĠSoftware":7654,"Ġgentle":7655,"Ġcommercial":7656,"Ġfashion":7657,"SQL":7658,"You":7659,"cur":7660,"fast":7661,"year":7662,"yond":7663,"zi":7664,"ĠsÃ³n":7665,"Ġsod":7666,"oring":7667,"Ġleche":7668,"Ġwat":7669,"Ġwall":7670,"Ġwird":7671,"Ġdeal":7672,"ilight":7673,"ami":7674,"Ġencry":7675,"Ġquinoa":7676,"Ġvert":7677,"ĠSand":7678,"Ġalter":7679,"Ã³nde":7680,"Ġseva":7681,"Ġbeyond":7682,"ĠDiv":7683,"ĠMi":7684,"ĠFe":7685,"rome":7686,"ĠacciÃ³n":7687,"Ġnoun":7688,"ĠJSON":7689,"ifications":7690,"Ġrow":7691,"ĠÐºÐ²Ð°Ð½ÑĤÐ¾Ð²":7692,"ĠAnother":7693,"Ġbrind":7694,"ĠStat":7695,"Ð°Ð½Ð¾Ð²":7696,"Ġtoda":7697,"Ġrequests":7698,"ĠReact":7699,"Ġcamera":7700,"Ġattend":7701,"ÑģÑĤÐ²ÐµÐ½":7702,"Ġbuildings":7703,"Ġfocuses":7704,"Ġgeomet":7705,"ĠproteÃŃnas":7706,"ĠBlue":7707,"Ġdescribes":7708,"Ġsorted":7709,"Ġeditor":7710,"Ġdispositivo":7711,"Ġmathematical":7712,"Ġmathematics":7713,"Ġdecrease":7714,"Ãºrate":7715,"éľĢè¦ģ":7716,"Ġcrecimiento":7717,"ser":7718,"title":7719,"wood":7720,"Ø¯":7721,"Ùĩ":7722,"éĽ":7723,"Ġ__":7724,"Ġtit":7725,"Ġtierra":7726,"ining":7727,"onacci":7728,"anqu":7729,"Ġliqu":7730,"Ġfather":7731,"iciones":7732,"Ġbes":7733,"Ġhorno":7734,"ividad":7735,"eto":7736,"ulations":7737,"esto":7738,"igue":7739,"ĠWork":7740,"ĠSara":7741,"ĠSQL":7742,"Ġries":7743,"ĠPued":7744,"Ġonto":7745,"ĠRome":7746,"grad":7747,"ĠÑģÐ¾Ð±":7748,"Ġformed":7749,"Ġoutcome":7750,"ĠCrea":7751,"Ġutilizado":7752,"ĠAsia":7753,"Ġinfrastructure":7754,"Ġdiferencias":7755,"uelve":7756,"Ġapproximately":7757,"Ġstatus":7758,"Ġhands":7759,"Ġmother":7760,"Ġconstit":7761,"ĠlÃŃqu":7762,"ĠApp":7763,"ĠImpro":7764,"Ġachiev":7765,"ĠmÃ©d":7766,"Ġsounds":7767,"Ġpayment":7768,"Ġsharing":7769,"ĠTransform":7770,"ĠdeberÃŃa":7771,"Ġfailure":7772,"Ġoportunidades":7773,"ĠÐ¾ÑģÐ½Ð¾Ð²":7774,"Ġclothing":7775,"Ġvideojuegos":7776,"Ġsosten":7777,"Ġvibrant":7778,"ĠAgrega":7779,"']":7780,"DE":7781,"df":7782,"fu":7783,"fol":7784,"ui":7785,"æŀ":7786,"èĩ":7787,"enas":7788,"Ġsiento":7789,"Ġfis":7790,"Ġwolf":7791,"roid":7792,"acia":7793,"Ġnave":7794,"imm":7795,"uting":7796,"Ġunknown":7797,"eless":7798,"estre":7799,"irse":7800,"istor":7801,"Ã©e":7802,"ĠMo":7803,"oper":7804,"ocup":7805,"ĠFil":7806,"Ġsuger":7807,"Ġresil":7808,"ÑĮÑİ":7809,"ÐµÑĤÑĮ":7810,"Ġagre":7811,"iosa":7812,"ĠÐ¿ÑĢÐ°Ð²":7813,"Ġsegu":7814,"Ġavent":7815,"Ġfilter":7816,"Ġliber":7817,"Ġclassic":7818,"Ð°Ð»Ð¸Ð·":7819,"ĠdecisiÃ³n":7820,"Ġlights":7821,"Ġsiglo":7822,"Ġsuperior":7823,"Ġcosa":7824,"scale":7825,"Ġfacial":7826,"ĠEngine":7827,"Ġvegetable":7828,"çĶŁ":7829,"Ġsyntax":7830,"Ġllamada":7831,"ĠbÃ¡sica":7832,"Ġplanetas":7833,"ĠIII":7834,"Ġcycle":7835,"Ġphotos":7836,"Ġblockchain":7837,"ĠcombinaciÃ³n":7838,"Ġhistorical":7839,"Ġalimentos":7840,"imensional":7841,"Ġdiagnos":7842,"å¯¹":7843,"ĠCustomer":7844,"ĠNovember":7845,"å¦Ĥ":7846,"Your":7847,"bon":7848,"du":7849,"ket":7850,"oo":7851,"æ²":7852,"çĤ":7853,"çĲ":7854,"Ġ,":7855,"Ġterc":7856,"isp":7857,"Ġborn":7858,"edia":7859,"omo":7860,"ĠWilli":7861,"ĠCongo":7862,"ĠIP":7863,"Ġparents":7864,"ĠMex":7865,"ĠLim":7866,"apor":7867,"Ġcomprom":7868,"âĢ¦":7869,"Ġgrados":7870,"Ġamigo":7871,"Ġfollowed":7872,"ĠÑģÐµÑĢ":7873,"Ġnothing":7874,"onds":7875,"Ġmedian":7876,"ĠAnt":7877,"ĠStar":7878,"Ġworkers":7879,"ĠÐ´Ð¾ÑģÑĤ":7880,"ĠExper":7881,"Ġsche":7882,"ĠProgram":7883,"ocket":7884,"Ġpubs":7885,"Ġflight":7886,"olves":7887,"ancy":7888,"Ġsuma":7889,"Ġengagement":7890,"Ġperman":7891,"Ġmateria":7892,"Ã¨re":7893,"Ġprincipios":7894,"ĠÐ°Ð½":7895,"ÃŃstica":7896,"Ð°Ð¹ÑĤ":7897,"Ġmesa":7898,"ĠpolÃŃtica":7899,"Ġinstitutions":7900,"Ġfully":7901,"vantages":7902,"Ġbattery":7903,"Ġnoche":7904,"Ġantibiotics":7905,"Ġaccomplish":7906,"ĠMichael":7907,"OIN":7908,"ben":7909,"ea":7910,"fall":7911,"nes":7912,"ron":7913,"wich":7914,"æİ":7915,"æı":7916,"çĽ":7917,"Ġaer":7918,"Ġcad":7919,"Ġpus":7920,"oriented":7921,"ared":7922,"anks":7923,"Ġmuj":7924,"Ġft":7925,"Ġfos":7926,"Ġfly":7927,"Ġdejar":7928,"lets":7929,"etros":7930,"Ġconcepto":7931,"ĠTaj":7932,"ĠTesla":7933,"Ġusa":7934,"actor":7935,"uga":7936,"Ġapart":7937,"index":7938,"ĠURL":7939,"Ġwealth":7940,"Ġrojo":7941,"Ġcuatro":7942,"Ð´Ñĥ":7943,"Ġacciones":7944,"ĠConf":7945,"ocking":7946,"Ġdress":7947,"Ġcurs":7948,"Ġflavor":7949,"Ġlongest":7950,"Ġcentro":7951,"Ġpassed":7952,"Ġcommunities":7953,"Ġconcre":7954,"Ġfounded":7955,"Ġmagia":7956,"Ġopened":7957,"Ġlearned":7958,"Ġgenre":7959,"âĢĿ.":7960,"ĠEngland":7961,"Ġexciting":7962,"Ġhappened":7963,"Ġdivert":7964,"Ġequipos":7965,"ĠSolar":7966,"ĠBuddha":7967,"Ġempresas":7968,"ĠGerman":7969,"Ġflexible":7970,"ĠmÃ¡xim":7971,"Ġkingdom":7972,"ĠcientÃŃficos":7973,"ĠIngredients":7974,"ĠService":7975,"Ġbrowser":7976,"Ġparameters":7977,"Ġbosque":7978,"Cre":7979,"MA":7980,"hes":7981,"iant":7982,"late":7983,"ober":7984,"Ð¡":7985,"Øª":7986,"Ġluch":7987,"Ġbases":7988,"Ġbrought":7989,"unes":7990,"acciones":7991,"Ġnombres":7992,"Ġrein":7993,"Ġreform":7994,"ema":7995,"Ġrace":7996,"Ġellas":7997,"ott":7998,"cies":7999,"agg":8000,"Ġonion":8001,"Ġyog":8002,"Ġexec":8003,"ĠDNA":8004,"izz":8005,"ÑĥÐ»Ñı":8006,"Ġ35":8007,"Ġtea":8008,"Ġapple":8009,"Ġcreation":8010,"ĠclÃ¡s":8011,"Ġspent":8012,"Ġnov":8013,"Ãºcar":8014,"Ġ45":8015,"ĠÐ²ÐµÑĢ":8016,"Ġrecycl":8017,"Ġcoast":8018,"peed":8019,"ĠproducciÃ³n":8020,"Ġelection":8021,"ubble":8022,"ego":8023,"ĠDesayuno":8024,"Ġpolice":8025,"ĠâĢĺ":8026,"Ġgrocer":8027,"Ġskillet":8028,"Ġstudies":8029,"Ġsupply":8030,"ĠÃī":8031,"Ġeverything":8032,"Ġlighting":8033,"verty":8034,"ĠYouT":8035,"ventajas":8036,"Ġpair":8037,"ĠÃ©x":8038,"ahr":8039,"ĠImag":8040,"Ġmanager":8041,"Ġdivis":8042,"Ġprobability":8043,"Ġdarkness":8044,"Ġsignificantly":8045,"Ġcritical":8046,"Ġreviews":8047,"Ġescrit":8048,"ĠraÃŃ":8049,"Como":8050,"Ġvehicle":8051,"Ġearthqu":8052,"ospital":8053,"ĠquÃŃmica":8054,"Ġtortilla":8055,"Ġbeliefs":8056,"Ġfemale":8057,"ĠArgentina":8058,"ĠWashington":8059,"Ġhypothesis":8060,"bi":8061,"ms":8062,"met":8063,"nombre":8064,"sub":8065,"Ø©":8066,"Ġ@":8067,"Ġaward":8068,"Ġahead":8069,"Ġta":8070,"erap":8071,"Ġinicial":8072,"urance":8073,"iled":8074,"olic":8075,"ĠAÃ±":8076,"ĠAunque":8077,"ĠDear":8078,"udar":8079,"ĠFib":8080,"Ġsuelen":8081,"ogrÃ¡":8082,"Ġpreocup":8083,"Ġpersonales":8084,"ĠEnjoy":8085,"azione":8086,"connect":8087,"Ġaguac":8088,"ĠÐ¼ÐµÐ½":8089,"uesta":8090,"ĠÐ´Ð°Ð½":8091,"poses":8092,"Ġdoesn":8093,"Ġvisitar":8094,"front":8095,"ĠRead":8096,"Ġimprov":8097,"Ġmarkets":8098,"ĠFrank":8099,"Ġdestination":8100,"ÑĨÐ¸Ð¾Ð½":8101,"Ġsometimes":8102,"Ġoffering":8103,"wareness":8104,"Ġemails":8105,"Ġordenador":8106,"Ġtaxes":8107,"ĠWestern":8108,"Ġpreparar":8109,"Ġbottom":8110,"Ġdistribution":8111,"Ġblood":8112,"ĠazÃºcar":8113,"Ã³sito":8114,"è¿Ļ":8115,"Ġflexibility":8116,"Ġpeaceful":8117,"Ġhuevo":8118,"Ġdivided":8119,"ĠKingdom":8120,"Ġregarding":8121,"ĠdesafÃŃos":8122,"Ã¨ncia":8123,"Ġwonder":8124,"Ġsuficiente":8125,"ĠInstructions":8126,"ĠpoblaciÃ³n":8127,"Ġvulner":8128,"Ġpersuasive":8129,".)":8130,"23":8131,"He":8132,"Im":8133,"Str":8134,"guir":8135,"off":8136,"ÐĴ":8137,"ÐŁ":8138,"æĭ":8139,"æł":8140,"ĠtÃŃt":8141,"Ġsite":8142,"heet":8143,"ancias":8144,"ici":8145,"Ġbass":8146,"Ġhier":8147,"ils":8148,"ĠTod":8149,"uls":8150,"Ġven":8151,"ĠCle":8152,"ĠCub":8153,"ĠSort":8154,"anta":8155,"Ġbear":8156,"izada":8157,"ocide":8158,"ocado":8159,"ĠRub":8160,"Ġneigh":8161,"Ġkept":8162,"ĠademÃ¡s":8163,"Ġspend":8164,"Ġaceler":8165,"Ġweak":8166,"iveness":8167,"Ġcuest":8168,"ĠVeg":8169,"Ġmodify":8170,"Ð¾Ð²Ð¾ÑĢ":8171,"Ġintellig":8172,"iendas":8173,"Ġexpert":8174,"phant":8175,"Ġminor":8176,"Ġskill":8177,"Ġshell":8178,"ĠTrue":8179,"Ġsitio":8180,"Ġrising":8181,"Ġphysics":8182,"Ġstandards":8183,"Ġefficiently":8184,"Ġproteger":8185,"Ð°Ð¹ÑĤÐµ":8186,"Ġalmost":8187,"Ġdatabases":8188,"Ġclaro":8189,"ĠselecciÃ³n":8190,"Ġpsych":8191,"Ġarquitectura":8192,"ĠAugust":8193,"ĠRichard":8194,"500":8195,"Una":8196,"kin":8197,"mark":8198,"max":8199,"ÅĦ":8200,"æĥ":8201,"Ġpimienta":8202,"Ġmort":8203,"itt":8204,"Ġfict":8205,"Ġhob":8206,"ĠCam":8207,"ifer":8208,"Ġelif":8209,"ĠEating":8210,"Ġtherm":8211,"ague":8212,"Ġaso":8213,"ĠcanciÃ³n":8214,"ĠFace":8215,"apar":8216,"ĠNapole":8217,"romagn":8218,"iero":8219,"Ġdificult":8220,"ajo":8221,"ĠAns":8222,"iversity":8223,"ĠÐ´Ð¾":8224,"Ġblanc":8225,"Ġscreen":8226,"Ġbusc":8227,"Ġdragon":8228,"Ġassum":8229,"Ġcounter":8230,"Ġexistence":8231,"Ġsunlight":8232,"Ġindustries":8233,"ĠtenÃŃa":8234,"Ġexcited":8235,"ĠÐµÑģÐ»Ð¸":8236,"Ġfuera":8237,"Ġestructuras":8238,"Ġmissing":8239,"ĠpolÃŃticas":8240,"Ġappliances":8241,"Ġinstalar":8242,"Ġmensaje":8243,"Ġsecrets":8244,"ĠmÃºlti":8245,"ĠSarah":8246,"çĲĨ":8247,"Cl":8248,"wa":8249,"Ġsect":8250,"Ġdrop":8251,"organ":8252,"ĠmÃ¶":8253,"Ġfondo":8254,"icamente":8255,"Ġben":8256,"eck":8257,"ĠIS":8258,"Ġalc":8259,"ÑĢÐµÐ´":8260,"ÑĢÐ°ÑĤ":8261,"ÑĢÐ°Ð¶":8262,"thesis":8263,"Ġstreet":8264,"ĠDate":8265,"ĠLes":8266,"Ð»ÐµÐºÑĤ":8267,"ÑĥÑīÐµÑģÑĤÐ²":8268,"Ġdiss":8269,"Ġcontiene":8270,"Ġcoup":8271,"Ġcoll":8272,"Ġevolution":8273,"ÐºÐµ":8274,"Ġhermos":8275,"Ġinformed":8276,"Ġmetal":8277,"axis":8278,"Ġsimply":8279,"Ġbusca":8280,"Ġ70":8281,"Ġmatr":8282,"Ġsegunda":8283,"Ġ2004":8284,"virt":8285,"Ġdepth":8286,"Ġcausing":8287,"Ġetapa":8288,"Ġanimales":8289,"Ġstarts":8290,"ĠNewton":8291,"nesses":8292,"Ġpotentially":8293,"ÑģÑĤÐ²Ð°":8294,"ĠZe":8295,"Ġinputs":8296,"Ġrepresenta":8297,"Ġdefinit":8298,"ĠImplement":8299,"Ġcomponentes":8300,"ĠTwilight":8301,"Ġventajas":8302,"åĬ©":8303,"ĠDecember":8304,"Ġrecomendable":8305,"Ġnearby":8306,"Ġpowers":8307,"ĠCommun":8308,"Ġgraphics":8309,"ĠCOVID":8310,"ĠcalorÃŃas":8311,"Ġoportunidad":8312,"Ġacerca":8313,"Ġalgoritmos":8314,"uddenly":8315,"pload":8316,"ĠÑĩÐµÐ»Ð¾Ð²ÐµÐº":8317,"Ġretrie":8318,"Ġdemasiado":8319,"([":8320,"DO":8321,"ault":8322,"bird":8323,"pany":8324,"pired":8325,"Â·":8326,"ç¨":8327,"Ġtamb":8328,"inaciÃ³n":8329,"Ġcore":8330,"ĠsÃ³":8331,"Ġsop":8332,"Ġsang":8333,"Ġlect":8334,"asa":8335,"ischen":8336,"itlab":8337,"Ġfan":8338,"Ġfur":8339,"icip":8340,"Ġwish":8341,"Ġbold":8342,"quina":8343,"Ġnation":8344,"iments":8345,"Ġreached":8346,"ĠTest":8347,"Ġvor":8348,"Ġvista":8349,"ĠWay":8350,"ĠCour":8351,"ĠCPU":8352,"Ġcoming":8353,"ĠPop":8354,"ĠDel":8355,"ĠDoc":8356,"izer":8357,"ĠFire":8358,"ĠNow":8359,"Ġdesem":8360,"Ġpuerta":8361,"Ġpuzz":8362,"Ġperro":8363,"Ġmane":8364,"ÑĮÑİÑĤ":8365,"ĠJOIN":8366,"Ġgrie":8367,"Ãºa":8368,"Ġimportancia":8369,"Ġentertain":8370,"Ġnotas":8371,"Ġgob":8372,"aterial":8373,"Ġefforts":8374,"Ġovercome":8375,"Ġtemp":8376,"Ġtranspar":8377,"Ġcapaz":8378,"phony":8379,"Ġsalir":8380,"ÐµÐ»Ð¸":8381,"Ġvisited":8382,"Ġcampos":8383,"Ġremote":8384,"Ġexistencia":8385,"Ġlimits":8386,"Ġresponses":8387,"ĠÐ¾ÑĤÐ½Ð¾":8388,"æĪĲ":8389,"Ġbegins":8390,"Ġestudio":8391,"Ġfuerte":8392,"Ġhousehold":8393,"ĠDisc":8394,"--------------------------------":8395,"Ġcapture":8396,"ĠÃºnico":8397,"Ġmezcl":8398,"Ġelectromagn":8399,"Ġaccepted":8400,"ĠÐ¸ÑģÐ¿Ð¾Ð»ÑĮÐ·Ñĥ":8401,"Ġdelivery":8402,"ĠCheck":8403,"ĠDavid":8404,"éĿ¢":8405,"ĠFalse":8406,"Ġhogar":8407,"ĠOctober":8408,"Ġvertical":8409,"æıĲ":8410,"ĠÃ©xito":8411,"='":8412,"Fr":8413,"Nombre":8414,"View":8415,"bra":8416,"cen":8417,"ev":8418,"net":8419,"para":8420,"yl":8421,"ÑĶ":8422,"æĦ":8423,"ĠÃ³r":8424,"Ġawareness":8425,"Ġsen":8426,"Ġpip":8427,"Ġpaz":8428,"ancial":8429,"Ġmente":8430,"Ġosc":8431,"aste":8432,"asure":8433,"itÃł":8434,"Ġfantas":8435,"Ġdeport":8436,"Ġdeploy":8437,"Ġhombre":8438,"Ġnar":8439,"Ġunf":8440,"Ġunas":8441,"Ġenfer":8442,"ĠTry":8443,"uly":8444,"Ã³ven":8445,"Ġforget":8446,"Ġello":8447,"ĠEcon":8448,"Ã³nica":8449,"Ġseu":8450,"Ð½Ð°Ðº":8451,"ĠDa":8452,"ĠMary":8453,"ĠMuse":8454,"ĠMiddle":8455,"ĠBack":8456,"enden":8457,"ĠHi":8458,"opped":8459,"ĠFre":8460,"Ġplenty":8461,"ĠteÃ³r":8462,"Ġcluster":8463,"ualmente":8464,"ĠÐ¿Ð»":8465,"berry":8466,"ĠAnal":8467,"Ġbrain":8468,"Ġreglas":8469,"Ġcomplejos":8470,"Ġhaben":8471,"Ġbought":8472,"ĠÐ¿ÑĢÐ¸":8473,"ä¸ĭ":8474,"Ġmoved":8475,"Ġconsiderado":8476,"Ġnecesidad":8477,"Ġremains":8478,"ĠFriend":8479,"Ġaccessible":8480,"Ġsituations":8481,"Ð¸Ð·Ð¼":8482,"Ġcalculus":8483,"äºĽ":8484,"Ġafford":8485,"Ġtengas":8486,"Ġconversations":8487,"Ġfelicidad":8488,"ĠTwitter":8489,"Ġscientists":8490,"Ġfueron":8491,"lichke":8492,"Ġmaintaining":8493,"Ġinstrucciones":8494,"Ġescritor":8495,"Ġautomatically":8496,"Ġcoding":8497,"ĠPrincess":8498,"ĠSEO":8499,"ĠBreak":8500,"Ġcomienza":8501,"ĠÑıÐ²Ð»ÑıÐµÑĤÑģÑı":8502,"ĠEducation":8503,"Ġslightly":8504,"ĠYouTube":8505,"ÑĮÑİÑĤÐµÑĢ":8506,"Ã³venes":8507,"84":8508,"Des":8509,"List":8510,"SC":8511,"ham":8512,"json":8513,"rt":8514,"Ã¹":8515,"æ°":8516,"æĽ":8517,"è¨":8518,"Ġaware":8519,"Ġaix":8520,"Ġajo":8521,"Ġtaza":8522,"ĠtelÃ©":8523,"Ġdance":8524,"heat":8525,"atisf":8526,"ania":8527,"Ġlon":8528,"alt":8529,"Ġfert":8530,"icciÃ³n":8531,"Ġinj":8532,"ila":8533,"amientos":8534,"Ġconvirt":8535,"ĠTun":8536,"ĠType":8537,"estation":8538,"Ġisla":8539,"ĠCenter":8540,"ĠSept":8541,"plit":8542,"ĠMess":8543,"ĠHab":8544,"Ġ27":8545,"ipping":8546,"ĠjÃ³venes":8547,"ells":8548,"Ġcliente":8549,"Ġclases":8550,"Ġacom":8551,"Ġacad":8552,"ĠEnerg":8553,"ulario":8554,"Ġpoverty":8555,"ĠðŁİ":8556,"Ġcompleta":8557,"Ġcomplejas":8558,"Ġtempl":8559,"ĠComple":8560,"Ġblanco":8561,"Ġtransm":8562,"Ġtransmit":8563,"Ġparties":8564,"atively":8565,"cripts":8566,"Ġcomputador":8567,"Ġhair":8568,"ĠÑĩÐ°ÑģÑĤ":8569,"Ġanalog":8570,"olved":8571,"Ġleads":8572,"Ġllama":8573,"ebra":8574,"Ġmember":8575,"Ġindividu":8576,"sche":8577,"ÑĨÐ¸Ñİ":8578,"Ġvoid":8579,"Ġsatell":8580,"ĠAtl":8581,"Ġexploration":8582,"Ġespecialmente":8583,"Ġdegree":8584,"umbled":8585,"ĠtÃ©cnica":8586,"ĠrÃ¡pido":8587,"ĠRussia":8588,"Ġtalking":8589,"Ġtimeline":8590,"ĠÃºltimo":8591,"Ġconcerns":8592,"Ġmiembros":8593,"Ġrestrict":8594,"Ġfictional":8595,"Date":8596,"case":8597,"king":8598,"nie":8599,"var":8600,"yme":8601,"éħ":8602,"Ġign":8603,"Ġax":8604,"Ġtar":8605,"inc":8606,"inado":8607,"onas":8608,"Ġcogn":8609,"ĠdÃ©c":8610,"iti":8611,"itaciÃ³n":8612,"Ġdejo":8613,"Ġeight":8614,"rot":8615,"aca":8616,"acial":8617,"Ġglow":8618,"Ġvote":8619,"ĠCentral":8620,"ĠSen":8621,"Ġrates":8622,"Ġrender":8623,"otal":8624,"ÃŃgeno":8625,"Ġpared":8626,"ĠMerc":8627,"anda":8628,"ĠGreen":8629,"ĠGroup":8630,"Ġtranqu":8631,"Ġtruly":8632,"peror":8633,"Ġleaving":8634,"Ġjest":8635,"ĠJane":8636,"Ġsolid":8637,"Ġoblig":8638,"Ġstra":8639,"ÐºÑĢ":8640,"Ġactually":8641,"Ġmedios":8642,"Ġintu":8643,"Ġlistening":8644,"Ð¼ÐµÐ½":8645,"ĠÐ¼Ñĭ":8646,"ĠðŁį":8647,"ĠðŁļ":8648,"ĠÐ¿ÑĢÐ¸Ð²":8649,"Ġpreserv":8650,"Ã¡ng":8651,"ĠProcess":8652,"Ġsegment":8653,"Ġdrivers":8654,"Ġcrist":8655,"Ġpublished":8656,"Ġpropia":8657,"Ġsurvey":8658,"Ġparticle":8659,"Ġbenefic":8660,"Ġsociet":8661,"Ð¸Ð½Ð°":8662,"Ġescala":8663,"Ġcorrectamente":8664,"Ġeveryday":8665,"Ġprincipio":8666,"ĠCollege":8667,"Ġrepresentation":8668,"Ġfacing":8669,"Ġprocesos":8670,"Ġvoz":8671,"ä½ľ":8672,"Ġedge":8673,"Ġequipment":8674,"Ġcompetitive":8675,"Ġintroduction":8676,"ĠÑĢÐ°Ð·Ð»Ð¸Ñĩ":8677,"Ġproporciona":8678,"ĠQuant":8679,"Ġexercises":8680,"ĠNext":8681,"Ġsaludable":8682,"Ð¸Ð»ÑĮ":8683,"ĠÐ¿ÑĢÐ¾Ð¸Ð·":8684,"blica":8685,"âķĲ":8686,"ĠSecond":8687,"Ġseemed":8688,"ĠSmith":8689,"Ġiniti":8690,"Ġpropiedades":8691,"Ġcompletely":8692,"Ġinterfaz":8693,"çŃī":8694,"Ġrendimiento":8695,"powered":8696,"\"\"":8697,".âĢĿ":8698,"27":8699,"29":8700,"63":8701,"Br":8702,"cement":8703,"fe":8704,"part":8705,"path":8706,"paper":8707,"ç§":8708,"çĻ":8709,"Ġ...":8710,"eren":8711,"real":8712,"Ġannoun":8713,"Ġbree":8714,"Ġbomb":8715,"Ġtofu":8716,"Ġyield":8717,"Ġconveys":8718,"ĠCiv":8719,"irus":8720,"ĠSchool":8721,"Ġrued":8722,"Ð½Ð¾Ð¼":8723,"agre":8724,"ĠDest":8725,"ĠMany":8726,"ĠBill":8727,"ĠLuna":8728,"ĠFive":8729,"ogo":8730,"Ġclara":8731,"Ġlooks":8732,"Ġdidn":8733,"Ġentorno":8734,"Ġobs":8735,"Ġroles":8736,"Ġrows":8737,"Ġcube":8738,"ertas":8739,"Ġapps":8740,"ĠAlpha":8741,"ĠðŁĮ":8742,"ĠExamples":8743,"ĠConnect":8744,"uerdo":8745,"Ġinstance":8746,"Ġanalizar":8747,"ĠÐ·Ð°Ð´":8748,"Ġpurposes":8749,"Ġguide":8750,"Ġcontinues":8751,"Ġtrading":8752,"Ġmanaged":8753,"Ġproperty":8754,"Ġwindow":8755,"ĠpequeÃ±as":8756,"Ġcoche":8757,"Ġteaching":8758,"Ġemotion":8759,"Ġofrecer":8760,"Ġcloser":8761,"Ġafectar":8762,"Ġframework":8763,"ĠCharles":8764,"Ġbreath":8765,"Ġplataforma":8766,"Ġsurvive":8767,"ĠÐķÑģÐ»Ð¸":8768,"ĠÐºÐ¾Ð¼Ð¿ÑĮÑİÑĤÐµÑĢ":8769,"Ġexplanation":8770,"49":8771,"Ad":8772,"Data":8773,"IT":8774,"bles":8775,"cado":8776,"dad":8777,"found":8778,"rc":8779,"rez":8780,"icionales":8781,"Ġbark":8782,"user":8783,"ivia":8784,"ivamente":8785,"Ġquiet":8786,"ĠvÃŃ":8787,"Ġvie":8788,"ĠCoc":8789,"ĠIch":8790,"tera":8791,"ĠPac":8792,"Ġthus":8793,"Ġthous":8794,"ÑĢÐ¾Ð²":8795,"ÑĢÐ¾Ð½":8796,"ÑĢÐ¸Ð¼ÐµÑĢ":8797,"izados":8798,"ĠBen":8799,"ĠBas":8800,"apt":8801,"Ġhear":8802,"Ġjoke":8803,"Ġabilities":8804,"Ġshown":8805,"ÑĭÐ¼":8806,"Ġclas":8807,"ĠJes":8808,"ierte":8809,"ierta":8810,"Ġgraf":8811,"Ġweap":8812,"ptoms":8813,"Ġcollection":8814,"obe":8815,"Ġbrings":8816,"Ġze":8817,"uestos":8818,"def":8819,"Ġtransition":8820,"ĠÑĸ":8821,"Ġdiam":8822,"Ġminer":8823,"Ð¾Ð³Ð´Ð°":8824,"Ġvisible":8825,"Ġmainten":8826,"ungs":8827,"Ġpropio":8828,"Ġfinish":8829,"Ġterminal":8830,"Ġguitar":8831,"Ġcombined":8832,"ÐµÐºÐ¾ÑĤÐ¾ÑĢ":8833,"Ġdownload":8834,"Ġpreguntar":8835,"Ġuniversal":8836,"Ġarchivos":8837,"Ġdefined":8838,"Ġfaced":8839,"Ġgusta":8840,"Ġdivision":8841,"ä½¿":8842,"Ġconseguir":8843,"Ġiron":8844,"Ġplantas":8845,"ĠMaria":8846,"ĠPhotos":8847,"Ġapproaches":8848,"Ġevaluate":8849,"ĠDevelopment":8850,"Ġaspectos":8851,"Ġseparate":8852,"Ġcollected":8853,"ĠDespuÃ©s":8854,"Ġmedicine":8855,"Ġangle":8856,"è§£":8857,"Ġenabling":8858,"Ð°ÑİÑī":8859,"Ġsavings":8860,"æ³ķ":8861,"ĠGlobal":8862,"ĠConstitution":8863,"ebruary":8864,"ĠWilliam":8865,"Ġearthquake":8866,"ĠSeptember":8867,"lie":8868,"nd":8869,"pg":8870,"wh":8871,"çī":8872,"è¾":8873,"ĠÃŃn":8874,"ĠcÃ¡":8875,"Ġcarga":8876,"Ġmu":8877,"Ġmur":8878,"Ġbacter":8879,"Ġinher":8880,"acas":8881,"Ġnarr":8882,"Ġgibt":8883,"ĠCop":8884,"ĠSk":8885,"ĠServe":8886,"Ġrice":8887,"Ġalone":8888,"odies":8889,"ums":8890,"istical":8891,"agu":8892,"Ġexclus":8893,"Ġexchange":8894,"Ġstick":8895,"plan":8896,"ĠDer":8897,"ĠHaw":8898,"ĠFol":8899,"Ġhem":8900,"ĠcompaÃ±":8901,"Ġchart":8902,"Ġdelle":8903,"Ð¸Ð¶":8904,"ension":8905,"Ġstrings":8906,"Ġcuid":8907,"azz":8908,"ĠChild":8909,"Ġsonido":8910,"Ġbrill":8911,"ĠAlm":8912,"Ġmeters":8913,"ĠGeneral":8914,"phab":8915,"Ġmovies":8916,"Ġeres":8917,"Ġlibrar":8918,"Ġtypical":8919,"Ġcasos":8920,"Ġlooked":8921,"Ġescuch":8922,"Ġcorrecta":8923,"Ġdigest":8924,"Ð°ÑĢÑĤ":8925,"Ġcomparison":8926,"Ġwindows":8927,"Ġoccurs":8928,"ĠsensaciÃ³n":8929,"Ð°Ð¶Ð´":8930,"Ġmitig":8931,"Ġpesar":8932,"Ġdistributed":8933,"Ġlaboral":8934,"Ġflujo":8935,"Ġsorry":8936,"Ġapplied":8937,"åºı":8938,"Ġcontestant":8939,"Ġtraits":8940,"Ġshoes":8941,"Ġderivative":8942,"å¼Ģ":8943,"Ġgravitational":8944,"Ġequivalent":8945,"Ġaquellos":8946,"Ġforeign":8947,"Ġdiscounts":8948,"ĠTajik":8949,"77":8950,"ji":8951,"sign":8952,"Ñį":8953,"Ġsight":8954,"Ġli":8955,"Ġmerge":8956,"ald":8957,"Ġwalls":8958,"ader":8959,"ĠTele":8960,"este":8961,"ĠAle":8962,"ĠCloud":8963,"ĠSn":8964,"ĠSus":8965,"Ġran":8966,"ĠPower":8967,"Ġseasons":8968,"Ġparado":8969,"ÑĢÐ³":8970,"Ġstage":8971,"avia":8972,"ĠDu":8973,"andon":8974,"Ġsuelo":8975,"ĠRun":8976,"Ð»Ð³":8977,"ĠNLP":8978,"actions":8979,"Ġjunto":8980,"ĠOld":8981,"Ġclima":8982,"astÃŃa":8983,"ĠÐ²ÑĢÐµÐ¼":8984,"iku":8985,"ÐµÐ½Ð¸Ð¸":8986,"Ġmeditation":8987,"Ð´ÐµÐ»":8988,"Ġbridge":8989,"cules":8990,"Ġregistr":8991,"ĠðŁ¥":8992,"ĠðŁĵ":8993,"Ġrealistic":8994,"Ġcapa":8995,"ĠHeat":8996,"Ġentrepr":8997,"Ġmoving":8998,"Ġfinance":8999,"Ġ},":9000,"Ġpassive":9001,"Ġairport":9002,"ĠÃ©tica":9003,"Ġexpenses":9004,"Ġtomatoes":9005,"Ġfewer":9006,"äºİ":9007,"ĠÐ»Ð¸":9008,"ĠIndian":9009,"Ġerrores":9010,"ĠÑģÐ²ÑıÐ·":9011,"Ġintroduced":9012,"Ġreligious":9013,"ĠBritain":9014,"Ġconjuntos":9015,"Ġconsistent":9016,"Ġtreatments":9017,"Ġprofesionales":9018,"Ġgrupos":9019,"Ġdatasets":9020,"Ġsencilla":9021,"Ġagregar":9022,"Ġplataformas":9023,"Ġpropiedad":9024,"Ġcandidate":9025,"Ġpunct":9026,"Ġbanking":9027,"Ġtelevision":9028,"Ġscenario":9029,"ĠÃ¡rboles":9030,"Ġejercicio":9031,"Ġphilosophy":9032,"Ġprotagonist":9033,"ç¨ĭ":9034,"Ġbreeze":9035,"Ġlibraries":9036,"DP":9037,"bas":9038,"bul":9039,"eks":9040,"ker":9041,"pace":9042,"poca":9043,"zÃ³":9044,"||":9045,"Ġsom":9046,"Ġdra":9047,"Ġmue":9048,"Ġwing":9049,"Ġdetr":9050,"ionante":9051,"Ġnerv":9052,"ulf":9053,"ulaciÃ³n":9054,"ĠAz":9055,"Ġforever":9056,"ĠEas":9057,"Ð½Ñĥ":9058,"ĠRom":9059,"Ġreserv":9060,"Ġcharge":9061,"ĠInform":9062,"Ġkon":9063,"Ġ300":9064,"Ġatomic":9065,"ĠÐ½ÑĥÐ¶":9066,"Ġindica":9067,"Ġfuncional":9068,"ĠAdministr":9069,"ĠDesde":9070,"roll":9071,"Ġpode":9072,"urniture":9073,"Ġrequer":9074,"Ġspecified":9075,"emplo":9076,"employ":9077,"ĠÑĤÐ¾Ð³Ð¾":9078,"position":9079,"Ġnecesarios":9080,"Ġorganic":9081,"Ġconfirm":9082,"zeko":9083,"Ġensalada":9084,"Ġpaqu":9085,"ĠeconomÃŃa":9086,"Ġcombine":9087,"Ġjustice":9088,"Ġmagaz":9089,"Ġhyper":9090,"ĠpiÃ¹":9091,"Ġsimplemente":9092,"æĪĸ":9093,"ĠcomparaciÃ³n":9094,"ĠayudarÃ¡":9095,"Ġdivide":9096,"ĠÐµÑģÑĤÑĮ":9097,"ĠTherefore":9098,"Ġfascin":9099,"Ġcapacity":9100,"Ġdiversity":9101,"Ġglass":9102,"Ġmalicious":9103,"Ġcopy":9104,"Å¼e":9105,"Ġvelocity":9106,"Ġfalta":9107,"Ġpandas":9108,"ĠÃºtiles":9109,"ĠÐ¿Ð¾Ð»ÑĥÑĩ":9110,"ĠÙĪ":9111,"Ġ2023":9112,"Ġdudes":9113,"Ġcontestants":9114,"â£¿â£¿â£¿â£¿":9115,"Ġnavigation":9116,"ĠÐ¸Ð¼Ðµ":9117,"Ġschedule":9118,"ĠgÃ©nero":9119,"Ġshadows":9120,"ĠmecÃ¡nica":9121,"Ã©roe":9122,"Ġamazing":9123,"ĠDurante":9124,"ĠFlask":9125,"String":9126,"ĠmÃºltiples":9127,"43":9128,"Gr":9129,"bita":9130,"iest":9131,"mail":9132,"oT":9133,"å¿":9134,"æĻ":9135,"Ġapert":9136,"erte":9137,"Ġsan":9138,"ĠsÃ³l":9139,"Ġdro":9140,"Ġpac":9141,"Ġpiz":9142,"Ġlyr":9143,"Ġmied":9144,"itative":9145,"Ġfill":9146,"Ġbias":9147,"Ġbols":9148,"Ġhour":9149,"Ġunl":9150,"Ġstation":9151,"ĠDi":9152,"ĠMet":9153,"ĠMag":9154,"ĠMov":9155,"enda":9156,"ĠLeg":9157,"ĠHa":9158,"Ġwhom":9159,"ĠFR":9160,"Ġtried":9161,"Ġcompound":9162,"ups":9163,"ĠUK":9164,"Ġata":9165,"Ġhero":9166,"Ġaguj":9167,"Ġbrief":9168,"ÑĤÐ¾Ñĩ":9169,"Ġserved":9170,"Ġcalm":9171,"Ġpatent":9172,"ĠðŁ¦":9173,"ĠðŁĲ":9174,"iosis":9175,"Ġ##":9176,"Ð¸ÑĤÐ¼":9177,"ĠÐ½Ð°Ñĩ":9178,"Ġambas":9179,"Ġbasis":9180,"Ã¤t":9181,"Ġmemor":9182,"Ġmilitar":9183,"Ġdaughter":9184,"Ġdirectamente":9185,"Ġtenemos":9186,"Ġkeeping":9187,"Ġchoices":9188,"itesimals":9189,"ponse":9190,"ĠâĪ":9191,"Ġavailability":9192,"Ġcomponent":9193,"forcement":9194,"Ġenjoyed":9195,"Ġunderlying":9196,"Ġemployee":9197,"Ġcatal":9198,"Ġdescribing":9199,"ä¸Ģä¸ª":9200,"ĠÐ¶Ðµ":9201,"Ġcaball":9202,"Ġrestaurants":9203,"ĠoxÃŃgeno":9204,"ĠespecÃŃfico":9205,"Ġbuying":9206,"Ġalegr":9207,"ĠrÃ¡pida":9208,"Ġduda":9209,"Ġdishes":9210,"Ġlicense":9211,"Ġbranches":9212,"ĠComputer":9213,"Ġadvertising":9214,"ĠenseÃ±":9215,"Ġgolden":9216,"Ġwrong":9217,"Ġinfluenced":9218,"ĠÃ¡tomos":9219,"Ġenfoque":9220,"Ġlandscape":9221,"Ġreveal":9222,"èĩª":9223,"Ġasoci":9224,"ĠAnswer":9225,"There":9226,"cons":9227,"turn":9228,"å±":9229,"æµ":9230,"Ġdado":9231,"atus":9232,"Ġetern":9233,"Ġnail":9234,"ĠÐĵ":9235,"Ġrewards":9236,"ĠCard":9237,"irte":9238,"Ġproverb":9239,"email":9240,"Ġrating":9241,"ayana":9242,"ĠDÃŃa":9243,"ĠBol":9244,"ĠBarts":9245,"ĠBraz":9246,"ĠLE":9247,"aked":9248,"ĠFred":9249,"ĠFTP":9250,"Ġimplica":9251,"ogan":9252,"ighter":9253,"ipse":9254,"Ġchain":9255,"ĠplÃ¡":9256,"Ġshift":9257,"Ġspark":9258,"Ġspaces":9259,"Ġdistr":9260,"Ġprepare":9261,"Ġconsecu":9262,"Ġinterval":9263,"Ġposibles":9264,"Ġelev":9265,"Ġoutline":9266,"Ġdecade":9267,"ĠÐºÐ¾ÑĢ":9268,"liche":9269,"Ġthemes":9270,"ifying":9271,"erme":9272,"Ġgenerated":9273,"ÐµÑĢÐ°":9274,"Ġpoor":9275,"Ġcompleto":9276,"Ġrealized":9277,"enez":9278,"cripciÃ³n":9279,"Ġadvanc":9280,"Ġpropias":9281,"ĠhistÃ³r":9282,"ĠÐ·Ð°Ð²":9283,"Ġingres":9284,"Ġspeaking":9285,"Ġlogical":9286,"Ġgenocide":9287,"Ã¶r":9288,"cerely":9289,"Ġ150":9290,"Ġmanaging":9291,"Ġdifficulty":9292,"Ġradius":9293,"Ġsearching":9294,"Ġprotein":9295,"ĠAndroid":9296,"ĠÐºÐ¾ÑĤÐ¾ÑĢÑĭÐ¹":9297,"Ġflowers":9298,"Ġparticipants":9299,"ĠÑģÐ»ÑĥÑĩ":9300,"effective":9301,"Ġadecuado":9302,"Ġprioritize":9303,"Ġperspective":9304,"Ġhoney":9305,"Ġfarming":9306,"å¸®":9307,"ĠFinancial":9308,"ĠTibetan":9309,"ĠDinastÃŃa":9310,"Ġdedication":9311,"Ġtunnel":9312,"Ġappreciate":9313,"Ġestrategia":9314,"Ġconsidera":9315,"ĠÐ²Ð¾Ð·Ð¼Ð¾Ð¶":9316,"Ġcriteria":9317,"ĠFROM":9318,"69":9319,"AC":9320,"ND":9321,"cz":9322,"ding":9323,"dig":9324,"fen":9325,"wan":9326,"«ĺ":9327,"Ã¯":9328,"çĹ":9329,"Ġtir":9330,"Ġtag":9331,"ĠtÃ©":9332,"Ġdry":9333,"Ġom":9334,"osen":9335,"roy":9336,"omin":9337,"urre":9338,"Ġnor":9339,"iler":9340,"uten":9341,"Ġrepos":9342,"Ġrefr":9343,"Ġrecip":9344,"Ġrevenue":9345,"ĠTai":9346,"ĠAseg":9347,"ĠSam":9348,"owa":9349,"emp":9350,"Ġalert":9351,"ĠPublic":9352,"Ġesf":9353,"Ã©g":9354,"Ã©es":9355,"ects":9356,"chied":9357,"aker":9358,"ĠGold":9359,"ĠNav":9360,"Ġchopped":9361,"ÑıÐ½":9362,"Ġshor":9363,"Ġloud":9364,"Ġpuedas":9365,"inder":9366,"ĠUtil":9367,"Ġattrib":9368,"argar":9369,"aturas":9370,"Ġindicate":9371,"ĠChorus":9372,"Ġlisten":9373,"ÐµÑĤÐµ":9374,"uction":9375,"Ġ190":9376,"Ġcommands":9377,"ĠðŁı":9378,"ĠðŁĶ":9379,"Ġblank":9380,"Ġinspired":9381,"Ġscre":9382,"Ġminimum":9383,"Ġlocations":9384,"Ġnecesitar":9385,"Ġengines":9386,"pread":9387,"Ġperforming":9388,"Ġidentificar":9389,"Ġanti":9390,"Ġoperaciones":9391,"encies":9392,"ĠautomÃ¡tico":9393,"Ġinvesting":9394,"Ġsupports":9395,"Ġshowing":9396,"ĠlÃŃder":9397,"Ġencant":9398,"ÑĸÐ´":9399,"itchen":9400,"æĪ·":9401,"Ġpreferencias":9402,"Ġasking":9403,"Ġimplementing":9404,"lichen":9405,"Ġrespecto":9406,"Ġmister":9407,"Ã³rm":9408,"Ġmeses":9409,"ĠInstagram":9410,"ĠGPS":9411,"ĠTranslate":9412,"Ġconsiste":9413,"Ġcleaning":9414,"Ġbanana":9415,"âłĢâłĢâłĢâłĢ":9416,"Ġconstruction":9417,"Ġconcentration":9418,"gression":9419,"Ġobstacles":9420,"Ġsexual":9421,"ĠEinstein":9422,"Ġdynamic":9423,"Ġjuice":9424,"Ġcircum":9425,"Ġcinco":9426,"Ì¦Ì¦Ì¦Ì¦Ì¦Ì¦Ì¦Ì¦Ì¦Ì¦Ì¦Ì¦Ì¦Ì¦Ì¦Ì¦":9427,"Ġequilibrio":9428,"Ġanticip":9429,"ÑĥÐ½Ðº":9430,"ĠFrancisco":9431,"ĠfenÃ³m":9432,"Ġliquid":9433,"ĠMexico":9434,"Ġyogurt":9435,"Ġaguacate":9436,"Ġintelligent":9437,"ĠFacebook":9438,"Ġmaintenance":9439,"67":9440,"AF":9441,"DI":9442,"If":9443,"Ser":9444,"eat":9445,"ii":9446,"lor":9447,"water":9448,"Ø¹":9449,"é«ĺ":9450,"Ĥ¬":9451,"erican":9452,"Ġsir":9453,"Ġmer":9454,"Ġfle":9455,"Ġwings":9456,"Ġbil":9457,"Ġinm":9458,"iona":9459,"iday":9460,"Ġnative":9461,"ĠÐĹ":9462,"utch":9463,"elines":9464,"ecraft":9465,"Ð¾Ñī":9466,"ĠTop":9467,"Ã³p":9468,"ĠWy":9469,"ĠSa":9470,"Ġforests":9471,"ĠPers":9472,"izo":9473,"ĠBur":9474,"ĠLong":9475,"ĠFue":9476,"Ġsuele":9477,"ĠNote":9478,"ÑĥÐ¹":9479,"ĠIntegr":9480,"Ġmeant":9481,"ĠperÃŃ":9482,"Ġabord":9483,"Ġincert":9484,"Ġloved":9485,"Ġdistract":9486,"Ġdough":9487,"ĠÐ¿Ð¾Ð²":9488,"ireless":9489,"Ġgoes":9490,"ĠformaciÃ³n":9491,"Ġformato":9492,"ĠUnder":9493,"ĠÐºÐ¾Ð¶":9494,"ĠStreet":9495,"ĠÐ´ÐµÐ»":9496,"Ġminister":9497,"Ġ2003":9498,"ĠÑĢÐ°Ð±Ð¾ÑĤ":9499,"cuela":9500,"ä¸Ĭ":9501,"Ġ});":9502,"Ġsurg":9503,"ĠÃª":9504,"Ð°Ð»Ð¸":9505,"Ð¾ÑĢÐ¾":9506,"Ġpasa":9507,"Ġsucceed":9508,"ĠOnline":9509,"Ġcombust":9510,"Ġconnecting":9511,"Ġsupervis":9512,"Ð¾ÑĤÑĢ":9513,"ÃŃculo":9514,"Ġtenido":9515,"Ġvolver":9516,"Ġlessons":9517,"Ġconsumo":9518,"Ġlegisl":9519,"Ġbiod":9520,"Ġgeom":9521,"Ġsongs":9522,"ĠÐ¸Ð·ÑĥÑĩ":9523,"Ġnuestras":9524,"Ġsuggests":9525,"Ġsuggestions":9526,"Ġreported":9527,"Ġexpectations":9528,"Ġaffected":9529,"adrid":9530,"ĠMedia":9531,"Ð¿ÑĢÐµÐ´":9532,"Ġbanks":9533,"Ġperspectives":9534,"ĠÑĤÐ¾Ñĩ":9535,"Ġemergency":9536,"âĸĪâĸĪâķ":9537,"LECT":9538,"Ġnuclear":9539,"Ġmanufacturing":9540,"ĠpÃºblico":9541,"Ġsettings":9542,"ĠsÃ³lo":9543,"phabet":9544,"Ġincertid":9545,"Euro":9546,"GB":9547,"PE":9548,"Pr":9549,"bed":9550,"cd":9551,"cido":9552,"hab":9553,"hand":9554,"medad":9555,"rad":9556,"tÃ³":9557,"wide":9558,"ÑĬ":9559,"áº":9560,"æ±":9561,"è°":9562,"Ġion":9563,"Ġacept":9564,"Ġatract":9565,"Ġcv":9566,"Ġdan":9567,"Ġpig":9568,"Ġboy":9569,"edio":9570,"Ġtoken":9571,"ille":9572,"ollo":9573,"elt":9574,"Ġgift":9575,"ette":9576,"ĠTen":9577,"iring":9578,"ĠSym":9579,"ĠPredict":9580,"umen":9581,"umbre":9582,"stico":9583,"Ġstret":9584,"plot":9585,"ĠTheir":9586,"Ġoranges":9587,"Ġcanciones":9588,"ĠGen":9589,"ĠGuerra":9590,"Ġsole":9591,"ÑĥÐ²":9592,"ÑĥÐ±":9593,"Ġchair":9594,"Ġabandon":9595,"ormal":9596,"ĠOh":9597,"ĠOs":9598,"ĠOcean":9599,"Ġapolog":9600,"Ġcrea":9601,"Ġspot":9602,"Ġdisad":9603,"Ġnoise":9604,"Ġpref":9605,"Ãºblica":9606,"Ġamist":9607,"ika":9608,"iki":9609,"Ġobras":9610,"Ġnotes":9611,"Ġformer":9612,"Ġalgebra":9613,"ĠEnter":9614,"Ġproduces":9615,"ĠUnidos":9616,"Ġdecline":9617,"Ġmedidas":9618,"merce":9619,"Ġpolar":9620,"ĠAltern":9621,"ĠAlthough":9622,"ishing":9623,"Ġphras":9624,"Ġboat":9625,"ĠpresiÃ³n":9626,"Ġpresup":9627,"Ġhacen":9628,"Ð°ÐºÑĤ":9629,"Ġactividad":9630,"Ð¸ÑĤÑģÑı":9631,"Ġeran":9632,"venir":9633,"Ġmood":9634,"append":9635,"Ġended":9636,"Ġcalls":9637,"Ġensuring":9638,"vention":9639,"Ġelectron":9640,"199":9641,"Ġevening":9642,"Ġdirector":9643,"Ġinvolving":9644,"Ġorigen":9645,"Ġuniversity":9646,"Ġstands":9647,"Ġprediction":9648,"Ġfinanci":9649,"ÑİÑĤÑģÑı":9650,"Ġcantidades":9651,"Ġdomestic":9652,"Ġaccounts":9653,"Ġimplementar":9654,"Ġdescribir":9655,"ĠPrem":9656,"Ġwinner":9657,"åĪ°":9658,"ĠString":9659,"ä¹Ī":9660,"Ġbloque":9661,"Ġresistance":9662,"ĠÐŀÐ´":9663,"Ġinteresante":9664,"Ġestablece":9665,"Ġjudge":9666,"Ġupdates":9667,"Ġcorriente":9668,"ĠBusiness":9669,"ĠChatGPT":9670,"ĠIntroduction":9671,"Ð»ÑĮÑĤ":9672,"Ġgaming":9673,"Ġdestacar":9674,"Ġambiental":9675,"Ġmolecules":9676,"Ġhorizon":9677,"iÃ©nd":9678,"Ġsurprise":9679,"ainstorm":9680,"Ġecosystems":9681,"ĠEvaluate":9682,"ĠFibonacci":9683,"BS":9684,"CE":9685,"nia":9686,"vid":9687,"whel":9688,"ÐĲ":9689,"Ġsection":9690,"Ġpush":9691,"orrow":9692,"aren":9693,"icicle":9694,"ĠhÃ¡":9695,"Ġhop":9696,"quis":9697,"Ġnu":9698,"ecen":9699,"estar":9700,"ĠAR":9701,"igua":9702,"ĠCE":9703,"Ð¸Ñİ":9704,"Ġalle":9705,"istro":9706,"agers":9707,"step":9708,"avas":9709,"ĠMing":9710,"ĠBond":9711,"ĠLA":9712,"ĠLu":9713,"ĠLis":9714,"ĠGram":9715,"ĠFebruary":9716,"Ġtren":9717,"Ġtruth":9718,"ĠNations":9719,"ĠInput":9720,"Ġplug":9721,"Ġjed":9722,"0000":9723,"asted":9724,"ĠprogresiÃ³n":9725,"Ġalloc":9726,"Ġoverwhel":9727,"Ġregions":9728,"Ġcouldn":9729,"Ġacceder":9730,"Ġcruc":9731,"ĠpropÃ³sito":9732,"Ġenvironments":9733,"Ġbasket":9734,"Ã¼h":9735,"ossible":9736,"Ġlogic":9737,"ĠversiÃ³n":9738,"Ġeiner":9739,"ĠGrand":9740,"Ġpredictive":9741,"ÑĨÐ¸Ð°Ð»ÑĮ":9742,"Ġinfluential":9743,"Ġexplorar":9744,"ĠpequeÃ±a":9745,"haust":9746,"Ġ1990":9747,"Ġwalked":9748,"Ġdiscovery":9749,"Ġinstruction":9750,"Ð¿ÑĢÐ°Ð²":9751,"Ġknight":9752,"Ġeficiencia":9753,"Ġestablecer":9754,"Ġfluid":9755,"Ġupdate":9756,"Ġenviar":9757,"ĠÐºÐ¾Ð½ÑĤ":9758,"ĠÐ»ÑİÐ±":9759,"Ġheavy":9760,"Ġexternal":9761,"ĠAngeles":9762,"ĠlÃ³gica":9763,"Ġlibertad":9764,"ĠReturn":9765,"ĠTunis":9766,"ĠvÃŃde":9767,"79":9768,"85":9769,":**":9770,"Cont":9771,"Time":9772,"button":9773,"lam":9774,"new":9775,"ĠÃ³":9776,"Ġdic":9777,"Ġdimens":9778,"Ġpint":9779,"aten":9780,"Ġmang":9781,"ĠfÃ³rm":9782,"Ġwest":9783,"osos":9784,"ented":9785,"Ġhospital":9786,"ims":9787,"Ġunidad":9788,"amas":9789,"eting":9790,"ules":9791,"Ã³lar":9792,"ĠCher":9793,"ĠSqu":9794,"Ġrut":9795,"Ġalive":9796,"ĠPos":9797,"ĠMc":9798,"ĠMadrid":9799,"ĠHaving":9800,"Ġ29":9801,"Ġtrig":9802,"aping":9803,"ĠprÃ³":9804,"Ġnego":9805,"Ġspin":9806,"aching":9807,"Ġweeks":9808,"ĠItalian":9809,"Ġentry":9810,"Ġcolabor":9811,"ĠEnd":9812,"ologia":9813,"Ġmoder":9814,"Ġmedication":9815,"ianza":9816,"Ġago":9817,"Ð´Ðµ":9818,"Ġpolvo":9819,"Ġwilling":9820,"ĠStone":9821,"Ġpatients":9822,"ĠEsc":9823,"Ġhabla":9824,"Ġsecu":9825,"Ġinsight":9826,"ername":9827,"Ġshel":9828,"Ġcontract":9829,"Ð°Ð»Ð°":9830,"precio":9831,"Ġpaid":9832,"Ġcorrectly":9833,"Ġreaders":9834,"Ġpresento":9835,"Ġcharacterized":9836,"ĠSpec":9837,"Ġinteractions":9838,"ĠShow":9839,"ĠconversaciÃ³n":9840,"ĠCook":9841,"ĠdinÃ¡m":9842,"ĠManhat":9843,"Ġsymptoms":9844,"Ġslogan":9845,"ĠGPU":9846,"ÐµÑģÑĤÐ²Ð¾":9847,"tesis":9848,"ĠÑĦÑĥÐ½Ðº":9849,"Ġtendr":9850,"Ġassistance":9851,"Ġdescubrir":9852,"ĠgestiÃ³n":9853,"Ġajudar":9854,"Ġasegurarse":9855,"ĠWarsza":9856,"ĠDogs":9857,"Ġetiqueta":9858,"Ġstyles":9859,"ĠingenierÃŃa":9860,"Ġgarden":9861,"Ġenfermedad":9862,"icicleta":9863,"88":9864,"Col":9865,"FPA":9866,"My":9867,"NN":9868,"Serv":9869,"cs":9870,"code":9871,"dar":9872,"eja":9873,"last":9874,"ney":9875,"ye":9876,"Ùģ":9877,"åķ":9878,"Ġtech":9879,"iner":9880,"esian":9881,"onaut":9882,"Ġcraft":9883,"Ġsad":9884,"ĠdÃ³lar":9885,"Ġpunt":9886,"Ġmail":9887,"Ġfurniture":9888,"Ġwal":9889,"Ġinner":9890,"quality":9891,"imation":9892,"Ġunable":9893,"elle":9894,"Ġconex":9895,"Ġquite":9896,"ĠAqu":9897,"Ġvist":9898,"ĠPi":9899,"ĠPan":9900,"ĠPour":9901,"Ð½Ðµ":9902,"uman":9903,"stal":9904,"style":9905,"Ã©tr":9906,"ĠMr":9907,"ocal":9908,"ĠGame":9909,"Ġ\"\"\"":9910,"ĠRust":9911,"ĠRock":9912,"Ġsoul":9913,"Ġimpress":9914,"Ġplaced":9915,"Ġ31":9916,"Ġ32":9917,"Ġincon":9918,"Ġmaneras":9919,"Ġclientes":9920,"Ġacuerdo":9921,"Ġdisaster":9922,"Ġdispers":9923,"asty":9924,"pty":9925,"ÑģÑĤÐ°Ð²":9926,"ensa":9927,"ĠÐ²Ð¸Ð´":9928,"berg":9929,"Ġnoticed":9930,"ĠVol":9931,"ĠVerse":9932,"azioni":9933,"Ġotherwise":9934,"ĠChile":9935,"ĠAlbert":9936,"ĠExerc":9937,"ĠÐ¿ÑĢÐ¸Ð¼ÐµÑĢ":9938,"Ġdijo":9939,"Ġacceler":9940,"Ġmath":9941,"Ġhaciendo":9942,"Ġskin":9943,"ernel":9944,"Ġ||":9945,"Ġmoves":9946,"Ġnecesita":9947,"Ġcenturies":9948,"ĠÃģ":9949,"ctric":9950,"Ġlleng":9951,"Ġcasi":9952,"Ġbasado":9953,"Ġstatic":9954,"ĠlimÃ³n":9955,"enciales":9956,"ĠSincerely":9957,"Ġvolt":9958,"Ġmoments":9959,"Ġcarefully":9960,"Ġhappiness":9961,"Ġdiversos":9962,"Ġcards":9963,"Ġindependencia":9964,"Ġintroduce":9965,"å¤ļ":9966,"Ġfamilies":9967,"ĠmatemÃ¡tica":9968,"ĠreligiÃ³n":9969,"Ġdespite":9970,"Ã¡mara":9971,"Ġcontainer":9972,"Ġpensar":9973,"ĠelectrÃ³nico":9974,"ĠRobert":9975,"ĠNetwork":9976,"Ġvocab":9977,"Ġcartas":9978,"Ġconvenience":9979,"This":9980,"Ġfulf":9981,"ĠÑģÐ¿Ð¾Ñģ":9982,"Ġcotid":9983,"Ġguidance":9984,"password":9985,"Ġincredible":9986,"ĠUNFPA":9987,"Ġautonomous":9988,"ĠBerlin":9989,"ĠDarwin":9990,"Ġapoyo":9991,"Ġencountered":9992,"Ġedificios":9993,"ĠInstitute":9994,"Ð½Ð°ÐºÐ¾":9995,"Ġintuitive":9996,"ĠCivil":9997,"Ġmiedo":9998,"Ġphrases":9999,"61":10000,"Ac":10001,"UT":10002,"bro":10003,"ej":10004,"iores":10005,"rics":10006,"Ãµ":10007,"ĠtÃŃ":10008,"Ġtono":10009,"inals":10010,"Ġsrc":10011,"Ġwo":10012,"osas":10013,"Ġbell":10014,"acon":10015,"acidad":10016,"Ġlaun":10017,"ĠAtt":10018,"ĠCode":10019,"ĠCath":10020,"ĠSI":10021,"emple":10022,"Ġrig":10023,"Ġelabor":10024,"ĠEvent":10025,"ayer":10026,"ĠparÃ¡m":10027,"Ġstaff":10028,"ĠDig":10029,"ĠDocker":10030,"ĠMX":10031,"ĠMost":10032,"ĠLight":10033,"ibre":10034,"opher":10035,"Ġsuave":10036,"ugs":10037,"ĠOffer":10038,"ĠJay":10039,"ĠUltim":10040,"Ġgrat":10041,"ĠÐ¿Ð¾Ð·":10042,"ificado":10043,"thern":10044,"ĠÐ¸ÑģÑĤ":10045,"berries":10046,"ĠÐ½Ð°Ð´":10047,"ÐºÐ»ÑİÑĩ":10048,"ÐµÐ½Ð½Ð¾":10049,"ĠelecciÃ³n":10050,"ĠEstados":10051,"Ġcomplement":10052,"Ġboost":10053,"ĠÐ¿ÑĢÐ¾Ð²":10054,"Ġplanets":10055,"Ġbecomes":10056,"Ġavances":10057,"inkle":10058,"ĠÑĢÐµ":10059,"Ġmovements":10060,"Ġfinished":10061,"Ġclassroom":10062,"Ġprinter":10063,"uela":10064,"uelo":10065,"Ġinvestments":10066,"tonces":10067,"ĠpodrÃ¡s":10068,"Ġsupervised":10069,"Ġinteger":10070,"ÑĢÑĥÐ¶":10071,"Ġpracticar":10072,"ĠSince":10073,"Ð°ÑģÑģ":10074,"ĠRecords":10075,"Ġfunds":10076,"Ġimplemented":10077,"Ġmassive":10078,"Ġdescribed":10079,"Ġcarbono":10080,"Ð¸ÑĢÐ¾Ð²Ð°ÑĤÑĮ":10081,"Ġmessages":10082,"Ġinvestigar":10083,"Ġagrad":10084,"Ġevaluar":10085,"ä¹ł":10086,"number":10087,"CuÃ¡les":10088,"Ġconduct":10089,"Ġdisponible":10090,"ĠÑĨÐµÐ½":10091,"ĠÙħ":10092,"Ġconsultar":10093,"Ġ2022":10094,"Ġpadres":10095,"Ġburning":10096,"Ġpsic":10097,"Ġdolor":10098,"Ġmechanics":10099,"ĠexpresiÃ³n":10100,"Ġdetalles":10101,"èĢħ":10102,"âĢįðŁĳ":10103,"ĠdiscriminaciÃ³n":10104,"Ġrecibir":10105,"ĠOlympic":10106,"ĠÐ¸Ð½ÑĤÐµÑĢÐµÑģ":10107,"Ġneutral":10108,"ygame":10109,"è¨Ģ":10110,"ĠUltimately":10111,"37":10112,"={":10113,"DB":10114,"HP":10115,"IX":10116,"OP":10117,"cop":10118,"gi":10119,"rd":10120,"uja":10121,"wie":10122,"well":10123,"Ðĺ":10124,"Ġ]":10125,"ĠtÃº":10126,"Ġcrop":10127,"ĠcÃ¡mara":10128,"orra":10129,"atter":10130,"Ġbon":10131,"Ġinfer":10132,"level":10133,"Ġhund":10134,"usiÃ³n":10135,"ĠÐ£":10136,"Ġrely":10137,"Ġregr":10138,"Ġreps":10139,"Ġconvey":10140,"Ġquiere":10141,"ulating":10142,"ĠIl":10143,"Ġforec":10144,"Ð°ÐµÐ¼":10145,"Ð¸Ð»Ð¸":10146,"ĠPy":10147,"Ã¡til":10148,"Ġparent":10149,"Ġstumbled":10150,"ĠMil":10151,"cher":10152,"Ġcancer":10153,"aped":10154,"Ġimmedi":10155,"ĠRoy":10156,"iales":10157,"Ġchil":10158,"Ġke":10159,"Ġdisp":10160,"Ġcontaining":10161,"Ġwear":10162,"ĠinterÃ©s":10163,"Ġnotable":10164,"Ġcuis":10165,"Ġpeak":10166,"Ð²Ð»":10167,"Ġevil":10168,"Ġfrase":10169,"ĠKnow":10170,"Ġintense":10171,"Ġzum":10172,"Ġserves":10173,"ĠregiÃ³n":10174,"ĠÐ¼Ð¾Ð´":10175,"ĠCreating":10176,"Ġtuvo":10177,"Ġespect":10178,"Ġsimples":10179,"ĠÑĤÐ¾Ð¼":10180,"Ġsalida":10181,"Ġcurios":10182,"Ġhayas":10183,"Ġlongitud":10184,"como":10185,"Ġanimation":10186,"Ġ2016":10187,"Ġ2019":10188,"ĠespecÃŃfica":10189,"Ġdistant":10190,"Ġstatements":10191,"Ġstatistical":10192,"Ġsmallest":10193,"lands":10194,"Ġconcert":10195,"Ġcombat":10196,"ÐµÐ¹ÑģÑĤÐ²":10197,"Ġruns":10198,"Ð¸ÐºÐ¸":10199,"Ġfacilit":10200,"Ġinteraction":10201,"Ġlabels":10202,"Ġprocesar":10203,"ĠEmperor":10204,"Ġoffered":10205,"Ġarrays":10206,"Ġcooking":10207,"Ġampliamente":10208,"Ġopiniones":10209,"angered":10210,"Ġaumento":10211,"Ġconductor":10212,"Ġqualities":10213,"ĠprecisiÃ³n":10214,"Ġbanda":10215,"Ġassistants":10216,"æĸ¹":10217,"ĠSmart":10218,"Ġciviliz":10219,"Ġliterature":10220,"ĠelÃ©ctrica":10221,"Ġfootball":10222,"ĠSELECT":10223,"Ġejecutar":10224,"ĠWarsaw":10225,"ĠCatal":10226,"Ġagricultural":10227,"ÐļÐ°Ðº":10228,"ĠningÃºn":10229,"Ġborough":10230,"Ġincentives":10231,"Ġfrecuencia":10232,"Ġneighbor":10233,"æĽ´":10234,"Ġacompa":10235,"ĠÐ¿ÑĢÐ¾Ð¸Ð·Ð²":10236,"Ġpresupuesto":10237,"ĠManhattan":10238,"Ãµes":10239,"():":10240,"CA":10241,"Seg":10242,"eper":10243,"host":10244,"ris":10245,"zko":10246,"ÐĶ":10247,"ÑĹ":10248,"åĵ":10249,"æĮ":10250,"ç´":10251,"Ġpier":10252,"asp":10253,"Ġfederal":10254,"Ġease":10255,"Ġinfr":10256,"Ġhag":10257,"urpose":10258,"image":10259,"etch":10260,"Ġreplic":10261,"ĠSatur":10262,"ĠSearch":10263,"ĠScient":10264,"ĠIV":10265,"Ġru":10266,"ifically":10267,"ÃŃc":10268,"ĠEv":10269,"oding":10270,"Ġtherap":10271,"Ġexhaust":10272,"ĠMem":10273,"ĠMientras":10274,"ĠBan":10275,"ĠBit":10276,"ĠBest":10277,"ĠLord":10278,"aka":10279,"ĠFA":10280,"ĠFuego":10281,"ĠNAS":10282,"Ġplot":10283,"Ġplazo":10284,"Ġkom":10285,"anged":10286,"ĠThough":10287,"Ġcoefficient":10288,"onda":10289,"Ġfrente":10290,"Ġintentar":10291,"ĠAdobe":10292,"Ġpobre":10293,"Ġverde":10294,"Ġcorrup":10295,"ĠcorazÃ³n":10296,"Ġutilizada":10297,"Ġequations":10298,"Ġsignals":10299,"Ġdriver":10300,"Ġinstant":10301,"Ġcontrario":10302,"ĠÐ±ÐµÐ·":10303,"Ġlluv":10304,"Ð¾ÑĢÐ¸ÑĤÐ¼":10305,"Ġperformed":10306,"Ġsunset":10307,"ĠColor":10308,"ĠÐ»ÑĥÑĩ":10309,"ĠSpace":10310,"Ġmoderna":10311,"clusion":10312,"ynthesis":10313,"Ġresume":10314,"Ġprecise":10315,"Ġdescriptive":10316,"Ġrecommended":10317,"Ġmaximize":10318,"ĠÑģÐ»ÐµÐ´":10319,"Ġ1960":10320,"ĠpolÃŃtico":10321,"ĠText":10322,"ĠØ¨":10323,"Ġupload":10324,"Ġhistorias":10325,"Ãªn":10326,"Ġcerca":10327,"ĠRemember":10328,"ĠÃºltimos":10329,"ĠÐ¢Ð°Ðº":10330,"Ġbroadcast":10331,"Ġpenal":10332,"Ġwait":10333,"Ġcumplir":10334,"Ġcoordin":10335,"Ġhousing":10336,"é¢ĺ":10337,"ĠEnsalada":10338,"esterday":10339,"Ġrecovery":10340,"Ġgrammatically":10341,"Ġgarantizar":10342,"Ġdiagnosis":10343,"Ã¡ngulo":10344,"ä½¿çĶ¨":10345,"Ð»Ð³Ð¾ÑĢÐ¸ÑĤÐ¼":10346,"Ġlyrics":10347,"avascript":10348,"Am":10349,"CH":10350,"DA":10351,"SF":10352,"fan":10353,"main":10354,"sent":10355,"tat":10356,"tain":10357,"zan":10358,"zie":10359,"åģ":10360,"åŁ":10361,"æ¯":10362,"Ġaplica":10363,"onia":10364,"Ġsaving":10365,"Ġdorm":10366,"Ġdarme":10367,"Ġpd":10368,"orph":10369,"Ġlie":10370,"Ġmostrar":10371,"Ġwolves":10372,"osaur":10373,"Ġinquir":10374,"Ġtoler":10375,"Ġhers":10376,"Ġhuge":10377,"acement":10378,"iding":10379,"olo":10380,"utional":10381,"Ġgast":10382,"Ġgatos":10383,"Ġreus":10384,"Ġreverse":10385,"ĠTok":10386,"ulated":10387,"ĠAhora":10388,"ĠCast":10389,"ĠSelf":10390,"Ġring":10391,"ĠEj":10392,"ĠEIN":10393,"Ð½Ð¸Ð¼":10394,"Ġaspir":10395,"ĠBank":10396,"ĠLine":10397,"ĠHome":10398,"ĠFound":10399,"ĠFET":10400,"ĠNight":10401,"Ġchrom":10402,"Ġplato":10403,"ĠperÃ²":10404,"Ġjum":10405,"Ġdella":10406,"Ġaport":10407,"iencias":10408,"Ġclub":10409,"Ġacab":10410,"ĠThomas":10411,"Ġgrado":10412,"Ġembr":10413,"Ġcoat":10414,"Ġenth":10415,"Ġcola":10416,"ĠEnc":10417,"ĠcuÃ¡l":10418,"azul":10419,"Ġpose":10420,"Ġnewfound":10421,"conf":10422,"Ġoppon":10423,"ĠEstado":10424,"ĠÂ°":10425,"Ġworkout":10426,"Ġpound":10427,"Ġpoderos":10428,"ĠProduct":10429,"Ġdeveloper":10430,"clud":10431,"Ġsmell":10432,"Ġhaiku":10433,"Ġinfect":10434,"Ġprimarily":10435,"Ġidentified":10436,"apping":10437,"Ġreflex":10438,"Ġcultiv":10439,"Ġcontinued":10440,"Ġinternal":10441,"Ġstepped":10442,"ÐµÐºÑģÑĤ":10443,"ĠSoci":10444,"Ġsinger":10445,"Ġresponsibility":10446,"Ġvegan":10447,"liament":10448,"ĠtecnolÃ³g":10449,"Ġmention":10450,"Ġprocesamiento":10451,"ä½ĵ":10452,"Ġoccup":10453,"Ġvisualization":10454,"Ġsymb":10455,"ÑĳÑĤ":10456,"Ġopinions":10457,"ĠÑģÐ»Ð¾Ð¶":10458,"Ġnormalization":10459,"ĠelectrÃ³nicos":10460,"Ġvivir":10461,"ĠespaÃ±ola":10462,"Ġsnacks":10463,"åľ°":10464,"Ġsencillo":10465,"Ġwildlife":10466,"Ġfitness":10467,"Ġkilomet":10468,"Ġstreaming":10469,"ĠPractice":10470,"Ġgathering":10471,"éĹ®":10472,"Ġalmacenar":10473,"Ġsintaxis":10474,"Ġagriculture":10475,"Ġponer":10476,"ÐµÐ½Ð¸Ñİ":10477,"è¡Į":10478,"Ġenhance":10479,"Ġresilience":10480,"ĠCuba":10481,"Ġentertainment":10482,"Ġgobierno":10483,"ĠtelÃ©fono":10484,"Ġstraight":10485,"ĠÃŃnd":10486,"Ġentreprene":10487,"ĠBrazil":10488,"Ġincertidumbre":10489,"ĠÐŀÐ´Ð½Ð°ÐºÐ¾":10490,"ĠdÃ³lares":10491,"Ġherself":10492,"\";":10493,"Bu":10494,"Res":10495,"cm":10496,"hÃŃ":10497,"ri":10498,"tical":10499,"åĳ":10500,"æĶ":10501,"Ĥï¸ı":10502,"esar":10503,"Ġpiel":10504,"Ġpasta":10505,"ati":10506,"Ġluck":10507,"Ġfra":10508,"Ġhomes":10509,"amin":10510,"ecir":10511,"Ġgato":10512,"ĠAM":10513,"ĠWall":10514,"ĠCount":10515,"ĠSil":10516,"Ġcomics":10517,"Ġaltres":10518,"Ġalphabet":10519,"ĠEven":10520,"stand":10521,"avel":10522,"ĠDO":10523,"chaft":10524,"ĠBang":10525,"ĠLit":10526,"iba":10527,"Ġwhose":10528,"Ġtrib":10529,"ctic":10530,"ĠRE":10531,"ĠRear":10532,"Ġnegr":10533,"Ġresolution":10534,"Ġdesventajas":10535,"Ġplans":10536,"ĠktÃ³":10537,"ustain":10538,"Ġaber":10539,"Ġcontar":10540,"Ġweigh":10541,"Ġconsole":10542,"prend":10543,"ĠÑģÐ¼":10544,"ĠÑģÐµÐ±":10545,"ĠÐ½ÐµÐ¹":10546,"Ġmodificar":10547,"Ġposibilidad":10548,"enger":10549,"Ġrespet":10550,"Ġgenerations":10551,"Ġrealiza":10552,"Ġsettle":10553,"Ġsigns":10554,"ĠvisiÃ³n":10555,"Ġmainly":10556,"ĠÑĢÐµÑĪ":10557,"Ġsubjet":10558,"Ġcontrato":10559,"Ġremaining":10560,"Ġconfianza":10561,"uelle":10562,"Ġcorrel":10563,"Ġmemories":10564,"Ġattacks":10565,"atsby":10566,"Ġconnections":10567,"Ġhydr":10568,"ä»£":10569,"Ġsimilarities":10570,"Ġfunding":10571,"Ġbehaviors":10572,"worth":10573,"ĠAccess":10574,"ĠbÃ¡sicas":10575,"Ġventana":10576,"Ġpaths":10577,"Ġdirig":10578,"ĠÐ¼Ð¾Ð¶ÐµÑĤÐµ":10579,"Ġbloques":10580,"ĠespecÃŃficos":10581,"Ġurban":10582,"Ġcollaborate":10583,"Ġneuron":10584,"ĠCharacter":10585,"Ġnumerical":10586,"Ġterror":10587,"Ġmonitoring":10588,"Ġcutting":10589,"Ġnavigate":10590,"Ġfrequent":10591,"Ġorders":10592,"Ġdemonstrate":10593,"Ġdrinking":10594,"Ġodd":10595,"ĠaÃ±adir":10596,"ĠØ§ÙĦØ":10597,"Ġenfrent":10598,"âĢįâĻĤï¸ı":10599,"Ġphenomen":10600,"Ġoutdoor":10601,"Ġwatched":10602,"éĽª":10603,"Ġriesgo":10604,"ockingbird":10605,"Ġexpertise":10606,"ĠAlmuerzo":10607,"ĠÐ½ÑĥÐ¶Ð½Ð¾":10608,"Ġshorter":10609,"Ġlaunched":10610,"'(":10611,"59":10612,"76":10613,"BA":10614,"Pl":10615,"[]":10616,"cles":10617,"dem":10618,"night":10619,"och":10620,"sort":10621,"Ġic":10622,"inch":10623,"Ġcz":10624,"Ġcable":10625,"Ġcrow":10626,"Ġsail":10627,"Ġpend":10628,"orough":10629,"rew":10630,"reme":10631,"Ġmouse":10632,"itÃ©":10633,"Ġfon":10634,"Ġwenn":10635,"Ġbubble":10636,"Ġhunter":10637,"quarter":10638,"imas":10639,"Ġunt":10640,"Ġunits":10641,"Ġquote":10642,"ĠTaking":10643,"Ġrab":10644,"abil":10645,"ĠEqu":10646,"ĠPHP":10647,"Ġbei":10648,"ste":10649,"open":10650,"ĠGes":10651,"ĠGatsby":10652,"ĠFour":10653,"Ġpues":10654,"angers":10655,"ĠOff":10656,"Ġtej":10657,"Ġcreado":10658,"Ãºt":10659,"Ġfolder":10660,"ĠÐ²Ð°Ñģ":10661,"Ġsola":10662,"Ġsoll":10663,"ĠÑģÑĩ":10664,"hern":10665,"ports":10666,"ĠÐ¾Ð¿ÑĢÐµÐ´":10667,"egative":10668,"Ġfox":10669,"ÐµÑĢÐ°ÑĤ":10670,"Ġservir":10671,"Ġmetab":10672,"Ġpresencia":10673,"Ġminimal":10674,"ï¼Ī":10675,"Ġthank":10676,"Ġcomputadora":10677,"ĠDev":10678,"ĠÑĩÐµÐ¼":10679,"ĠÐ±Ð»":10680,"vironment":10681,"pair":10682,"ĠÐ·Ð½Ð°Ñĩ":10683,"Ġconfidence":10684,"Ġpossibilities":10685,"Ġhandling":10686,"Ġbreaking":10687,"ĠÃ©poca":10688,"brir":10689,"Ġarticles":10690,"Ġbroken":10691,"Ġtests":10692,"Ġessere":10693,"Ġcosto":10694,"Ġsituaciones":10695,"Ġsinging":10696,"Ġindustria":10697,"ÃŃculos":10698,"Ġstanding":10699,"Ġcalculations":10700,"Ġeinem":10701,"ĠGovern":10702,"ĠSpain":10703,"Ġmajority":10704,"Ġstronger":10705,"itosis":10706,"Ġfeliz":10707,"Ġimplementation":10708,"Ġcocina":10709,"Ġsaying":10710,"Ġphoto":10711,"Ġpensamiento":10712,"ĠAbout":10713,"Ġavoiding":10714,"Ġvotes":10715,"Ġhotel":10716,"ĠBuddhist":10717,"ÅĽci":10718,"Ġwidth":10719,"ĠRegular":10720,"ĠParticip":10721,"ĠradiaciÃ³n":10722,"related":10723,"ĠelÃ©ctrico":10724,"Ġemocional":10725,"ĠModel":10726,"Ġconstantly":10727,"Ġconvenient":10728,"Ġdisfrutar":10729,"Ġadvertis":10730,"ĠmÃ³d":10731,"Ġreminder":10732,"Ġcircuitos":10733,"Ġpursue":10734,"ĠRenewable":10735,"ĠTajikistan":10736,"ĠÑģÐ¿Ð¾ÑģÐ¾Ð±":10737,"Ġcuisine":10738,"%.":10739,"74":10740,"Bl":10741,"Number":10742,"free":10743,"ln":10744,"tles":10745,"txt":10746,"tml":10747,"çĦ":10748,"èī":10749,"Ġaw":10750,"onÃŃa":10751,"Ġcul":10752,"Ġses":10753,"Ġpunter":10754,"Ġtheor":10755,"Ġoct":10756,"alg":10757,"itate":10758,"Ġfro":10759,"iche":10760,"Ġdepression":10761,"Ġdeeper":10762,"Ġbond":10763,"rooms":10764,"Ġtocar":10765,"Ġhes":10766,"Ġhorm":10767,"idamente":10768,"imon":10769,"Ġunemploy":10770,"Ġgama":10771,"ĠAction":10772,"Ġprod":10773,"Ġproposed":10774,"Ġrural":10775,"Ð¸ÑĢÑĥ":10776,"ĠPerm":10777,"ÑģÑĮ":10778,"Ġesencial":10779,"stall":10780,"Ġasc":10781,"ĠMid":10782,"ĠMant":10783,"ĠMars":10784,"ĠHo":10785,"ĠHist":10786,"Ġcanvas":10787,"ĠFun":10788,"Ġtrap":10789,"Ġprono":10790,"Ġ(-":10791,"Ð»Ð¸Ð²":10792,"ÑĥÑħ":10793,"Ġkitchen":10794,"Ġjoven":10795,"Ġdelicios":10796,"Ġabund":10797,"Ġ36":10798,"Ġdismin":10799,"Ġdiff":10800,"ears":10801,"echuga":10802,"Ġforming":10803,"Ġpeut":10804,"ĠKill":10805,"ulares":10806,"Ġih":10807,"ĠallÃŃ":10808,"ĠÐºÐ¾Ð»":10809,"Ð´ÐµÑĢÐ¶":10810,"ĠAlso":10811,"ĠStore":10812,"Ġoverview":10813,"Ġutilizados":10814,"ĠÐ¿ÑĢÐ¸Ð½":10815,"ĠÐ¿ÑĢÐ¾ÑģÑĤ":10816,"ï¼ī":10817,"Ġartists":10818,"ĠÑĤÑĭ":10819,"arma":10820,"Ġasset":10821,"param":10822,"Ġdesigning":10823,"Ġobjectives":10824,"ĠmenÃº":10825,"ĠÑĥÑģÑĤ":10826,"Ġ180":10827,"Ġocurr":10828,"Ġmillions":10829,"Ġpromedio":10830,"Ġeventos":10831,"Ġreader":10832,"Ġdefinir":10833,"Ð¸ÐºÐ°":10834,"Ġconsumers":10835,"ĠÐ¾ÑĤÐ²ÐµÑĤ":10836,"Ġmeasuring":10837,"Ġposts":10838,"Ġpelig":10839,"force":10840,"istry":10841,"Ġfaith":10842,"ĠHTTP":10843,"ĠAcadem":10844,"mania":10845,"ĠbÃ¡sico":10846,"Ġrelevantes":10847,"Ġadapted":10848,"ĠInstead":10849,"coli":10850,"Ġpurchases":10851,"è¯Ń":10852,"Ġsharp":10853,"Ġfuncionamiento":10854,"Ġsemana":10855,"Ġcabo":10856,"ĠLook":10857,"ĠclimÃ¡tico":10858,"Ġupdated":10859,"åºĶ":10860,"Ġrocket":10861,"Ġtratar":10862,"Ġromantic":10863,"holders":10864,"Ġvuelta":10865,"Ġmountains":10866,"Ġadjective":10867,"ĠDefine":10868,"Ġspeaker":10869,"ĠPoint":10870,"Ġdedicated":10871,"Ġastronom":10872,"Ġnutrients":10873,"ĠTurkey":10874,"ĠÐ±Ð¾Ð»ÑĮÑĪÐµ":10875,"Ġfunctionality":10876,"ĠexpansiÃ³n":10877,"Ġsuffering":10878,"Ġrecycling":10879,"ahrsche":10880,"Ġescritura":10881,"Ġsatellite":10882,"Ġtarjet":10883,"å¸®åĬ©":10884,"ĠCherry":10885,"86":10886,"EL":10887,"Row":10888,"fits":10889,"how":10890,"pact":10891,"she":10892,"çİ":10893,"Ġ000":10894,"Ģï¸ı":10895,"Ġcaja":10896,"Ġsed":10897,"Ġdans":10898,"orre":10899,"anj":10900,"Ġmyth":10901,"Ġmundial":10902,"Ġeuro":10903,"Ġbin":10904,"Ġber":10905,"Ġbater":10906,"Ġnach":10907,"iminal":10908,"Ġuncover":10909,"ĠTag":10910,"Ġvoy":10911,"ĠWenn":10912,"ĠSing":10913,"Ġelim":10914,"ĠEcu":10915,"ayed":10916,"Ġseeds":10917,"Ġesos":10918,"Ġstre":10919,"ĠMÃ©":10920,"iber":10921,"opol":10922,"Ġhearing":10923,"ĠRad":10924,"Ġchann":10925,"Ġperf":10926,"elled":10927,"crast":10928,"ĠUm":10929,"Ġ44":10930,"ĠÐ²Ð°Ð¶":10931,"Ġpersonaje":10932,"ĠevoluciÃ³n":10933,"Ġrelief":10934,"Ġproducir":10935,"ĠYog":10936,"ĠLaw":10937,"Ġsono":10938,"ĠStir":10939,"ÑĤÑĮÑģÑı":10940,"Ġmucha":10941,"Ġcalend":10942,"Ð¾Ð»Ð¾Ð³":10943,"ĠÐ´Ð²":10944,"Ġmostly":10945,"Ġaccused":10946,"Ġ75":10947,"Ġdebate":10948,"ĠArm":10949,"Ġretail":10950,"Ġsmile":10951,"Ġsubs":10952,"Ġfinds":10953,"Ġnecesarias":10954,"ĠÑĥÐ»":10955,"ĠÑįÐ¼":10956,"Ġresto":10957,"Ġsignificado":10958,"Ġpresented":10959,"Ġresponsable":10960,"ĠBrainstorm":10961,"Ġextend":10962,"ĠUSA":10963,"ĠIndustr":10964,"Ġstaying":10965,"Ġprotecting":10966,"Ġreaching":10967,"Ġreferencia":10968,"ĠConsider":10969,"Ġoccas":10970,"Ġobtain":10971,"ĠdomÃ³tica":10972,"Ġilleg":10973,"Ð¾Ð²Ð°Ð½Ð¸Ñı":10974,"Ġwarning":10975,"Ġparticipate":10976,"ĠbotÃ³n":10977,"Ġlleva":10978,"Ġmotivation":10979,"Ð¸ÑĩÐµÑģÐºÐ¸Ñħ":10980,"Ġturning":10981,"Ġappears":10982,"çĶ¨æĪ·":10983,"ĠIntelig":10984,"ĠMonitor":10985,"ÐµÑģÑĤÐ¸":10986,"ugging":10987,"Ġselecting":10988,"Ġelected":10989,"Ġmixed":10990,"Ġsustainability":10991,"Ġdesarrollado":10992,"Ġdesarrolladores":10993,"Ġmais":10994,"Ġecuaciones":10995,"Ġdrawing":10996,"Ġlinked":10997,"ĠRemove":10998,"åĩº":10999,"Ġcompletamente":11000,"Ġschedul":11001,"Ġbirthday":11002,"Ġninguna":11003,"ĠCouncil":11004,"Ġasistente":11005,"Ġtarde":11006,"Ġsandwich":11007,"Ġdestruction":11008,"ytechn":11009,"ĠAvoid":11010,"âĢįâĻĢï¸ı":11011,"Ġtutoriales":11012,"ĠÐ³Ð¾Ð´Ð°":11013,"Ġrenovable":11014,"ĠMontana":11015,"Ġconoce":11016,"ĠLastly":11017,"Ð»ÐµÐ¼ÐµÐ½ÑĤ":11018,"Frame":11019,"Ġfertiliz":11020,"Ġtemplate":11021,"ĠProcessing":11022,"Ġthousands":11023,"ÐµÐºÐ¾ÑĤÐ¾ÑĢÑĭÐµ":11024,"Ġmagazine":11025,"ĠTaiwan":11026,"fanView":11027,"ahrschein":11028,"400":11029,"Get":11030,"bes":11031,"click":11032,"nite":11033,"necess":11034,"qrt":11035,"rich":11036,"ses":11037,"tw":11038,"test":11039,"top":11040,"viv":11041,"west":11042,"ÙĤ":11043,"éģ":11044,"Ġtier":11045,"Ġtales":11046,"Ġsarc":11047,"Ġdil":11048,"ĠdÃ³nde":11049,"Ġpull":11050,"anal":11051,"Ġlle":11052,"Ġlux":11053,"Ġmand":11054,"Ġmigr":11055,"unya":11056,"ionado":11057,"left":11058,"Ġnations":11059,"aming":11060,"ĠAD":11061,"Ġvs":11062,"Ġvend":11063,"ĠWolf":11064,"ĠCut":11065,"ĠSS":11066,"ĠSzko":11067,"Ġride":11068,"Ġrama":11069,"Ġcomando":11070,"iform":11071,"ĠPros":11072,"Ġparece":11073,"Ġondas":11074,"avÃŃa":11075,"ĠDutch":11076,"ĠMult":11077,"ĠMundial":11078,"ĠLuc":11079,"ĠLey":11080,"Ġcanal":11081,"ĠGar":11082,"ĠFar":11083,"ĠRol":11084,"ighth":11085,"Ð»Ð°":11086,"ipto":11087,"Ġimpossible":11088,"ichuan":11089,"Ġappe":11090,"Ġadel":11091,"Ġportr":11092,"Ġgrass":11093,"Ġconson":11094,"Ġ400":11095,"ĠÐ²Ð¾":11096,"ĠÐ²Ð·":11097,"Ġcoher":11098,"Ġentities":11099,"Ġrol":11100,"Ð²Ð¾Ð»":11101,"Ġrelaj":11102,"aturing":11103,"Ġlists":11104,"ĠiT":11105,"Ġzw":11106,"Ġhowever":11107,"Ġserving":11108,"Ġautent":11109,"Ġrequieren":11110,"rency":11111,"clipse":11112,"ĠArrange":11113,"Ġpowered":11114,"Ġconsideration":11115,"Ġprofound":11116,"Ġpasado":11117,"Ġoperation":11118,"ĠÑįÐ»ÐµÐ¼ÐµÐ½ÑĤ":11119,"Ġgeneralmente":11120,"ĠÐ¾Ð±ÑĥÑĩ":11121,"Ġidentifying":11122,"Ġrecordar":11123,"ĠÐµÑī":11124,"Ġdocumentos":11125,"Ġcardio":11126,"Ġlowest":11127,"Ġvirtuales":11128,"å¤©":11129,"ackson":11130,"Ġniveles":11131,"Ġfarmer":11132,"Ġtechnological":11133,"Ġclosest":11134,"Ġtrozos":11135,"Ġcontacto":11136,"Ġinstruments":11137,"Ġvacc":11138,"Ġvacation":11139,"ĠÐ¿Ð¾Ð´Ð´ÐµÑĢÐ¶":11140,"ĠcomenzÃ³":11141,"Ġimmigr":11142,"Ġidiom":11143,"Ġcolumns":11144,"Ġdiese":11145,"ĠtÃ©rmino":11146,"Ġemphasizes":11147,"Ġfrequency":11148,"onald":11149,"Ġwatching":11150,"Ġstruggling":11151,"ĠenseÃ±ar":11152,"ĠIngredientes":11153,"ĠBattle":11154,"Ġterritor":11155,"ĠÐ±ÑĥÐ´ÐµÑĤ":11156,"æĢ§":11157,"allel":11158,"upervised":11159,"ĠMahayana":11160,"Ġmuseum":11161,"Ġmargin":11162,"Ġcontrovers":11163,"Ġexcelente":11164,"Ġprueba":11165,"æŀľ":11166,"Ġcursos":11167,"Ġexecute":11168,"ĠNapoleon":11169,"Ġcognitive":11170,"ĠDestiny":11171,"Ġgrafeno":11172,"ĠUtilize":11173,"Ġscreens":11174,"ĠÃªtre":11175,"ĠfÃ³rmula":11176,"Ġforecast":11177,"ĠSzkoÅĤa":11178,"CO":11179,"Dr":11180,"EN":11181,"On":11182,"Rec":11183,"SV":11184,"UI":11185,"WS":11186,"Wh":11187,"bing":11188,"bits":11189,"cciones":11190,"ded":11191,"drop":11192,"ez":11193,"find":11194,"gt":11195,"gitlab":11196,"nas":11197,"pod":11198,"ran":11199,"ronic":11200,"æº":11201,"ç¡":11202,"èĬ":11203,"Ġtrop":11204,"Ġcras":11205,"Ġpud":11206,"itr":11207,"itarian":11208,"Ġfif":11209,"Ġbord":11210,"Ġinequ":11211,"unte":11212,"adero":11213,"quÃ©":11214,"imming":11215,"Ġunc":11216,"amen":11217,"Ġgem":11218,"Ġreun":11219,"Ġenl":11220,"ĠTower":11221,"Ã³w":11222,"ĠCicl":11223,"Ġrivers":11224,"Ð¸ÑĦ":11225,"otes":11226,"ĠEt":11227,"ĠPut":11228,"ĠPod":11229,"ĠPep":11230,"Ð½Ð¸":11231,"umna":11232,"Ġbeer":11233,"Ġbeans":11234,"Ġstability":11235,"ĠDif":11236,"izard":11237,"ĠLambda":11238,"ĠGaut":11239,"ĠGDP":11240,"apas":11241,"iller":11242,"Ð»Ðµ":11243,"ÑĥÑĪ":11244,"ÑĥÐ»ÑĮÑĤ":11245,"ĠInn":11246,"Ġplt":11247,"Ġjard":11248,"Ġjson":11249,"undos":11250,"Ġadequ":11251,"Ġnouns":11252,"Ġprecip":11253,"ongol":11254,"Ġobten":11255,"Ġrode":11256,"ĠVen":11257,"Ġmodule":11258,"azu":11259,"Ġindo":11260,"Ġlisted":11261,"web":11262,"ertes":11263,"Ġprogrammed":11264,"Ġappoint":11265,"Ġvale":11266,"Ġservers":11267,"Ġcoron":11268,"Ġtupl":11269,"ĠEsp":11270,"ĠProgr":11271,"ĠReplace":11272,"Ġadvoc":11273,"Ġsubat":11274,"Ġdepart":11275,"ĠÑĩÐµÑĢ":11276,"Ġplays":11277,"Ġarrived":11278,"Ġ184":11279,"ÐµÑģÐ¿":11280,"çļĦç":11281,"ĠÑįÐº":11282,"Ġdirecta":11283,"Ġdirectory":11284,"Ġescape":11285,"Ġoriginally":11286,"ĠintegraciÃ³n":11287,"ĠbiolÃ³g":11288,"ÑĦÐ¾ÑĢÐ¼":11289,"ltima":11290,"ĠÃºltima":11291,"Ġfourth":11292,"ĠediciÃ³n":11293,"Ġreferred":11294,"ĠOutline":11295,"ĠQuest":11296,"Ġgluc":11297,"ĠÑĤÐ°ÐºÐ¸Ðµ":11298,"Ġcomposition":11299,"åħ¶":11300,"Å¼s":11301,"Ġalternatives":11302,"Ġdarle":11303,"åĪĨ":11304,"Ġfilms":11305,"ÑĥÑİÑī":11306,"acionales":11307,"Ġprofessionals":11308,"ĠMinister":11309,"åŃĲ":11310,"Ġhijo":11311,"Ġprecisa":11312,"Ġdescubrimientos":11313,"Ġlosses":11314,"Arr":11315,"Ġfloat":11316,"Ġhonest":11317,"Ġradiation":11318,"Ġterrestre":11319,"ĠÐ¿Ð¾Ð¼Ð¾Ñī":11320,"Ġrelatividad":11321,"Ġrelatively":11322,"Ġregardless":11323,"Ġkilogram":11324,"ĠEdison":11325,"________________":11326,"Ġheavily":11327,"ĠgrÃ¡fica":11328,"Ġcotton":11329,"ĠubicaciÃ³n":11330,"Ġcompartir":11331,"Ġremoved":11332,"Ġcrypt":11333,"Ġannual":11334,"Ġpronunci":11335,"Ġconservation":11336,"Ġ!=":11337,"Ġexposure":11338,"ĠOlymp":11339,"Ġrapidly":11340,"amiliar":11341,"Ġopposite":11342,"ĠsueÃ±o":11343,"Ġvinagre":11344,"Ġscalability":11345,"ĠToday":11346,"ĠÃ³rbita":11347,"Ġacademic":11348,"ĠQuantum":11349,"çĻ½":11350,"ĠPhotoshop":11351,"ĠAsegÃºrate":11352,"Ġbiodiversity":11353,"Ġsecuencia":11354,"ĠExercise":11355,"Ġhundred":11356,"Ġfraud":11357,"Ġphenomenon":11358,"çĦ¶":11359,"ĠiTunes":11360,"';":11361,"81":11362,"Is":11363,"TV":11364,"dimensional":11365,"gather":11366,"run":11367,"vor":11368,"vector":11369,"å»":11370,"æ¨":11371,"é£":11372,"éĻ":11373,"ĠÄ":11374,"Ġpil":11375,"orestation":11376,"anes":11377,"Ġlemon":11378,"Ġlingu":11379,"Ġmarr":11380,"isch":11381,"edrez":11382,"Ġinicio":11383,"unge":11384,"rots":11385,"rows":11386,"Ġhtml":11387,"Ġnine":11388,"amar":11389,"Ġregression":11390,"Ġlake":11391,"Ġconver":11392,"ĠWH":11393,"ĠCann":11394,"ĠSop":11395,"Ġforg":11396,"Ġpromin":11397,"aby":11398,"ablish":11399,"ÃŃna":11400,"ĠPed":11401,"Ð½Ð¾Ð¼Ñĥ":11402,"umer":11403,"std":11404,"Ġyoga":11405,"Ġstack":11406,"ĠDark":11407,"ĠMaj":11408,"ĠMaking":11409,"ĠMostrar":11410,"ĠMockingbird":11411,"ĠHen":11412,"ĠHall":11413,"Ġtrist":11414,"aine":11415,"ĠRel":11416,"ĠRAM":11417,"Ð»Ð°Ð´":11418,"Ġchamp":11419,"Ġmeals":11420,"Ġmeets":11421,"ÑıÐ¼":11422,"Ġseria":11423,"Ġsport":11424,"sequ":11425,"Ġatoms":11426,"Ġprevenir":11427,"Ġsentimientos":11428,"ongle":11429,"Ġformar":11430,"Ġformation":11431,"ĠVenez":11432,"ĠfrÃŃo":11433,"Ġprovider":11434,"ĠKail":11435,"ĠChurch":11436,"ĠÐ¾Ñĩ":11437,"Ġzero":11438,"Ġanywhere":11439,"Ġcompleting":11440,"ĠtodavÃŃa":11441,"Ġinsert":11442,"Ġreduces":11443,"Ġpartner":11444,"Ġminced":11445,"Ġrequis":11446,"going":11447,"ĠProf":11448,"Ġhealthier":11449,"ocked":11450,"Ġ2001":11451,"Ġadvers":11452,"Ġcamping":11453,"Ġsubmit":11454,"Ġchecks":11455,"Ġmush":11456,"Ġprofunda":11457,"Ġlleno":11458,"Ġsummarize":11459,"Ġdesigns":11460,"Ġprimeros":11461,"Ġpassing":11462,"Ġrefres":11463,"Ġfoundation":11464,"Ġocup":11465,"Ð°Ð·ÑĭÐ²":11466,"Ġescuchar":11467,"ĠlÃŃm":11468,"Ġcosm":11469,"ĠÐ°Ð»Ð³Ð¾ÑĢÐ¸ÑĤÐ¼":11470,"Ġdestroy":11471,"Ġmentor":11472,"Ġsimilares":11473,"Ġengineers":11474,"Ġtengan":11475,"Ġoutputs":11476,"Ġvisuals":11477,"Ġstructured":11478,"Ġoldest":11479,"++++":11480,"Ġprepared":11481,"color":11482,"Ġcortar":11483,"ĠÐ¿ÑĢÐ¾ÑĨ":11484,"Ġrecomendaciones":11485,"ĠconclusiÃ³n":11486,"ceptr":11487,"ĠÑĨÐµÐ»":11488,"ĠJuliet":11489,"Ġharina":11490,"Ġprinciple":11491,"Ġholds":11492,"ĠmÃ¡quina":11493,"Ġdollar":11494,"Ġpreviously":11495,"ĠcientÃŃfico":11496,"Ġincorporate":11497,"Ġrhyme":11498,"Ġpassionate":11499,"Ġincredibly":11500,"å¹¶":11501,"Ġslices":11502,"ĠÐ±Ð¾Ð»ÑĮÑĪ":11503,"ä¼ļ":11504,"Ġgeometric":11505,"Ġsugerencias":11506,"Ġlucha":11507,"Ġgrocery":11508,"ĠCourt":11509,"ĠÐ¾ÑĤÐ½Ð¾ÑĪ":11510,"ĠconvirtiÃ³":11511,"Ġanalogy":11512,"Ġminerals":11513,"Ġrequerir":11514,"Europa":11515,"Ġapologize":11516,"Ġcrucial":11517,"ĠTunisia":11518,"ĠGautama":11519,"');":11520,"26":11521,"`.":11522,"bine":11523,"hot":11524,"jud":11525,"lib":11526,"length":11527,"mas":11528,"mus":11529,"si":11530,"size":11531,"xico":11532,"Ġton":11533,"Ġtant":11534,"Ġtick":11535,"Ġtorn":11536,"ĠtensiÃ³n":11537,"Ġcert":11538,"ĠmÃ³n":11539,"isen":11540,"Ġfot":11541,"Ġdeals":11542,"Ġez":11543,"Ġinic":11544,"Ġtower":11545,"Ġoffic":11546,"ĠhÃ©roe":11547,"quer":11548,"ĠAwards":11549,"Ġisn":11550,"igma":11551,"ĠCro":11552,"ĠCould":11553,"Ġalqu":11554,"ĠPas":11555,"Ġexcept":11556,"ĠMel":11557,"ĠLand":11558,"ĠHey":11559,"ĠGl":11560,"ĠFel":11561,"ĠRick":11562,"ĠRights":11563,"Ġprest":11564,"Ġsouth":11565,"ĠNode":11566,"Ġlever":11567,"Ġperten":11568,"Ġjue":11569,"ÑıÑī":11570,"Ġloves":11571,"Ġacqu":11572,"asters":11573,"ĠÐ¿Ð¾Ðº":11574,"Ġamar":11575,"soup":11576,"Ġinterc":11577,"Ġrecorr":11578,"Ġcooper":11579,"Ġrough":11580,"Ġfeaturing":11581,"azar":11582,"Ġupcoming":11583,"Ġpositions":11584,"Ġdecimal":11585,"Ġnumpy":11586,"Ġ65":11587,"ĠStand":11588,"ÑİÑī":11589,"Ġphones":11590,"Ġservicio":11591,"ĠÐ¼Ð¾Ð·":11592,"ĠðŁª":11593,"Ġcorner":11594,"Ġcomplejo":11595,"Ġplane":11596,"Ġdebt":11597,"Ġ2002":11598,"Ġdepartment":11599,"Ġclassified":11600,"ĠÐ·Ð°Ð¿":11601,"Ġdistingu":11602,"Ġendless":11603,"Ġsites":11604,"Ġattitude":11605,"Ġpredecir":11606,"Ġdeviation":11607,"ĠPlant":11608,"Ġtradicional":11609,"ĠbiologÃŃa":11610,"åıĳ":11611,"Ġresearchers":11612,"Ġsabor":11613,"Ġproteins":11614,"Ġactualmente":11615,"ĠOrange":11616,"Ġprobabilidad":11617,"Ġsensors":11618,"lecciÃ³n":11619,"Ġanswers":11620,"++)":11621,"Ġbreakfast":11622,"Ġenjoyable":11623,"Ġtransporte":11624,"Ġnuestros":11625,"Ġsuggested":11626,"ĠPreheat":11627,"Ġsuccessfully":11628,"Ġviews":11629,"Ġpackages":11630,"Ġsays":11631,"Ġllega":11632,"ĠopiniÃ³n":11633,"ĠDoes":11634,"ĠDeclar":11635,"Ġaspecto":11636,"ĠIrfanView":11637,"å®ĥ":11638,"Ġentrenado":11639,"Ġdiscussing":11640,"Ġbaja":11641,"ĠErde":11642,"Ġperspectiva":11643,"Ġ1980":11644,"Ġpadre":11645,"Ġseems":11646,"Ġneurons":11647,"rella":11648,"Ġrelacionados":11649,"Ġgalaxia":11650,"ĠJoe":11651,"ÑģÐ»ÐµÐ´":11652,"olesc":11653,"Ġrelaxation":11654,"Ġajustar":11655,"====":11656,"Ġubic":11657,"ĠVisual":11658,"Ġtranslation":11659,"ĠNobel":11660,"ĠUtiliza":11661,"Ġmindfulness":11662,"ĠRomeo":11663,"Ġfoster":11664,"ĠImagine":11665,"Ġaffordable":11666,"atisfied":11667,"Ġsocieties":11668,"âķĲâķĲ":11669,"ĠprÃ³xim":11670,"ĠWarszawie":11671,"åķĨ":11672,"Ġllengua":11673,"Ġimmediately":11674,"ĠRoyal":11675,"Ãºtbol":11676,"Ġadelante":11677,"-|":11678,"34":11679,"87":11680,"Element":11681,"IA":11682,"IV":11683,"Lab":11684,"Or":11685,"Open":11686,"Per":11687,"](":11688,"base":11689,"blo":11690,"cc":11691,"iable":11692,"iance":11693,"jidad":11694,"long":11695,"mal":11696,"mica":11697,"oj":11698,"yp":11699,"inci":11700,"Ġcic":11701,"Ġcord":11702,"Ġcierto":11703,"ĠcÃŃr":11704,"Ġsizes":11705,"Ġsplit":11706,"orithm":11707,"Ġlid":11708,"Ġliv":11709,"Ġlies":11710,"Ġluna":11711,"Ġmate":11712,"ĠmaÃ±":11713,"Ġanc":11714,"Ġbag":11715,"Ġbast":11716,"Ġtold":11717,"Ġnit":11718,"Ġgap":11719,"Ġrech":11720,"Ġreales":11721,"ĠTuring":11722,"ĠAus":11723,"Ġviel":11724,"Ġvidas":11725,"Ġforced":11726,"emble":11727,"uccess":11728,"Ġrit":11729,"Ġcomedy":11730,"tress":11731,"ĠEff":11732,"ĠProm":11733,"isted":11734,"Ġonda":11735,"Ġexit":11736,"Ã©ticos":11737,"ĠMuch":11738,"ĠBa":11739,"ĠBene":11740,"ĠHand":11741,"ientemente":11742,"Ð»ÐµÐ½":11743,"ieza":11744,"active":11745,"ĠOR":11746,"Ġteen":11747,"Ġteeth":11748,"Ġadquir":11749,"uales":11750,"ĠThink":11751,"ĠÐ¿Ð¾Ð¿":11752,"Ġempty":11753,"Ġinteress":11754,"Ġentend":11755,"ĠÑģÑĥÑīÐµÑģÑĤÐ²":11756,"Ġcolle":11757,"Ġcolumna":11758,"ĠEntonces":11759,"ĠÐ½Ð°Ð²":11760,"ĠYa":11761,"Ġinviting":11762,"weight":11763,"ĠAdvent":11764,"Ġagree":11765,"ĠDesc":11766,"Ġ64":11767,"ĠAlf":11768,"ĠStay":11769,"ĠÐ¼ÐµÑģÑĤ":11770,"ĠÐ¼ÐµÐ¶":11771,"dev":11772,"ĠExample":11773,"Ġprocessed":11774,"Ġtransactions":11775,"ĠAssoci":11776,"Ġdram":11777,"Ġtherefore":11778,"Ġ[]":11779,"ÑĨÐµÐ½":11780,"ciona":11781,"Ġ};":11782,"Ġafirm":11783,"Ġprofit":11784,"ĠÃľ":11785,"Ġllena":11786,"Ġeffectiveness":11787,"Ġarrive":11788,"Ġendangered":11789,"Ã¼n":11790,"Ġingles":11791,"Ã¤hr":11792,"Ġoperate":11793,"Ġmasc":11794,"Ġindividuales":11795,"Ġgreatly":11796,"Ġsupported":11797,"Ġinfluir":11798,"Ġencarg":11799,"ÑĸÐ²":11800,"Ġversiones":11801,"Ġpractical":11802,"())":11803,"atorio":11804,"screen":11805,"ĠÐ¾Ð±ÑĬ":11806,"Ġcourses":11807,"Ġoptimizing":11808,"Ġdetermination":11809,"Ġkinds":11810,"Ġcircular":11811,"ĠWithout":11812,"Ġprobar":11813,"Ġplanta":11814,"ĠfÃŃsico":11815,"Ġcocinar":11816,"Ġduplic":11817,"Ġindependence":11818,"Ġintroducing":11819,"ĠteorÃŃas":11820,"Ġpaint":11821,"Ġreports":11822,"Ġsecurely":11823,"åĬ¡":11824,"Ġcorta":11825,"ĠÐĿÐµ":11826,"Ġcategor":11827,"ĠmatemÃ¡ticos":11828,"Ġediting":11829,"Ġadventures":11830,"Ġcarreras":11831,"Ġentradas":11832,"Ġespera":11833,"Ġrevolutionized":11834,"ä¾Ľ":11835,"ĠquiÃ©n":11836,"Ġneuronal":11837,"Ġcreatividad":11838,"ĠObject":11839,"Ġcarta":11840,"Ġajedrez":11841,"ĠDefin":11842,"ĠÐ²ÑģÐµ":11843,"Ġpromoting":11844,"Ġfiesta":11845,"Thank":11846,"ĠtelevisiÃ³n":11847,"Ġalgoritmo":11848,"ĠAlexander":11849,"ĠÐ¾Ð½Ð¸":11850,"Ġbrujita":11851,"ĠÐ¿Ð¾Ð½Ð¸Ð¼":11852,"burg":11853,"Ġpicture":11854,"ĠChristianity":11855,"Ġmammal":11856,"ĠPuede":11857,"ĠFilm":11858,"ĠmÃ¡ximo":11859,"ĠCatalunya":11860,"ĠFoundation":11861,"ĠRearrange":11862,"Ġunemployment":11863,"ĠInteligencia":11864,"ĠKailh":11865,"ĠÐ¼Ð¾Ð·Ð³":11866,"800":11867,"Ass":11868,"Id":11869,"RA":11870,"cat":11871,"dida":11872,"mm":11873,"nis":11874,"pend":11875,"pack":11876,"purpose":11877,"sal":11878,"sum":11879,"wi":11880,"Ł¥":11881,"Ġahor":11882,"Ġsel":11883,"Ġsister":11884,"anja":11885,"reib":11886,"Ġlent":11887,"Ġluc":11888,"ĠmÃŃ":11889,"Ġojos":11890,"Ġwages":11891,"osomes":11892,"Ġbio":11893,"acent":11894,"ERE":11895,"Ġunnecess":11896,"Ġgit":11897,"ĠTurn":11898,"ĠAbs":11899,"Ã³cr":11900,"Ã³so":11901,"iguel":11902,"Ġvio":11903,"ÐµÑī":11904,"ĠCort":11905,"Ġrum":11906,"Ġrust":11907,"umes":11908,"umul":11909,"Ġthorough":11910,"agar":11911,"Ġexces":11912,"ÑĢÐ¾Ð¼":11913,"Ġstim":11914,"Ġstocks":11915,"avors":11916,"izable":11917,"ĠMass":11918,"ĠHong":11919,"Ġestat":11920,"Ġestan":11921,"Ġestilos":11922,"ĠNar":11923,"Ġpure":11924,"Ġmanos":11925,"eph":11926,"ĠÐ¿Ð¾ÑĢ":11927,"raid":11928,"ĠÐ¸ÑģÐº":11929,"ĠItaly":11930,"unta":11931,"Ġentity":11932,"ĠEntre":11933,"ĠÐ½Ð¾Ð²":11934,"ĠÐ½ÐµÑģÐº":11935,"Ġactor":11936,"Ġupper":11937,"Ġelephant":11938,"Ġintended":11939,"Ġlistas":11940,"ĠEstoy":11941,"ĠEstablish":11942,"Ġfought":11943,"ĠðŁķ":11944,"Ġpresenta":11945,"Ġdipl":11946,"Ġaccident":11947,"Ġworldwide":11948,"ĠProblem":11949,"Ġproductive":11950,"Ġavec":11951,"ĠRef":11952,"Ġcurso":11953,"Ġflag":11954,"Ġsupplies":11955,"commerce":11956,"ĠfilÃ³so":11957,"Ġassets":11958,"Ġtermin":11959,"Ġprotests":11960,"Ġ2018":11961,"Ġengaged":11962,"appy":11963,"Ġcommunic":11964,"Ġends":11965,"Ġsitios":11966,"Ġensures":11967,"Ð°ÑĤÐ¸":11968,"oraemon":11969,"Ġprinting":11970,"Ġsuperar":11971,"Ã¡ticas":11972,"ĠBeat":11973,"ĠBefore":11974,"ĠdefiniciÃ³n":11975,"ĠApples":11976,"Ġtomates":11977,"Ġnegativo":11978,"Ġcareful":11979,"ĠShop":11980,"ĠÑıÐº":11981,"Ġachieving":11982,"Ġrobotics":11983,"ĠResp":11984,"Ġhorror":11985,"Ġsensitive":11986,"Ġdetection":11987,"Ġstoring":11988,"ÑĳÐ½":11989,"Ġpermitir":11990,"ĠAuto":11991,"Ġexplicit":11992,"ĠNeural":11993,"Ġturns":11994,"Ġviaj":11995,"ĠÑĦÐ¾ÑĢÐ¼":11996,"Ġtargeted":11997,"Ġcaptiv":11998,"ĠÐŁÑĢ":11999,"Ġcategory":12000,"Ġfalling":12001,"Ġgravity":12002,"ĠdeberÃŃas":12003,"Ġaprov":12004,"ĠÑįÑĤÐ¾Ð¼":12005,"Ġframeworks":12006,"Ġ1970":12007,"ĠcientÃŃfica":12008,"Ġhoja":12009,"Ð°ÑİÑĤÑģÑı":12010,"Ġdecreased":12011,"ĠkilÃ³m":12012,"ĠBrook":12013,"Ġreplacing":12014,"Ġmechanism":12015,"ĠJapanese":12016,"Ġsaved":12017,"Ġagrega":12018,"åĩĨ":12019,"Ġcorresponding":12020,"Ġciertos":12021,"Ġdensity":12022,"æĿ¥":12023,"Ġdisrupt":12024,"ĠPrimero":12025,"Ġpictures":12026,"ĠGitLab":12027,"Ġrobust":12028,"Ġextremely":12029,"ĠBayesian":12030,"Ġgranted":12031,"ĠFortnite":12032,"Ġscheme":12033,"Ġwonderful":12034,"Ġmortg":12035,"Ġsangre":12036,"ĠAlemania":12037,"Ġpunctuation":12038,"ĠdetrÃ¡s":12039,"ĠperÃŃodo":12040,"Ġabordar":12041,"Ġdisadvantages":12042,"ĠSquare":12043,"Ġlluvia":12044,"ĠLittle":12045,"ÐµÑĢÐ°ÑĤÑĥÑĢ":12046,"å»º":12047,"\"]":12048,"%,":12049,"Do":12050,"Er":12051,"LT":12052,"We":12053,"bage":12054,"otros":12055,"sa":12056,"table":12057,"zu":12058,"zilla":12059,"Ġcere":12060,"Ġcero":12061,"Ġpimiento":12062,"orar":12063,"Ġlunch":12064,"asant":12065,"item":12066,"ĠfÃºtbol":12067,"ician":12068,"Ġante":12069,"Ġba":12070,"Ġinp":12071,"Ġhaga":12072,"quilla":12073,"Ġnice":12074,"Ġnodes":12075,"uture":12076,"Ġconm":12077,"ĠCD":12078,"ĠClick":12079,"irv":12080,"ĠSit":12081,"ĠSoy":12082,"ĠSky":12083,"Ġproport":12084,"Ġprocrast":12085,"Ġcoment":12086,"ÃŃdo":12087,"Ã¡c":12088,"Ġexo":12089,"thur":12090,"Ã©ticas":12091,"ĠDepend":12092,"ĠDirect":12093,"ĠDoraemon":12094,"izadas":12095,"ĠMen":12096,"ĠMiss":12097,"ĠBon":12098,"ĠLion":12099,"option":12100,"Ġcompost":12101,"Ġ($":12102,"Ð»Ð¸Ñı":12103,"ĠresoluciÃ³n":12104,"Ġkit":12105,"Ġjap":12106,"ĠOl":12107,"Ġadolesc":12108,"ienes":12109,"Ġspr":12110,"Ġspelling":12111,"Ġnoch":12112,"assion":12113,"ÑĩÐ¸ÑģÐ»":12114,"Ġamen":12115,"loat":12116,"ĠÐ²ÐºÐ»ÑİÑĩ":12117,"ikely":12118,"Ð²ÐµÑĢ":12119,"Ġevid":12120,"ĠVI":12121,"ĠVector":12122,"engo":12123,"Ġinvas":12124,"Ġinvention":12125,"Ð¼ÐµÑĤ":12126,"uya":12127,"Ġverw":12128,"ĠCrear":12129,"Ġcomplejidad":12130,"resent":12131,"Ġboot":12132,"Ġpresente":12133,"ĠpartÃŃcula":12134,"Ġdieta":12135,"Ġminim":12136,"ĠCongress":12137,"Ġpotencial":12138,"Ġdriven":12139,"ĠArr":12140,"ĠArab":12141,"cription":12142,"Ġactiva":12143,"ross":12144,"ĠprotecciÃ³n":12145,"ĠÐ·Ð½":12146,"Ġconfig":12147,"ĠÑĥÐ´":12148,"vertir":12149,"uzz":12150,"Ġpersonality":12151,"amentos":12152,"Ġkeyboard":12153,"Ġintegers":12154,"Ġmismos":12155,"ĠJohnson":12156,"Ġtomorrow":12157,"âĢĿ,":12158,"Ġcalculated":12159,"Ð¾ÑģÑĤÐ¸":12160,"Ð¾ÑģÑĤÐ°Ð²":12161,"Ġexpressed":12162,"Ġreaches":12163,"ĠproteÃŃna":12164,"Ġpanels":12165,"Ġdiversas":12166,"Ġllamar":12167,"å¤§":12168,"Ġprofessor":12169,"ÑĳÐ¼":12170,"ĠInstall":12171,"è¯ķ":12172,"Ġargumentos":12173,"åĬĽ":12174,"ĠStrateg":12175,"Ġofrecen":12176,"ĠÐ¿Ð¾Ñĩ":12177,"åĲİ":12178,"Ġappearance":12179,"Ġgravedad":12180,"Ġmusicales":12181,"ĠÑħÐ¾ÑĤ":12182,"Ġintereses":12183,"Ġfailed":12184,"Ġvoting":12185,"ĠJapÃ³n":12186,"Ġstopped":12187,"ĠSecurity":12188,"è®¡":12189,"ĠautomatizaciÃ³n":12190,"ĠÐ¿Ð¾Ð¼Ð¾Ð³":12191,"Ġreplaced":12192,"ÐµÑĪÑĮ":12193,"ĠPractica":12194,"Ġrepetitions":12195,"éĹ´":12196,"Ġstirring":12197,"Ġattempts":12198,"Ġenfoc":12199,"Ġsurrounded":12200,"Ġlabeled":12201,"Ġsynonyms":12202,"Ġabrir":12203,"Ð¸ÑĢÐ¾Ð²Ð°Ð½Ð¸Ñı":12204,"ĠBuilding":12205,"Ġcinta":12206,"Value":12207,"ĠcÃ¡lculo":12208,"ĠDepartment":12209,"Ġmanzana":12210,"âĸĳâĸĳ":12211,"Ġencryption":12212,"Ġtitles":12213,"ĠÐ¼ÐµÐ½Ñı":12214,"ĠtÃŃtulos":12215,"ĠClean":12216,"ĠVeget":12217,"ĠmÃ¶g":12218,"ĠDiscuss":12219,"ĠWyÅ¼s":12220,"Ġamistad":12221,"Ġbasketball":12222,"Ġenfermedades":12223,"ĠDigital":12224,"ĠFuegoazul":12225,"æ¨¡":12226,"().":12227,"Be":12228,"GO":12229,"IM":12230,"Max":12231,"That":12232,"di":12233,"ford":12234,"lado":12235,"mb":12236,"wort":12237,"ç²":12238,"è´":12239,"èµ":12240,"Ġdul":12241,"Ġpoc":12242,"Ġpygame":12243,"Ġlens":12244,"Ġlados":12245,"ĠmÃŃn":12246,"icans":12247,"Ġanom":12248,"Ġwider":12249,"osing":12250,"Ġeager":12251,"Ġbol":12252,"Ġbere":12253,"Ġbake":12254,"usk":12255,"Ġnur":12256,"elcome":12257,"etime":12258,"Ġench":12259,"Ġenorm":12260,"ĠTreat":12261,"ĠCa":12262,"Ġrall":12263,"Ġcomic":12264,"ifts":12265,"ĠEth":12266,"Ġexhib":12267,"Ġusan":12268,"Ġstake":12269,"aven":12270,"avirus":12271,"ĠMongo":12272,"ĠBal":12273,"ĠBased":12274,"ĠLab":12275,"ĠHor":12276,"ĠHard":12277,"Ġimplies":12278,"ĠNumber":12279,"ipedia":12280,"Ġchili":12281,"Ġmeat":12282,"Ġjava":12283,"under":12284,"Ġdelight":12285,"ĠOper":12286,"Ġcree":12287,"Ġadicionales":12288,"Ġloans":12289,"Ġcontigo":12290,"arta":12291,"prim":12292,"echo":12293,"Ġstrive":12294,"ĠÐ½ÐµÑĤ":12295,"ĠVac":12296,"Ġmoda":12297,"Ġmode":12298,"Ġproducing":12299,"ĠKhan":12300,"Ġmedir":12301,"Ġcarp":12302,"coin":12303,"egin":12304,"Ġhered":12305,"Ġinformal":12306,"Ġejec":12307,"Ġresulted":12308,"Ġspecifically":12309,"Ġsigned":12310,"Ġdebemos":12311,"Ġcri":12312,"Ġcriminal":12313,"ĠArctic":12314,"Ġsubstit":12315,"Ġcurious":12316,"Ġcheer":12317,"Ġgets":12318,"Ġmuscle":12319,"Ġleadership":12320,"ĠÐ·Ð°Ðº":12321,"Ġmenu":12322,"eben":12323,"Ġletras":12324,"Ġpais":12325,"Ð¾Ð±ÑĢÐ°Ð¶":12326,"archy":12327,"Ġowners":12328,"Ġpredic":12329,"Ð°Ð²Ð°ÑĤÑĮ":12330,"Ġprints":12331,"Ġtested":12332,"Ġswallow":12333,"Ġfocusing":12334,"Ġdigit":12335,"Ġteniendo":12336,"Ġdestino":12337,"ĠÐ³Ð»":12338,"liest":12339,"ä»Ģ":12340,"ĠImpact":12341,"Ġrepresentative":12342,"Ġterra":12343,"Ġoptimal":12344,"ĠIndepend":12345,"Ġsimilarity":12346,"Ġarguments":12347,"Ġcomparing":12348,"Ġradar":12349,"Ġactuales":12350,"Ġactualidad":12351,"rowing":12352,"Ġnosotros":12353,"ĠestÃ¡ndar":12354,"Ġcardinal":12355,"Ġcaracteriza":12356,"Ġpayments":12357,"Ġnuts":12358,"Ġalmond":12359,"ĠPhil":12360,"ichtig":12361,"Ġaquest":12362,"ĠfÃ¡ciles":12363,"Ġpeppers":12364,"åĬł":12365,"Ġsemi":12366,"Ð¸ÑĩÐµÑģÐºÐ¸Ðµ":12367,"Ġclosed":12368,"Ġlengths":12369,"Ġauthority":12370,"Ġprincipalmente":12371,"ĠAprende":12372,"ĠprÃ¡cticas":12373,"ĠCommon":12374,"ĠScott":12375,"ĠrÃ¡pidamente":12376,"Ġemerged":12377,"Ġ2021":12378,"Ġhonor":12379,"Ġacorde":12380,"Ġcovered":12381,"Ġcolumnas":12382,"Ġhosting":12383,"ĠNether":12384,"Ġtratamiento":12385,"ĠContin":12386,"Ġemociones":12387,"Ġmensajes":12388,"ĠeconÃ³mica":12389,"ĠeconÃ³mico":12390,"Ġgalaxies":12391,"control":12392,"ĠFlor":12393,"Ġcandidates":12394,"ĠÐ·Ð°Ñī":12395,"ĠSegÃºn":12396,"ĠIhnen":12397,"Ġqueries":12398,"Ġbarrier":12399,"ÑĢÐ°ÑĦ":12400,"Ġgratuito":12401,"Ġinfinitesimals":12402,"rogative":12403,"Ġhouses":12404,"ĠDemocr":12405,"åŃ¦ä¹ł":12406,"ĠIncreased":12407,"Ġdistintos":12408,"Ġboundaries":12409,"Ġnutrition":12410,"ä¿Ŀ":12411,"ĠJosÃ©":12412,"Ġvitamins":12413,"Ġmammals":12414,"Ġdemocracy":12415,"Ġmanzanas":12416,"ĠmÃ©dico":12417,"Ġconcreto":12418,"ĠraÃŃces":12419,"æĥħ":12420,"ĠMuseum":12421,"ĠaixÃ²":12422,"ĠAtlantic":12423,"ĠcÃ¡ps":12424,"Ġapertura":12425,"Ġadvancements":12426,"Ġrefriger":12427,"ĠtÃŃp":12428,"ahrscheinlichke":12429,"ĠsubatÃ³m":12430,"ĠÐ¼ÐµÐ¶Ð´Ñĥ":12431,"ĠkilÃ³metros":12432,"ĠWyÅ¼sza":12433,"OST":12434,"cope":12435,"jpg":12436,"lat":12437,"wall":12438,"ypt":12439,"âĤ¬":12440,"çº":12441,"ĠÙĬ":12442,"Ġath":12443,"Ġatra":12444,"Ġtent":12445,"ince":12446,"Ġsamples":12447,"Ġpom":12448,"ĠpÃ©r":12449,"Ġpimientos":12450,"oral":12451,"atar":12452,"anzar":12453,"Ġlush":12454,"Ġlanz":12455,"Ġmund":12456,"icol":12457,"icago":12458,"Ġanagram":12459,"Ġwy":12460,"Ġbags":12461,"ede":12462,"adium":12463,"url":12464,"img":12465,"immer":12466,"utter":12467,"Ġgat":12468,"Ġgone":12469,"Ġgiant":12470,"Ġquake":12471,"Ã³lic":12472,"ĠWahrscheinlichke":12473,"ĠCi":12474,"ĠCost":12475,"ĠCold":12476,"empor":12477,"Ġray":12478,"ifting":12479,"Ġalign":12480,"ÃŃg":12481,"Ã¡culos":12482,"agues":12483,"Ġparec":12484,"Ġparks":12485,"stream":12486,"Ġexcess":12487,"izations":12488,"char":12489,"ĠBi":12490,"ĠBake":12491,"ĠGather":12492,"ĠFox":12493,"ĠNam":12494,"Ġimprim":12495,"Ġkernel":12496,"Ġworry":12497,"Ġmehr":12498,"Ġabbre":12499,"Ġgrid":12500,"Ġgramos":12501,"Ġ55":12502,"Ġfolk":12503,"Ġpersever":12504,"ikipedia":12505,"ologies":12506,"Ġacts":12507,"enge":12508,"engers":12509,"ĠYo":12510,"Ġfunny":12511,"ĠÐ¾Ð³ÑĢ":12512,"ĠÐ¾ÑĢÐ³":12513,"ĠEstud":12514,"Ġapplying":12515,"Ġexperiments":12516,"Ġ<!":12517,"Ġmayores":12518,"ĠÐ¼Ð½Ð¾Ð³Ð¾":12519,"Ġcorners":12520,"Ġespin":12521,"ĠÐ¿ÑĢÐ¾Ð±":12522,"Ġgrown":12523,"Ġplano":12524,"Ġmining":12525,"Ġdefault":12526,"ĠAsk":12527,"Ġsegundos":12528,"ĠConclusion":12529,"Ġvisiting":12530,"Ġvisibility":12531,"ĠArthur":12532,"Ġayudado":12533,"Ġadvances":12534,"Ġhumanidad":12535,"Ð¾Ð´Ñĥ":12536,"Ġconsiderations":12537,"Ġcausa":12538,"comm":12539,"ĠFrancia":12540,"Ġpasaj":12541,"ĠSea":12542,"Ġreturned":12543,"Ġtiempos":12544,"Ġculturas":12545,"ĠPorque":12546,"Ã¤r":12547,"Ġstatistics":12548,"Ġownership":12549,"Ġrevis":12550,"Ġmultip":12551,"Ġexpon":12552,"Ġsignificativo":12553,"Ġwriter":12554,"Ġexperiencias":12555,"atching":12556,"ĠÐ¾Ð±Ð»Ð°ÑģÑĤ":12557,"Ġconsume":12558,"Ġfacil":12559,"Enter":12560,"Ġrecorded":12561,"Ġreferences":12562,"Ġpoema":12563,"Ð°Ð´Ð¸":12564,"Ġ/>":12565,"Ġdetectar":12566,"driving":12567,"Ã¡ctea":12568,"Ġpurchased":12569,"Ġlayout":12570,"Ð°Ð¿ÑĢÐ¸Ð¼ÐµÑĢ":12571,"Ġ1969":12572,"ĠPolit":12573,"ĠNorthern":12574,"Ġraise":12575,"Ġaccordingly":12576,"Ġclarity":12577,"Ġtalent":12578,"Ġespacial":12579,"Expl":12580,"ĠCategory":12581,"ĠBrown":12582,"Ġgalaxy":12583,"III":12584,"Ġinspiration":12585,"Ġbreathing":12586,"ĠSupport":12587,"ĠconfiguraciÃ³n":12588,"Ġthreats":12589,"Ġseeking":12590,"Ġchatbots":12591,"Ġpronto":12592,"Ġfixed":12593,"Ġestrategias":12594,"Ġsolicitud":12595,"App":12596,"ĠGalax":12597,"ĠÐ¶Ð¸Ð·Ð½ÑĮ":12598,"Ġepis":12599,"Ġcriticism":12600,"ĠgrÃ¡fico":12601,"Ġachievable":12602,"Ġnaveg":12603,"Ġmujer":12604,"Ġbassin":12605,"ĠtambÃ©":12606,"æıĲä¾Ľ":12607,"Ġescritorio":12608,"ĠPacific":12609,"Ġpizza":12610,"ĠBolivia":12611,"Ġtunneling":12612,"çĹħ":12613,"ĠPositive":12614,"Servlet":12615,"ĠconexiÃ³n":12616,"Ġenthus":12617,"Ġkilometers":12618,"ĠÑģÐµÐ±Ñı":12619,"Ġpronoun":12620,"Ġinequality":12621,"ĠmaÃ±ana":12622,"36":12623,"98":12624,":</":12625,"Act":12626,"EX":12627,"Py":12628,"Pued":12629,"SI":12630,"Sort":12631,"bu":12632,"bin":12633,"hog":12634,"iÃ±":12635,"jek":12636,"kes":12637,"lier":12638,"mi":12639,"rest":12640,"rific":12641,"sm":12642,"uaciÃ³n":12643,"viles":12644,"xa":12645,"Âº":12646,"Ġort":12647,"erland":12648,"Ġsoph":12649,"Ġdarte":12650,"Ġlider":12651,"Ġmouth":12652,"iterr":12653,"Ġeen":12654,"Ġinches":12655,"Ġhu":12656,"Ġham":12657,"Ġhizo":12658,"acions":12659,"aden":12660,"ĠÐ¯":12661,"Ġuniform":12662,"elly":12663,"ecause":12664,"Ġreject":12665,"Ġvivos":12666,"ĠCrist":12667,"ĠCosta":12668,"ĠScr":12669,"Ġros":12670,"Ġrose":12671,"Ġcomment":12672,"ifies":12673,"Ġalthough":12674,"ceans":12675,"oting":12676,"ĠPel":12677,"ĠPack":12678,"Ð½Ð¸Ñħ":12679,"Ġthread":12680,"Ġbeat":12681,"Ġespero":12682,"Ġaster":12683,"Ġaside":12684,"Ġexposed":12685,"ĠDen":12686,"ĠMens":12687,"ĠMeth":12688,"chl":12689,"andos":12690,"Ġorbit":12691,"ĠGames":12692,"ĠFest":12693,"apple":12694,"Ġcompra":12695,"Ġcompuestos":12696,"Ġsout":12697,"ĠNum":12698,"ÑĥÑī":12699,"inegar":12700,"Ġchuck":12701,"Ġchosen":12702,"Ġplast":12703,"Ġplante":12704,"ĠJew":12705,"ĠJackson":12706,"area":12707,"Ġinterrup":12708,"Ġ42":12709,"Ġfold":12710,"Ġpersist":12711,"ĠÑģÐ¾Ð²":12712,"ĠÑģÐ¾Ð»Ð½":12713,"ĠÑģÐ´ÐµÐ»":12714,"Ġcoloca":12715,"Ġevoluc":12716,"Ġfrustr":12717,"ĠKr":12718,"ĠKenn":12719,"ĠChicago":12720,"iende":12721,"Ð¼ÐµÑĢ":12722,"fico":12723,"ĠÐ¾Ðº":12724,"ĠAnimal":12725,"isme":12726,"Ġcomme":12727,"uyen":12728,"neas":12729,"ĠÐ¼Ð°ÑĤ":12730,"ĠÐ´Ð¾Ð»":12731,"Ġtransistor":12732,"Ġdied":12733,"Ġminimize":12734,"Ġdeforestation":12735,"iedad":12736,"Ġartif":12737,"ockey":12738,"Ġmonta":12739,"Ġcomputational":12740,"Ġactively":12741,"Ġprofile":12742,"ĠÐ½Ð°ÑĪ":12743,"Ġdemostr":12744,"ĠanimaciÃ³n":12745,"apped":12746,"Ġending":12747,"Ġrefle":12748,"ĠPrime":12749,"Ã¤h":12750,"Ġconocidas":12751,"Ġoperativo":12752,"autiful":12753,"2021":12754,"Ġgrew":12755,"Ġtrabajos":12756,"Ġdevuelve":12757,"Ġuniversities":12758,"ãģĦ":12759,"ĠBron":12760,"ĠBridge":12761,"ĠÐ³Ð¾Ð²Ð¾ÑĢ":12762,"ĠestrÃ©s":12763,"ĠÐ¾Ð±Ñī":12764,"Ġbiological":12765,"ĠXX":12766,"Ġinfluencia":12767,"Ġedges":12768,"Ġrecibe":12769,"Ġsevere":12770,"Ã§Ãµes":12771,"lecular":12772,"Ġportion":12773,"chem":12774,"ĠcomposiciÃ³n":12775,"Ġsorting":12776,"Ġdesea":12777,"Ġquantity":12778,"ä¸ĢäºĽ":12779,"Ġturned":12780,"\"></":12781,"('/":12782,"ä¹ĭ":12783,"Ġinstalled":12784,"ĠIron":12785,"ĠIrland":12786,"ÃŃmbol":12787,"Ġappeared":12788,"urrican":12789,"Ġenvironmentally":12790,"Ġobserved":12791,"Ġvectorial":12792,"Ġnearly":12793,"Ġdisplayed":12794,"ĠAbility":12795,"Ġhabitats":12796,"Â».":12797,"ĠÑįÑĤÐ¾Ð³Ð¾":12798,"ĠÙģ":12799,"ĠObama":12800,"Ġoccurred":12801,"Ġprosper":12802,"ĠLatin":12803,"Ġpicnic":12804,"Ġassigned":12805,"ĠimpresiÃ³n":12806,"CTY":12807,"Ġastronaut":12808,"Ġrectangle":12809,"ĠmÃ³vil":12810,"Ġganar":12811,"ĠAutomation":12812,"Ġcommitment":12813,"ĠÐ¼Ð½Ðµ":12814,"ĠEgypt":12815,"Ġcintur":12816,"Ġhechos":12817,"Ġcompatible":12818,"ĠImproved":12819,"ĠExperience":12820,"ĠSenate":12821,"Ġweapon":12822,"ĠÐ²ÑĢÐµÐ¼Ñı":12823,"Ġconsecuencias":12824,"Ġesfuerzo":12825,"ĠvÃŃdeo":12826,"ĠCatholic":12827,"ĠNASA":12828,"Ġmetabol":12829,"ĠmÃ³dulo":12830,"èī²":12831,"ĠÑįÐ¼Ð¾":12832,"Ġillegal":12833,"((":12834,"CP":12835,"FT":12836,"Re":12837,"aud":12838,"backs":12839,"fish":12840,"field":12841,"gs":12842,"gal":12843,"hm":12844,"ku":12845,"koh":12846,"math":12847,"ster":12848,"wind":12849,"xido":12850,"Ðľ":12851,"Ðŀ":12852,"åĢ":12853,"ç«":12854,"erry":12855,"esa":12856,"Ġdios":12857,"Ġdazu":12858,"Ġlente":12859,"Ġmerg":12860,"aso":12861,"Ġfine":12862,"Ġfiction":12863,"Ġwit":12864,"Ġblow":12865,"Ġburn":12866,"Ġbike":12867,"unning":12868,"Ġhide":12869,"Ġhall":12870,"eliness":12871,"Ġgle":12872,"eterm":12873,"Ġreempl":12874,"Ġrewrite":12875,"ĠAk":12876,"Ġveter":12877,"ĠWould":12878,"ĠWild":12879,"ĠCy":12880,"ĠCamb":12881,"iry":12882,"ĠSÃŃ":12883,"Ġproud":12884,"ucch":12885,"Ġrent":12886,"ĠrÃ©":12887,"otion":12888,"Ð½Ñĸ":12889,"uma":12890,"Ġexterior":12891,"Ġusted":12892,"Ġstable":12893,"ĠMario":12894,"ĠMiguel":12895,"ĠLou":12896,"ocation":12897,"ocols":12898,"Ġestamos":12899,"ĠRos":12900,"ĠNik":12901,"Ġpuesto":12902,"allas":12903,"Ġadj":12904,"ĠJun":12905,"ĠJim":12906,"Ġdoub":12907,"Ġconserve":12908,"ĠÐ¸Ñģ":12909,"Ġimportar":12910,"Ġstrip":12911,"Ġformulario":12912,"Ġevolved":12913,"Ġproven":12914,"oves":12915,"Ġinvoluc":12916,"ÐµÑĤÐ¾Ð´":12917,"ĠAntes":12918,"ĠEstable":12919,"ĠDesert":12920,"ĠinformÃ¡tica":12921,"Ġexperts":12922,"riting":12923,"Ġzone":12924,"Ġgenerales":12925,"Ġrealmente":12926,"ĠExisten":12927,"Ġutilizing":12928,"Ġsecund":12929,"Ġinspire":12930,"Ġminute":12931,"Ġbueno":12932,"ĠPropose":12933,"posiciÃ³n":12934,"Ġsale":12935,"Ð°ÐºÐµÑĤ":12936,"Ġcrack":12937,"ä¸İ":12938,"Ġcurva":12939,"Ġfluct":12940,"Ġdepender":12941,"Ġmovimientos":12942,"Ġafraid":12943,"exp":12944,"Ġllista":12945,"Ġdirecciones":12946,"Ġbasada":12947,"Ġcorreo":12948,"Ã¼t":12949,"ÑģÑĤÐ²Ð¾":12950,"Ġbreed":12951,"Ã¨me":12952,"Ġinvestors":12953,"ontal":12954,"Ġelectrical":12955,"Ġevento":12956,"Ġrepresents":12957,"Ġgenome":12958,"ãģ§":12959,"ĠBring":12960,"ĠÐ¾Ð±ÑĢÐ°Ð·":12961,"Input":12962,"Ġmajestic":12963,"type":12964,"Ġkindness":12965,"Ġhappens":12966,"Ġcomparar":12967,"ÃŃsticos":12968,"Ġpelota":12969,"Ġestudios":12970,"ĠproporciÃ³n":12971,"ucket":12972,"Ġsynd":12973,"ĠManager":12974,"Ġcopies":12975,"Ġflower":12976,"ĠReduce":12977,"ĠÑģÐ»Ð¾Ð²":12978,"Ġaffects":12979,"Ġnovela":12980,"ĠIrish":12981,"ĠPoland":12982,"Ġmagnitud":12983,"ĠmatemÃ¡tico":12984,"Ġconvertir":12985,"è¿Ľ":12986,"Ġcollective":12987,"Ġempath":12988,"Ġcarried":12989,"Ġtells":12990,"ĠhabitaciÃ³n":12991,"Ġrevolutionize":12992,"Ġfloor":12993,"ĠconcentraciÃ³n":12994,"Ġexactly":12995,"Ġtabla":12996,"ĠvocÃª":12997,"ĠelÃ©ctricos":12998,"ĠðŁĳ¨":12999,"Ġmanipulate":13000,"ĠModern":13001,"Ġemphasis":13002,"Ġbackgrounds":13003,"ĠeconÃ³micas":13004,"ĠinterpretaciÃ³n":13005,"Ġinspiring":13006,"Ġreflects":13007,"ĠiPods":13008,"Ġguidelines":13009,"Ġstruggle":13010,"ANs":13011,"Ġwelcome":13012,"Ġadults":13013,"Ġstorms":13014,"Ġsliced":13015,"ĠMountain":13016,"Ġizquier":13017,"ĠTerra":13018,"Ġmasked":13019,"Ġcucharad":13020,"Ġabsolute":13021,"ĠMoreover":13022,"Ġsoda":13023,"Ġencrypt":13024,"ĠDivide":13025,"Ġsostenible":13026,"Ġcadena":13027,"Ġftp":13028,"connected":13029,"Ġbuscando":13030,"Ġdepths":13031,"ĠEconom":13032,"ĠteÃ³rica":13033,"ĠComplete":13034,"ĠJesÃºs":13035,"Ġrevealed":13036,"Ð¾ÑĢÐ¾ÑĪ":13037,"ĠSymphony":13038,"Ġelectronics":13039,"Ġpintura":13040,"Ġshelter":13041,"Ġvisto":13042,"Ġinconven":13043,"ĠÐ¿Ð¾Ð·Ð²Ð¾Ð»":13044,"ĠBitcoin":13045,"sentence":13046,"Ġinquiries":13047,"Ġopponent":13048,"ĠSociety":13049,"éĹ®é¢ĺ":13050,"ĠEcuador":13051,"ĠProgramm":13052,"ĠWHERE":13053,"Ġrequisitos":13054,"Ġunnecessary":13055,"ä»Ģä¹Ī":13056,"Ġabbrevi":13057,"));":13058,"82":13059,"Dame":13060,"FA":13061,"Gener":13062,"Le":13063,"Neces":13064,"She":13065,"ae":13066,"bus":13067,"cre":13068,"cloud":13069,"eah":13070,"iados":13071,"Åĵ":13072,"Ðł":13073,"ØŃ":13074,"ç©":13075,"inet":13076,"Ġpink":13077,"Ġpago":13078,"orous":13079,"Ġmitosis":13080,"Ġfans":13081,"Ġwizard":13082,"Ġbucle":13083,"Ġhub":13084,"ady":13085,"idents":13086,"ERT":13087,"Ġnick":13088,"ĠÐĽ":13089,"ilation":13090,"elos":13091,"Ġgor":13092,"Ġguer":13093,"Ġquiz":13094,"ulary":13095,"ĠAst":13096,"Ġvivo":13097,"Ġvapor":13098,"ĠCla":13099,"ĠSM":13100,"ĠSl":13101,"ĠSong":13102,"ĠSony":13103,"ĠSuddenly":13104,"Ġrare":13105,"abilidades":13106,"Ġ1000":13107,"oda":13108,"Ġthin":13109,"Ġstated":13110,"Ġstead":13111,"avo":13112,"ĠLÃ¡ctea":13113,"ibl":13114,"aks":13115,"akers":13116,"ĠFund":13117,"Ġsuit":13118,"Ġsuerte":13119,"Ġsof":13120,"Ġpuertas":13121,"roma":13122,"Ġship":13123,"Ġspring":13124,"ardo":13125,"ieras":13126,"Ġwearing":13127,"rael":13128,"Ġamerican":13129,"ensor":13130,"bern":13131,"ĠVo":13132,"Ġindem":13133,"Ġunders":13134,"ĠAnton":13135,"ĠDesarrol":13136,"Ġzana":13137,"Ġzucch":13138,"Ġcustomize":13139,"Ġ<=":13140,"Ġcalab":13141,"ĠðŁĽ":13142,"Ġpoden":13143,"ĠsecciÃ³n":13144,"Ġmodelado":13145,"ĠÑī":13146,"ativamente":13147,"ĠÑĤÐ¾Ð»ÑĮÐºÐ¾":13148,"Ġsegura":13149,"Ġsalad":13150,"ĠReview":13151,"ĠÑĢÐµÐº":13152,"Ġtexts":13153,"Ġpublish":13154,"ĠÑĩÐ¸ÑģÐ»":13155,"Ġnecesites":13156,"owned":13157,"Ġcausar":13158,"Ġremark":13159,"Ġmejora":13160,"lectual":13161,"Ġorganize":13162,"ĠÐ½Ð°Ñģ":13163,"Ġwellbeing":13164,"ĠÐ·Ð´":13165,"zea":13166,"ĠPrior":13167,"Ġconocidos":13168,"Ð¾Ð±ÑħÐ¾Ð´":13169,"Ġjusticia":13170,"Ġfutur":13171,"Ġartificiales":13172,"Ġbrother":13173,"Ġdestin":13174,"process":13175,"Ġdescans":13176,"ĠImper":13177,"Ġciut":13178,"Ġgustos":13179,"ĠEmploy":13180,"Ġproteg":13181,"Ġdocumentation":13182,"Ġquieras":13183,"Ġfuertes":13184,"ĠLeon":13185,"Ġsensor":13186,"ĠimplementaciÃ³n":13187,"ĠÑģÑĤÑĢ":13188,"Ġdinosaur":13189,"ĠReport":13190,"Ġ1991":13191,"Ġmolt":13192,"åĪ¶":13193,"Ġdiscovering":13194,"ĠInsert":13195,"Ġmotivate":13196,"åĲĮ":13197,"ĠØ£":13198,"Ġconvertido":13199,"ĠGuix":13200,"ĠÐ´ÑĢÑĥÐ³Ð¸Ñħ":13201,"Ġtablespoon":13202,"Ġunsupervised":13203,"Ġurg":13204,"Ġafecta":13205,"Ġvotre":13206,"Ð¾ÑĩÑĮ":13207,"Array":13208,"Ġmomentos":13209,"ĠÐ¿ÐµÑĢÐ²":13210,"ĠPartido":13211,"Ġvuelve":13212,"ĠðŁĳ©":13213,"Ġemphasize":13214,"Ġfootprint":13215,"content":13216,"Ġmatching":13217,"Ġclothes":13218,"Ġhypot":13219,"Ġinfluencers":13220,"Ġloading":13221,"å·¥":13222,"Ġcircuito":13223,"Ġintensity":13224,"Ġdicho":13225,"Ġexecutive":13226,"Ġmadre":13227,"Ġimperative":13228,"æķ°åŃ¦":13229,"Ġagreed":13230,"Ġdivisible":13231,"Ġimprovement":13232,"Ġobserve":13233,"signup":13234,"Ġmueve":13235,"ĠEastern":13236,"Ġmemorable":13237,"Ġrutina":13238,"åģļ":13239,"Ġsymbols":13240,"Ġeliminar":13241,"Ġglucose":13242,"ĠCannab":13243,"ĠHenry":13244,"Ġexoplan":13245,"ĠMongoDB":13246,"Ð¾Ð±ÑħÐ¾Ð´Ð¸Ð¼":13247,"({":13248,")?":13249,"Amer":13250,"Go":13251,"LO":13252,"NLP":13253,"cor":13254,"fre":13255,"figur":13256,"factor":13257,"hua":13258,"jan":13259,"lined":13260,"pi":13261,"predict":13262,"spr":13263,"tur":13264,"åī":13265,"æ¸":13266,"æģ":13267,"Ġtang":13268,"ĠsÃŃmbol":13269,"Ġdust":13270,"Ġpis":13271,"Ġtheories":13272,"Ġlun":13273,"Ġmale":13274,"iser":13275,"Ġfotos":13276,"icz":13277,"Ġwise":13278,"Ġdei":13279,"Ġdeja":13280,"Ġinac":13281,"Ġinhab":13282,"Ġhorn":13283,"uses":13284,"using":13285,"ushing":13286,"adura":13287,"idal":13288,"ĠÐ¥":13289,"ĠÐ§":13290,"ilant":13291,"Ġgol":13292,"Ġrepair":13293,"Ġlaughter":13294,"ĠTre":13295,"ested":13296,"Ġisol":13297,"ĠCov":13298,"ÑĤÐ°":13299,"teriores":13300,"Ġparallel":13301,"Ġexemple":13302,"plied":13303,"ĠDol":13304,"ĠDies":13305,"ĠDream":13306,"ĠBot":13307,"ĠBird":13308,"ĠLarge":13309,"opt":13310,"Ġwhisk":13311,"ĠGer":13312,"ĠGir":13313,"ĠFres":13314,"ĠFeder":13315,"Ġlose":13316,"Ġsob":13317,"Ġsoja":13318,"ĠNegative":13319,"Ġdescon":13320,"ÑĥÐ³":13321,"Ġplate":13322,"Ġkilled":13323,"Ġperros":13324,"ideo":13325,"Ġabarc":13326,"uchen":13327,"Ġarena":13328,"Ġ37":13329,"Ġspam":13330,"Ġspoken":13331,"aches":13332,"ierce":13333,"Ġgrace":13334,"Ġstrict":13335,"Ġnotation":13336,"ĠVÃŃa":13337,"Ġrelative":13338,"ĠUnd":13339,"ĠUnity":13340,"ĠKey":13341,"Ġindirect":13342,"ubes":13343,"ubre":13344,"Ð¼Ñĥ":13345,"Ġnumeros":13346,"Ġsont":13347,"Ġutilidad":13348,"Ġpoet":13349,"Ġsimile":13350,"Ġboiling":13351,"Ġscatter":13352,"Ġmatches":13353,"close":13354,"Ġsobreviv":13355,"Ġdurch":13356,"Ġentrev":13357,"afe":13358,"ixel":13359,"cuento":13360,"ÑĨÑĸ":13361,"Ġsupposed":13362,"tructured":13363,"Ġprofundo":13364,"ĠorganizaciÃ³n":13365,"ÐµÐ¼Ñĥ":13366,"Ġmolecular":13367,"Ġexists":13368,"appro":13369,"appuc":13370,"ĠForce":13371,"Ġrecomienda":13372,"Ġdependent":13373,"Ġpopularity":13374,"Ġpregn":13375,"Ġprintf":13376,"ĠdiseÃ±ar":13377,"ĠPlat":13378,"Ġdirected":13379,"Ġescena":13380,"Ġshowed":13381,"Ġsignificance":13382,"Ġpapas":13383,"Ġresponsabilidad":13384,"ãģĻ":13385,"Ġcomunic":13386,"Ġrepresented":13387,"Ġinteractuar":13388,"ĠÐ²ÑĭÑĩÐ¸ÑģÐ»":13389,"Ġdeterminado":13390,"Ġvegetales":13391,"Ġwarmth":13392,"Ġpollut":13393,"Ġexperimentar":13394,"Ġprecision":13395,"Ġclearly":13396,"isticated":13397,"Ġestaban":13398,"Ġspecialized":13399,"Ġwinning":13400,"Ġalternativa":13401,"ĠReduc":13402,"åĪ«":13403,"Ġtraveling":13404,"Ġspeeds":13405,"ĠMediterr":13406,"å®ļ":13407,"Ġlibrer":13408,"åĲĪ":13409,"Ġfeatured":13410,"Ġlimitations":13411,"Ġescrito":13412,"ĠarmonÃŃa":13413,"Ġsatisfied":13414,"Ġstrengths":13415,"Ġeficientes":13416,"Ġhabitantes":13417,"Ġimmense":13418,"ĠCommission":13419,"Ġmedicina":13420,"Ġjudges":13421,"vascular":13422,"Ġfruta":13423,"æĸĩ":13424,"Ġcastle":13425,"ĠPotential":13426,"unktion":13427,"Ġbibliotecas":13428,"Ġderecho":13429,"ÐµÐ½Ð¸ÐµÐ¼":13430,"Ġsimpler":13431,"Ġsurrounding":13432,"Ġholiday":13433,"Ġsummarizing":13434,"Ġbrujas":13435,"Ġrewarding":13436,"Ġastro":13437,"ĠHyper":13438,"Ġratio":13439,"Ġcampamento":13440,"Ġcrops":13441,"Ġresidents":13442,"Ġnadie":13443,"å½ĵ":13444,"Ġmujeres":13445,"Ġtaught":13446,"Ġdificultades":13447,"Ġpuzzle":13448,"ĠAnalysis":13449,"éħĴ":13450,"Ġbeneficios":13451,"ĠÐ·Ð°Ð´Ð°Ñĩ":13452,"Ġguitarra":13453,"ĠFollow":13454,"ĠInformation":13455,"Gracias":13456,"ĠFreddy":13457,"Ġdistractions":13458,"Ġplugins":13459,"Ġoverwhelmed":13460,"AmÃ©rica":13461,"Ġchromosomes":13462,"Ġpuntero":13463,"Ġstreets":13464,"ĠMÃ©xico":13465,"ÐµÑģÐ¿ÐµÑĩ":13466,"ĠProfess":13467,"ĠBenefits":13468,"ĠÐ½ÐµÑģÐºÐ¾Ð»ÑĮÐºÐ¾":13469,"ĠpÃ©rdida":13470,"ĠÐ¾ÑĢÐ³Ð°Ð½":13471,"Ġespinacas":13472,"46":13473,"FS":13474,"New":13475,"So":13476,"hmen":13477,"pat":13478,"rado":13479,"sec":13480,"uerta":13481,"zco":13482,"zione":13483,"Ã¬":13484,"æį":13485,"ç®":13486,"èª":13487,"é¦":13488,"Ġatrib":13489,"Ġtape":13490,"into":13491,"Ġcaffe":13492,"Ġciencias":13493,"Ġswe":13494,"Ġselling":13495,"Ġsqrt":13496,"Ġdit":13497,"Ġdut":13498,"Ġdib":13499,"Ġpue":13500,"Ġpump":13501,"Ġmaze":13502,"isation":13503,"Ġfich":13504,"icians":13505,"Ġdealing":13506,"ading":13507,"Ġnacional":13508,"Ġnorte":13509,"utely":13510,"Ġger":13511,"Ġgig":13512,"Ġgene":13513,"Ġgonna":13514,"ether":13515,"Ġconform":13516,"Ġconvent":13517,"ulin":13518,"ĠAix":13519,"Ã³digo":13520,"ĠCats":13521,"ĠSD":13522,"ĠSent":13523,"ÑĤÐ¸":13524,"uciones":13525,"Ġranging":13526,"Ġruido":13527,"Ð°ÑĨÐ¸Ñı":13528,"tras":13529,"cious":13530,"Ġesas":13531,"start":13532,"Ġonions":13533,"Ġusername":13534,"ÑĢÑı":13535,"Ġstone":13536,"ching":13537,"ĠBet":13538,"ĠFederal":13539,"Ġsuff":13540,"Ġsuited":13541,"Ġestimate":13542,"ĠRa":13543,"ĠRow":13544,"ĠRSF":13545,"Ġcompelling":13546,"Ð»ÐµÑĤ":13547,"ĠNon":13548,"ĠNature":13549,"ĠNacional":13550,"ÑĥÐº":13551,"ÑĥÐ°Ð»ÑĮ":13552,"Ġchess":13553,"ĠserÃŃan":13554,"Ġadverb":13555,"Ġloan":13556,"ĠJup":13557,"ĠJorge":13558,"ĠÐ²Ð»Ð°ÑģÑĤ":13559,"Ġrecuper":13560,"Ġroots":13561,"Ġpersones":13562,"Ġcuar":13563,"ĠVery":13564,"ÐµÐ½Ð½Ð¾Ð¹":13565,"Ġfraction":13566,"overs":13567,"ubles":13568,"Ġdecades":13569,"ÑħÑĢÐ°Ð½":13570,"ĠLaura":13571,"ĠAllow":13572,"Ġexpertos":13573,"ishment":13574,"culas":13575,"pool":13576,"ĠÐ¼Ð¸ÑĢ":13577,"ĠðŁĻ":13578,"Ġmetrics":13579,"Ġtuv":13580,"Ġblues":13581,"Ã¡nico":13582,"phones":13583,"othing":13584,"Ġartwork":13585,"ÐµÐ»ÐµÐ¹":13586,"Ġpopulations":13587,"Ġdried":13588,"Ġdrinks":13589,"Ġ[\"":13590,"Ġdurant":13591,"ĠduraciÃ³n":13592,"Ġsheets":13593,"Ġcurrency":13594,"Ġstudio":13595,"Ġcharity":13596,"Ġfins":13597,"Ġnecesitan":13598,"Ġmover":13599,"Ġmarked":13600,"Ġprotot":13601,"ĠSelec":13602,"Ġcash":13603,"Ġsiglas":13604,"Ġpersonalidad":13605,"ĠÃ©t":13606,"athers":13607,"Ð¾ÑĤÐ¾Ð²":13608,"ÐµÐºÑģ":13609,"box":13610,"boards":13611,"Ãłn":13612,"Ġembark":13613,"Ġcorrecto":13614,"Ġcolorful":13615,"ertainly":13616,"ĠÐ¾Ð±ÐµÑģÐ¿ÐµÑĩ":13617,"ä»ĸ":13618,"ĠGrad":13619,"Ġrepresenting":13620,"Ġexcit":13621,"ÑĦÑĦ":13622,"Ġbienestar":13623,"ÃŃstico":13624,"ĠRecom":13625,"Ġjugu":13626,"Ð°Ð¶Ðµ":13627,"Ġirreg":13628,"Ġpanel":13629,"Ġprivacidad":13630,"Ġverdes":13631,"Ġearliest":13632,"Ġportable":13633,"Ġrepublic":13634,"ĠÑĤÐ°ÐºÐ¸Ñħ":13635,"ĠAlgorithm":13636,"Ġ1999":13637,"Ġnewspaper":13638,"ĠTransfer":13639,"Ġmelody":13640,"ĠIran":13641,"Ġclosely":13642,"Ġbringing":13643,"ĠPolish":13644,"ĠlibrerÃŃa":13645,"error":13646,"ĠvehÃŃculo":13647,"Ġfigura":13648,"Ġfigures":13649,"Ġmagnet":13650,"Ġsubjective":13651,"ĠSalt":13652,"Ġgasol":13653,"Ġarms":13654,"Ġdiscussion":13655,"ĠBarb":13656,"strong":13657,"Ġvalidation":13658,"Ġinstitution":13659,"Ġdemanda":13660,"ĠdifÃŃciles":13661,"elescope":13662,"Ġdudas":13663,"Ġchemicals":13664,"ĠÐ¿Ð¾Ð¼Ð¾ÑĩÑĮ":13665,"Ġconvierte":13666,"ĠPrince":13667,"ĠseÃ±ales":13668,"ĠfilosÃ³":13669,"Ġfrequently":13670,"Ġpiezas":13671,"Ġfatigue":13672,"èĢĮ":13673,"Ġenfoca":13674,"Ġseleccionar":13675,"Ġmacro":13676,"ĠEgipto":13677,"ĠcondiciÃ³n":13678,"Ġutilize":13679,"Ġfiber":13680,"ĠElectric":13681,"Ġdisruption":13682,"ĠÐ»ÑİÐ´Ð¸":13683,"writing":13684,"Ġtemporal":13685,"ĠmÃ¡gica":13686,"ĠestadÃŃstica":13687,"Ġaventura":13688,"Ġtercera":13689,"ogrÃ¡fica":13690,"ĠÐ´Ð°Ð½Ð½ÑĭÑħ":13691,"Ġvulnerable":13692,"ĠaceleraciÃ³n":13693,"Ġcouple":13694,"defined":13695,"Ġcuidado":13696,"Ġpaquete":13697,"Ġagujeros":13698,"ĠÐ·Ð°Ð²Ð¸Ñģ":13699,"Ġcircumst":13700,"Ã¼hren":13701,"Ġcotidiana":13702,"ĠacompaÃ±":13703,"Ġpobreza":13704,"Ġmentioned":13705,"Ġrabbit":13706,"ĠÐ¾Ð¿ÑĢÐµÐ´ÐµÐ»":13707,"ĠautenticaciÃ³n":13708,"ĠAssociation":13709,"Ġprocrastination":13710,"Ġstakeholders":13711,"Ġsophisticated":13712,"ĠIrlanda":13713,"ĠRSFSR":13714,"\").":13715,"41":13716,"600":13717,"BT":13718,"CD":13719,"Certainly":13720,"Par":13721,"SE":13722,"del":13723,"high":13724,"kk":13725,"mask":13726,"page":13727,"rat":13728,"speed":13729,"}{":13730,"Ðķ":13731,"ç±":13732,"è½":13733,"esy":13734,"Ġcave":13735,"Ġcout":13736,"Ġsatur":13737,"Ġdense":13738,"Ġlig":13739,"Ġlento":13740,"Ġmuff":13741,"Ġoceans":13742,"ische":13743,"itance":13744,"Ġwireless":13745,"osion":13746,"roc":13747,"Ġofic":13748,"urar":13749,"eln":13750,"Ġlaugh":13751,"Ġconci":13752,"ĠTim":13753,"ĠTiene":13754,"Ġviento":13755,"ĠWhe":13756,"ĠCir":13757,"ĠSyn":13758,"ĠIDE":13759,"Ġproof":13760,"Ġrub":13761,"Ġrival":13762,"ĠEra":13763,"ĠPay":13764,"ĠPand":13765,"ĠPost":13766,"ĠPeter":13767,"uming":13768,"Ġbeber":13769,"Ġescribe":13770,"lyn":13771,"ĠDas":13772,"izan":13773,"ĠMain":13774,"ĠLow":13775,"ĠHam":13776,"Ġwhis":13777,"ĠFact":13778,"ĠFood":13779,"Ġtrick":13780,"ĠRey":13781,"Ġcompro":13782,"Ġwasn":13783,"ipher":13784,"Ġdesper":13785,"acto":13786,"Ġchip":13787,"Ġchronic":13788,"Ġperce":13789,"Ġjak":13790,"Ġspices":13791,"ĠJeff":13792,"acher":13793,"Ġdates":13794,"Ġpreced":13795,"ieran":13796,"ierung":13797,"Ġgrain":13798,"Ġgrains":13799,"Ġemit":13800,"Ãºan":13801,"Ġ59":13802,"Ġentrar":13803,"ĠÑģÐ¾ÑģÑĤÐ¾":13804,"ariamente":13805,"Ġdataframe":13806,"ĠEnvironment":13807,"ologists":13808,"Ġcubo":13809,"ĠÐ½Ð°Ð¼":13810,"Ġinclu":13811,"ĠVent":13812,"Ġprogres":13813,"Ġintel":13814,"ĠnumÃ©r":13815,"ĠinformaciÃ³":13816,"ĠenergÃ©tica":13817,"ÐµÑĢÐ²":13818,"Ġcompleja":13819,"Ġsimult":13820,"Ð¿Ð¾Ð»":13821,"Ġsetup":13822,"Ġresulta":13823,"Ġretro":13824,"Ġtexture":13825,"Ġcamin":13826,"cule":13827,"Ġfinas":13828,"Ġleaders":13829,"lector":13830,"Ġprotocols":13831,"Ġpaste":13832,"ĠSee":13833,"Ġbelle":13834,"Ã¤ch":13835,"Ġpublication":13836,"Ġpaella":13837,"Ð¾Ð±Ñī":13838,"Quieres":13839,"Ġfeels":13840,"ĠPlut":13841,"Ġdirections":13842,"ĠApollo":13843,"Ġresponsibilities":13844,"Ġsunny":13845,"Ġnegro":13846,"Ġcalcula":13847,"Ġcalculating":13848,"Ġlegs":13849,"ĠImage":13850,"letas":13851,"Ġrecognized":13852,"ĠAttic":13853,"Ġchildhood":13854,"ĠexploraciÃ³n":13855,"Ġcontributing":13856,"Ġbarra":13857,"ĠPrepar":13858,"Ġcomposer":13859,"åħ¥":13860,"Ð¾Ð²Ð°Ð½Ð¸Ðµ":13861,"ĠfÃ¡cilmente":13862,"ĠdecidiÃ³":13863,"Ġmonthly":13864,"Ġinstallation":13865,"Ð¾Ð»ÑĮÐ·Ð¾Ð²":13866,"Ġconflicts":13867,"Ġparagraphs":13868,"Ġsnack":13869,"Ġmanageable":13870,"Ġformatting":13871,"Â»,":13872,"Ġcuerpos":13873,"Ġindicates":13874,"Ġconstructed":13875,"ÐºÑĥÑģ":13876,"olÃ³gico":13877,"ĠAustria":13878,"ĠÐ¸ÑģÐ¿Ð¾Ð»ÑĮÐ·Ð¾Ð²Ð°ÑĤÑĮ":13879,"Ġcercano":13880,"Ġtimely":13881,"ĠStudio":13882,"Ġmanipulation":13883,"ĠÑģÐ²Ð¾Ð¸":13884,"Ã³lica":13885,"ĠLatte":13886,"Ġconectar":13887,"Ġpositivo":13888,"Ġdeclarative":13889,"Ġrepetitive":13890,"Ġcolonies":13891,"Ġcolonial":13892,"Ġdynasty":13893,"Ġverdadero":13894,"ĠcomÃºnmente":13895,"ĠMathemat":13896,"ĠIhre":13897,"ĠSanta":13898,"ĠRobot":13899,"å·±":13900,"ĠEveryone":13901,"ĠPaul":13902,"ĠSirve":13903,"Ġrolling":13904,"ĠÐ»ÑİÐ´ÐµÐ¹":13905,"Ġenemigos":13906,"éĩį":13907,"Ġimposible":13908,"Ġsubstance":13909,"Ġhunting":13910,"Ġtactics":13911,"ĠWorking":13912,"ĠlÃŃquido":13913,"folio":13914,"ĠProgramming":13915,"ĠraÃŃz":13916,"ĠISP":13917,"ĠZeit":13918,"Ġretrieve":13919,"Ġhouseholds":13920,"Ġloneliness":13921,"Ġinjury":13922,"Ġindividuo":13923,"Ġinitiatives":13924,"ÑįÑĤ":13925,"ĠÑģÐ²ÑıÐ·Ð°Ð½":13926,"Ġataques":13927,"ĠÑģÐ»ÑĥÑĩÐ°":13928,"ĠCEO":13929,"ĠÐ»ÑĥÑĩÑĪÐµ":13930,"tainment":13931,"Ġreusable":13932,"ĠÐºÐ¾Ð»Ð¸Ñĩ":13933,"Ġcardiovascular":13934,"Ġfifth":13935,"ĠVenus":13936,"Ġprominent":13937,"ĠVenezuela":13938,"ceptrÃ³n":13939,"Ġdollars":13940,"Ġiniciar":13941,"Ġbastante":13942,"ĠBrooklyn":13943,"ĠejecuciÃ³n":13944,"Ġmundane":13945,"Ġartifact":13946,"CTYPE":13947,"28":13948,"31":13949,"39":13950,"68":13951,"><":13952,"Buen":13953,"Cal":13954,"Caffe":13955,"Of":13956,"RI":13957,"Sc":13958,"aire":13959,"fry":13960,"gine":13961,"link":13962,"mt":13963,"map":13964,"send":13965,"uve":13966,"what":13967,"xes":13968,"zym":13969,"ºèĥ½":13970,"Ãī":13971,"ÏĢ":13972,"åİ":13973,"æ·":13974,"çĮ":13975,"çł":13976,"è±":13977,"è¶":13978,"Ġtender":13979,"Ġtonos":13980,"onio":13981,"Ġsuddenly":13982,"Ġduro":13983,"orado":13984,"arlos":13985,"anÃ§a":13986,"Ġling":13987,"Ġog":13988,"Ġbis":13989,"Ġbiz":13990,"Ġhockey":13991,"questa":13992,"urales":13993,"Ġguest":13994,"Ð¾ÑıÑĤ":13995,"ĠAWS":13996,"Ġvivid":13997,"ĠWin":13998,"ĠWal":13999,"ĠWill":14000,"ĠCab":14001,"ĠSpe":14002,"ĠSichuan":14003,"Ð¸ÑĪ":14004,"abr":14005,"ÃŃamos":14006,"ayo":14007,"Ġseves":14008,"isters":14009,"aguas":14010,"Ġescuela":14011,"Ġparad":14012,"essage":14013,"Ġstages":14014,"ĠDal":14015,"ĠDial":14016,"izÃ³":14017,"ĠMamm":14018,"ĠLive":14019,"ĠLua":14020,"ĠHier":14021,"ĠHear":14022,"ĠGmail":14023,"ĠFro":14024,"ĠFord":14025,"Ġtrend":14026,"mento":14027,"Ġcompuesto":14028,"Ġpricing":14029,"teil":14030,"ippet":14031,"Ġlean":14032,"Ġimpuls":14033,"Ġdesire":14034,"ĠdescripciÃ³n":14035,"ichte":14036,"Ġjog":14037,"Ġshr":14038,"Ġincom":14039,"elles":14040,"Ġlasting":14041,"Ġapt":14042,"Ġadicional":14043,"ÑĭÑĩ":14044,"Ġcloves":14045,"ĠJu":14046,"ources":14047,"Ġgrade":14048,"ificaciones":14049,"ensibilidad":14050,"Ġsolved":14051,"Ġcuent":14052,"ĠcuÃ¡les":14053,"Ġevapor":14054,"ateral":14055,"ĠVader":14056,"oved":14057,"plication":14058,"ĠAdam":14059,"Ġalla":14060,"ĠallÃ¡":14061,"Ġcarn":14062,"ĠÐºÐ°Ð¶Ð´":14063,"Ġzo":14064,"ĠÐ¼Ð°ÑģÑģ":14065,"Ġverbs":14066,"Ġmetas":14067,"Ġmetod":14068,"response":14069,"ĠpodÃŃa":14070,"Ġblocks":14071,"Ġlargely":14072,"Ġrequiring":14073,"ï¼ģ":14074,"Ġexplains":14075,"Ġartistas":14076,"ĠÑĤÐµÑĢ":14077,"ĠProduc":14078,"ythm":14079,"cripting":14080,"Ġdrug":14081,"Ġtextos":14082,"Ġhumanity":14083,"iembre":14084,"Ġdepict":14085,"ĠÑĩÑĥÐ²":14086,"Ġnecesaria":14087,"Ġfiltro":14088,"Ġcentra":14089,"ĠÐ·Ð°Ð±":14090,"Ġespecies":14091,"Ġespecie":14092,"Ġderived":14093,"ĠForces":14094,"ueva":14095,"Ġimpacted":14096,"Ġcombines":14097,"Ġlearns":14098,"ĠBeautiful":14099,"Ġversat":14100,"beat":14101,"Ġtenir":14102,"Ġnegot":14103,"score":14104,"Ġmarine":14105,"Ġeinige":14106,"äº§":14107,"ĠUSSR":14108,"ĠIsa":14109,"Ġbienes":14110,"Ġseeks":14111,"ĠReserve":14112,"çĶµ":14113,"Ġmantiene":14114,"ĠdocumentaciÃ³n":14115,"Ġexplored":14116,"Ġcontributed":14117,"Ġpoderes":14118,"Ġportfolio":14119,"ĠÑģÐ²Ð¾Ð¹":14120,"Ġciudades":14121,"ĠRepresent":14122,"enny":14123,"Ġmoltes":14124,"Å¼y":14125,"ĠllegÃ³":14126,"Ġsaludables":14127,"Ġllevado":14128,"Escribe":14129,"Ġcompanions":14130,"Ġtransformada":14131,"ĠÐĿÐ¾":14132,"ĠÐĿÐ°Ð¿ÑĢÐ¸Ð¼ÐµÑĢ":14133,"Ġfundamentales":14134,"Ġcollecting":14135,"ĠHarper":14136,"ĠÐŀÐ±":14137,"Ġillnesses":14138,"Ġimmers":14139,"Ġsilver":14140,"Ġsilence":14141,"Ġhojas":14142,"æĹ¥":14143,"Ġgradually":14144,"è®¾":14145,"Ġharmony":14146,"ĠControl":14147,"ðĿĻ":14148,"Ġmechanical":14149,"Ġpositiva":14150,"Ġimpresionante":14151,"Ġdeclared":14152,"Ġdynam":14153,"Ġdetallada":14154,"Ġcelest":14155,"Ġgathered":14156,"Ġinterfaces":14157,"ĠmÃ³viles":14158,"Ġstruggles":14159,"Ġreminders":14160,"Ġcorrespondiente":14161,"Ġrhym":14162,"ĠChatbot":14163,"ĠAutomated":14164,"ĠÐ¾Ð¿ÑĭÑĤ":14165,"Ġremoving":14166,"Ġcuadrado":14167,"ĠÐ¼Ð½Ð¾Ð³":14168,"ĠdiseÃ±ado":14169,"Ġillustrate":14170,"Ġhumorous":14171,"ĠÑģÐ¾Ð±ÑģÑĤÐ²ÐµÐ½":14172,"Ġphotosynthesis":14173,"ĠÐ´Ð¾ÑģÑĤÑĥÐ¿":14174,"Ġreinforcement":14175,"ÑĥÐ»ÑıÑĢ":14176,"ĠclÃ¡sica":14177,"Ġmatriz":14178,"Ġindividuos":14179,"Ġrestrictions":14180,"Ġruedas":14181,"while":14182,"Ġmitigate":14183,"Ġdrawn":14184,"digit":14185,"ĠfenÃ³meno":14186,"Ġpenalty":14187,"åŁº":14188,"Ġeurope":14189,"ytechnic":14190,"ĠÐµÑīÑĳ":14191,"ç¡®":14192,"ĠÄĳ":14193,"ĠMajor":14194,"ĠÐ¿ÑĢÐ¾ÑĨÐµÑģÑģ":14195,"Ġciclo":14196,"ĠÐ¿ÑĢÐ¾Ð±Ð»ÐµÐ¼":14197,"ĠFestival":14198,"ĠÑģÐ´ÐµÐ»Ð°ÑĤÑĮ":14199,"ĠKennedy":14200,"Ġcucharadita":14201,"Ġpollutants":14202,"ĠMediterrane":14203,"Ġexcitement":14204,"%)":14205,"Ag":14206,"IP":14207,"Mi":14208,"SP":14209,"Web":14210,"bow":14211,"bear":14212,"bbe":14213,"float":14214,"gin":14215,"hl":14216,"lers":14217,"nal":14218,"natural":14219,"normal":14220,"post":14221,"rap":14222,"sen":14223,"section":14224,"scripts":14225,"wid":14226,"ximate":14227,"Ã´":14228,"Ð§":14229,
[...]
